/**
  ******************************************************************************
  * @file    weights/conv2d.cc
  * @author  Pierre-Emmanuel Novac <penovac@unice.fr>, LEAT, CNRS, Université Côte d'Azur, France
  * @version V2.0
  * @date    24 march 2020
  * @brief   Template generating plain C code for the implementation of Convolutional Neural Networks on MCU
  */

#include <stdint.h>

#define INPUT_CHANNELS     8
#define CONV_FILTERS       16
#define CONV_KERNEL_SIZE_Y 3
#define CONV_KERNEL_SIZE_X 3
#define CONV_GROUPS        1


const float conv2d_5_bias[CONV_FILTERS] = {0x1.fc85720000000p-7, 0x1.0e66f00000000p-4, -0x1.2b19040000000p-4, -0x1.dca61c0000000p-4, -0x1.87a1440000000p-7, -0x1.7e0ba20000000p-4, -0x1.6f46500000000p-5, 0x1.3ed8ac0000000p-9, -0x1.267ace0000000p-7, -0x1.1532fc0000000p-8, 0x1.07b1520000000p-4, -0x1.2244dc0000000p-7, -0x1.d59cb00000000p-7, 0x1.2d8e100000000p-4, -0x1.8acf7e0000000p-4, 0x1.8185d60000000p-5}
;


const float conv2d_5_kernel[CONV_FILTERS][CONV_KERNEL_SIZE_Y][CONV_KERNEL_SIZE_X][INPUT_CHANNELS / CONV_GROUPS] = {{{{0x1.254eb00000000p-3, -0x1.a84f1c0000000p-6, -0x1.024e320000000p-3, -0x1.c441c00000000p-5, -0x1.8697600000000p-3, 0x1.08b65a0000000p-6, 0x1.efd3e00000000p-5, 0x1.13434e0000000p-8}
, {0x1.3fac280000000p-3, -0x1.2fafe80000000p-3, 0x1.3391c20000000p-4, -0x1.c2efee0000000p-5, 0x1.22937a0000000p-4, 0x1.ae8db40000000p-11, 0x1.81f4740000000p-6, 0x1.f8dd3a0000000p-4}
, {0x1.4bcf1a0000000p-6, 0x1.54b9ca0000000p-4, 0x1.3e0f280000000p-6, 0x1.b9b5e80000000p-7, 0x1.b460220000000p-4, -0x1.0a58900000000p-4, -0x1.700cb40000000p-5, 0x1.1f32700000000p-3}
}
, {{0x1.2c9e5c0000000p-3, -0x1.ac79b00000000p-5, 0x1.22ec980000000p-10, 0x1.9568c20000000p-4, -0x1.33b2a40000000p-3, -0x1.b6d8360000000p-4, 0x1.516af20000000p-4, 0x1.3974940000000p-8}
, {0x1.8ac2200000000p-4, -0x1.e8fdd40000000p-5, -0x1.1f1ad80000000p-3, 0x1.3a20040000000p-4, -0x1.9ba19e0000000p-3, 0x1.92c8500000000p-6, 0x1.8f72480000000p-8, 0x1.d1b6520000000p-3}
, {-0x1.1904360000000p-5, 0x1.67215a0000000p-5, -0x1.0c3da60000000p-3, 0x1.a154800000000p-3, 0x1.dfe0b60000000p-6, 0x1.5795900000000p-4, 0x1.df978a0000000p-5, 0x1.33c3c60000000p-4}
}
, {{-0x1.2312ee0000000p-3, 0x1.678a880000000p-8, 0x1.1be33a0000000p-8, 0x1.91b6300000000p-4, -0x1.13ad840000000p-9, -0x1.3314580000000p-4, -0x1.c40a640000000p-6, 0x1.70ea800000000p-4}
, {-0x1.60df260000000p-3, 0x1.6c1a560000000p-3, 0x1.363c3e0000000p-6, 0x1.d5dcf40000000p-4, -0x1.fd0f280000000p-5, 0x1.2001fc0000000p-10, -0x1.8485b00000000p-5, -0x1.7a329e0000000p-4}
, {-0x1.d5f8ac0000000p-4, 0x1.4f433e0000000p-4, 0x1.9022880000000p-6, -0x1.b944040000000p-6, 0x1.0298760000000p-4, 0x1.4cbb3a0000000p-3, 0x1.82c9fe0000000p-5, 0x1.f7748e0000000p-5}
}
}
, {{{-0x1.c5fb7e0000000p-5, -0x1.b9a9b20000000p-5, -0x1.1905c80000000p-3, 0x1.c4f0280000000p-6, -0x1.fa92c80000000p-4, 0x1.84fbd20000000p-4, 0x1.c5548a0000000p-3, 0x1.627bf60000000p-5}
, {-0x1.0403380000000p-2, 0x1.be038c0000000p-4, -0x1.16c3080000000p-3, -0x1.a891c40000000p-6, -0x1.7369fc0000000p-4, 0x1.4905680000000p-3, 0x1.353be00000000p-3, 0x1.26c26c0000000p-6}
, {-0x1.a1251c0000000p-4, 0x1.cfd3160000000p-6, -0x1.0dff300000000p-3, -0x1.92ed160000000p-4, -0x1.4c4bb00000000p-4, 0x1.020ce40000000p-6, 0x1.314c9c0000000p-3, -0x1.4a9e8e0000000p-4}
}
, {{-0x1.8d2ce80000000p-4, 0x1.8fc52e0000000p-4, 0x1.c445de0000000p-4, -0x1.3c59220000000p-4, -0x1.184f440000000p-7, -0x1.35e9dc0000000p-6, -0x1.435a680000000p-4, -0x1.755d440000000p-3}
, {-0x1.7c6f400000000p-5, 0x1.9ba6900000000p-7, 0x1.05be7c0000000p-5, -0x1.f3e3940000000p-5, 0x1.daadb80000000p-4, -0x1.4dbe340000000p-4, -0x1.8024ac0000000p-7, -0x1.392eae0000000p-3}
, {0x1.d4a0320000000p-5, 0x1.5336080000000p-5, -0x1.fcf1e20000000p-5, 0x1.c582d60000000p-4, 0x1.840dae0000000p-5, -0x1.f42c260000000p-4, -0x1.433bae0000000p-7, 0x1.b3036e0000000p-6}
}
, {{0x1.9b63240000000p-6, 0x1.25c9b60000000p-3, -0x1.79370e0000000p-6, 0x1.362cd20000000p-5, -0x1.e3a93c0000000p-4, 0x1.10bc480000000p-3, 0x1.84e9d80000000p-3, 0x1.c8b0060000000p-4}
, {0x1.efb0dc0000000p-5, -0x1.12a4020000000p-6, -0x1.166a460000000p-5, -0x1.0ecce00000000p-4, -0x1.3960320000000p-5, -0x1.82ec520000000p-4, 0x1.1012f60000000p-8, 0x1.f872f00000000p-6}
, {-0x1.1ca2940000000p-4, -0x1.3d1c9a0000000p-4, -0x1.0726800000000p-4, 0x1.8f7b920000000p-4, 0x1.7a2c620000000p-4, -0x1.816bd20000000p-4, 0x1.09dc9e0000000p-2, 0x1.0be78e0000000p-3}
}
}
, {{{0x1.745ca20000000p-6, 0x1.ba4f1a0000000p-8, 0x1.4743660000000p-3, -0x1.43b6680000000p-5, -0x1.5d68a40000000p-7, 0x1.2a620a0000000p-3, -0x1.1ef4ba0000000p-3, 0x1.dc27940000000p-7}
, {0x1.07230c0000000p-4, -0x1.f59f340000000p-5, -0x1.6bc01c0000000p-5, -0x1.de04a20000000p-5, -0x1.29dbf20000000p-5, -0x1.0a4a180000000p-3, 0x1.7077260000000p-6, 0x1.ffcb520000000p-6}
, {-0x1.07e9860000000p-6, -0x1.7191a40000000p-5, 0x1.3dc7860000000p-7, -0x1.14f36a0000000p-5, -0x1.795bcc0000000p-5, 0x1.63a21c0000000p-4, 0x1.cc41500000000p-5, -0x1.4af4520000000p-4}
}
, {{0x1.18f50c0000000p-4, -0x1.6670ca0000000p-3, -0x1.7399aa0000000p-10, -0x1.f7616e0000000p-6, -0x1.4bfe6a0000000p-5, 0x1.2a7b2e0000000p-4, 0x1.38c58e0000000p-5, 0x1.eaa6900000000p-6}
, {0x1.ab9bf00000000p-5, -0x1.9dac300000000p-4, -0x1.8192400000000p-4, 0x1.a4d6b00000000p-4, -0x1.f5dcf80000000p-4, 0x1.07c4620000000p-3, 0x1.43e01e0000000p-3, -0x1.01f9aa0000000p-7}
, {-0x1.17a39e0000000p-3, -0x1.360c6c0000000p-5, -0x1.4edf240000000p-3, -0x1.cf86880000000p-4, -0x1.3f08040000000p-3, 0x1.10064a0000000p-5, 0x1.6ffe2e0000000p-5, -0x1.1a94880000000p-3}
}
, {{-0x1.5709940000000p-3, -0x1.8678140000000p-3, -0x1.b624f20000000p-3, -0x1.3f4a2e0000000p-9, -0x1.42a7c20000000p-4, 0x1.0122900000000p-4, 0x1.f9d66e0000000p-4, 0x1.76bda20000000p-4}
, {-0x1.468b1c0000000p-3, -0x1.8e73260000000p-5, -0x1.880e4e0000000p-3, -0x1.00943c0000000p-3, -0x1.abf0820000000p-4, 0x1.93a1b80000000p-5, 0x1.e0649e0000000p-4, -0x1.1ab88a0000000p-4}
, {-0x1.b760240000000p-5, 0x1.44cc2e0000000p-2, -0x1.e6e6100000000p-7, -0x1.29ab6c0000000p-3, -0x1.4d054e0000000p-6, -0x1.834ad00000000p-6, 0x1.cff5ce0000000p-7, -0x1.163e960000000p-3}
}
}
, {{{0x1.def6a60000000p-8, -0x1.e1529c0000000p-4, -0x1.3a8c1a0000000p-3, -0x1.aa536a0000000p-5, -0x1.00b4920000000p-4, 0x1.3be6e80000000p-4, 0x1.54a6de0000000p-3, 0x1.2c5d440000000p-4}
, {-0x1.f862240000000p-8, 0x1.e9935c0000000p-7, -0x1.99fd2c0000000p-5, 0x1.27a1b00000000p-7, -0x1.1de9f00000000p-4, -0x1.2ebebc0000000p-4, 0x1.500afe0000000p-3, 0x1.057ae20000000p-6}
, {-0x1.ac66220000000p-8, -0x1.1c1f180000000p-4, -0x1.c0b3560000000p-4, 0x1.aff96a0000000p-6, -0x1.d2fa8c0000000p-4, 0x1.b1c4600000000p-3, 0x1.fc54ae0000000p-4, 0x1.04d33c0000000p-5}
}
, {{-0x1.446fc60000000p-4, -0x1.031e7c0000000p-4, -0x1.389ffa0000000p-3, 0x1.1ac7fc0000000p-3, -0x1.66c1ba0000000p-3, 0x1.58a20c0000000p-5, 0x1.daf0280000000p-5, 0x1.75d9ae0000000p-4}
, {-0x1.9a12420000000p-4, 0x1.ca18600000000p-3, -0x1.239de40000000p-3, -0x1.21a7060000000p-8, -0x1.ba7e380000000p-4, 0x1.14c1840000000p-4, 0x1.63b7ee0000000p-3, 0x1.e7a4560000000p-4}
, {-0x1.990d1c0000000p-4, 0x1.057bfa0000000p-5, 0x1.5696da0000000p-5, 0x1.8652f20000000p-7, -0x1.29b9f00000000p-4, 0x1.22256a0000000p-4, 0x1.c878c40000000p-6, -0x1.a912a20000000p-5}
}
, {{0x1.2fd6a80000000p-4, -0x1.95fa7a0000000p-4, -0x1.132aea0000000p-3, -0x1.0c8ebc0000000p-3, 0x1.6609080000000p-6, -0x1.01ebb80000000p-3, -0x1.9ed3540000000p-5, -0x1.33b4020000000p-3}
, {-0x1.6198500000000p-7, 0x1.3c793e0000000p-4, 0x1.e804280000000p-4, -0x1.2f05100000000p-12, -0x1.61de7a0000000p-5, 0x1.a216060000000p-4, 0x1.1df8660000000p-5, -0x1.c441ca0000000p-5}
, {0x1.dd51680000000p-7, 0x1.4bce2a0000000p-3, 0x1.66bfda0000000p-6, 0x1.2225380000000p-4, -0x1.174e3a0000000p-7, -0x1.c609520000000p-4, -0x1.10f68c0000000p-5, -0x1.1c29ee0000000p-5}
}
}
, {{{-0x1.087b720000000p-5, 0x1.f64cb40000000p-12, 0x1.2887280000000p-4, 0x1.6eb6ca0000000p-3, -0x1.67cc8c0000000p-7, -0x1.8d06cc0000000p-5, 0x1.b26cc20000000p-11, -0x1.13cf4a0000000p-5}
, {-0x1.1f5f220000000p-3, -0x1.73e7800000000p-5, 0x1.bd974a0000000p-6, -0x1.2695340000000p-5, 0x1.b008920000000p-6, 0x1.0e22120000000p-4, -0x1.0368480000000p-4, 0x1.7274aa0000000p-4}
, {0x1.56cdbe0000000p-6, 0x1.b19eac0000000p-5, 0x1.1ae45a0000000p-4, 0x1.1eb8300000000p-4, 0x1.29b92e0000000p-3, -0x1.de57f40000000p-6, -0x1.02a5580000000p-5, 0x1.5e51e80000000p-4}
}
, {{0x1.0c03060000000p-9, -0x1.3cf5500000000p-4, -0x1.25fbb00000000p-3, -0x1.a1a8060000000p-6, -0x1.5f4a160000000p-3, -0x1.68b22e0000000p-5, 0x1.38651c0000000p-3, -0x1.28b7cc0000000p-5}
, {-0x1.1ad3c00000000p-3, -0x1.e471040000000p-4, -0x1.286b6a0000000p-3, 0x1.1724b40000000p-3, -0x1.24f5a60000000p-3, 0x1.34b8a80000000p-7, 0x1.3500c20000000p-5, 0x1.0f83780000000p-7}
, {-0x1.e5db740000000p-5, -0x1.2f21f20000000p-3, -0x1.0203d00000000p-4, 0x1.35facc0000000p-5, 0x1.6d29400000000p-4, 0x1.7b291c0000000p-4, -0x1.1898140000000p-4, 0x1.e084100000000p-4}
}
, {{-0x1.4abb5c0000000p-6, 0x1.bf17fe0000000p-7, 0x1.c7c3100000000p-5, -0x1.2edfe20000000p-4, -0x1.5d5c5e0000000p-4, -0x1.1984920000000p-3, 0x1.4947580000000p-4, -0x1.92cb020000000p-9}
, {0x1.a627280000000p-5, -0x1.af07160000000p-3, -0x1.5105ba0000000p-3, -0x1.a73eb00000000p-8, -0x1.1918160000000p-3, -0x1.4f1de40000000p-3, 0x1.956d7c0000000p-4, 0x1.6fe3840000000p-7}
, {-0x1.54e9d00000000p-17, -0x1.666d600000000p-4, -0x1.e9ef400000000p-3, 0x1.1c8b400000000p-4, -0x1.135a720000000p-2, 0x1.dfc5ba0000000p-4, 0x1.a61a2c0000000p-7, 0x1.1adadc0000000p-3}
}
}
, {{{-0x1.b605aa0000000p-5, 0x1.90a97e0000000p-6, 0x1.1a740e0000000p-3, -0x1.b0b1480000000p-7, 0x1.24ad6a0000000p-3, 0x1.8c9a560000000p-6, -0x1.875e160000000p-4, -0x1.d6b6f40000000p-6}
, {-0x1.a1df1c0000000p-3, 0x1.c66cc60000000p-7, 0x1.0490d60000000p-3, 0x1.a4ff640000000p-3, 0x1.3478a20000000p-4, 0x1.3f2dbe0000000p-4, 0x1.6ce7a60000000p-7, 0x1.03822c0000000p-4}
, {-0x1.f6337e0000000p-7, 0x1.7799160000000p-3, 0x1.43e0360000000p-4, 0x1.b999e40000000p-3, 0x1.389fe40000000p-4, 0x1.0d94880000000p-4, -0x1.abbd260000000p-5, 0x1.bfb9c80000000p-3}
}
, {{-0x1.f5628a0000000p-5, 0x1.50c7d40000000p-4, 0x1.fac3b00000000p-5, 0x1.1db4bc0000000p-2, 0x1.0fde840000000p-3, 0x1.8a012a0000000p-4, -0x1.dda5900000000p-4, 0x1.3b354e0000000p-4}
, {-0x1.8304e80000000p-6, 0x1.146a1a0000000p-3, -0x1.2c41de0000000p-6, 0x1.3b7b1a0000000p-4, 0x1.89ea060000000p-4, -0x1.ac36aa0000000p-4, 0x1.15f2460000000p-6, 0x1.6631680000000p-3}
, {-0x1.2966620000000p-3, 0x1.0e55ae0000000p-3, -0x1.96d9560000000p-4, 0x1.b1b5be0000000p-3, 0x1.cd535e0000000p-6, -0x1.70ff120000000p-5, -0x1.fa3a5a0000000p-8, 0x1.83552a0000000p-4}
}
, {{0x1.3bf6800000000p-4, -0x1.6348180000000p-8, -0x1.354bd00000000p-4, 0x1.52ec040000000p-4, -0x1.2d8fe40000000p-4, -0x1.c9aeb80000000p-4, 0x1.2c9aee0000000p-4, 0x1.1565440000000p-6}
, {0x1.1b83e60000000p-4, 0x1.8950a00000000p-4, 0x1.7fa4be0000000p-4, 0x1.0488120000000p-3, -0x1.4b01220000000p-4, -0x1.614e040000000p-5, -0x1.a7f1c20000000p-5, 0x1.b80ab60000000p-4}
, {0x1.11be5c0000000p-4, -0x1.a1ad860000000p-6, -0x1.e341ba0000000p-8, 0x1.4294e40000000p-3, 0x1.d847000000000p-4, 0x1.90dd220000000p-6, -0x1.863c400000000p-5, 0x1.76a7d60000000p-11}
}
}
, {{{-0x1.96b8540000000p-4, -0x1.a276500000000p-8, -0x1.2149dc0000000p-4, -0x1.8c38cc0000000p-4, -0x1.fe3a400000000p-7, -0x1.7f285a0000000p-4, 0x1.3035c60000000p-5, -0x1.03fbf20000000p-5}
, {-0x1.1926700000000p-3, -0x1.c41dde0000000p-5, 0x1.921ee80000000p-8, -0x1.33a3280000000p-5, 0x1.1eb9140000000p-6, -0x1.6dcc660000000p-4, 0x1.2857f80000000p-5, -0x1.2cb93e0000000p-6}
, {-0x1.737f9e0000000p-4, 0x1.5b83760000000p-5, -0x1.ec2dda0000000p-7, 0x1.1db9220000000p-3, 0x1.69d6720000000p-5, -0x1.aeb7540000000p-5, -0x1.2637fc0000000p-4, -0x1.315e0c0000000p-3}
}
, {{-0x1.9218960000000p-4, 0x1.78541a0000000p-5, -0x1.5fd69e0000000p-5, -0x1.966dd80000000p-6, 0x1.898eb00000000p-9, -0x1.926ca20000000p-5, 0x1.46c6ec0000000p-4, -0x1.e5c4100000000p-7}
, {-0x1.2108660000000p-2, 0x1.3326100000000p-4, 0x1.0a29620000000p-4, -0x1.463e140000000p-6, 0x1.74f4f60000000p-8, 0x1.06aed80000000p-3, -0x1.da23d60000000p-3, -0x1.85523c0000000p-4}
, {-0x1.e751a20000000p-3, 0x1.1084580000000p-4, 0x1.2906280000000p-4, 0x1.b619960000000p-3, -0x1.419f820000000p-6, 0x1.54d8820000000p-3, -0x1.f8d4e00000000p-4, 0x1.15cc0e0000000p-5}
}
, {{-0x1.8184940000000p-5, -0x1.37ea680000000p-6, -0x1.f8e88c0000000p-5, -0x1.3d32d40000000p-5, 0x1.3e873a0000000p-7, 0x1.4852ea0000000p-3, -0x1.ba70f00000000p-4, -0x1.ca79fe0000000p-4}
, {-0x1.7ac4ac0000000p-4, 0x1.07886c0000000p-3, -0x1.3f2e260000000p-4, 0x1.40f41a0000000p-4, -0x1.406be00000000p-4, 0x1.0876840000000p-4, -0x1.0f29dc0000000p-4, -0x1.a6424e0000000p-4}
, {0x1.3b50820000000p-4, -0x1.1e37220000000p-3, -0x1.1734d00000000p-4, 0x1.bf05da0000000p-4, -0x1.6860300000000p-6, 0x1.55ad9a0000000p-3, -0x1.175c500000000p-3, -0x1.88be3a0000000p-6}
}
}
, {{{-0x1.78c2640000000p-4, -0x1.3c77b00000000p-3, -0x1.3ba89c0000000p-4, 0x1.92d98a0000000p-3, -0x1.20088a0000000p-4, 0x1.3fecee0000000p-9, 0x1.9035ea0000000p-4, 0x1.946ca40000000p-5}
, {-0x1.d660180000000p-5, -0x1.3702f80000000p-3, 0x1.1bee8c0000000p-7, -0x1.19f99a0000000p-4, -0x1.10b2400000000p-7, 0x1.d87ee40000000p-4, -0x1.1a54480000000p-5, 0x1.c142080000000p-4}
, {0x1.4aa8c80000000p-4, -0x1.2c8dae0000000p-7, -0x1.39f5c80000000p-5, 0x1.92634c0000000p-5, -0x1.3396fa0000000p-3, 0x1.99fada0000000p-5, 0x1.d112240000000p-5, -0x1.1893dc0000000p-5}
}
, {{-0x1.8ab0380000000p-3, -0x1.6e1c1c0000000p-7, -0x1.c4624e0000000p-4, 0x1.0845740000000p-3, 0x1.102b0c0000000p-4, -0x1.1dff800000000p-3, 0x1.4adec00000000p-3, 0x1.2276480000000p-2}
, {-0x1.c3bf8e0000000p-3, 0x1.a9cd3c0000000p-8, -0x1.1fd9c00000000p-3, 0x1.276a8e0000000p-7, -0x1.9bd0a80000000p-3, -0x1.08d3780000000p-5, 0x1.53f9660000000p-4, -0x1.6fe0100000000p-5}
, {-0x1.20856c0000000p-4, -0x1.7d99a80000000p-3, -0x1.73dd3a0000000p-3, -0x1.c1c0ba0000000p-5, -0x1.cbb7da0000000p-3, 0x1.6351d20000000p-6, 0x1.56416e0000000p-4, -0x1.e8f3560000000p-6}
}
, {{-0x1.258e8a0000000p-4, 0x1.6b7efa0000000p-4, -0x1.6840040000000p-6, 0x1.1512840000000p-4, 0x1.02f79e0000000p-5, -0x1.16b7f00000000p-4, -0x1.de1ee20000000p-5, -0x1.4e8abe0000000p-4}
, {0x1.ea6e3a0000000p-4, 0x1.222ab20000000p-4, -0x1.5065d80000000p-6, 0x1.be3c560000000p-6, 0x1.f7a9200000000p-4, -0x1.43d8b80000000p-3, 0x1.12ceee0000000p-4, -0x1.460e380000000p-6}
, {-0x1.983ab20000000p-5, 0x1.961cc80000000p-5, -0x1.790ca80000000p-4, -0x1.2303460000000p-7, 0x1.939d960000000p-5, -0x1.a754f60000000p-4, 0x1.e146800000000p-3, 0x1.cdee9a0000000p-6}
}
}
, {{{-0x1.e284ce0000000p-8, -0x1.5e3bf60000000p-5, -0x1.45e9ba0000000p-4, -0x1.2734f00000000p-3, -0x1.c1bf340000000p-8, -0x1.88fdc80000000p-6, 0x1.018e140000000p-6, -0x1.30c0fa0000000p-5}
, {0x1.660fec0000000p-3, 0x1.7453240000000p-14, -0x1.fa274e0000000p-4, -0x1.b387100000000p-3, -0x1.625cfc0000000p-4, -0x1.b18d5c0000000p-4, 0x1.bfffea0000000p-8, -0x1.16a4f20000000p-3}
, {0x1.529e780000000p-4, 0x1.ab6fe80000000p-9, 0x1.33768c0000000p-3, -0x1.679fea0000000p-3, 0x1.34fdc00000000p-5, -0x1.bb1d8c0000000p-3, 0x1.d7f93c0000000p-9, -0x1.91419c0000000p-4}
}
, {{0x1.619c420000000p-4, -0x1.086a400000000p-4, -0x1.875f6a0000000p-3, -0x1.635c3a0000000p-4, -0x1.75aae00000000p-6, 0x1.c6968c0000000p-5, -0x1.3f6db40000000p-6, -0x1.2f8c1e0000000p-5}
, {-0x1.ab328c0000000p-7, 0x1.fb63ae0000000p-5, -0x1.591bcc0000000p-5, -0x1.48e6240000000p-3, -0x1.2f5d940000000p-4, -0x1.73f3be0000000p-4, 0x1.1e97740000000p-4, -0x1.6b55020000000p-5}
, {0x1.09faf00000000p-4, -0x1.4512240000000p-4, -0x1.4818fc0000000p-11, -0x1.0bb9780000000p-2, 0x1.dc6c1c0000000p-7, -0x1.2ea4520000000p-3, -0x1.e69ca40000000p-3, -0x1.8360ba0000000p-4}
}
, {{0x1.4babc20000000p-6, 0x1.774c0a0000000p-5, -0x1.bd56b20000000p-5, -0x1.801fb60000000p-4, -0x1.533ec80000000p-5, 0x1.4ad4220000000p-4, 0x1.4c21ca0000000p-4, -0x1.895cfe0000000p-4}
, {0x1.2e27c60000000p-5, 0x1.0501b80000000p-4, 0x1.2afc5a0000000p-4, -0x1.7949420000000p-3, -0x1.8d3fd60000000p-12, -0x1.8611c20000000p-3, -0x1.d571520000000p-5, 0x1.0b07400000000p-5}
, {0x1.50fa6a0000000p-8, -0x1.3a0fe60000000p-4, 0x1.f63fe40000000p-5, -0x1.2b14460000000p-3, -0x1.f6aaf80000000p-8, -0x1.0047f60000000p-3, -0x1.6d307e0000000p-4, -0x1.30bd920000000p-5}
}
}
, {{{0x1.e42ba60000000p-5, 0x1.806c860000000p-3, -0x1.b17e7c0000000p-4, 0x1.ddf1140000000p-7, 0x1.98013e0000000p-5, -0x1.29f0240000000p-4, 0x1.aa2ef00000000p-4, -0x1.3c092c0000000p-6}
, {-0x1.c2b0b00000000p-6, -0x1.9a31440000000p-6, -0x1.e7c6ec0000000p-3, 0x1.d0c5e40000000p-5, -0x1.c2633e0000000p-3, 0x1.193d580000000p-7, 0x1.77393a0000000p-4, 0x1.bccf420000000p-7}
, {0x1.ca8d8a0000000p-4, -0x1.2c11980000000p-4, -0x1.6c1a220000000p-3, -0x1.7f109a0000000p-4, -0x1.212d200000000p-2, -0x1.419fba0000000p-3, 0x1.d0d4020000000p-3, 0x1.047d780000000p-5}
}
, {{-0x1.3c23380000000p-6, 0x1.4f7e560000000p-3, 0x1.46bdb40000000p-7, 0x1.a94a3c0000000p-7, 0x1.52611c0000000p-4, -0x1.58ca6c0000000p-4, -0x1.78a9b40000000p-6, 0x1.68e1620000000p-4}
, {-0x1.37bc560000000p-7, 0x1.c64d1a0000000p-5, 0x1.8175280000000p-4, 0x1.c0df420000000p-4, -0x1.fd46ea0000000p-7, -0x1.6f73b20000000p-3, -0x1.922a0c0000000p-6, 0x1.4a93360000000p-3}
, {-0x1.0f55920000000p-4, 0x1.5aece80000000p-5, -0x1.5ee4ee0000000p-4, -0x1.55dd0c0000000p-5, 0x1.d420100000000p-5, 0x1.53d2c00000000p-6, 0x1.2d02b80000000p-6, 0x1.78aa780000000p-4}
}
, {{-0x1.2e74fc0000000p-5, -0x1.44ab8c0000000p-4, 0x1.7f93f80000000p-4, -0x1.e9b7380000000p-8, 0x1.1b24500000000p-6, 0x1.50c4760000000p-5, 0x1.fd8d700000000p-5, 0x1.73aa600000000p-7}
, {0x1.1565120000000p-7, 0x1.54018c0000000p-5, -0x1.70b1840000000p-5, -0x1.510bee0000000p-4, 0x1.5274d60000000p-3, -0x1.5a01ca0000000p-3, -0x1.d745920000000p-4, 0x1.a68dba0000000p-6}
, {-0x1.f005a60000000p-5, -0x1.cffdbe0000000p-5, 0x1.a17e000000000p-4, 0x1.79d6380000000p-5, 0x1.09baee0000000p-3, -0x1.74b5020000000p-3, -0x1.b83a260000000p-5, -0x1.ca7e520000000p-6}
}
}
, {{{0x1.b378960000000p-5, 0x1.aca6760000000p-5, -0x1.cc6b760000000p-5, -0x1.e269100000000p-6, 0x1.6584240000000p-3, -0x1.fd13040000000p-4, 0x1.2295fe0000000p-6, 0x1.87c04e0000000p-4}
, {0x1.1250fa0000000p-3, -0x1.338f8c0000000p-4, 0x1.8d7e760000000p-4, -0x1.a202a00000000p-7, 0x1.ff11860000000p-12, 0x1.3bee140000000p-3, -0x1.f52d880000000p-5, -0x1.0b138e0000000p-4}
, {-0x1.11e77e0000000p-4, -0x1.0a37500000000p-3, 0x1.5351940000000p-3, -0x1.0c05800000000p-5, 0x1.11984a0000000p-3, 0x1.dffae40000000p-5, 0x1.ddd47c0000000p-5, 0x1.fba0e40000000p-6}
}
, {{0x1.6231140000000p-5, -0x1.21c25c0000000p-3, -0x1.d96b160000000p-4, 0x1.aa7eac0000000p-4, -0x1.12c8700000000p-3, -0x1.1cd1700000000p-6, 0x1.f9efb80000000p-4, -0x1.2439ee0000000p-6}
, {0x1.9748f00000000p-5, -0x1.4de7500000000p-4, 0x1.4231e60000000p-5, 0x1.f2e47a0000000p-7, -0x1.4207f80000000p-4, 0x1.bf0ca80000000p-4, 0x1.4b73f60000000p-4, 0x1.e600c20000000p-4}
, {-0x1.5452440000000p-5, -0x1.3e4f640000000p-2, 0x1.315e940000000p-9, -0x1.5341880000000p-3, -0x1.03d1660000000p-4, -0x1.a3f1cc0000000p-4, -0x1.e13f180000000p-4, -0x1.538bfe0000000p-3}
}
, {{-0x1.b6ebfa0000000p-5, -0x1.dcf0aa0000000p-5, 0x1.a6b7a20000000p-6, 0x1.4d94b00000000p-4, -0x1.7ad7640000000p-3, 0x1.2b3d260000000p-3, -0x1.e063360000000p-6, 0x1.bc0a4a0000000p-6}
, {0x1.2a4a340000000p-7, -0x1.8c70900000000p-3, -0x1.dba18c0000000p-8, -0x1.7d40d20000000p-3, 0x1.f28b6c0000000p-7, 0x1.1c22ee0000000p-3, 0x1.669a7e0000000p-4, -0x1.07613c0000000p-3}
, {-0x1.a6948a0000000p-6, -0x1.622cb80000000p-4, -0x1.2d68a60000000p-4, -0x1.d28c600000000p-3, -0x1.6c92ec0000000p-5, -0x1.97ec7e0000000p-4, -0x1.34ccbe0000000p-4, -0x1.774a520000000p-3}
}
}
, {{{-0x1.17924c0000000p-3, 0x1.d484d00000000p-4, -0x1.664b1c0000000p-3, 0x1.15c1fc0000000p-4, -0x1.24a1960000000p-3, 0x1.6035820000000p-4, 0x1.731f460000000p-5, -0x1.67dfd80000000p-7}
, {0x1.0b11920000000p-8, 0x1.3ab36c0000000p-3, 0x1.3089d00000000p-7, 0x1.5d2af60000000p-4, 0x1.4a74c00000000p-6, -0x1.eabc9c0000000p-4, -0x1.b1c1000000000p-4, -0x1.12dc100000000p-7}
, {0x1.0396520000000p-4, 0x1.5d2f040000000p-4, 0x1.5ffc2e0000000p-3, 0x1.e8c9140000000p-6, 0x1.045aba0000000p-3, 0x1.6b26e40000000p-4, -0x1.65cda80000000p-2, -0x1.01c5c80000000p-2}
}
, {{-0x1.c8de880000000p-6, -0x1.d55a3e0000000p-8, -0x1.c4232c0000000p-5, 0x1.8324c00000000p-6, -0x1.3488280000000p-4, -0x1.0a7fb40000000p-3, -0x1.1e1c040000000p-5, -0x1.89f3ea0000000p-3}
, {0x1.1673a00000000p-9, -0x1.af35d20000000p-5, 0x1.7d4e440000000p-4, -0x1.9638480000000p-8, -0x1.0920a20000000p-4, -0x1.8821f80000000p-4, -0x1.a599f80000000p-3, -0x1.1d07dc0000000p-2}
, {0x1.6d463e0000000p-4, -0x1.3e78d60000000p-4, 0x1.e651860000000p-7, -0x1.878a940000000p-4, 0x1.42affc0000000p-5, 0x1.6bc7a00000000p-3, -0x1.3ed1f60000000p-2, -0x1.eb47be0000000p-3}
}
, {{0x1.5fd2d00000000p-4, 0x1.76c16e0000000p-4, -0x1.e272320000000p-7, 0x1.0d804a0000000p-5, 0x1.891b3e0000000p-6, -0x1.3b71ca0000000p-3, -0x1.07beca0000000p-3, -0x1.2364100000000p-3}
, {-0x1.36135e0000000p-8, -0x1.12d1540000000p-4, 0x1.5688420000000p-4, 0x1.6db2c80000000p-6, -0x1.f289400000000p-5, -0x1.0fbb040000000p-4, -0x1.7faeb60000000p-4, -0x1.84d92c0000000p-3}
, {0x1.9f9bb80000000p-4, 0x1.afdcd80000000p-8, 0x1.f6e8020000000p-10, 0x1.43c0480000000p-5, 0x1.fc00260000000p-4, -0x1.af82700000000p-5, -0x1.6784400000000p-4, -0x1.3154cc0000000p-4}
}
}
, {{{0x1.828bfa0000000p-6, 0x1.04d1940000000p-5, -0x1.5506ea0000000p-4, -0x1.1dfc320000000p-3, 0x1.15789e0000000p-4, -0x1.0ea5de0000000p-7, -0x1.943ad20000000p-4, -0x1.c6df140000000p-5}
, {0x1.a524ea0000000p-4, 0x1.346c900000000p-3, -0x1.b459ea0000000p-5, 0x1.dd5e220000000p-5, -0x1.0c3bf00000000p-5, 0x1.7c2bce0000000p-11, -0x1.5ec1ce0000000p-5, -0x1.40ee740000000p-3}
, {-0x1.7c6d0c0000000p-4, 0x1.d5c54e0000000p-4, -0x1.97eac40000000p-4, 0x1.4eca420000000p-4, -0x1.0946660000000p-3, 0x1.4c53840000000p-5, -0x1.0793740000000p-5, 0x1.9a70040000000p-5}
}
, {{-0x1.2bc9c00000000p-4, -0x1.c0eb820000000p-7, -0x1.ee28800000000p-5, 0x1.e521c80000000p-12, -0x1.97c55a0000000p-6, 0x1.19fe4c0000000p-7, -0x1.ea6da00000000p-11, -0x1.62f2660000000p-4}
, {-0x1.27bee40000000p-3, 0x1.30ac5a0000000p-3, 0x1.f2681e0000000p-5, 0x1.2dbc520000000p-3, 0x1.6438560000000p-7, -0x1.58d5340000000p-5, -0x1.0cf93c0000000p-4, 0x1.0f69fc0000000p-4}
, {0x1.89a7700000000p-6, 0x1.e09c140000000p-4, 0x1.31f7e80000000p-5, 0x1.a9aa600000000p-3, 0x1.088d7c0000000p-3, -0x1.837cba0000000p-6, 0x1.51370c0000000p-4, -0x1.91d0920000000p-4}
}
, {{-0x1.6ae0400000000p-5, 0x1.0dea900000000p-3, 0x1.37c9400000000p-5, 0x1.648eac0000000p-4, 0x1.21d9160000000p-3, 0x1.e998ba0000000p-4, -0x1.0b51dc0000000p-4, -0x1.59d6520000000p-4}
, {-0x1.e81cfc0000000p-6, 0x1.45bce80000000p-5, -0x1.7f70d60000000p-5, 0x1.1d0e780000000p-3, 0x1.1729c00000000p-3, 0x1.37d7f60000000p-3, 0x1.0d3f420000000p-6, -0x1.6a05b60000000p-5}
, {-0x1.4b53000000000p-5, 0x1.8270660000000p-3, 0x1.43b4c20000000p-3, 0x1.38352a0000000p-3, -0x1.5ea7d00000000p-5, 0x1.690bcc0000000p-4, -0x1.b4ec2c0000000p-5, 0x1.69b0b40000000p-3}
}
}
, {{{-0x1.17869c0000000p-3, 0x1.b0aa380000000p-4, -0x1.c5970c0000000p-6, 0x1.be837c0000000p-5, -0x1.075ea80000000p-6, 0x1.53b4220000000p-4, -0x1.22bca40000000p-5, 0x1.ac627a0000000p-5}
, {0x1.7146100000000p-5, 0x1.908b240000000p-4, 0x1.a4bc640000000p-5, -0x1.f8b7240000000p-8, 0x1.8d53dc0000000p-5, 0x1.160a700000000p-7, -0x1.c7726a0000000p-4, -0x1.3c73c20000000p-3}
, {-0x1.2b60b20000000p-3, -0x1.7d070a0000000p-4, -0x1.5fb0d40000000p-8, 0x1.4e50ac0000000p-3, -0x1.ac255a0000000p-5, 0x1.1838040000000p-4, -0x1.86cf320000000p-4, 0x1.00dd480000000p-3}
}
, {{0x1.4b88000000000p-4, 0x1.63ab9c0000000p-5, 0x1.7c8a0e0000000p-4, 0x1.a96f320000000p-3, 0x1.6191620000000p-5, -0x1.2136320000000p-5, 0x1.24deac0000000p-5, 0x1.2dfbf00000000p-5}
, {-0x1.bcfc1a0000000p-7, -0x1.8e1a080000000p-4, -0x1.3ddce00000000p-6, -0x1.f0e08c0000000p-5, 0x1.f4e8400000000p-5, 0x1.b917ae0000000p-4, 0x1.90a7c40000000p-6, 0x1.032e180000000p-3}
, {-0x1.5c6dc40000000p-3, 0x1.c19cf40000000p-5, 0x1.46d3500000000p-5, 0x1.4521b40000000p-3, 0x1.14b25c0000000p-4, 0x1.c0ff980000000p-4, -0x1.69599a0000000p-4, 0x1.9c2aee0000000p-3}
}
, {{0x1.d8a6180000000p-8, -0x1.9abfe80000000p-8, -0x1.69ec840000000p-5, 0x1.48ac540000000p-4, -0x1.5db5260000000p-7, -0x1.bcb5860000000p-5, 0x1.a76a1e0000000p-3, 0x1.8d6cb00000000p-4}
, {0x1.8b2d620000000p-5, 0x1.2d64480000000p-4, -0x1.f5f4600000000p-4, 0x1.42c69e0000000p-3, -0x1.7a6bec0000000p-7, 0x1.b14ff00000000p-4, 0x1.0771000000000p-5, 0x1.0d24800000000p-2}
, {-0x1.35bd700000000p-2, 0x1.2860ae0000000p-4, 0x1.53fa400000000p-6, 0x1.b550060000000p-3, 0x1.7ea13a0000000p-5, -0x1.584e940000000p-4, 0x1.8cc42c0000000p-5, 0x1.9d6a020000000p-4}
}
}
, {{{0x1.44669a0000000p-5, 0x1.9304ec0000000p-6, 0x1.a3df360000000p-4, -0x1.19cd100000000p-3, 0x1.90e4c80000000p-6, -0x1.a4608c0000000p-4, -0x1.721b5a0000000p-4, -0x1.09aafe0000000p-4}
, {0x1.76a7940000000p-13, -0x1.1f46c80000000p-4, -0x1.96785a0000000p-4, -0x1.cf638c0000000p-4, -0x1.ba6de60000000p-4, 0x1.831fda0000000p-5, -0x1.8f29860000000p-4, -0x1.26e3220000000p-4}
, {0x1.8aec060000000p-3, -0x1.1759720000000p-3, -0x1.f530940000000p-4, -0x1.65a3500000000p-4, -0x1.a9a2340000000p-3, -0x1.42c2f00000000p-4, -0x1.e0befc0000000p-4, -0x1.b1c6480000000p-7}
}
, {{0x1.b620a40000000p-4, 0x1.ec6a280000000p-7, -0x1.b633140000000p-5, 0x1.5ba8e00000000p-3, 0x1.1cdd8c0000000p-5, -0x1.b5fc080000000p-4, -0x1.70c54c0000000p-4, -0x1.8b6e6e0000000p-6}
, {-0x1.843ff80000000p-4, 0x1.782a1a0000000p-3, -0x1.cd67a00000000p-6, 0x1.43045e0000000p-6, 0x1.0fc8a20000000p-3, -0x1.792ccc0000000p-3, -0x1.754b9c0000000p-5, 0x1.dab5fc0000000p-4}
, {0x1.87fb640000000p-4, -0x1.eea7840000000p-6, -0x1.c6f0560000000p-4, -0x1.a0a2a20000000p-5, -0x1.e511420000000p-5, -0x1.6391fa0000000p-3, -0x1.c3b8720000000p-7, 0x1.7bedb80000000p-4}
}
, {{-0x1.dcdb460000000p-5, -0x1.0e4c560000000p-5, 0x1.193e0c0000000p-3, 0x1.70144c0000000p-7, 0x1.82c2040000000p-8, -0x1.0f9d940000000p-6, 0x1.60a8480000000p-4, 0x1.c6197a0000000p-4}
, {-0x1.5929b20000000p-6, 0x1.91237c0000000p-3, -0x1.0de28c0000000p-5, 0x1.0a47120000000p-3, 0x1.8dad0e0000000p-3, 0x1.1ae7fa0000000p-11, 0x1.1bbfce0000000p-4, 0x1.68ba8e0000000p-4}
, {-0x1.7759340000000p-5, 0x1.82a2320000000p-3, 0x1.2623d80000000p-6, 0x1.d6db220000000p-5, -0x1.7970e40000000p-5, 0x1.f7e6700000000p-10, 0x1.b8f9240000000p-5, -0x1.1647b00000000p-5}
}
}
, {{{0x1.45c3ee0000000p-4, -0x1.383a080000000p-5, 0x1.21a20a0000000p-4, 0x1.1af82a0000000p-6, 0x1.c1ce240000000p-5, 0x1.87c7aa0000000p-5, -0x1.7f5a880000000p-4, -0x1.94f5be0000000p-5}
, {0x1.4f2a2c0000000p-3, -0x1.9bbb1c0000000p-4, 0x1.36d5080000000p-5, -0x1.02c8060000000p-4, -0x1.49e1aa0000000p-4, 0x1.74891c0000000p-3, -0x1.0c374e0000000p-4, 0x1.70ec780000000p-7}
, {0x1.fe9ede0000000p-4, 0x1.402a780000000p-5, -0x1.1412d00000000p-3, -0x1.b928800000000p-4, -0x1.325b520000000p-3, 0x1.144e0a0000000p-6, 0x1.0076900000000p-4, -0x1.54e05c0000000p-4}
}
, {{0x1.7d8bec0000000p-4, -0x1.3023560000000p-3, -0x1.67e4c60000000p-4, 0x1.5c38a20000000p-4, -0x1.20eb7e0000000p-3, 0x1.448b4c0000000p-3, 0x1.72bb5a0000000p-4, 0x1.11ed3c0000000p-3}
, {0x1.534f0a0000000p-4, -0x1.2c0d0a0000000p-4, -0x1.3c27ec0000000p-3, -0x1.6f0e080000000p-8, -0x1.55ccfe0000000p-4, 0x1.6cb6040000000p-4, -0x1.6751d00000000p-4, -0x1.8c30500000000p-4}
, {0x1.63e8140000000p-3, -0x1.f76d6e0000000p-5, -0x1.866fe60000000p-4, -0x1.4ca3f20000000p-5, -0x1.8ab68a0000000p-3, -0x1.48223c0000000p-4, -0x1.b8f3b80000000p-4, 0x1.0e0c420000000p-3}
}
, {{0x1.daa4240000000p-6, 0x1.60f93a0000000p-4, 0x1.092f460000000p-6, -0x1.d0d8940000000p-5, -0x1.7be93e0000000p-5, 0x1.2e02880000000p-5, 0x1.48045c0000000p-3, -0x1.41f5c80000000p-4}
, {0x1.754f240000000p-6, 0x1.5cc2d20000000p-5, -0x1.db56a80000000p-7, -0x1.7e27f40000000p-3, -0x1.cae9e00000000p-4, 0x1.f258ec0000000p-7, 0x1.1bec9e0000000p-6, -0x1.c511480000000p-4}
, {-0x1.8f11960000000p-6, -0x1.aeef000000000p-5, -0x1.441e520000000p-3, -0x1.9cb2740000000p-4, -0x1.ce91320000000p-3, 0x1.dc548c0000000p-5, 0x1.b6b2320000000p-3, 0x1.515c300000000p-5}
}
}
}
;

#undef INPUT_CHANNELS
#undef CONV_FILTERS
#undef CONV_KERNEL_SIZE_X
#undef CONV_KERNEL_SIZE_Y
#undef CONV_GROUPS