/**
  ******************************************************************************
  * @file    weights/conv2d.cc
  * @author  Pierre-Emmanuel Novac <penovac@unice.fr>, LEAT, CNRS, Université Côte d'Azur, France
  * @version V2.0
  * @date    24 march 2020
  * @brief   Template generating plain C code for the implementation of Convolutional Neural Networks on MCU
  */

#include <stdint.h>

#define INPUT_CHANNELS     64
#define CONV_FILTERS       128
#define CONV_KERNEL_SIZE_Y 3
#define CONV_KERNEL_SIZE_X 3
#define CONV_GROUPS        1


const float conv2d_9_bias[CONV_FILTERS] = {0x1.aafe420000000p-4, -0x1.1d91d00000000p-6, -0x1.f9e10c0000000p-5, 0x1.5ed2660000000p-5, -0x1.cda37c0000000p-7, 0x1.c6ead80000000p-7, -0x1.11b8c60000000p-4, -0x1.8d61ba0000000p-5, -0x1.70563a0000000p-5, -0x1.8b63ec0000000p-5, -0x1.9a8ece0000000p-5, 0x1.0dfd980000000p-5, 0x1.550e0c0000000p-6, -0x1.7729fc0000000p-6, -0x1.4e6f7e0000000p-5, 0x1.2fec9e0000000p-6, 0x1.aa161c0000000p-5, -0x1.105cee0000000p-5, 0x1.b1c7040000000p-6, -0x1.3d58680000000p-7, -0x1.2c80be0000000p-5, 0x1.5b48f60000000p-5, -0x1.affb8a0000000p-6, -0x1.6bd88a0000000p-4, -0x1.569a960000000p-4, -0x1.58793c0000000p-6, -0x1.d113c40000000p-5, -0x1.22251a0000000p-4, 0x1.43a08e0000000p-5, 0x1.3e44040000000p-9, 0x1.3f863a0000000p-5, 0x1.75dc080000000p-6, 0x1.a680060000000p-4, 0x1.6c7f340000000p-7, 0x1.2e9bae0000000p-6, 0x1.3e0ec20000000p-6, -0x1.3753a20000000p-4, -0x1.a2775e0000000p-9, -0x1.7d5a1c0000000p-8, 0x1.999ba00000000p-14, -0x1.c4cd1c0000000p-5, 0x1.5b99620000000p-9, -0x1.5a17c20000000p-4, 0x1.a18f860000000p-5, 0x1.a672980000000p-4, -0x1.133de00000000p-4, 0x1.3758920000000p-3, -0x1.8c9a320000000p-4, -0x1.dbb1640000000p-4, -0x1.7612960000000p-4, -0x1.25765a0000000p-4, -0x1.f1e65c0000000p-4, 0x1.b5eb3c0000000p-4, 0x1.a23df20000000p-4, 0x1.4a2ea00000000p-7, 0x1.57eb0a0000000p-6, 0x1.d68a9a0000000p-6, -0x1.ed9c900000000p-5, -0x1.8890bc0000000p-8, -0x1.a298260000000p-6, 0x1.61fe0c0000000p-6, 0x1.27d0ce0000000p-4, 0x1.ad78080000000p-5, -0x1.e942560000000p-5, 0x1.7f606c0000000p-3, 0x1.fdb9960000000p-5, 0x1.1a1ede0000000p-3, 0x1.3a2eb40000000p-4, -0x1.302bfc0000000p-4, 0x1.57cbd00000000p-5, 0x1.209b200000000p-4, -0x1.9867c00000000p-11, 0x1.665e840000000p-4, -0x1.a913a60000000p-5, -0x1.034ff40000000p-5, 0x1.0992de0000000p-6, 0x1.e6de500000000p-7, -0x1.108d1a0000000p-4, -0x1.c251860000000p-6, -0x1.a141de0000000p-6, -0x1.ee11020000000p-5, -0x1.c47e360000000p-5, -0x1.d864ea0000000p-6, -0x1.f89e760000000p-7, -0x1.c107be0000000p-5, -0x1.ea11da0000000p-4, 0x1.7a46220000000p-5, -0x1.26f19a0000000p-5, 0x1.b6c56a0000000p-4, 0x1.d41ee20000000p-6, -0x1.3994400000000p-4, 0x1.b815e80000000p-7, -0x1.4bfa200000000p-4, -0x1.01f5c80000000p-5, -0x1.b7ca0e0000000p-6, 0x1.23357e0000000p-7, 0x1.f1c22e0000000p-5, 0x1.3669420000000p-4, 0x1.04db480000000p-3, 0x1.6919b00000000p-5, -0x1.2bceb00000000p-4, 0x1.7149760000000p-6, 0x1.e1d37a0000000p-6, -0x1.553db00000000p-5, -0x1.25566e0000000p-5, -0x1.6628d20000000p-6, 0x1.248c900000000p-3, -0x1.847b500000000p-5, -0x1.c7ed940000000p-4, -0x1.bff3ce0000000p-6, -0x1.dcee740000000p-6, -0x1.4da89c0000000p-5, -0x1.91e9000000000p-4, 0x1.310af80000000p-4, -0x1.9e31200000000p-5, -0x1.c2f8b00000000p-5, 0x1.13ce0c0000000p-6, 0x1.f0ef880000000p-4, -0x1.18f76e0000000p-4, -0x1.ca0afc0000000p-5, 0x1.2abd3c0000000p-6, -0x1.0161220000000p-3, 0x1.a660b40000000p-4, 0x1.c6de4a0000000p-9, -0x1.43c6a40000000p-4, -0x1.ddfaae0000000p-8, 0x1.71db1a0000000p-4, 0x1.f8b49e0000000p-4}
;


const float conv2d_9_kernel[CONV_FILTERS][CONV_KERNEL_SIZE_Y][CONV_KERNEL_SIZE_X][INPUT_CHANNELS / CONV_GROUPS] = {{{{-0x1.c8d4160000000p-3, 0x1.c5f8ec0000000p-7, 0x1.d9e5da0000000p-3, -0x1.1561da0000000p-3, -0x1.7bffda0000000p-3, -0x1.35bd440000000p-3, -0x1.ae6e100000000p-7, 0x1.c6d8060000000p-5, -0x1.1ba8fa0000000p-2, -0x1.c2371e0000000p-5, -0x1.46ef4e0000000p-3, 0x1.e66d180000000p-4, 0x1.9f8d3c0000000p-10, -0x1.2c158e0000000p-2, -0x1.ba203c0000000p-4, 0x1.7771100000000p-4, 0x1.dc3bda0000000p-5, 0x1.17a7c80000000p-5, 0x1.14f5560000000p-3, -0x1.d4e6a40000000p-7, -0x1.d6a99a0000000p-4, -0x1.19be620000000p-3, 0x1.7e17a00000000p-3, 0x1.7071be0000000p-5, 0x1.5e7b4a0000000p-5, 0x1.24dada0000000p-8, -0x1.3ee6420000000p-6, 0x1.2972d40000000p-4, 0x1.ef68220000000p-4, -0x1.bad07c0000000p-5, -0x1.475bf00000000p-3, -0x1.b441360000000p-3, 0x1.33f94a0000000p-5, -0x1.ff567a0000000p-4, -0x1.7abe0a0000000p-4, 0x1.1598380000000p-3, 0x1.731e840000000p-5, 0x1.5c73180000000p-3, 0x1.db08de0000000p-5, -0x1.451b400000000p-3, -0x1.a2f7480000000p-4, 0x1.b903020000000p-5, -0x1.8d6a320000000p-3, -0x1.fa39c40000000p-3, -0x1.46866a0000000p-3, 0x1.fcc33a0000000p-8, -0x1.d8f4ea0000000p-6, -0x1.70d1380000000p-3, 0x1.98311a0000000p-6, 0x1.f3689e0000000p-9, -0x1.7789e80000000p-3, 0x1.8acfca0000000p-7, 0x1.ad9c180000000p-6, -0x1.a6c4c60000000p-4, -0x1.5bbc280000000p-3, -0x1.8db4d20000000p-3, -0x1.2be0d00000000p-11, -0x1.bb73d40000000p-4, -0x1.09ab7e0000000p-4, 0x1.50b8d40000000p-8, -0x1.c601dc0000000p-5, 0x1.0501980000000p-4, -0x1.21a4da0000000p-5, -0x1.b277040000000p-6}
, {-0x1.6630960000000p-4, 0x1.f82e900000000p-9, -0x1.5ce6a20000000p-4, -0x1.620ef00000000p-4, 0x1.03cb280000000p-5, 0x1.6e785e0000000p-4, -0x1.d765080000000p-3, 0x1.ec13720000000p-5, 0x1.0d1a1a0000000p-8, 0x1.02ad3a0000000p-3, -0x1.b8bfa60000000p-3, 0x1.53a6d80000000p-4, -0x1.957c740000000p-5, 0x1.ac28d80000000p-8, 0x1.0be1fa0000000p-3, -0x1.d8f6760000000p-5, -0x1.0049060000000p-2, 0x1.05dc3e0000000p-4, -0x1.22da660000000p-4, -0x1.08cd4c0000000p-2, 0x1.192f460000000p-3, -0x1.b01dc80000000p-3, -0x1.5699720000000p-6, -0x1.7de3f80000000p-9, -0x1.1c08560000000p-3, -0x1.03755c0000000p-5, -0x1.aa0e080000000p-4, 0x1.f8f3840000000p-4, -0x1.d16a200000000p-7, 0x1.7f5f040000000p-4, -0x1.4be4580000000p-7, -0x1.19ad000000000p-3, -0x1.0676dc0000000p-4, -0x1.0b5e7e0000000p-3, -0x1.127d200000000p-3, 0x1.d623ae0000000p-4, -0x1.7cef620000000p-4, 0x1.5aa0ec0000000p-6, 0x1.1daccc0000000p-7, -0x1.31bad60000000p-4, -0x1.22bbf00000000p-3, 0x1.56dbfc0000000p-3, -0x1.8e62e40000000p-3, -0x1.2451120000000p-4, -0x1.b0fa0e0000000p-5, -0x1.9d3c920000000p-4, 0x1.8da9520000000p-8, -0x1.22a2a00000000p-4, -0x1.52f4880000000p-2, -0x1.82c5c40000000p-4, -0x1.2d01720000000p-3, 0x1.ab54a60000000p-5, -0x1.f296ae0000000p-5, -0x1.1c322e0000000p-5, -0x1.fd89120000000p-5, 0x1.7bf0dc0000000p-4, -0x1.2159100000000p-6, 0x1.b7c3520000000p-5, 0x1.ba16f00000000p-4, -0x1.8e7abc0000000p-4, 0x1.374c120000000p-4, -0x1.2fc16a0000000p-6, -0x1.1440b20000000p-2, -0x1.97a3320000000p-4}
, {-0x1.6b798e0000000p-4, 0x1.4bfa180000000p-4, -0x1.ce27ba0000000p-5, -0x1.f139ae0000000p-9, 0x1.a38df80000000p-4, 0x1.0e2d520000000p-3, -0x1.5782700000000p-4, 0x1.ce98220000000p-3, -0x1.5fee500000000p-7, 0x1.4da22a0000000p-3, -0x1.cff1340000000p-4, -0x1.e64b560000000p-3, 0x1.a7b25e0000000p-6, 0x1.949d000000000p-3, 0x1.2b63880000000p-2, 0x1.47f88c0000000p-4, 0x1.391be60000000p-4, -0x1.07dd1e0000000p-5, -0x1.095df00000000p-2, -0x1.8ddf780000000p-4, 0x1.2bd0620000000p-3, -0x1.a3586a0000000p-4, -0x1.f3c3620000000p-4, 0x1.8965320000000p-3, 0x1.019bfa0000000p-6, 0x1.4d45d80000000p-3, 0x1.3a17360000000p-4, -0x1.47124e0000000p-4, -0x1.df9ebe0000000p-4, 0x1.3716b60000000p-4, 0x1.21cbc80000000p-3, 0x1.d25a3a0000000p-4, -0x1.7859760000000p-5, 0x1.5a8adc0000000p-4, -0x1.50ef700000000p-4, -0x1.5643100000000p-3, -0x1.6d399a0000000p-7, -0x1.ee5d5a0000000p-6, 0x1.a861980000000p-7, -0x1.14ec1e0000000p-2, 0x1.81aa220000000p-6, -0x1.eeb78a0000000p-5, 0x1.4352700000000p-4, 0x1.511d1a0000000p-4, 0x1.00d81e0000000p-2, 0x1.9387720000000p-5, 0x1.04a0b80000000p-3, -0x1.432d8c0000000p-7, -0x1.cef9d20000000p-5, -0x1.1ded6a0000000p-4, 0x1.bf99c20000000p-5, 0x1.6d1b020000000p-3, 0x1.acffd20000000p-4, 0x1.b4d4000000000p-4, 0x1.9db3420000000p-3, 0x1.3672340000000p-5, -0x1.df42960000000p-5, 0x1.0e30480000000p-4, 0x1.4171920000000p-4, -0x1.a0106c0000000p-3, -0x1.2b08260000000p-5, 0x1.042dec0000000p-4, 0x1.7488c80000000p-4, 0x1.57c82c0000000p-4}
}
, {{0x1.09992c0000000p-7, 0x1.3514ea0000000p-4, 0x1.dbefa80000000p-4, -0x1.40194c0000000p-3, 0x1.c67b540000000p-5, 0x1.4027d00000000p-3, 0x1.4f70fa0000000p-8, 0x1.66ac900000000p-3, -0x1.7e36500000000p-4, -0x1.a1d4860000000p-5, 0x1.7fc1460000000p-3, -0x1.8c4c3e0000000p-4, -0x1.f5fec40000000p-4, -0x1.bf97d60000000p-4, 0x1.6f3ea20000000p-5, 0x1.3ef5040000000p-3, 0x1.81195a0000000p-4, -0x1.a232a40000000p-4, 0x1.5635f20000000p-3, 0x1.64d6360000000p-5, 0x1.9c9c100000000p-7, 0x1.46fdbe0000000p-3, -0x1.c631880000000p-4, 0x1.03363c0000000p-3, 0x1.29f4340000000p-9, 0x1.070b520000000p-3, -0x1.0bb5380000000p-4, 0x1.149ff60000000p-4, -0x1.e632e60000000p-4, -0x1.0df7ec0000000p-2, 0x1.09008c0000000p-4, -0x1.c29f9a0000000p-3, 0x1.ae27620000000p-4, -0x1.068eac0000000p-3, 0x1.120d700000000p-3, 0x1.88eb6a0000000p-6, 0x1.b6d39e0000000p-5, 0x1.a43ee00000000p-3, 0x1.21e5460000000p-3, -0x1.8964580000000p-3, 0x1.b598040000000p-4, -0x1.77b67c0000000p-6, -0x1.6bb61c0000000p-3, 0x1.89564e0000000p-4, 0x1.94e1840000000p-4, -0x1.06ebe60000000p-3, 0x1.3e7e0e0000000p-3, -0x1.4da36e0000000p-9, 0x1.b8f6020000000p-5, -0x1.27e2ce0000000p-3, 0x1.2643320000000p-4, 0x1.fde6060000000p-5, -0x1.d5649a0000000p-3, -0x1.05223a0000000p-5, 0x1.5551380000000p-5, 0x1.7cd5f80000000p-4, -0x1.b1db820000000p-5, 0x1.811f1c0000000p-4, -0x1.3264180000000p-4, 0x1.058cbc0000000p-4, 0x1.3edd740000000p-6, -0x1.12f9640000000p-4, -0x1.ccb46e0000000p-3, 0x1.ed1c680000000p-6}
, {0x1.65853c0000000p-4, 0x1.7afd9a0000000p-5, -0x1.045ae60000000p-7, 0x1.481d3e0000000p-3, -0x1.169daa0000000p-2, -0x1.44430c0000000p-4, 0x1.7376280000000p-5, -0x1.35837a0000000p-3, -0x1.c42cb80000000p-5, -0x1.e8592a0000000p-4, 0x1.1f3bfa0000000p-2, -0x1.38b14c0000000p-6, -0x1.cb8b840000000p-4, -0x1.1d36040000000p-5, -0x1.3311720000000p-5, -0x1.cf88c60000000p-4, 0x1.b7c3260000000p-3, 0x1.29dabc0000000p-9, 0x1.5d541a0000000p-4, -0x1.1e6aea0000000p-3, 0x1.a218a40000000p-4, -0x1.ef3e3a0000000p-4, -0x1.2bc2cc0000000p-3, -0x1.1ac8760000000p-7, -0x1.a408e80000000p-7, -0x1.3a491c0000000p-3, -0x1.426af60000000p-3, 0x1.efc0980000000p-4, -0x1.ae76060000000p-6, 0x1.fd1c7e0000000p-5, -0x1.6d4be20000000p-4, 0x1.427fea0000000p-3, 0x1.58e0800000000p-4, -0x1.207cee0000000p-3, -0x1.b9e32a0000000p-5, -0x1.75f3580000000p-2, 0x1.66e9640000000p-6, -0x1.d8093a0000000p-4, 0x1.bf1a060000000p-5, -0x1.217a000000000p-2, 0x1.37e3ec0000000p-9, -0x1.8592ee0000000p-2, 0x1.8430c20000000p-4, 0x1.12a2260000000p-5, 0x1.0b4c360000000p-4, -0x1.2a7c5a0000000p-3, -0x1.0699140000000p-2, 0x1.8e00f80000000p-7, 0x1.39bc060000000p-3, -0x1.85279e0000000p-2, 0x1.6ac0ae0000000p-6, -0x1.11bcb60000000p-3, 0x1.b399bc0000000p-10, 0x1.14b6bc0000000p-3, -0x1.58a4c20000000p-5, 0x1.28b4aa0000000p-5, -0x1.16a8c80000000p-3, -0x1.0a8e9a0000000p-3, 0x1.1214800000000p-3, 0x1.03e3d80000000p-5, -0x1.8e65ea0000000p-2, 0x1.c2ac060000000p-3, -0x1.a3a27a0000000p-6, 0x1.0a30860000000p-4}
, {-0x1.dfc8020000000p-5, -0x1.0bd7460000000p-4, -0x1.9f835c0000000p-5, 0x1.9785540000000p-3, -0x1.7624ca0000000p-2, 0x1.d604d20000000p-4, -0x1.22478a0000000p-2, 0x1.a011e80000000p-3, -0x1.0e71820000000p-4, -0x1.7bb6e40000000p-3, -0x1.7b43060000000p-3, 0x1.f07cd60000000p-4, -0x1.8c511a0000000p-4, -0x1.9652ea0000000p-7, -0x1.2dba020000000p-2, -0x1.96518c0000000p-3, 0x1.3f55ea0000000p-3, 0x1.6764400000000p-4, -0x1.4eb79c0000000p-4, -0x1.8c7a700000000p-4, 0x1.4805300000000p-5, -0x1.bda4420000000p-3, 0x1.3314020000000p-3, 0x1.48a0a00000000p-4, -0x1.dc82b60000000p-4, -0x1.ea6f260000000p-5, 0x1.983eb80000000p-8, 0x1.49843e0000000p-3, 0x1.60725e0000000p-3, 0x1.59c9980000000p-3, 0x1.94994a0000000p-3, -0x1.0e18b40000000p-5, 0x1.a837ec0000000p-3, -0x1.8753fc0000000p-5, -0x1.de6f1e0000000p-4, -0x1.4af84c0000000p-6, -0x1.5bcf260000000p-3, -0x1.00d7c20000000p-3, 0x1.32f9060000000p-2, 0x1.3a632a0000000p-4, 0x1.d045d60000000p-6, -0x1.d4f5740000000p-3, 0x1.085f780000000p-4, -0x1.51a9140000000p-4, -0x1.3b90fe0000000p-5, 0x1.73078c0000000p-6, -0x1.7c47d60000000p-3, -0x1.9d47a60000000p-4, -0x1.3880220000000p-3, 0x1.2a60420000000p-5, 0x1.536f080000000p-6, -0x1.d1a9260000000p-4, -0x1.a560b60000000p-5, -0x1.33965c0000000p-2, 0x1.c331c00000000p-4, 0x1.cb6e680000000p-4, -0x1.b3953c0000000p-5, -0x1.70e6e00000000p-5, 0x1.2c684c0000000p-5, -0x1.523d360000000p-2, -0x1.92af140000000p-6, 0x1.c9a7d20000000p-4, -0x1.299c840000000p-3, 0x1.f09ad40000000p-7}
}
, {{-0x1.a37ea80000000p-5, 0x1.b6b5a40000000p-5, -0x1.1678260000000p-2, -0x1.16700a0000000p-4, -0x1.49f35c0000000p-5, -0x1.5eb2680000000p-6, -0x1.c587f40000000p-6, 0x1.21c76c0000000p-5, 0x1.9bc8200000000p-4, 0x1.fc70320000000p-5, 0x1.99e3ce0000000p-4, -0x1.237d040000000p-2, -0x1.9f43aa0000000p-4, -0x1.0be1de0000000p-5, 0x1.b0e2540000000p-4, 0x1.0c4c9c0000000p-5, 0x1.5822440000000p-5, -0x1.3901420000000p-3, -0x1.fc38820000000p-4, 0x1.0928320000000p-3, -0x1.eff42c0000000p-5, 0x1.0eee1a0000000p-3, -0x1.8106780000000p-4, 0x1.2c745a0000000p-5, 0x1.a60ae80000000p-4, 0x1.c65ef80000000p-3, 0x1.b63fc80000000p-7, -0x1.73bab40000000p-4, -0x1.faba660000000p-3, -0x1.193e600000000p-8, -0x1.6dc4000000000p-5, 0x1.36f90a0000000p-3, 0x1.c795120000000p-5, 0x1.6e35be0000000p-5, 0x1.01b4da0000000p-3, -0x1.459e780000000p-3, 0x1.5696d40000000p-3, -0x1.629c340000000p-4, -0x1.63d96a0000000p-4, -0x1.4805640000000p-4, 0x1.2efe980000000p-5, 0x1.d799460000000p-5, 0x1.4a2dc00000000p-3, 0x1.c055a20000000p-5, 0x1.31c7c20000000p-7, 0x1.1bb9f00000000p-4, -0x1.b640f20000000p-6, -0x1.77c39e0000000p-13, -0x1.ba9dac0000000p-4, -0x1.4b12e40000000p-2, -0x1.6b000c0000000p-4, 0x1.c11d360000000p-3, 0x1.7ca0e80000000p-9, -0x1.b8845e0000000p-5, 0x1.5cfd660000000p-3, 0x1.69e0f00000000p-4, 0x1.91a6540000000p-3, 0x1.b133160000000p-4, -0x1.5413180000000p-6, -0x1.dce3f60000000p-6, -0x1.aba37e0000000p-3, 0x1.374a520000000p-5, 0x1.23f33e0000000p-3, -0x1.84a0cc0000000p-6}
, {0x1.a6bf180000000p-4, 0x1.156b040000000p-3, -0x1.2a05600000000p-2, 0x1.86871e0000000p-4, 0x1.2717840000000p-4, -0x1.306b440000000p-2, -0x1.b654140000000p-3, 0x1.20c1520000000p-3, -0x1.7bcb4a0000000p-3, 0x1.248b560000000p-4, 0x1.11dee00000000p-4, -0x1.3e80f20000000p-3, -0x1.93c93c0000000p-6, -0x1.880bec0000000p-5, -0x1.6287760000000p-5, 0x1.010e660000000p-4, 0x1.3a96020000000p-5, -0x1.47a72c0000000p-4, -0x1.5484c80000000p-5, 0x1.ac23300000000p-10, -0x1.b704600000000p-4, 0x1.ae8e1c0000000p-4, 0x1.41ed040000000p-6, -0x1.5669200000000p-4, 0x1.f9b7b00000000p-5, -0x1.d7bb740000000p-4, -0x1.73a9a60000000p-4, -0x1.4914c40000000p-6, -0x1.98c46a0000000p-2, -0x1.7597480000000p-2, -0x1.ce1bae0000000p-4, -0x1.84528a0000000p-5, 0x1.b1eeb60000000p-3, -0x1.f16c900000000p-4, 0x1.abc6f80000000p-5, -0x1.0b67ae0000000p-3, -0x1.5f251e0000000p-4, 0x1.6fd4f40000000p-7, 0x1.0ef2220000000p-5, -0x1.c37eb00000000p-3, 0x1.e8947a0000000p-5, 0x1.27e4fc0000000p-3, -0x1.10e9bc0000000p-3, 0x1.6f26580000000p-4, -0x1.57b5a80000000p-3, -0x1.0846780000000p-3, -0x1.3c49ea0000000p-5, 0x1.75c6fe0000000p-9, 0x1.340a4c0000000p-3, -0x1.61af860000000p-2, -0x1.052f360000000p-7, 0x1.ab98cc0000000p-4, -0x1.03c7040000000p-7, -0x1.dd945e0000000p-5, -0x1.e792de0000000p-4, -0x1.730ef20000000p-3, -0x1.5a513a0000000p-6, -0x1.7552620000000p-7, 0x1.264c420000000p-2, 0x1.f84e860000000p-5, -0x1.f754640000000p-4, 0x1.3bcf840000000p-3, -0x1.1c6b600000000p-3, -0x1.995cd80000000p-4}
, {0x1.11d1b40000000p-2, -0x1.9a97b40000000p-10, 0x1.601f700000000p-3, 0x1.c275c20000000p-3, -0x1.2a43f40000000p-5, -0x1.66b0140000000p-2, -0x1.bfc9c20000000p-3, 0x1.279a300000000p-3, -0x1.79015a0000000p-5, 0x1.14bdf00000000p-7, 0x1.aebb0c0000000p-7, -0x1.3eb8a00000000p-2, -0x1.db46440000000p-6, -0x1.7bb16a0000000p-3, -0x1.839d1e0000000p-4, -0x1.16e7f20000000p-3, 0x1.6c745c0000000p-3, -0x1.0e99c40000000p-3, -0x1.388c120000000p-3, -0x1.01e1f80000000p-6, -0x1.b18c340000000p-3, -0x1.9956d80000000p-4, -0x1.b4a99c0000000p-4, -0x1.4079b20000000p-3, 0x1.abbbbe0000000p-7, -0x1.97a6ca0000000p-6, -0x1.29312e0000000p-2, -0x1.47a55c0000000p-4, -0x1.2ea6920000000p-2, -0x1.3a78440000000p-6, 0x1.b249520000000p-4, 0x1.19de580000000p-3, 0x1.a021aa0000000p-5, 0x1.7a73fe0000000p-7, -0x1.32d6400000000p-4, -0x1.715ed60000000p-2, 0x1.36eaf20000000p-7, 0x1.2613360000000p-5, 0x1.062ebe0000000p-6, -0x1.8a9b040000000p-4, 0x1.0996340000000p-3, -0x1.c512380000000p-5, 0x1.6861700000000p-4, 0x1.73d8980000000p-5, 0x1.4246ea0000000p-7, 0x1.52ecc40000000p-8, -0x1.d2bb9c0000000p-3, -0x1.0575e80000000p-4, 0x1.9c51480000000p-3, -0x1.c5f7b80000000p-2, -0x1.b1cfa80000000p-6, 0x1.49bc380000000p-5, 0x1.3fe2ec0000000p-6, -0x1.bcce1c0000000p-5, -0x1.28b0fc0000000p-3, 0x1.84716e0000000p-4, -0x1.6c51a60000000p-3, 0x1.1f9dd60000000p-4, 0x1.8506240000000p-5, -0x1.0b4af80000000p-3, -0x1.ef90840000000p-2, 0x1.7f62140000000p-3, -0x1.bb04ea0000000p-4, 0x1.f171f20000000p-5}
}
}
, {{{0x1.3c22660000000p-4, 0x1.2a007e0000000p-4, -0x1.3cdb8e0000000p-4, 0x1.6576a00000000p-5, 0x1.24f6aa0000000p-2, 0x1.f271080000000p-4, 0x1.5883540000000p-5, 0x1.ba3ecc0000000p-4, -0x1.46b2720000000p-2, 0x1.1ad9140000000p-7, -0x1.b07c280000000p-5, -0x1.1ae8340000000p-4, 0x1.1444a20000000p-2, 0x1.0500980000000p-9, 0x1.e74e3c0000000p-4, 0x1.657d560000000p-6, 0x1.1630ce0000000p-6, -0x1.c8cfb20000000p-3, 0x1.2d957a0000000p-4, 0x1.9eb16c0000000p-6, -0x1.8f9a920000000p-3, 0x1.2f729e0000000p-4, 0x1.422f640000000p-4, -0x1.c7218a0000000p-5, 0x1.5fc5940000000p-3, 0x1.3f5ba40000000p-3, 0x1.8e50120000000p-4, -0x1.eae3920000000p-4, -0x1.c341020000000p-4, 0x1.8d5d1c0000000p-4, -0x1.fc13780000000p-9, 0x1.9cbb7c0000000p-6, 0x1.c31a680000000p-4, -0x1.02ce440000000p-3, 0x1.31a7cc0000000p-3, 0x1.3a84940000000p-4, 0x1.66c9360000000p-5, -0x1.6d812c0000000p-6, 0x1.6b04ba0000000p-7, 0x1.df561a0000000p-4, 0x1.0079700000000p-2, 0x1.a29f6a0000000p-3, 0x1.4a3f340000000p-6, 0x1.fb14380000000p-4, 0x1.30d4300000000p-6, 0x1.34a2f40000000p-4, 0x1.7efe140000000p-3, 0x1.6f46c40000000p-3, 0x1.2d5d240000000p-3, 0x1.0044c00000000p-4, -0x1.c801e60000000p-6, 0x1.7608400000000p-4, 0x1.4706b20000000p-3, -0x1.be499e0000000p-4, 0x1.554e6e0000000p-4, -0x1.2d55980000000p-3, 0x1.bcef720000000p-4, 0x1.6ee7200000000p-3, -0x1.e4dab00000000p-6, -0x1.245e7c0000000p-4, 0x1.170b900000000p-4, 0x1.c41e1e0000000p-4, 0x1.1806580000000p-3, -0x1.dd7f940000000p-4}
, {0x1.2a54140000000p-3, 0x1.26ac060000000p-3, -0x1.29a5ee0000000p-5, -0x1.1be5c00000000p-4, -0x1.22f0a00000000p-4, -0x1.76f0080000000p-5, 0x1.00a6f60000000p-5, -0x1.c8cbc20000000p-3, 0x1.1536f00000000p-6, 0x1.24becc0000000p-7, 0x1.9bc39c0000000p-5, 0x1.59b02e0000000p-3, 0x1.5b49060000000p-4, -0x1.f5a4ae0000000p-6, -0x1.b0df160000000p-5, 0x1.85423a0000000p-4, 0x1.9ddb500000000p-5, 0x1.61481e0000000p-3, 0x1.6c59240000000p-4, -0x1.d782ba0000000p-6, -0x1.40e2be0000000p-3, 0x1.4a135c0000000p-4, -0x1.9dd0ee0000000p-10, 0x1.b75f000000000p-4, 0x1.d500680000000p-6, -0x1.7bf2060000000p-3, -0x1.50f67e0000000p-4, -0x1.c37e5a0000000p-5, 0x1.f320920000000p-3, 0x1.e06c9a0000000p-6, -0x1.6b839a0000000p-5, -0x1.fe81b80000000p-4, 0x1.085f820000000p-4, 0x1.df6ff60000000p-5, 0x1.37d66c0000000p-7, 0x1.25ceea0000000p-4, 0x1.6344640000000p-3, -0x1.fcc9300000000p-4, 0x1.3881020000000p-3, 0x1.04ff840000000p-2, 0x1.51a4e60000000p-3, 0x1.3efcfa0000000p-5, 0x1.d7758a0000000p-7, 0x1.43d90c0000000p-6, -0x1.a3693a0000000p-3, -0x1.496fe00000000p-3, 0x1.45272e0000000p-4, 0x1.fc56c20000000p-5, 0x1.ab056c0000000p-4, 0x1.0e02140000000p-2, -0x1.55233a0000000p-5, -0x1.fe6b6e0000000p-4, -0x1.9cd84e0000000p-4, 0x1.5124de0000000p-4, -0x1.3ba3280000000p-3, 0x1.04ea200000000p-5, -0x1.eda6920000000p-3, 0x1.baa4960000000p-8, -0x1.81fdea0000000p-5, 0x1.6e4ff20000000p-3, 0x1.5b6f1c0000000p-4, 0x1.560c3a0000000p-6, -0x1.2a3c860000000p-3, -0x1.0f30b40000000p-4}
, {-0x1.312ca00000000p-3, 0x1.3b6bea0000000p-3, -0x1.1862820000000p-6, -0x1.56882a0000000p-6, 0x1.ceab960000000p-6, -0x1.84401c0000000p-4, 0x1.87c16e0000000p-5, 0x1.c2c1ac0000000p-4, 0x1.bed5ee0000000p-5, 0x1.d3ede00000000p-8, -0x1.104f580000000p-3, 0x1.22d7ae0000000p-5, -0x1.d9ae4c0000000p-6, 0x1.92162a0000000p-3, 0x1.f31e200000000p-6, 0x1.0eb04a0000000p-3, -0x1.e310960000000p-4, -0x1.e4c2a40000000p-6, -0x1.6357940000000p-4, 0x1.a9489e0000000p-5, 0x1.9e911e0000000p-5, 0x1.83e66a0000000p-10, 0x1.6031cc0000000p-5, 0x1.02791a0000000p-6, -0x1.581df20000000p-6, 0x1.75956e0000000p-5, 0x1.02a4500000000p-5, 0x1.06d7180000000p-4, -0x1.eca9e80000000p-6, -0x1.46330a0000000p-3, -0x1.4d1bc40000000p-6, 0x1.09fd960000000p-5, 0x1.b14e620000000p-6, -0x1.8695480000000p-5, -0x1.e433260000000p-5, -0x1.b27cd80000000p-4, -0x1.5078d60000000p-4, -0x1.66342a0000000p-3, 0x1.2a051a0000000p-6, -0x1.895f360000000p-3, 0x1.eef9b00000000p-4, -0x1.c5226e0000000p-5, -0x1.0b38c80000000p-5, 0x1.a8b5d80000000p-5, -0x1.bbb3e20000000p-6, 0x1.7625580000000p-9, 0x1.803df60000000p-4, -0x1.aee40a0000000p-5, -0x1.d3866c0000000p-4, 0x1.3daf240000000p-3, 0x1.0e739a0000000p-3, 0x1.2611f00000000p-4, -0x1.314cfc0000000p-2, 0x1.4193d00000000p-4, -0x1.0f3dd20000000p-3, -0x1.7129ce0000000p-3, 0x1.2d969e0000000p-10, -0x1.35a2a00000000p-10, -0x1.61487e0000000p-4, -0x1.1d955c0000000p-4, 0x1.fd0bec0000000p-5, -0x1.1865240000000p-5, -0x1.12fd820000000p-4, 0x1.07a2820000000p-3}
}
, {{-0x1.565b840000000p-5, 0x1.40a0200000000p-4, -0x1.4bd6cc0000000p-3, -0x1.eb24c20000000p-4, 0x1.1693680000000p-3, 0x1.6d1c3a0000000p-4, 0x1.c87b300000000p-3, 0x1.b5f4da0000000p-3, -0x1.f4d6960000000p-3, 0x1.6387b40000000p-3, 0x1.3ad64a0000000p-4, -0x1.bd3cb60000000p-3, 0x1.9de60a0000000p-4, 0x1.40209c0000000p-4, 0x1.f4ab540000000p-3, 0x1.4767560000000p-4, 0x1.3347660000000p-2, -0x1.81e67e0000000p-3, 0x1.e606940000000p-4, 0x1.140d660000000p-4, -0x1.45904e0000000p-3, -0x1.bb47780000000p-4, -0x1.075d600000000p-3, 0x1.7db2b00000000p-4, 0x1.2953660000000p-3, 0x1.ae02ce0000000p-5, 0x1.3b72bc0000000p-3, -0x1.49467a0000000p-3, -0x1.5025c00000000p-3, -0x1.9531520000000p-5, 0x1.501d9a0000000p-5, -0x1.e025980000000p-6, 0x1.ac92bc0000000p-3, 0x1.6f28300000000p-5, -0x1.4e504c0000000p-6, -0x1.f815240000000p-5, 0x1.4284f40000000p-4, 0x1.d952560000000p-4, -0x1.7ca1b80000000p-6, 0x1.5d38e20000000p-3, 0x1.5c5e9e0000000p-5, 0x1.40fd220000000p-9, -0x1.78f2de0000000p-5, 0x1.1423b00000000p-9, 0x1.54e8b60000000p-4, 0x1.0f81bc0000000p-3, 0x1.fd7ca60000000p-3, 0x1.78e5140000000p-5, 0x1.f6eaa40000000p-4, 0x1.61fd7a0000000p-12, 0x1.c0d7660000000p-4, 0x1.f84f140000000p-3, -0x1.c7ef600000000p-6, 0x1.875d3c0000000p-4, 0x1.3456760000000p-3, 0x1.f94dbc0000000p-4, 0x1.cb1aea0000000p-4, 0x1.f084400000000p-3, 0x1.a4b4800000000p-3, 0x1.29870c0000000p-7, 0x1.4312360000000p-3, -0x1.b2eeac0000000p-4, 0x1.e0bd640000000p-5, -0x1.4619a20000000p-5}
, {0x1.4642ce0000000p-4, 0x1.9bdb740000000p-6, -0x1.1a35ae0000000p-4, -0x1.d8f0700000000p-2, -0x1.662a960000000p-7, -0x1.3009400000000p-2, 0x1.3fcb420000000p-6, -0x1.3b95b20000000p-2, 0x1.ea978e0000000p-4, -0x1.c2d5aa0000000p-4, -0x1.c545920000000p-5, 0x1.be2dc80000000p-4, -0x1.0ff8060000000p-3, -0x1.2a15a60000000p-7, 0x1.6a97820000000p-4, 0x1.f9a3b40000000p-5, -0x1.94293e0000000p-3, 0x1.1d8b000000000p-4, -0x1.20c8280000000p-3, 0x1.6c917e0000000p-6, -0x1.6d65d20000000p-5, -0x1.114b4c0000000p-4, -0x1.ecb6ae0000000p-5, -0x1.3670840000000p-3, -0x1.7e3d360000000p-4, 0x1.346a420000000p-6, 0x1.0eb0c00000000p-5, -0x1.77120a0000000p-5, 0x1.1d75760000000p-3, 0x1.586aae0000000p-3, -0x1.2b70200000000p-3, -0x1.61e49c0000000p-3, -0x1.3b17a40000000p-5, 0x1.f18e140000000p-4, 0x1.4575220000000p-4, 0x1.982be20000000p-6, 0x1.84e80e0000000p-5, 0x1.b2da9a0000000p-4, 0x1.13b73a0000000p-5, 0x1.03f7c20000000p-2, -0x1.7e35c20000000p-4, -0x1.997f1c0000000p-6, -0x1.6e5cce0000000p-4, 0x1.64fa680000000p-3, -0x1.27c1680000000p-3, -0x1.7928120000000p-6, -0x1.8f66a00000000p-4, 0x1.26efee0000000p-5, -0x1.295a020000000p-5, 0x1.cc2ef00000000p-4, -0x1.164e7c0000000p-2, 0x1.2edb040000000p-4, -0x1.95a6460000000p-4, 0x1.f2ab5c0000000p-4, -0x1.aafde80000000p-3, 0x1.d3d2720000000p-8, 0x1.24a0860000000p-5, 0x1.77cf4c0000000p-4, 0x1.d4d5380000000p-4, 0x1.614eea0000000p-3, -0x1.c0ce760000000p-6, -0x1.9854d20000000p-4, -0x1.4ca28a0000000p-6, -0x1.a6e0360000000p-3}
, {-0x1.cdec180000000p-2, -0x1.d6f8be0000000p-5, -0x1.894a0a0000000p-5, -0x1.4f31520000000p-2, 0x1.8483100000000p-5, -0x1.406e2c0000000p-3, -0x1.1a291c0000000p-5, 0x1.f51ee20000000p-4, -0x1.976c9e0000000p-5, 0x1.62e0660000000p-4, -0x1.3d41e00000000p-1, 0x1.76607e0000000p-5, -0x1.9720580000000p-4, -0x1.830ef20000000p-6, 0x1.81128c0000000p-4, -0x1.b7504c0000000p-6, -0x1.9ee3660000000p-5, -0x1.79e9a60000000p-4, -0x1.900f5a0000000p-2, 0x1.0fe22a0000000p-7, 0x1.45de2e0000000p-5, -0x1.933ad80000000p-3, 0x1.a082920000000p-8, -0x1.13fd3e0000000p-1, -0x1.932fb20000000p-2, 0x1.f52e1c0000000p-4, -0x1.16ce280000000p-7, -0x1.88d7400000000p-4, -0x1.00d43c0000000p-7, 0x1.563b4c0000000p-4, -0x1.71f4dc0000000p-3, -0x1.ca59640000000p-4, -0x1.2ea1980000000p-3, -0x1.30f6aa0000000p-3, -0x1.caed560000000p-3, 0x1.ee7bf40000000p-11, -0x1.f5028e0000000p-4, -0x1.ab4d320000000p-3, -0x1.60b32e0000000p-3, 0x1.3f2d200000000p-8, -0x1.48bf5a0000000p-2, 0x1.7ce9b20000000p-4, -0x1.b436cc0000000p-4, -0x1.8676860000000p-2, -0x1.a344260000000p-7, 0x1.3ee7800000000p-3, 0x1.b637720000000p-6, -0x1.c0914c0000000p-3, -0x1.a01c160000000p-2, 0x1.38d7e80000000p-4, -0x1.2ed4040000000p-1, 0x1.7b0bee0000000p-6, -0x1.3d2c780000000p-2, -0x1.e7ecb80000000p-5, 0x1.0944860000000p-4, -0x1.5e98220000000p-3, 0x1.4c47e40000000p-4, 0x1.6875780000000p-5, -0x1.29001e0000000p-5, -0x1.6e5f9c0000000p-3, 0x1.72513a0000000p-6, -0x1.b829080000000p-3, 0x1.c568fc0000000p-3, -0x1.9355020000000p-2}
}
, {{0x1.77d1020000000p-4, 0x1.8ecc580000000p-6, -0x1.0e61cc0000000p-8, 0x1.6543340000000p-5, -0x1.3553c80000000p-3, 0x1.a397640000000p-4, -0x1.44bff20000000p-3, -0x1.1d5eda0000000p-5, 0x1.4c91cc0000000p-3, -0x1.1c53c80000000p-5, 0x1.f4571e0000000p-6, 0x1.91abca0000000p-4, -0x1.04339e0000000p-5, 0x1.2f25020000000p-3, -0x1.d2f44a0000000p-7, 0x1.7a8b020000000p-10, -0x1.a1e7c20000000p-6, 0x1.5d06040000000p-9, 0x1.5357840000000p-4, 0x1.7530e80000000p-5, 0x1.6cd4b60000000p-5, -0x1.09d77c0000000p-7, 0x1.11e4c40000000p-3, 0x1.cc1aae0000000p-5, 0x1.345dce0000000p-4, -0x1.15c64a0000000p-12, -0x1.e831c00000000p-4, 0x1.bd7f280000000p-3, -0x1.c449a20000000p-5, -0x1.d19ffa0000000p-4, -0x1.74695a0000000p-6, -0x1.6fb8e60000000p-4, 0x1.7947900000000p-4, 0x1.83af0e0000000p-4, -0x1.79dfe00000000p-13, 0x1.fee2da0000000p-5, -0x1.dae5580000000p-7, -0x1.56da040000000p-6, 0x1.fdc65e0000000p-4, -0x1.819c860000000p-4, 0x1.53e1ec0000000p-5, -0x1.baf12e0000000p-4, -0x1.e3f9620000000p-6, 0x1.9bcb560000000p-5, -0x1.89a9240000000p-3, 0x1.cd5c420000000p-4, -0x1.121e220000000p-2, 0x1.4df8ac0000000p-3, 0x1.c16c420000000p-6, -0x1.1972680000000p-5, 0x1.54f8480000000p-4, -0x1.50d4ce0000000p-4, 0x1.209dce0000000p-9, -0x1.cdba1a0000000p-7, 0x1.642b600000000p-4, -0x1.c62ac80000000p-9, -0x1.53a5840000000p-4, 0x1.5c22060000000p-4, 0x1.09b18a0000000p-4, 0x1.cd67100000000p-5, 0x1.3c03060000000p-5, 0x1.7c8f060000000p-3, -0x1.0eb25a0000000p-2, -0x1.b53a6a0000000p-7}
, {0x1.d9afe00000000p-5, 0x1.d9437a0000000p-4, 0x1.2824da0000000p-2, 0x1.67cfd80000000p-4, -0x1.3b26e00000000p-6, -0x1.879f740000000p-4, -0x1.ba35f40000000p-4, -0x1.886a160000000p-4, 0x1.71f1c60000000p-4, -0x1.1004640000000p-2, 0x1.873e540000000p-4, -0x1.6cc9fe0000000p-9, -0x1.4c463e0000000p-3, 0x1.16afe40000000p-5, -0x1.4385ba0000000p-3, 0x1.1481380000000p-6, -0x1.a622760000000p-5, 0x1.5513a60000000p-6, 0x1.2bd0b20000000p-7, -0x1.848ca00000000p-5, -0x1.8ee6e20000000p-6, -0x1.9e2cb80000000p-4, -0x1.c744dc0000000p-4, -0x1.5226fe0000000p-8, 0x1.0fef900000000p-5, -0x1.0b12c20000000p-4, -0x1.8d8af20000000p-3, 0x1.2ba8600000000p-3, 0x1.5ff88c0000000p-5, -0x1.f7093a0000000p-3, 0x1.5e3e700000000p-6, -0x1.ad9b940000000p-3, 0x1.50fec00000000p-4, 0x1.8533d60000000p-3, -0x1.ea29440000000p-4, 0x1.3a6df20000000p-4, -0x1.5e2b160000000p-4, 0x1.a8c4e60000000p-4, -0x1.395cf80000000p-6, 0x1.6e2b4e0000000p-8, -0x1.647d1c0000000p-6, -0x1.3179860000000p-8, -0x1.dcd3320000000p-6, 0x1.e79d8a0000000p-4, -0x1.21227e0000000p-3, -0x1.61e0580000000p-3, 0x1.7151040000000p-4, 0x1.9070de0000000p-3, 0x1.2fb47e0000000p-3, 0x1.57a8b60000000p-6, 0x1.9cb9b60000000p-4, -0x1.1fbd500000000p-3, 0x1.9ce6920000000p-8, -0x1.8172a80000000p-9, -0x1.013c500000000p-2, -0x1.0bb05e0000000p-3, 0x1.7358160000000p-5, -0x1.0a76ec0000000p-5, 0x1.42d5a00000000p-3, -0x1.474e1e0000000p-8, 0x1.69c4640000000p-6, -0x1.382b160000000p-5, -0x1.5bb0620000000p-2, -0x1.38d24a0000000p-7}
, {-0x1.ccbfec0000000p-6, -0x1.83190c0000000p-2, 0x1.3c76900000000p-3, -0x1.1fb57c0000000p-4, -0x1.a64c1e0000000p-4, -0x1.e6f7320000000p-3, -0x1.54bc840000000p-6, -0x1.ef20a60000000p-4, -0x1.3266760000000p-2, -0x1.3324360000000p-6, -0x1.64066e0000000p-3, 0x1.48f5f00000000p-3, -0x1.23a2580000000p-3, -0x1.de652e0000000p-3, -0x1.56109c0000000p-6, -0x1.43d6880000000p-3, 0x1.7f23fa0000000p-7, -0x1.5310820000000p-4, -0x1.c657600000000p-4, -0x1.fd9e9a0000000p-3, -0x1.163f240000000p-4, -0x1.447fb80000000p-3, 0x1.50826e0000000p-6, -0x1.2ee41a0000000p-5, -0x1.fe19140000000p-4, -0x1.8cd8840000000p-3, -0x1.63892e0000000p-4, 0x1.0c0e320000000p-3, 0x1.69fa100000000p-3, -0x1.1a8cc40000000p-5, -0x1.1808180000000p-2, -0x1.145d8a0000000p-2, -0x1.1578620000000p-3, -0x1.1d2f860000000p-3, -0x1.2f83980000000p-2, 0x1.e286dc0000000p-5, -0x1.ea88800000000p-13, -0x1.eb9eea0000000p-5, -0x1.5b3cce0000000p-5, 0x1.3954da0000000p-4, -0x1.7c28580000000p-3, -0x1.14feda0000000p-7, -0x1.bf95800000000p-3, -0x1.8973680000000p-6, -0x1.4380ca0000000p-3, -0x1.3ce5b20000000p-5, -0x1.42c3ba0000000p-3, -0x1.2451d60000000p-3, -0x1.0a6e620000000p-4, -0x1.6f5c1a0000000p-4, -0x1.026d3a0000000p-2, -0x1.1a94940000000p-2, -0x1.79139e0000000p-2, 0x1.86c9200000000p-6, -0x1.0e535a0000000p-2, -0x1.3de9d00000000p-3, -0x1.dbecae0000000p-6, -0x1.ceb2c60000000p-3, -0x1.8496860000000p-3, -0x1.2d3b420000000p-3, -0x1.3a27160000000p-3, 0x1.3cf39e0000000p-5, -0x1.5a39880000000p-5, -0x1.803be40000000p-2}
}
}
, {{{-0x1.c7f2560000000p-5, -0x1.107ff80000000p-3, -0x1.f5cc4a0000000p-6, 0x1.0825dc0000000p-4, 0x1.37eaf40000000p-5, 0x1.df9be00000000p-3, 0x1.4e76d80000000p-5, 0x1.2278b60000000p-3, 0x1.4943d20000000p-10, -0x1.266b980000000p-4, -0x1.29c64a0000000p-2, 0x1.4d53e40000000p-3, -0x1.6fed9a0000000p-4, 0x1.08671c0000000p-3, 0x1.4e6b640000000p-6, -0x1.f7e6320000000p-4, 0x1.8ff89a0000000p-3, 0x1.9342e00000000p-3, -0x1.3429780000000p-2, -0x1.4689be0000000p-6, 0x1.4f1fd60000000p-3, 0x1.1693c00000000p-4, -0x1.94ac560000000p-4, -0x1.5575da0000000p-3, -0x1.0912ba0000000p-3, 0x1.63d4da0000000p-3, 0x1.ed561e0000000p-3, -0x1.fa83fa0000000p-5, 0x1.d9c8660000000p-4, -0x1.7810c60000000p-6, -0x1.9512c00000000p-5, -0x1.66b7e40000000p-5, 0x1.fcd72c0000000p-5, 0x1.3165f00000000p-3, -0x1.781e960000000p-4, -0x1.ccb95c0000000p-8, -0x1.6bf71e0000000p-4, -0x1.e0b2540000000p-5, -0x1.879bcc0000000p-8, -0x1.770de60000000p-5, -0x1.8eb2c80000000p-5, -0x1.bda9820000000p-4, 0x1.1df1ba0000000p-8, -0x1.5487f20000000p-3, 0x1.03bed20000000p-4, 0x1.f186c40000000p-5, -0x1.df1c920000000p-5, -0x1.89fac40000000p-3, -0x1.97e1240000000p-4, 0x1.9a45a00000000p-4, -0x1.9716d00000000p-3, -0x1.c3e6fa0000000p-4, 0x1.2bf61c0000000p-3, -0x1.3d8d840000000p-3, 0x1.44ccd40000000p-3, 0x1.537b4e0000000p-4, 0x1.0b571a0000000p-3, 0x1.302eae0000000p-6, 0x1.a9d7020000000p-5, 0x1.2bc9840000000p-6, 0x1.f760200000000p-6, -0x1.40b5a60000000p-3, 0x1.3da7480000000p-4, -0x1.18dfce0000000p-5}
, {0x1.ea6c040000000p-4, -0x1.6d1d6e0000000p-3, 0x1.6431e20000000p-4, 0x1.3e24f80000000p-6, 0x1.5b36ce0000000p-3, 0x1.42b00c0000000p-7, -0x1.77679a0000000p-5, -0x1.500b460000000p-4, 0x1.39d9360000000p-3, -0x1.89fa1c0000000p-4, -0x1.1f6e080000000p-4, 0x1.47e4020000000p-3, -0x1.a46cf00000000p-3, 0x1.47b8260000000p-3, 0x1.69920e0000000p-3, 0x1.01a6660000000p-6, 0x1.4d77000000000p-3, 0x1.26985c0000000p-5, 0x1.a3a0d80000000p-4, -0x1.fd4e880000000p-3, -0x1.f4fef20000000p-4, -0x1.18d4660000000p-4, 0x1.ee93c40000000p-5, 0x1.e9056e0000000p-5, -0x1.ee39a80000000p-5, -0x1.4a662c0000000p-4, 0x1.68093e0000000p-4, 0x1.f08e060000000p-6, 0x1.33932e0000000p-5, -0x1.5c909e0000000p-5, -0x1.ad23bc0000000p-5, -0x1.06721e0000000p-4, 0x1.bcb8280000000p-6, 0x1.4163b20000000p-3, -0x1.6641080000000p-3, 0x1.f280aa0000000p-3, 0x1.7a37ae0000000p-3, 0x1.b4670a0000000p-3, 0x1.7f4f1e0000000p-3, -0x1.a39f3a0000000p-9, -0x1.1b11dc0000000p-4, 0x1.5fa36a0000000p-3, -0x1.7192da0000000p-6, -0x1.9fd0260000000p-3, -0x1.f1ccc80000000p-3, -0x1.2d10300000000p-4, 0x1.6996420000000p-10, -0x1.ffe6860000000p-6, -0x1.1473560000000p-6, 0x1.f75af60000000p-6, -0x1.8d5de00000000p-3, 0x1.19a83e0000000p-4, -0x1.eddb2c0000000p-4, 0x1.306b8e0000000p-3, -0x1.73b72a0000000p-7, -0x1.8a57340000000p-4, -0x1.ced6c00000000p-5, -0x1.80618e0000000p-7, 0x1.aae2fc0000000p-3, -0x1.bbc9140000000p-5, 0x1.a38b020000000p-5, 0x1.1cdb3c0000000p-5, -0x1.bc5eca0000000p-5, -0x1.9489a40000000p-4}
, {0x1.045ab60000000p-3, 0x1.b97ffa0000000p-8, -0x1.1f85500000000p-4, 0x1.398a100000000p-3, -0x1.885d340000000p-4, 0x1.adcb340000000p-5, -0x1.563b200000000p-2, 0x1.a2e8d00000000p-2, 0x1.44bbe80000000p-8, 0x1.29a7ca0000000p-2, -0x1.1cc88e0000000p-4, -0x1.a4a8600000000p-5, 0x1.0c42940000000p-5, -0x1.c300580000000p-4, 0x1.de6d700000000p-4, 0x1.638ffe0000000p-5, 0x1.4c462c0000000p-6, 0x1.0d5f740000000p-3, -0x1.2819f00000000p-4, 0x1.0d1ec00000000p-3, 0x1.16bd420000000p-7, 0x1.a751980000000p-5, 0x1.a260360000000p-5, 0x1.a1ddf20000000p-3, -0x1.74b7380000000p-3, 0x1.1fd4800000000p-2, 0x1.bef5ac0000000p-10, 0x1.7602ca0000000p-3, 0x1.ba81940000000p-4, -0x1.a9f15e0000000p-8, -0x1.63182c0000000p-5, -0x1.5a56620000000p-4, -0x1.6f18240000000p-3, -0x1.aa56500000000p-4, 0x1.bf60300000000p-4, 0x1.437f020000000p-3, -0x1.cbe9140000000p-4, -0x1.250df20000000p-5, 0x1.482d060000000p-3, 0x1.50aea80000000p-5, -0x1.71834e0000000p-3, 0x1.b885d80000000p-3, -0x1.2bc54e0000000p-3, -0x1.0d6e600000000p-3, -0x1.c60bdc0000000p-4, 0x1.24a9420000000p-8, 0x1.0c52b00000000p-7, -0x1.b6730e0000000p-4, -0x1.1d531c0000000p-3, -0x1.1916740000000p-4, 0x1.b37bb80000000p-7, 0x1.b83bb60000000p-3, -0x1.d6cf940000000p-3, -0x1.f9ccfe0000000p-4, 0x1.9f9d540000000p-3, -0x1.27818c0000000p-4, 0x1.4ef5ba0000000p-3, 0x1.dce7700000000p-9, -0x1.fcdc100000000p-5, -0x1.3894e40000000p-2, 0x1.71b8600000000p-5, 0x1.f01b3a0000000p-4, -0x1.96088e0000000p-8, 0x1.7ac3a00000000p-5}
}
, {{0x1.060f700000000p-5, -0x1.2c211c0000000p-5, -0x1.2e62fa0000000p-3, 0x1.487b760000000p-3, -0x1.c7eac00000000p-5, -0x1.21f1880000000p-2, 0x1.0d77320000000p-4, -0x1.d526d20000000p-7, 0x1.63d99c0000000p-4, -0x1.0af0340000000p-5, 0x1.a4e0700000000p-4, -0x1.01b5d40000000p-2, 0x1.ed1b140000000p-4, -0x1.42b4c00000000p-3, 0x1.a56aca0000000p-7, 0x1.7cd9660000000p-5, 0x1.8d89ba0000000p-3, -0x1.c4ca400000000p-2, 0x1.135d640000000p-3, 0x1.210d540000000p-3, -0x1.4108080000000p-3, -0x1.3519aa0000000p-3, -0x1.49489a0000000p-3, -0x1.f67ab40000000p-5, 0x1.bbb1d80000000p-5, 0x1.c01b180000000p-8, -0x1.a7ff460000000p-3, -0x1.1c8fac0000000p-2, -0x1.e979840000000p-3, -0x1.611a000000000p-3, -0x1.e084320000000p-5, -0x1.8c28f40000000p-3, 0x1.22a42c0000000p-3, -0x1.041b9e0000000p-2, 0x1.cc34ba0000000p-9, -0x1.fb60fc0000000p-4, -0x1.3288d80000000p-7, 0x1.409bb20000000p-3, 0x1.9053c40000000p-4, -0x1.62ebec0000000p-4, 0x1.231afc0000000p-3, -0x1.6671e40000000p-6, -0x1.03211a0000000p-6, -0x1.a1f3220000000p-4, 0x1.5964680000000p-6, -0x1.fc22720000000p-6, 0x1.0432fa0000000p-5, 0x1.ec927e0000000p-6, 0x1.4061420000000p-4, -0x1.13c7e40000000p-2, -0x1.e329400000000p-4, 0x1.d398120000000p-3, 0x1.d9fcda0000000p-5, 0x1.dc37260000000p-5, -0x1.e947dc0000000p-4, -0x1.3f9e2c0000000p-3, 0x1.7868b60000000p-3, 0x1.9cd45a0000000p-3, -0x1.2170d40000000p-4, -0x1.3228aa0000000p-5, -0x1.6a7d1c0000000p-6, -0x1.1c80820000000p-4, -0x1.bedc800000000p-3, -0x1.51e23a0000000p-3}
, {0x1.4b2d760000000p-3, 0x1.dfea7e0000000p-4, -0x1.88fd0a0000000p-3, -0x1.7810ac0000000p-4, -0x1.324a100000000p-4, -0x1.6392760000000p-2, 0x1.b8b97a0000000p-5, -0x1.1d34ac0000000p-2, -0x1.18ddc80000000p-3, -0x1.f512bc0000000p-4, -0x1.6673b00000000p-6, -0x1.5810320000000p-2, 0x1.ecec300000000p-7, -0x1.03e39e0000000p-3, -0x1.07a2cc0000000p-6, 0x1.b440da0000000p-5, -0x1.78a5160000000p-3, 0x1.c56fa00000000p-5, -0x1.ea443c0000000p-4, 0x1.19b1da0000000p-3, -0x1.4aa47e0000000p-4, 0x1.73c1fc0000000p-9, -0x1.a736400000000p-3, -0x1.06e8400000000p-4, -0x1.2c35680000000p-4, -0x1.6b98240000000p-6, -0x1.6876a80000000p-4, 0x1.22947c0000000p-3, -0x1.0909ec0000000p-2, 0x1.be47d60000000p-3, 0x1.399bc00000000p-5, 0x1.8f43d00000000p-6, -0x1.604f400000000p-7, -0x1.eb30520000000p-3, 0x1.c8cdf60000000p-9, -0x1.178e9e0000000p-4, 0x1.d9e9ca0000000p-8, -0x1.8ea9900000000p-3, 0x1.8ad4460000000p-4, -0x1.20568e0000000p-4, 0x1.4af1b00000000p-7, -0x1.bed4e80000000p-3, 0x1.af4fbc0000000p-4, 0x1.50ba480000000p-4, 0x1.3d1bd80000000p-4, 0x1.42e2f40000000p-6, 0x1.8446d60000000p-7, -0x1.43584c0000000p-8, -0x1.8e2e420000000p-3, 0x1.3c938a0000000p-5, 0x1.d238720000000p-4, -0x1.3fb4d80000000p-5, -0x1.3a77320000000p-2, 0x1.5eb5760000000p-4, -0x1.55b4aa0000000p-3, -0x1.b835440000000p-8, 0x1.7438a40000000p-4, 0x1.4b118c0000000p-3, -0x1.2d8f600000000p-2, 0x1.02726c0000000p-4, -0x1.5fa5100000000p-3, 0x1.31f9fe0000000p-3, 0x1.2f8c520000000p-3, 0x1.ab8ce00000000p-3}
, {-0x1.c682ae0000000p-5, -0x1.8b06780000000p-5, -0x1.40a6120000000p-2, 0x1.96fdda0000000p-4, -0x1.2ebba20000000p-6, -0x1.1969600000000p-4, 0x1.a682a00000000p-4, -0x1.836a980000000p-4, 0x1.2aa8c80000000p-4, 0x1.40a3be0000000p-5, -0x1.201fce0000000p-4, -0x1.c7288e0000000p-4, -0x1.2e63260000000p-4, 0x1.f854340000000p-5, 0x1.74638a0000000p-5, 0x1.4bbc260000000p-7, -0x1.df5db80000000p-3, 0x1.1811c20000000p-3, 0x1.0db9cc0000000p-3, 0x1.1b0b120000000p-3, -0x1.8c72680000000p-3, 0x1.392fdc0000000p-6, 0x1.b8788e0000000p-4, -0x1.b207fa0000000p-3, 0x1.576d420000000p-5, 0x1.850dac0000000p-4, -0x1.144c620000000p-3, -0x1.640dc00000000p-2, 0x1.6917640000000p-4, 0x1.83b7540000000p-3, -0x1.ecd56a0000000p-5, 0x1.961b9c0000000p-4, -0x1.ff0de00000000p-9, -0x1.4d2b540000000p-6, -0x1.88de180000000p-4, 0x1.37249c0000000p-4, -0x1.3ffd9a0000000p-6, 0x1.1d75e00000000p-4, -0x1.ae21c80000000p-2, -0x1.bdf11a0000000p-7, -0x1.11c8060000000p-3, -0x1.9f22380000000p-4, -0x1.7bf1b20000000p-7, 0x1.fa3f060000000p-4, -0x1.ab06ce0000000p-3, 0x1.4b874a0000000p-3, -0x1.4632080000000p-4, 0x1.51d2fc0000000p-3, -0x1.ba1f420000000p-4, 0x1.7d06420000000p-4, 0x1.321d1a0000000p-3, -0x1.aa7c5c0000000p-3, -0x1.9718aa0000000p-3, 0x1.56943c0000000p-4, -0x1.5aa0ae0000000p-5, 0x1.b579180000000p-4, 0x1.a69ce00000000p-4, 0x1.ef34840000000p-5, -0x1.d878d20000000p-6, -0x1.ba707a0000000p-6, 0x1.9565340000000p-4, 0x1.d91ae20000000p-4, 0x1.0e653e0000000p-4, -0x1.0c18fe0000000p-5}
}
, {{-0x1.931aba0000000p-5, -0x1.3a40b40000000p-3, 0x1.069efc0000000p-4, -0x1.4a70540000000p-5, -0x1.ed44c80000000p-8, 0x1.1a4cca0000000p-4, 0x1.bc73300000000p-5, 0x1.21eb020000000p-4, -0x1.fb30d40000000p-4, -0x1.5ab1fa0000000p-3, -0x1.36c47c0000000p-2, 0x1.924c6a0000000p-5, -0x1.33cbaa0000000p-2, 0x1.748cf80000000p-3, 0x1.2a08f80000000p-12, -0x1.633fa80000000p-7, -0x1.b6a0dc0000000p-5, -0x1.3c8a920000000p-8, -0x1.58b83e0000000p-5, -0x1.be36ea0000000p-4, -0x1.a4babe0000000p-3, -0x1.bad38c0000000p-5, 0x1.33cfb00000000p-4, 0x1.64a8a20000000p-3, 0x1.76475c0000000p-5, -0x1.0f27f80000000p-3, 0x1.1b8f080000000p-3, 0x1.7b1d380000000p-5, -0x1.c349c00000000p-3, 0x1.8a3be00000000p-4, 0x1.f07f9e0000000p-5, -0x1.cebbb60000000p-6, -0x1.4e0ac20000000p-7, -0x1.f4cf420000000p-4, -0x1.a392220000000p-3, 0x1.3c7db20000000p-4, -0x1.7fec680000000p-3, -0x1.2792900000000p-3, 0x1.36c5ea0000000p-4, -0x1.56b8ec0000000p-4, 0x1.8a61160000000p-5, -0x1.5606da0000000p-4, -0x1.4e42920000000p-3, 0x1.7c21940000000p-3, -0x1.c8c2500000000p-7, -0x1.2502600000000p-3, 0x1.0ba4ba0000000p-3, -0x1.6f9d040000000p-3, -0x1.760e520000000p-3, -0x1.3f72f60000000p-6, -0x1.46893a0000000p-4, -0x1.4e70620000000p-3, -0x1.3a8a580000000p-3, 0x1.db86de0000000p-4, 0x1.3e4ae60000000p-4, 0x1.a878c60000000p-4, -0x1.4590640000000p-7, -0x1.78d4a00000000p-8, 0x1.6398460000000p-4, -0x1.2e5e0c0000000p-5, 0x1.8d9e640000000p-3, -0x1.34a4bc0000000p-3, -0x1.6233e20000000p-4, -0x1.4585360000000p-3}
, {-0x1.5a17900000000p-2, -0x1.c900b60000000p-3, -0x1.8b9aa80000000p-4, -0x1.e88b820000000p-3, -0x1.2557fc0000000p-4, -0x1.205ea80000000p-4, -0x1.1655ba0000000p-3, 0x1.7dd4140000000p-5, 0x1.4b38fe0000000p-4, -0x1.cf441c0000000p-6, -0x1.b278b00000000p-4, 0x1.e144a40000000p-6, -0x1.b462980000000p-4, 0x1.7b2b380000000p-5, -0x1.0a35e40000000p-4, -0x1.ba58c20000000p-3, -0x1.31a4780000000p-2, -0x1.b18cce0000000p-5, -0x1.47aea60000000p-2, -0x1.3f36ba0000000p-4, 0x1.b2d1da0000000p-4, -0x1.7415000000000p-3, 0x1.eb884a0000000p-5, -0x1.85a1e60000000p-3, -0x1.2adc820000000p-2, -0x1.5648600000000p-4, 0x1.05f1b40000000p-4, -0x1.3d5e680000000p-3, 0x1.23a6de0000000p-5, 0x1.1ffde00000000p-3, 0x1.792c900000000p-7, -0x1.87904a0000000p-4, -0x1.4063a80000000p-2, 0x1.6ca6a40000000p-3, -0x1.a1498a0000000p-6, 0x1.4c0b8c0000000p-3, -0x1.1fd9c20000000p-2, -0x1.7057320000000p-3, -0x1.88f84a0000000p-2, 0x1.d369940000000p-6, -0x1.3187c80000000p-2, 0x1.7504460000000p-4, -0x1.61d5c40000000p-4, -0x1.7ebbc60000000p-3, 0x1.a525260000000p-5, 0x1.46ba440000000p-8, -0x1.b5cbd00000000p-4, -0x1.09f7f20000000p-4, -0x1.fd116e0000000p-5, 0x1.c367780000000p-4, -0x1.c260880000000p-4, 0x1.15197a0000000p-4, -0x1.154e680000000p-3, -0x1.a051ee0000000p-3, -0x1.a8ff160000000p-5, 0x1.5808900000000p-3, 0x1.bb9d760000000p-4, 0x1.f933e60000000p-5, -0x1.6fafbc0000000p-4, -0x1.a9e28a0000000p-4, 0x1.29a4e40000000p-4, -0x1.21c9500000000p-2, -0x1.50ad200000000p-5, 0x1.5aba200000000p-6}
, {-0x1.8e02e40000000p-3, -0x1.3131b60000000p-3, -0x1.aba0b40000000p-4, -0x1.3caf4c0000000p-4, -0x1.39c4f80000000p-2, 0x1.1fd36e0000000p-3, -0x1.b2fe220000000p-3, 0x1.5fdcbc0000000p-3, 0x1.28499e0000000p-2, 0x1.b2a4ea0000000p-6, -0x1.2429fa0000000p-4, -0x1.09ed660000000p-2, -0x1.a38b660000000p-4, 0x1.2134040000000p-3, -0x1.31e8aa0000000p-4, 0x1.8db8700000000p-7, -0x1.39d4c00000000p-3, -0x1.8833b00000000p-6, -0x1.03929e0000000p-2, 0x1.7c22740000000p-4, 0x1.9b80f00000000p-4, -0x1.f7084a0000000p-6, -0x1.3fcfec0000000p-2, -0x1.740bf20000000p-3, -0x1.0d29ee0000000p-3, 0x1.98c6d40000000p-3, 0x1.1006760000000p-4, 0x1.05c4800000000p-3, -0x1.65dd9c0000000p-3, -0x1.75dbb60000000p-7, 0x1.7f90040000000p-4, -0x1.abf0380000000p-4, -0x1.3255f00000000p-8, 0x1.8366e20000000p-4, 0x1.929dd80000000p-5, -0x1.0883880000000p-2, -0x1.2a5c720000000p-2, -0x1.74cd7e0000000p-3, -0x1.c2a2d60000000p-3, -0x1.94153e0000000p-3, -0x1.c631e40000000p-6, -0x1.13386e0000000p-4, -0x1.dc0f4a0000000p-5, -0x1.df111c0000000p-3, 0x1.1a97a60000000p-3, 0x1.b28a560000000p-4, -0x1.2cd33c0000000p-2, -0x1.4f0a520000000p-3, -0x1.03fb8a0000000p-3, -0x1.2c21000000000p-2, 0x1.7c65e20000000p-3, 0x1.8e5e380000000p-5, 0x1.f229fa0000000p-6, -0x1.2f26c00000000p-4, 0x1.1967900000000p-3, 0x1.3c63ae0000000p-5, 0x1.ae3d0e0000000p-4, 0x1.7054ae0000000p-5, -0x1.6498560000000p-4, -0x1.3e79d80000000p-3, -0x1.6ab8460000000p-3, -0x1.0dad800000000p-3, -0x1.13ebb40000000p-4, 0x1.0e78440000000p-4}
}
}
, {{{0x1.7f8cee0000000p-8, -0x1.aab4f60000000p-5, -0x1.6eb5f00000000p-4, -0x1.5233640000000p-8, -0x1.2d3dd80000000p-2, -0x1.1aaff00000000p-4, -0x1.acd9900000000p-3, 0x1.35a2160000000p-3, 0x1.f1830c0000000p-5, -0x1.4b537a0000000p-4, -0x1.0fd1580000000p-4, -0x1.ebf09e0000000p-3, -0x1.2d8a040000000p-3, -0x1.c063ce0000000p-4, -0x1.03f5fc0000000p-2, -0x1.8b06060000000p-5, -0x1.4a502c0000000p-5, 0x1.5363fc0000000p-6, -0x1.ae37a40000000p-3, 0x1.d523c80000000p-5, -0x1.7e4b040000000p-3, 0x1.ffe4ac0000000p-4, -0x1.0200d40000000p-4, -0x1.13e93a0000000p-3, -0x1.4eb22c0000000p-5, 0x1.4e46960000000p-2, -0x1.0078200000000p-4, -0x1.7570060000000p-3, -0x1.da500c0000000p-4, 0x1.2e81420000000p-6, 0x1.29b02c0000000p-4, 0x1.46cf3c0000000p-4, -0x1.8722ce0000000p-7, 0x1.0da1140000000p-3, 0x1.9b993e0000000p-10, -0x1.47d4280000000p-2, -0x1.32c5980000000p-3, -0x1.3890160000000p-4, -0x1.321ee40000000p-2, -0x1.54cb5c0000000p-4, -0x1.1ed3a60000000p-5, -0x1.0f0e0c0000000p-4, -0x1.c3041e0000000p-6, 0x1.8c53be0000000p-7, 0x1.21e90e0000000p-4, 0x1.ed804a0000000p-5, -0x1.a702600000000p-5, -0x1.ef38300000000p-5, -0x1.f1ad180000000p-4, 0x1.240cd60000000p-4, -0x1.b77f940000000p-3, 0x1.eae2460000000p-4, 0x1.ad4e020000000p-5, -0x1.995fd60000000p-3, 0x1.27c70a0000000p-7, 0x1.d3e67c0000000p-5, 0x1.b1da3c0000000p-3, 0x1.dfb5360000000p-4, 0x1.23fe4e0000000p-2, -0x1.6460520000000p-3, -0x1.d1e0a00000000p-4, -0x1.3e63f20000000p-5, -0x1.c35dca0000000p-10, -0x1.107b740000000p-3}
, {0x1.3d28700000000p-3, 0x1.8eec480000000p-4, -0x1.05533c0000000p-2, -0x1.f85ac20000000p-6, -0x1.55a8ac0000000p-4, 0x1.56775a0000000p-6, 0x1.10ba040000000p-5, -0x1.c5eafe0000000p-5, -0x1.60d5220000000p-3, -0x1.e1646e0000000p-4, 0x1.ea42720000000p-5, 0x1.772b720000000p-4, 0x1.c7fba40000000p-5, 0x1.d7c5400000000p-5, -0x1.5ee4cc0000000p-3, 0x1.bb10b20000000p-8, -0x1.fd97fa0000000p-4, -0x1.fddab00000000p-6, -0x1.9d00660000000p-3, -0x1.d024d60000000p-5, 0x1.a4a39e0000000p-4, 0x1.b777200000000p-4, 0x1.ff7bea0000000p-5, -0x1.38b17a0000000p-3, -0x1.04aa260000000p-3, 0x1.d9bcc20000000p-6, -0x1.9f976a0000000p-3, -0x1.07b3e20000000p-3, 0x1.876bac0000000p-3, -0x1.3232840000000p-3, -0x1.25a5fc0000000p-5, -0x1.a93f6e0000000p-4, 0x1.2abb420000000p-5, -0x1.4c45060000000p-3, -0x1.24e6700000000p-4, -0x1.88ecec0000000p-4, -0x1.bdaeaa0000000p-4, 0x1.a633520000000p-5, -0x1.2d51a40000000p-3, 0x1.10920c0000000p-3, -0x1.36f0de0000000p-6, -0x1.08de600000000p-3, -0x1.a77e540000000p-7, 0x1.4df4960000000p-7, 0x1.7de5020000000p-4, -0x1.ecf1de0000000p-3, -0x1.4aca660000000p-3, 0x1.8ee9620000000p-3, 0x1.9a476a0000000p-3, 0x1.421cb60000000p-5, -0x1.66f48a0000000p-8, -0x1.826e840000000p-4, 0x1.1ea9360000000p-3, 0x1.a1e5fa0000000p-3, -0x1.3ace860000000p-6, -0x1.1dbd240000000p-4, -0x1.0ae35a0000000p-4, -0x1.05b10e0000000p-3, -0x1.fa809c0000000p-5, 0x1.e98c880000000p-3, 0x1.93d5b80000000p-10, 0x1.303c2c0000000p-3, -0x1.6e246a0000000p-4, -0x1.f2c2be0000000p-7}
, {0x1.db4b000000000p-6, 0x1.462f040000000p-6, -0x1.1b7bdc0000000p-3, 0x1.3ba56c0000000p-4, 0x1.8f23320000000p-5, 0x1.f116fc0000000p-4, 0x1.1205ba0000000p-4, -0x1.1dcc940000000p-4, 0x1.cb622c0000000p-5, -0x1.b5180e0000000p-3, -0x1.29df800000000p-5, -0x1.2d1dde0000000p-2, -0x1.640c400000000p-2, 0x1.46f00a0000000p-3, 0x1.7f68d00000000p-3, -0x1.c69ec00000000p-5, -0x1.af6cee0000000p-5, -0x1.6681520000000p-6, 0x1.db3b400000000p-5, -0x1.07ef8a0000000p-4, 0x1.2fa28a0000000p-2, 0x1.85798e0000000p-5, 0x1.4252c00000000p-4, 0x1.831cce0000000p-3, -0x1.6f58ba0000000p-3, -0x1.3471e00000000p-5, 0x1.4adc340000000p-4, 0x1.0dba080000000p-2, 0x1.c8a16a0000000p-4, 0x1.a587fc0000000p-3, -0x1.c2da660000000p-7, 0x1.5457c00000000p-4, -0x1.4b3ea40000000p-7, -0x1.11beea0000000p-4, 0x1.4f92bc0000000p-7, 0x1.9cb8a60000000p-4, -0x1.b8450a0000000p-4, 0x1.63e0c80000000p-4, 0x1.a9777e0000000p-5, 0x1.7f90a60000000p-4, -0x1.82abf80000000p-9, -0x1.1502de0000000p-2, 0x1.8b1d1c0000000p-4, 0x1.5025ca0000000p-3, 0x1.14aae60000000p-3, -0x1.61d5300000000p-4, 0x1.764c220000000p-4, 0x1.01ba840000000p-5, -0x1.50d2de0000000p-2, 0x1.6c193a0000000p-3, 0x1.10eef00000000p-2, -0x1.700d580000000p-3, -0x1.262e040000000p-3, 0x1.8350400000000p-4, 0x1.a271f80000000p-5, 0x1.4ee4ea0000000p-3, 0x1.74999e0000000p-5, 0x1.c7e6280000000p-6, -0x1.6b2c160000000p-6, 0x1.0226f80000000p-3, 0x1.49d5c00000000p-3, 0x1.c2ca5c0000000p-6, 0x1.f011540000000p-5, 0x1.08b0fc0000000p-2}
}
, {{0x1.5b79320000000p-4, 0x1.1508b00000000p-4, -0x1.2371080000000p-4, -0x1.8fe5c80000000p-3, -0x1.93f85c0000000p-2, -0x1.29cbc60000000p-4, -0x1.519ce20000000p-2, -0x1.4d53220000000p-5, 0x1.10472a0000000p-4, -0x1.c669e20000000p-4, 0x1.1d05020000000p-3, -0x1.40eb380000000p-4, 0x1.570a660000000p-6, -0x1.7a9fc40000000p-4, -0x1.eebcda0000000p-3, -0x1.080c300000000p-6, -0x1.7b7a440000000p-6, 0x1.9821600000000p-4, -0x1.793d1c0000000p-5, 0x1.63946a0000000p-4, -0x1.66270a0000000p-5, 0x1.0533de0000000p-3, -0x1.391a6c0000000p-3, -0x1.50f1b80000000p-3, 0x1.a1c9a20000000p-4, -0x1.d89d740000000p-4, -0x1.35bc760000000p-2, -0x1.de75ca0000000p-6, 0x1.9c08420000000p-6, 0x1.970ea40000000p-4, -0x1.fe81760000000p-5, -0x1.939d360000000p-3, 0x1.98c3d20000000p-9, 0x1.0619420000000p-3, 0x1.acf66c0000000p-6, -0x1.0559c00000000p-2, -0x1.8bee800000000p-3, -0x1.09ef360000000p-3, -0x1.83da4c0000000p-3, -0x1.a9d3420000000p-3, 0x1.3827e80000000p-4, -0x1.4b9e520000000p-5, 0x1.8e36b80000000p-6, -0x1.fcb56e0000000p-3, 0x1.4983500000000p-7, -0x1.83d2d40000000p-7, 0x1.3128c60000000p-5, -0x1.17c5720000000p-3, 0x1.b6f0760000000p-3, -0x1.0223fe0000000p-2, 0x1.8f8c9e0000000p-5, -0x1.4629c60000000p-5, 0x1.3209220000000p-2, -0x1.6cae980000000p-3, -0x1.03c7840000000p-3, 0x1.576b620000000p-5, -0x1.dde0d40000000p-5, 0x1.0bf3ba0000000p-4, 0x1.91857c0000000p-3, -0x1.1bbe7e0000000p-5, -0x1.43ce1e0000000p-2, 0x1.9065dc0000000p-5, 0x1.2ec2880000000p-7, 0x1.6d266e0000000p-12}
, {-0x1.f4f2d00000000p-5, -0x1.97c7fa0000000p-4, -0x1.9adb160000000p-6, -0x1.8acb080000000p-4, 0x1.c3e4000000000p-5, 0x1.d2115e0000000p-4, 0x1.6ae74e0000000p-4, -0x1.4057c00000000p-7, -0x1.1507700000000p-4, 0x1.2bd8620000000p-5, -0x1.7864a00000000p-4, -0x1.273a100000000p-3, -0x1.6105660000000p-4, -0x1.a388b20000000p-7, 0x1.435b0a0000000p-6, -0x1.a6653e0000000p-4, 0x1.2c99cc0000000p-7, -0x1.bf514c0000000p-4, -0x1.9e6b1e0000000p-7, -0x1.e666000000000p-4, 0x1.2ac1400000000p-9, -0x1.5c9eb60000000p-3, 0x1.ef50400000000p-4, 0x1.8f34e60000000p-5, 0x1.909f1c0000000p-7, 0x1.0193aa0000000p-6, -0x1.3825140000000p-3, 0x1.ca9e340000000p-3, -0x1.2e59de0000000p-4, 0x1.8011240000000p-4, -0x1.41b6440000000p-4, -0x1.1bb83c0000000p-7, 0x1.71db620000000p-5, -0x1.1f22860000000p-7, -0x1.fef09c0000000p-4, -0x1.3d95bc0000000p-3, -0x1.3e0aae0000000p-6, -0x1.b750300000000p-4, 0x1.eae6520000000p-5, -0x1.82672c0000000p-3, -0x1.0da3ba0000000p-4, -0x1.54f48c0000000p-3, 0x1.2b51a60000000p-6, -0x1.201a940000000p-4, -0x1.5502900000000p-4, -0x1.cce0da0000000p-4, -0x1.39c50c0000000p-5, -0x1.0447a40000000p-3, -0x1.70573c0000000p-4, -0x1.0a3c020000000p-4, -0x1.b023460000000p-5, -0x1.2d65da0000000p-3, -0x1.33d6280000000p-3, 0x1.787f020000000p-4, 0x1.0b64860000000p-4, 0x1.243d640000000p-5, -0x1.c82a3a0000000p-6, -0x1.ccbef40000000p-5, 0x1.5362a60000000p-4, -0x1.a4cd120000000p-4, -0x1.c1549e0000000p-4, 0x1.a502d80000000p-5, -0x1.c54b1a0000000p-5, -0x1.1d178a0000000p-4}
, {-0x1.7df7d40000000p-13, -0x1.15a4ae0000000p-4, 0x1.b163220000000p-5, -0x1.4dced20000000p-4, 0x1.db49ee0000000p-4, -0x1.18e4600000000p-4, 0x1.b0ea200000000p-7, 0x1.304c060000000p-3, -0x1.f537e60000000p-4, 0x1.b20dd40000000p-11, 0x1.ade12e0000000p-4, 0x1.bed7a80000000p-7, 0x1.f7fb320000000p-8, -0x1.c4a9ee0000000p-4, 0x1.c08f580000000p-3, 0x1.3bec840000000p-8, 0x1.7017220000000p-4, 0x1.e23f8c0000000p-4, 0x1.e155780000000p-10, 0x1.1caa140000000p-5, 0x1.188f9e0000000p-5, -0x1.40dbec0000000p-4, -0x1.21e3a00000000p-5, 0x1.deb6bc0000000p-6, 0x1.0601820000000p-4, 0x1.20e5e80000000p-6, 0x1.7ad5f80000000p-4, -0x1.1040860000000p-2, 0x1.506c0c0000000p-4, 0x1.3d7bc80000000p-3, -0x1.425a060000000p-3, -0x1.6455220000000p-5, 0x1.659c6e0000000p-3, -0x1.0507080000000p-3, -0x1.d747c00000000p-4, 0x1.5456980000000p-4, -0x1.1494880000000p-3, -0x1.16eaee0000000p-5, 0x1.8d4bf20000000p-3, -0x1.7ca44a0000000p-6, 0x1.a2057c0000000p-5, 0x1.32c7100000000p-11, -0x1.bb52bc0000000p-4, -0x1.219b320000000p-3, 0x1.569ac00000000p-3, -0x1.4e54160000000p-3, 0x1.ada6ea0000000p-3, -0x1.c4df660000000p-3, 0x1.b46b6e0000000p-4, 0x1.9dba160000000p-4, -0x1.4a868e0000000p-3, 0x1.e306500000000p-3, 0x1.96ac360000000p-6, -0x1.2bc21e0000000p-5, 0x1.d6d6c60000000p-7, -0x1.a239560000000p-4, 0x1.a1cbd20000000p-8, -0x1.6d1b220000000p-3, -0x1.86dc840000000p-4, -0x1.a2f5a40000000p-5, 0x1.0249e40000000p-3, 0x1.d05e7e0000000p-3, 0x1.0d0d3e0000000p-4, -0x1.e1d4160000000p-4}
}
, {{-0x1.7239f80000000p-4, 0x1.e329b20000000p-6, -0x1.9b18360000000p-4, -0x1.7452360000000p-4, -0x1.62e7a20000000p-4, -0x1.5b9ae40000000p-3, 0x1.0dc3800000000p-6, 0x1.511f900000000p-3, -0x1.504c220000000p-5, 0x1.ded0580000000p-4, -0x1.ccb3c20000000p-4, -0x1.37b6fc0000000p-8, -0x1.a62ea00000000p-6, -0x1.0fcf480000000p-3, 0x1.1e82d60000000p-4, 0x1.4c767e0000000p-4, -0x1.340bd80000000p-3, -0x1.0c8f520000000p-4, -0x1.dda0f20000000p-3, 0x1.efb6640000000p-6, 0x1.9e2d920000000p-6, 0x1.dfc3fa0000000p-6, -0x1.3969300000000p-4, -0x1.66c7280000000p-2, -0x1.5575f40000000p-5, 0x1.9c4a740000000p-5, -0x1.c3ca900000000p-3, -0x1.f772720000000p-3, 0x1.efc7f40000000p-5, 0x1.9ca1d60000000p-3, 0x1.60343e0000000p-3, 0x1.21505e0000000p-6, -0x1.3fb5b20000000p-4, 0x1.f96bbc0000000p-7, 0x1.1178f60000000p-4, -0x1.0681820000000p-2, -0x1.51a3540000000p-7, -0x1.3a53120000000p-2, -0x1.48402a0000000p-3, 0x1.d482c60000000p-6, -0x1.7052c00000000p-5, 0x1.a02eae0000000p-4, 0x1.17680a0000000p-7, -0x1.1a14080000000p-7, 0x1.bdcf940000000p-5, 0x1.0129220000000p-6, 0x1.13f8960000000p-3, 0x1.afc11a0000000p-7, -0x1.f96e080000000p-4, -0x1.114e380000000p-4, -0x1.2af2e40000000p-4, 0x1.a5dda40000000p-3, 0x1.5ae6980000000p-5, 0x1.3bcd8e0000000p-6, 0x1.932e800000000p-4, -0x1.d62ef40000000p-10, -0x1.03c1020000000p-3, -0x1.9246a40000000p-3, -0x1.26d9720000000p-4, 0x1.3a7b0e0000000p-3, -0x1.7428000000000p-4, 0x1.b0343e0000000p-5, 0x1.dd0f3a0000000p-4, 0x1.032cc00000000p-3}
, {0x1.a2a99e0000000p-6, -0x1.1e32060000000p-5, -0x1.d24a8c0000000p-8, 0x1.f8f2060000000p-5, -0x1.34def00000000p-3, -0x1.7bd4660000000p-9, 0x1.9b8b480000000p-6, 0x1.17eed40000000p-3, 0x1.37b3a60000000p-3, 0x1.724f200000000p-4, 0x1.2c35760000000p-3, -0x1.60aa100000000p-2, -0x1.7d5d4e0000000p-7, 0x1.1ed4b60000000p-3, 0x1.c5f7520000000p-5, 0x1.8379ac0000000p-4, 0x1.dd21220000000p-4, 0x1.1263b40000000p-3, 0x1.a202a80000000p-4, 0x1.0a65d00000000p-5, 0x1.db073a0000000p-4, 0x1.9742ba0000000p-7, -0x1.154c1c0000000p-4, -0x1.67a3620000000p-4, 0x1.584f4a0000000p-4, 0x1.67d6840000000p-3, -0x1.87caf00000000p-4, -0x1.4463ee0000000p-3, -0x1.bd68dc0000000p-3, -0x1.a3c4dc0000000p-4, -0x1.2def000000000p-5, -0x1.30bf120000000p-4, 0x1.aaff4c0000000p-3, 0x1.3d73620000000p-2, 0x1.c7a5360000000p-5, -0x1.cc69fc0000000p-4, 0x1.8c33520000000p-7, 0x1.867bac0000000p-4, -0x1.d214a20000000p-6, -0x1.91d8ba0000000p-3, -0x1.9e0eb60000000p-5, -0x1.6775280000000p-6, -0x1.7e9dfa0000000p-3, -0x1.83d9740000000p-4, 0x1.cc47160000000p-3, -0x1.5e3c560000000p-4, 0x1.93e15a0000000p-7, -0x1.77a22e0000000p-4, 0x1.5025340000000p-3, -0x1.e935880000000p-3, 0x1.34e4e40000000p-5, 0x1.4220520000000p-3, 0x1.b0927a0000000p-5, -0x1.c995d20000000p-3, 0x1.0cfae20000000p-3, 0x1.90f3ee0000000p-4, 0x1.cb77720000000p-5, 0x1.40684a0000000p-4, 0x1.20bd660000000p-2, 0x1.450d800000000p-3, -0x1.30717e0000000p-2, -0x1.f8a9ec0000000p-5, -0x1.d349d20000000p-8, -0x1.1a64f80000000p-5}
, {-0x1.b134620000000p-5, -0x1.9434f40000000p-9, 0x1.d597c00000000p-3, -0x1.c728da0000000p-3, -0x1.4af6de0000000p-4, 0x1.5947620000000p-7, -0x1.5dd6360000000p-3, 0x1.a5f60e0000000p-3, -0x1.8fcbea0000000p-3, -0x1.8ca3440000000p-4, 0x1.7086e80000000p-6, 0x1.ef087c0000000p-3, 0x1.934fcc0000000p-7, -0x1.1f24180000000p-2, -0x1.01f4a40000000p-3, -0x1.31eb500000000p-5, -0x1.58cc0e0000000p-4, -0x1.306efa0000000p-3, -0x1.a808ca0000000p-6, -0x1.4b90e00000000p-3, -0x1.36060e0000000p-4, 0x1.ab1f920000000p-4, 0x1.1208400000000p-3, -0x1.7fa6b40000000p-5, 0x1.1522f80000000p-4, -0x1.7d0f100000000p-2, -0x1.c796da0000000p-4, 0x1.a23fa00000000p-7, 0x1.a87dba0000000p-5, -0x1.614c900000000p-3, -0x1.b3b6420000000p-9, -0x1.9c68a20000000p-3, -0x1.7b687c0000000p-6, 0x1.44a0ee0000000p-4, -0x1.7baab80000000p-4, 0x1.377c0e0000000p-3, 0x1.bb1b400000000p-7, -0x1.a92f940000000p-7, -0x1.17d2c00000000p-5, -0x1.a718d40000000p-6, 0x1.ad710c0000000p-4, 0x1.4f53040000000p-3, -0x1.49389e0000000p-2, -0x1.a622640000000p-4, -0x1.e6de2a0000000p-3, -0x1.635e4e0000000p-3, 0x1.4ed4880000000p-4, -0x1.3eee6a0000000p-5, 0x1.5ba17e0000000p-5, 0x1.3fc8fc0000000p-6, -0x1.94d1280000000p-3, -0x1.19b6600000000p-2, -0x1.eeab300000000p-5, 0x1.35e3660000000p-5, -0x1.08cbc20000000p-3, -0x1.8402560000000p-2, -0x1.abe2700000000p-3, -0x1.7fc1260000000p-4, 0x1.64d1560000000p-6, 0x1.0ee2800000000p-4, 0x1.38bba00000000p-3, 0x1.bbacb20000000p-5, -0x1.c73e0e0000000p-3, -0x1.6edb180000000p-6}
}
}
, {{{-0x1.4fc74c0000000p-9, -0x1.99bf500000000p-4, -0x1.1001420000000p-9, -0x1.c978c20000000p-4, -0x1.04c7d80000000p-3, -0x1.fb95460000000p-10, 0x1.ed79d60000000p-8, -0x1.e047300000000p-4, -0x1.6ea5540000000p-5, 0x1.a0d6fa0000000p-4, 0x1.beb3ee0000000p-5, -0x1.f785d80000000p-10, -0x1.e5124c0000000p-4, -0x1.9a8fb00000000p-5, -0x1.88971e0000000p-5, -0x1.3150800000000p-5, -0x1.1cfd160000000p-6, -0x1.f1f77e0000000p-5, -0x1.43ba6e0000000p-6, -0x1.ce37ce0000000p-3, -0x1.785d380000000p-5, -0x1.28066a0000000p-4, -0x1.4939240000000p-4, -0x1.6f9b760000000p-4, -0x1.0363e00000000p-3, 0x1.4cbd3e0000000p-4, -0x1.30cc1e0000000p-3, 0x1.141c360000000p-4, -0x1.058f3e0000000p-9, -0x1.2e90a00000000p-4, -0x1.c858d40000000p-9, -0x1.f1d5560000000p-8, -0x1.04299c0000000p-6, -0x1.a03c700000000p-7, -0x1.dc0b2e0000000p-6, -0x1.7428580000000p-4, -0x1.4c69720000000p-3, -0x1.3bdc040000000p-6, -0x1.ae28c00000000p-6, 0x1.7c108c0000000p-4, -0x1.b6ef200000000p-3, 0x1.6e627c0000000p-9, 0x1.ddd3860000000p-7, -0x1.61811a0000000p-3, 0x1.c632100000000p-5, -0x1.1a5bce0000000p-7, 0x1.ee56700000000p-9, 0x1.2b0d760000000p-6, -0x1.4dd7b40000000p-5, 0x1.37b7040000000p-4, 0x1.2bd9240000000p-4, 0x1.3153640000000p-2, -0x1.3a322e0000000p-3, -0x1.f115220000000p-3, 0x1.e75b740000000p-6, -0x1.992c940000000p-10, -0x1.7b0d060000000p-3, -0x1.7cc0900000000p-4, -0x1.70695e0000000p-4, -0x1.6ae3860000000p-3, 0x1.b75a860000000p-8, -0x1.a48c9c0000000p-4, -0x1.be18540000000p-8, 0x1.a55b240000000p-6}
, {0x1.43e89e0000000p-8, -0x1.e01f8a0000000p-4, 0x1.6b4d3a0000000p-4, -0x1.09f6f40000000p-3, -0x1.1934460000000p-2, -0x1.f82bd40000000p-7, -0x1.f87e400000000p-4, -0x1.454eee0000000p-4, 0x1.13a17e0000000p-4, -0x1.d368da0000000p-3, 0x1.2155a00000000p-4, -0x1.bc64c40000000p-3, 0x1.1403580000000p-3, 0x1.66e1120000000p-3, -0x1.7342d60000000p-4, 0x1.8a5b820000000p-4, -0x1.a71ffc0000000p-4, -0x1.0947d80000000p-5, 0x1.1b1b420000000p-4, -0x1.42cd2c0000000p-5, -0x1.35c4220000000p-5, 0x1.16be340000000p-4, -0x1.c82aec0000000p-3, -0x1.2ad1f60000000p-6, -0x1.9558f40000000p-6, -0x1.a00c400000000p-14, -0x1.462ff60000000p-4, 0x1.69c4200000000p-6, -0x1.8bda220000000p-3, -0x1.7e24d60000000p-4, 0x1.a4856c0000000p-4, 0x1.5295120000000p-4, 0x1.9898f00000000p-5, 0x1.0a817c0000000p-4, 0x1.4680fe0000000p-4, -0x1.ee21b00000000p-3, -0x1.cf7bcc0000000p-3, 0x1.7e03520000000p-3, 0x1.c9c0ea0000000p-7, -0x1.de92e80000000p-3, 0x1.aaf1bc0000000p-7, 0x1.82a5f60000000p-5, -0x1.d9ad440000000p-5, 0x1.2709900000000p-4, 0x1.4fc9f00000000p-3, 0x1.37736e0000000p-3, -0x1.1418600000000p-3, -0x1.044e740000000p-3, -0x1.1d38be0000000p-10, -0x1.507e960000000p-4, 0x1.17e47e0000000p-3, -0x1.2cd8d20000000p-4, -0x1.2a61980000000p-6, -0x1.2525340000000p-2, 0x1.4dd2620000000p-4, -0x1.778e580000000p-4, 0x1.f7841e0000000p-5, 0x1.41f1a00000000p-4, -0x1.5938ac0000000p-6, -0x1.8c56340000000p-5, -0x1.88d8720000000p-3, -0x1.2c3f680000000p-3, 0x1.6078e40000000p-4, 0x1.b9ec6e0000000p-3}
, {-0x1.17ec380000000p-5, -0x1.1846680000000p-2, 0x1.e5a7a40000000p-4, 0x1.e9cb500000000p-4, 0x1.14a74c0000000p-6, -0x1.c70cbc0000000p-5, -0x1.2f8cb40000000p-3, -0x1.9b1f280000000p-3, -0x1.bd24300000000p-4, -0x1.3bdf880000000p-5, -0x1.d8656c0000000p-4, 0x1.26d16e0000000p-3, 0x1.95b8360000000p-6, -0x1.5f70a40000000p-3, -0x1.c2954a0000000p-3, -0x1.51af6e0000000p-3, 0x1.0e751e0000000p-3, -0x1.05ad700000000p-3, -0x1.fdde840000000p-4, 0x1.8166940000000p-6, 0x1.145a4a0000000p-4, -0x1.e1161e0000000p-4, 0x1.551d240000000p-5, -0x1.e1baf00000000p-6, -0x1.3bd2f40000000p-8, -0x1.1ef0a00000000p-3, -0x1.858a380000000p-3, 0x1.0732340000000p-3, -0x1.612d8e0000000p-5, 0x1.f7242a0000000p-5, -0x1.2ad6620000000p-2, -0x1.7871be0000000p-3, 0x1.362f960000000p-4, 0x1.c6dfca0000000p-6, -0x1.00da260000000p-2, 0x1.81408a0000000p-4, -0x1.b607720000000p-4, -0x1.f3a12e0000000p-5, -0x1.2764280000000p-9, -0x1.bcf8b60000000p-5, -0x1.7de7ba0000000p-5, -0x1.2347200000000p-2, -0x1.6a265c0000000p-3, -0x1.3207b20000000p-2, -0x1.cee76c0000000p-3, -0x1.3e00840000000p-3, -0x1.fe79d00000000p-7, -0x1.8225060000000p-3, -0x1.20918e0000000p-4, -0x1.52c7be0000000p-5, -0x1.42613a0000000p-2, -0x1.fa7d5e0000000p-3, 0x1.12f85a0000000p-5, -0x1.ce63500000000p-6, -0x1.8e67480000000p-2, 0x1.5d5c300000000p-4, 0x1.9ac0b60000000p-4, 0x1.8056ea0000000p-5, 0x1.abeb300000000p-6, -0x1.b074420000000p-2, 0x1.ebec880000000p-6, -0x1.1552de0000000p-4, -0x1.7c5c8e0000000p-3, -0x1.308eba0000000p-2}
}
, {{-0x1.2fe8540000000p-4, 0x1.abddf60000000p-6, -0x1.7c37680000000p-4, -0x1.b6b8820000000p-7, -0x1.cdce960000000p-3, 0x1.42f7560000000p-4, -0x1.dfad140000000p-3, 0x1.0e8ef80000000p-2, 0x1.40cc240000000p-4, 0x1.cfbbec0000000p-12, -0x1.4b3d3a0000000p-4, -0x1.2f20dc0000000p-5, -0x1.67e5060000000p-3, 0x1.0ff15a0000000p-6, 0x1.0526b80000000p-5, 0x1.69686a0000000p-7, -0x1.b1b5180000000p-3, 0x1.577aca0000000p-4, -0x1.9fcd8c0000000p-6, -0x1.6b43a80000000p-4, -0x1.9591ca0000000p-7, 0x1.ad768c0000000p-5, -0x1.3ca8b80000000p-2, -0x1.a3714c0000000p-4, 0x1.7aa59e0000000p-4, -0x1.b26d840000000p-6, 0x1.6c6e600000000p-5, -0x1.b7242e0000000p-3, -0x1.ccbec60000000p-5, -0x1.a7cf480000000p-4, 0x1.03d2d00000000p-4, -0x1.b457720000000p-5, -0x1.ea89b40000000p-3, 0x1.3ecfe00000000p-2, -0x1.39852e0000000p-6, -0x1.d2b7b60000000p-3, -0x1.0f82ca0000000p-3, 0x1.4b2f3c0000000p-3, -0x1.cbdfc20000000p-3, -0x1.079c2a0000000p-2, 0x1.48ce780000000p-5, -0x1.d054fc0000000p-4, -0x1.0f95c00000000p-4, 0x1.5ec0d00000000p-4, -0x1.39f7300000000p-6, 0x1.a518ec0000000p-4, 0x1.4912b40000000p-4, -0x1.923a9c0000000p-4, 0x1.cb81780000000p-6, -0x1.9fa2ee0000000p-3, -0x1.bd72f00000000p-6, 0x1.da229a0000000p-5, -0x1.06892a0000000p-3, -0x1.37b8320000000p-3, 0x1.a91c0a0000000p-5, 0x1.11cb720000000p-9, -0x1.a5de320000000p-4, 0x1.2012420000000p-5, 0x1.2a7b5e0000000p-5, -0x1.d11d320000000p-4, 0x1.1dd8ee0000000p-5, -0x1.25be1e0000000p-3, -0x1.3bece40000000p-5, -0x1.a6d7ac0000000p-4}
, {-0x1.4c599a0000000p-4, 0x1.0a88e20000000p-6, -0x1.7052d20000000p-3, -0x1.8645da0000000p-4, -0x1.aa65260000000p-3, 0x1.aeb6280000000p-4, -0x1.c8a0b40000000p-3, 0x1.5c38dc0000000p-7, 0x1.3b1fda0000000p-2, 0x1.e526ec0000000p-4, -0x1.1253480000000p-4, -0x1.be1fba0000000p-2, -0x1.6ff22c0000000p-6, 0x1.1c102c0000000p-4, -0x1.7031a40000000p-4, 0x1.4bff240000000p-7, -0x1.541bfa0000000p-6, 0x1.acf7060000000p-5, -0x1.9fd6420000000p-3, 0x1.42e0b60000000p-4, -0x1.69a1520000000p-2, 0x1.bdff3c0000000p-3, -0x1.c55fe60000000p-2, -0x1.8759d00000000p-3, 0x1.00a6740000000p-4, 0x1.2961ae0000000p-3, -0x1.5b8fe60000000p-5, -0x1.c061de0000000p-2, -0x1.a071fc0000000p-3, -0x1.ae8d520000000p-3, 0x1.19b66e0000000p-3, 0x1.c79eb60000000p-6, 0x1.39e79e0000000p-5, 0x1.d170c00000000p-3, 0x1.40d7c40000000p-3, -0x1.ca30fc0000000p-2, -0x1.3a2ba80000000p-3, -0x1.40808a0000000p-4, -0x1.01bfca0000000p-2, -0x1.5ef3400000000p-5, 0x1.64877a0000000p-5, 0x1.05d2000000000p-5, -0x1.a62a580000000p-10, -0x1.7d092c0000000p-6, -0x1.31d3e20000000p-5, 0x1.bec7c60000000p-5, -0x1.3c2f8e0000000p-3, -0x1.6bd5700000000p-4, 0x1.8d2a320000000p-5, -0x1.5f7c5a0000000p-2, -0x1.1d1f960000000p-3, 0x1.49a4940000000p-3, 0x1.dbe9be0000000p-4, -0x1.170f9c0000000p-3, 0x1.51b5c80000000p-3, 0x1.a57ea40000000p-4, 0x1.cae58e0000000p-4, 0x1.5c28040000000p-4, 0x1.3b1c340000000p-8, -0x1.17370e0000000p-3, -0x1.3113460000000p-2, -0x1.99ffca0000000p-3, 0x1.2a00c00000000p-3, -0x1.0fb0340000000p-2}
, {0x1.09cd9c0000000p-4, -0x1.6bb25c0000000p-4, -0x1.8fdb340000000p-3, -0x1.41d07e0000000p-4, -0x1.8abd880000000p-3, -0x1.1acce80000000p-4, -0x1.032a6e0000000p-7, -0x1.d0466c0000000p-8, 0x1.26d4320000000p-3, -0x1.fdb3460000000p-4, 0x1.1982e60000000p-3, -0x1.2079c80000000p-3, -0x1.5a442a0000000p-4, 0x1.72cde80000000p-4, -0x1.249d5e0000000p-5, -0x1.f1387c0000000p-4, -0x1.9d9f2e0000000p-5, -0x1.80151c0000000p-5, -0x1.37de2c0000000p-3, -0x1.9fd1820000000p-6, -0x1.b894340000000p-5, -0x1.44836e0000000p-4, -0x1.082b1a0000000p-2, -0x1.1be2280000000p-2, -0x1.5cecf60000000p-4, -0x1.e3d9ae0000000p-9, -0x1.51f9760000000p-2, -0x1.990f700000000p-4, -0x1.c808440000000p-4, -0x1.b73e2e0000000p-4, -0x1.7763800000000p-3, 0x1.1b8bac0000000p-3, 0x1.9ffbfe0000000p-6, 0x1.01936e0000000p-3, 0x1.694cfe0000000p-7, -0x1.0557da0000000p-3, -0x1.4a91b40000000p-6, -0x1.0c9abc0000000p-5, -0x1.a54f3c0000000p-3, -0x1.3ded2e0000000p-3, 0x1.365ea60000000p-5, -0x1.2d78680000000p-3, -0x1.9c0dec0000000p-3, -0x1.46cb960000000p-3, 0x1.d197560000000p-3, -0x1.ca7d0a0000000p-4, -0x1.76e0e60000000p-3, -0x1.53a3a60000000p-3, 0x1.b0d03c0000000p-4, -0x1.0531660000000p-3, -0x1.050fe80000000p-3, -0x1.6a9abe0000000p-4, 0x1.2f0c400000000p-3, 0x1.7143220000000p-6, 0x1.0e05ce0000000p-3, 0x1.7464ce0000000p-6, -0x1.6d9b580000000p-2, -0x1.d5b17e0000000p-4, 0x1.81d0160000000p-4, -0x1.e32e280000000p-6, -0x1.807f6a0000000p-3, -0x1.5f636e0000000p-5, -0x1.a9c2b00000000p-4, -0x1.7c5fc40000000p-4}
}
, {{0x1.8d0bea0000000p-5, -0x1.f9b9600000000p-4, -0x1.54c3ae0000000p-3, -0x1.ac6f080000000p-4, 0x1.ca873c0000000p-4, 0x1.45e99c0000000p-4, -0x1.1fceb00000000p-5, 0x1.779e720000000p-6, 0x1.1898ca0000000p-2, 0x1.5665e60000000p-4, 0x1.a8ce2e0000000p-5, -0x1.ddeafc0000000p-6, -0x1.ab9d1a0000000p-5, -0x1.3256a80000000p-6, -0x1.f992840000000p-7, -0x1.e1f78c0000000p-5, 0x1.1dcd960000000p-5, -0x1.0b46a60000000p-10, 0x1.f1eafa0000000p-3, 0x1.fea1be0000000p-5, 0x1.50817a0000000p-4, -0x1.8202880000000p-6, -0x1.f49ff00000000p-5, 0x1.24c3480000000p-5, -0x1.1098140000000p-3, 0x1.7843760000000p-4, 0x1.b0477a0000000p-5, -0x1.3f40fe0000000p-3, 0x1.3879e60000000p-4, 0x1.d03c900000000p-4, 0x1.9a95460000000p-5, -0x1.2490620000000p-4, -0x1.a515060000000p-3, 0x1.fa55080000000p-5, 0x1.40274c0000000p-4, -0x1.df00100000000p-4, 0x1.03fa960000000p-3, 0x1.807f880000000p-3, -0x1.dc65740000000p-7, -0x1.1c547c0000000p-7, -0x1.c1506e0000000p-4, -0x1.4738dc0000000p-3, 0x1.f3e4c40000000p-4, 0x1.42af3a0000000p-4, 0x1.c0d0ee0000000p-7, 0x1.c3cf980000000p-3, -0x1.2286440000000p-5, 0x1.592cc80000000p-3, 0x1.6678300000000p-5, 0x1.572a580000000p-6, 0x1.03c52e0000000p-3, 0x1.480f460000000p-3, -0x1.1c40000000000p-5, -0x1.1d5a300000000p-3, 0x1.6c11140000000p-4, 0x1.978b5c0000000p-3, 0x1.c083ac0000000p-4, -0x1.63af8e0000000p-6, 0x1.d6e94e0000000p-6, -0x1.24d9340000000p-4, -0x1.28b2c20000000p-3, 0x1.0d1a720000000p-2, 0x1.c37f0a0000000p-4, -0x1.f0ac960000000p-5}
, {0x1.9250260000000p-4, 0x1.db97880000000p-4, 0x1.64c8080000000p-4, 0x1.33519a0000000p-4, 0x1.052b1a0000000p-4, 0x1.e76b720000000p-4, 0x1.3608320000000p-5, 0x1.06fc920000000p-6, 0x1.9067440000000p-10, 0x1.797af40000000p-3, 0x1.af45c20000000p-6, -0x1.2b48960000000p-3, 0x1.3de00e0000000p-3, -0x1.8218980000000p-8, 0x1.37dfe80000000p-3, 0x1.8c76d00000000p-4, 0x1.c6b22a0000000p-5, 0x1.97a2b80000000p-5, -0x1.cf78ee0000000p-5, -0x1.1885240000000p-6, -0x1.4d83f40000000p-2, 0x1.3256ca0000000p-4, -0x1.a4191e0000000p-6, -0x1.9a0f820000000p-4, 0x1.10165e0000000p-4, -0x1.20be280000000p-4, 0x1.a2a5a60000000p-5, -0x1.6ef77a0000000p-2, -0x1.4724e60000000p-2, -0x1.06fb100000000p-3, -0x1.5ec2280000000p-4, -0x1.46c2bc0000000p-2, -0x1.917b1c0000000p-4, -0x1.71bf0c0000000p-6, 0x1.9288d00000000p-11, -0x1.1c4bfc0000000p-6, 0x1.072a040000000p-3, -0x1.ea27d40000000p-8, 0x1.5f6a2c0000000p-5, -0x1.1be6920000000p-4, 0x1.b4bd1a0000000p-4, 0x1.c5ae520000000p-5, -0x1.53f9880000000p-4, 0x1.50dbc40000000p-9, -0x1.a4aaa40000000p-5, 0x1.4d37160000000p-4, 0x1.df43960000000p-5, 0x1.8fa82e0000000p-3, 0x1.7790260000000p-3, -0x1.6721160000000p-4, -0x1.aa8d9c0000000p-3, -0x1.11c5dc0000000p-7, 0x1.4b0f580000000p-3, -0x1.79df440000000p-7, -0x1.3d64320000000p-5, -0x1.d0da4c0000000p-5, 0x1.d8179c0000000p-5, -0x1.e90f380000000p-7, 0x1.077ef20000000p-3, -0x1.07a4820000000p-3, -0x1.bb87ea0000000p-4, 0x1.9028fa0000000p-4, 0x1.fa47780000000p-5, -0x1.4995760000000p-2}
, {0x1.9d346c0000000p-7, -0x1.e7f4c40000000p-5, -0x1.738d980000000p-3, 0x1.3e14440000000p-4, -0x1.e536620000000p-7, -0x1.daf2e20000000p-3, 0x1.f739dc0000000p-4, -0x1.56e8b80000000p-5, -0x1.d3f2ec0000000p-4, 0x1.69a2580000000p-4, 0x1.33e7300000000p-3, -0x1.fb7b6c0000000p-3, 0x1.54e8fa0000000p-9, 0x1.eee1860000000p-6, -0x1.7b51a40000000p-4, 0x1.6469480000000p-5, -0x1.0c9f2a0000000p-4, -0x1.100d040000000p-2, 0x1.ac1b900000000p-3, -0x1.a4d1bc0000000p-4, -0x1.f11ad80000000p-3, -0x1.26a80a0000000p-5, -0x1.7d9ffa0000000p-3, 0x1.9ebb540000000p-5, 0x1.13094a0000000p-4, 0x1.28e9da0000000p-4, -0x1.58f3e40000000p-4, -0x1.fcf1f00000000p-4, -0x1.2823300000000p-2, -0x1.b8676a0000000p-3, -0x1.1e03420000000p-5, -0x1.624b040000000p-6, 0x1.009a520000000p-2, -0x1.2fa33a0000000p-5, -0x1.43e8080000000p-4, -0x1.1bea2c0000000p-3, 0x1.151f200000000p-4, -0x1.bd81040000000p-10, 0x1.ce24c80000000p-7, 0x1.9be9ea0000000p-6, 0x1.eaa6540000000p-5, 0x1.9822780000000p-7, 0x1.4458c00000000p-3, 0x1.d3a0e20000000p-3, -0x1.08606a0000000p-9, -0x1.b50c9c0000000p-3, -0x1.dde3860000000p-5, 0x1.f573480000000p-4, 0x1.1145080000000p-5, -0x1.925eba0000000p-3, 0x1.c2770a0000000p-5, 0x1.c1c07e0000000p-5, 0x1.e403640000000p-4, 0x1.7e3c900000000p-3, 0x1.aa4dd40000000p-3, -0x1.1663de0000000p-2, 0x1.7665e20000000p-11, 0x1.58682a0000000p-4, -0x1.c5d59c0000000p-5, 0x1.87beda0000000p-4, -0x1.5bc4220000000p-3, 0x1.a7bb740000000p-4, 0x1.bcb4860000000p-5, -0x1.9830640000000p-8}
}
}
, {{{-0x1.6fccf80000000p-5, 0x1.05634c0000000p-6, -0x1.7eda560000000p-3, -0x1.8cd6040000000p-4, 0x1.80438a0000000p-7, -0x1.45a8d40000000p-4, -0x1.3ff8ee0000000p-4, -0x1.2f834e0000000p-4, -0x1.6245260000000p-4, -0x1.24217e0000000p-8, -0x1.3cfb780000000p-4, -0x1.4cae720000000p-3, -0x1.4d371c0000000p-4, -0x1.01984a0000000p-3, 0x1.2202400000000p-4, -0x1.46c3d20000000p-5, -0x1.37e92c0000000p-3, -0x1.5e818c0000000p-5, 0x1.0e5d500000000p-4, -0x1.4972180000000p-3, 0x1.2d2e640000000p-4, -0x1.220e1a0000000p-4, -0x1.e87b560000000p-7, -0x1.b23c100000000p-9, -0x1.aac72c0000000p-5, 0x1.0853580000000p-4, -0x1.3c9f320000000p-7, 0x1.331f2c0000000p-2, -0x1.9537da0000000p-6, 0x1.9101500000000p-5, -0x1.0285640000000p-4, 0x1.7c67060000000p-4, -0x1.709f6a0000000p-6, -0x1.09626e0000000p-2, -0x1.1b4fe00000000p-6, -0x1.810caa0000000p-3, 0x1.64293c0000000p-4, 0x1.33160a0000000p-4, -0x1.d732260000000p-5, -0x1.0118a20000000p-4, 0x1.d29ba20000000p-4, -0x1.ca90ae0000000p-7, 0x1.fce28e0000000p-4, 0x1.966e980000000p-4, 0x1.f453180000000p-6, 0x1.c289660000000p-8, -0x1.59e3060000000p-12, 0x1.aaccc80000000p-6, -0x1.d65f940000000p-4, -0x1.408e420000000p-6, 0x1.af57460000000p-3, 0x1.b21d2e0000000p-4, -0x1.29a1ec0000000p-2, 0x1.96e3a00000000p-5, 0x1.13bc320000000p-8, 0x1.e56f320000000p-3, -0x1.b63b6a0000000p-6, -0x1.d8c1220000000p-3, -0x1.11bc600000000p-4, 0x1.0f86800000000p-4, -0x1.9c96900000000p-3, -0x1.2755e80000000p-5, 0x1.3d88d40000000p-4, 0x1.d949f00000000p-3}
, {-0x1.7053be0000000p-3, -0x1.4bf4c00000000p-4, 0x1.dcd8040000000p-5, -0x1.2d72320000000p-4, 0x1.0a907e0000000p-3, 0x1.b078b60000000p-5, -0x1.87fbc20000000p-5, -0x1.6b2a160000000p-3, 0x1.92d98e0000000p-7, -0x1.aac0a80000000p-3, -0x1.12d0aa0000000p-4, 0x1.a4f1980000000p-5, 0x1.548d500000000p-4, -0x1.f57a140000000p-4, 0x1.73c3920000000p-4, 0x1.c2f94e0000000p-4, -0x1.b22e460000000p-5, 0x1.dbf5e20000000p-4, 0x1.512b440000000p-7, 0x1.877d8c0000000p-3, -0x1.6060100000000p-3, 0x1.e40ad00000000p-5, -0x1.91348e0000000p-4, -0x1.211b520000000p-4, -0x1.0026200000000p-8, 0x1.9b787e0000000p-6, 0x1.5abb6a0000000p-4, -0x1.dd158a0000000p-5, 0x1.91adea0000000p-5, 0x1.5b30720000000p-5, -0x1.1a955c0000000p-3, 0x1.1807620000000p-3, 0x1.a0986e0000000p-6, 0x1.1e27e40000000p-6, -0x1.1ffbe00000000p-5, 0x1.8667860000000p-6, 0x1.39aeb80000000p-7, 0x1.f3bd9c0000000p-7, 0x1.b902120000000p-4, 0x1.f8dcd00000000p-5, 0x1.ac37660000000p-4, 0x1.ce57d80000000p-6, 0x1.021cfc0000000p-4, -0x1.098a700000000p-6, -0x1.d901ee0000000p-4, 0x1.80e7160000000p-4, -0x1.14aad40000000p-6, -0x1.e23f3c0000000p-4, 0x1.85e1d40000000p-6, 0x1.3e76ae0000000p-3, -0x1.7021520000000p-5, -0x1.340eae0000000p-3, 0x1.c2286e0000000p-7, -0x1.c81ef00000000p-5, -0x1.cdf7f80000000p-3, -0x1.3a08ea0000000p-4, 0x1.430ee00000000p-5, 0x1.a3a9b60000000p-5, 0x1.b1c06a0000000p-3, -0x1.5c8e260000000p-5, 0x1.8875640000000p-4, -0x1.5a08c40000000p-4, -0x1.f7845c0000000p-7, 0x1.a2c8c20000000p-7}
, {-0x1.6a7b380000000p-4, -0x1.2c33c00000000p-4, -0x1.4fb4620000000p-6, -0x1.8e1ec00000000p-4, -0x1.fcd2ee0000000p-3, -0x1.08ae2e0000000p-2, -0x1.bbb7a20000000p-4, -0x1.52b3960000000p-3, 0x1.5aeaee0000000p-5, -0x1.d4e9340000000p-3, -0x1.1c05ac0000000p-4, -0x1.d62e9e0000000p-4, -0x1.c8d84c0000000p-5, 0x1.e679120000000p-7, -0x1.906ffa0000000p-4, 0x1.dd57d60000000p-5, -0x1.40cf440000000p-3, 0x1.a35adc0000000p-6, -0x1.7a9ccc0000000p-5, -0x1.80a9f80000000p-2, -0x1.dd06840000000p-8, -0x1.81fc360000000p-3, -0x1.37f52e0000000p-6, 0x1.c4d1de0000000p-4, -0x1.5fc94a0000000p-4, -0x1.3ac27c0000000p-2, -0x1.3dcfca0000000p-3, 0x1.5319a80000000p-2, 0x1.868e580000000p-8, 0x1.4068000000000p-3, -0x1.3daf520000000p-3, -0x1.7782320000000p-3, -0x1.530dd40000000p-3, -0x1.a852300000000p-5, -0x1.12d27c0000000p-3, 0x1.7600640000000p-5, -0x1.4fc56c0000000p-5, -0x1.2b7d9c0000000p-7, -0x1.21c8400000000p-8, -0x1.00bf9c0000000p-3, -0x1.4351160000000p-3, -0x1.4eda080000000p-3, -0x1.1f2e3a0000000p-2, -0x1.fbf04e0000000p-5, 0x1.2ba6120000000p-6, -0x1.0a7eb80000000p-3, -0x1.72b4640000000p-6, 0x1.2b358c0000000p-5, -0x1.75956e0000000p-4, -0x1.a046da0000000p-6, 0x1.79a6900000000p-4, -0x1.f321c80000000p-6, -0x1.4c939e0000000p-4, 0x1.12f7140000000p-7, -0x1.4c47bc0000000p-2, -0x1.a2789a0000000p-4, -0x1.351b7a0000000p-3, -0x1.d0e67e0000000p-3, 0x1.f124f80000000p-4, -0x1.db8c1e0000000p-5, 0x1.0635600000000p-4, -0x1.ec41aa0000000p-5, -0x1.2e98580000000p-5, 0x1.fc19ca0000000p-3}
}
, {{-0x1.ea28500000000p-3, -0x1.0f513e0000000p-7, 0x1.85a8d00000000p-3, -0x1.5bafa80000000p-3, 0x1.845a1a0000000p-4, 0x1.297cfa0000000p-5, -0x1.1634260000000p-8, 0x1.451a600000000p-5, -0x1.3b5a640000000p-3, 0x1.5bdd820000000p-4, -0x1.21de880000000p-3, 0x1.ac39160000000p-3, 0x1.ccd65c0000000p-5, -0x1.af1edc0000000p-4, 0x1.a8c2280000000p-4, 0x1.6939ac0000000p-4, 0x1.50b86e0000000p-3, -0x1.7f7b240000000p-4, 0x1.da28700000000p-5, 0x1.391b720000000p-4, -0x1.c574ce0000000p-7, 0x1.74d1120000000p-6, -0x1.c13f680000000p-11, 0x1.4696420000000p-3, -0x1.427cf40000000p-3, -0x1.6913e20000000p-3, 0x1.96fde00000000p-4, -0x1.327a980000000p-3, 0x1.404c9c0000000p-6, -0x1.36edb20000000p-4, -0x1.2d3a0e0000000p-2, -0x1.af5b560000000p-3, 0x1.ee0bc00000000p-6, -0x1.cddc300000000p-4, -0x1.11c8ce0000000p-3, 0x1.8cea1e0000000p-6, 0x1.d3c8ac0000000p-4, 0x1.6634d40000000p-4, 0x1.0b8f260000000p-3, -0x1.c36cb00000000p-4, 0x1.b1c8220000000p-4, 0x1.260ef20000000p-4, -0x1.fa51380000000p-6, -0x1.0c95f20000000p-3, -0x1.1e89da0000000p-3, -0x1.1a75220000000p-3, 0x1.0f25fc0000000p-3, -0x1.1ca0860000000p-3, -0x1.c00a920000000p-4, 0x1.dd865e0000000p-7, -0x1.39f2c80000000p-3, 0x1.fcf6b80000000p-3, 0x1.685faa0000000p-5, 0x1.8f786c0000000p-5, -0x1.2adda40000000p-5, -0x1.d3e3f00000000p-2, -0x1.1a13900000000p-2, -0x1.17b0580000000p-3, -0x1.eee7680000000p-4, 0x1.2a4d1a0000000p-4, 0x1.8528de0000000p-4, -0x1.e8c3d20000000p-5, 0x1.9194980000000p-6, -0x1.310b240000000p-2}
, {-0x1.2002180000000p-3, -0x1.b4c2300000000p-3, 0x1.0b0fa60000000p-3, -0x1.0cd5820000000p-3, -0x1.6b7b1c0000000p-3, -0x1.f3470a0000000p-4, -0x1.52324c0000000p-3, 0x1.4776a00000000p-3, -0x1.b6d5320000000p-7, -0x1.a0845a0000000p-3, 0x1.1566ce0000000p-3, 0x1.ff9e1e0000000p-5, -0x1.c991a80000000p-6, 0x1.2d832e0000000p-3, -0x1.acb1d20000000p-3, -0x1.f7b2380000000p-6, 0x1.ef03de0000000p-4, -0x1.5dc2760000000p-5, -0x1.d30c540000000p-5, 0x1.be4e1c0000000p-4, 0x1.2314b00000000p-8, -0x1.3a1b400000000p-3, -0x1.6158000000000p-5, -0x1.c5aba60000000p-3, 0x1.396ec80000000p-3, 0x1.d2ee580000000p-9, -0x1.268cc20000000p-3, 0x1.7d18a40000000p-8, -0x1.0358820000000p-6, -0x1.eb920c0000000p-3, -0x1.a042d40000000p-8, -0x1.066b760000000p-3, 0x1.1363a00000000p-3, 0x1.b5d9b20000000p-5, -0x1.f5a7840000000p-3, -0x1.c3dd840000000p-4, 0x1.5cec2a0000000p-4, 0x1.c61c0a0000000p-3, -0x1.09e17a0000000p-3, -0x1.69776c0000000p-3, 0x1.8a7a2e0000000p-5, -0x1.8519e80000000p-4, -0x1.3bfe940000000p-2, -0x1.697f120000000p-2, -0x1.1031400000000p-2, 0x1.21f79a0000000p-4, -0x1.1a7efc0000000p-2, -0x1.41ecbc0000000p-3, 0x1.4bc6480000000p-3, -0x1.9353f80000000p-3, -0x1.ee1c9c0000000p-3, -0x1.b7c9700000000p-6, -0x1.11a0300000000p-4, -0x1.32b50e0000000p-2, -0x1.6bbc980000000p-3, -0x1.5c6aec0000000p-5, 0x1.e8e6e60000000p-4, 0x1.6999ca0000000p-3, -0x1.9771140000000p-4, -0x1.93445c0000000p-4, -0x1.1b420a0000000p-3, -0x1.78b8aa0000000p-4, -0x1.0454280000000p-2, -0x1.e6c5780000000p-3}
, {0x1.eded120000000p-4, 0x1.61a59c0000000p-4, -0x1.3ecd4a0000000p-6, -0x1.5b7a140000000p-3, 0x1.56f7560000000p-3, 0x1.1f4a620000000p-4, 0x1.0a97a80000000p-5, 0x1.500b260000000p-4, -0x1.1edd320000000p-7, 0x1.31fc4e0000000p-2, -0x1.3844860000000p-8, -0x1.21c0c00000000p-7, 0x1.e9c8a60000000p-4, 0x1.fa08100000000p-4, 0x1.eb7bae0000000p-3, 0x1.664a220000000p-3, -0x1.74c92e0000000p-4, -0x1.8304c60000000p-3, -0x1.b0abf60000000p-5, -0x1.8c59c40000000p-6, -0x1.af88020000000p-3, 0x1.6ea5560000000p-4, -0x1.19c1da0000000p-4, -0x1.34b8e00000000p-2, 0x1.68e9ea0000000p-5, 0x1.c554a00000000p-5, 0x1.32e66e0000000p-5, -0x1.25be9e0000000p-3, -0x1.9383940000000p-3, -0x1.a307d20000000p-3, 0x1.1479280000000p-3, 0x1.fdbab40000000p-6, 0x1.1ac3400000000p-2, 0x1.fa06f60000000p-6, 0x1.1638ce0000000p-3, 0x1.59c3100000000p-4, 0x1.e7089c0000000p-4, -0x1.08235a0000000p-7, -0x1.39fa020000000p-2, -0x1.9062d60000000p-3, 0x1.462be00000000p-3, -0x1.3385f40000000p-2, -0x1.2195720000000p-4, -0x1.100c340000000p-4, -0x1.5ae89a0000000p-5, 0x1.9ff0f20000000p-4, 0x1.cecb2e0000000p-4, -0x1.d234b20000000p-5, -0x1.1446cc0000000p-5, -0x1.477efc0000000p-3, 0x1.9c6b4c0000000p-10, 0x1.7a73080000000p-5, -0x1.2e92300000000p-5, -0x1.bcedd60000000p-4, 0x1.123ef60000000p-2, -0x1.49526e0000000p-4, -0x1.50984a0000000p-7, 0x1.d0e0600000000p-3, 0x1.a70ac20000000p-4, 0x1.1a9b680000000p-3, 0x1.d5504e0000000p-6, -0x1.a7d8c60000000p-3, -0x1.e11d840000000p-4, -0x1.4623080000000p-5}
}
, {{0x1.895ec60000000p-3, 0x1.4bfa160000000p-4, 0x1.2e7ef00000000p-3, -0x1.3813be0000000p-8, 0x1.2f49600000000p-5, 0x1.5c9bd00000000p-4, -0x1.a468ce0000000p-4, -0x1.b49ca60000000p-4, -0x1.942be80000000p-5, -0x1.c26c200000000p-7, 0x1.c097bc0000000p-6, -0x1.e1f7900000000p-4, -0x1.15e1ac0000000p-2, -0x1.933cbc0000000p-4, 0x1.4e52b20000000p-6, 0x1.3bf45a0000000p-5, 0x1.0ec7220000000p-2, -0x1.4fd1a40000000p-4, 0x1.d90d500000000p-3, 0x1.f47b7c0000000p-4, -0x1.3684240000000p-6, 0x1.9c849a0000000p-4, 0x1.4c19c60000000p-6, 0x1.01bf4c0000000p-2, 0x1.475ca40000000p-6, -0x1.8f34600000000p-3, -0x1.84c6620000000p-3, 0x1.ac01ee0000000p-3, -0x1.2f15fc0000000p-3, -0x1.60635e0000000p-2, 0x1.3e82640000000p-5, 0x1.086c3a0000000p-5, -0x1.0832360000000p-2, -0x1.749c7a0000000p-3, 0x1.66752e0000000p-10, -0x1.2ea8f60000000p-3, -0x1.0cc6d40000000p-3, 0x1.6d47020000000p-5, 0x1.74d73e0000000p-3, -0x1.d2a0580000000p-3, -0x1.94d5c40000000p-4, -0x1.61c0ce0000000p-2, 0x1.7b8a4a0000000p-4, 0x1.327a140000000p-3, 0x1.57deb20000000p-5, -0x1.d513c80000000p-5, -0x1.44d8ce0000000p-4, 0x1.53d50a0000000p-6, 0x1.04f6100000000p-6, -0x1.9ee3560000000p-3, 0x1.2018f80000000p-2, -0x1.b618640000000p-6, -0x1.17a8c80000000p-2, -0x1.b1b2c00000000p-4, -0x1.6b51bc0000000p-4, 0x1.604efe0000000p-6, -0x1.9bbfd60000000p-4, -0x1.6314040000000p-3, 0x1.7d493e0000000p-4, 0x1.7499e40000000p-4, -0x1.1faaba0000000p-3, 0x1.429df20000000p-3, -0x1.d5db280000000p-6, 0x1.353be80000000p-3}
, {0x1.90fe1e0000000p-5, 0x1.9332f20000000p-4, 0x1.09ecf40000000p-3, 0x1.1e86e40000000p-4, -0x1.6944200000000p-3, -0x1.749bdc0000000p-5, -0x1.ad48100000000p-4, -0x1.71db440000000p-4, -0x1.42e8f60000000p-8, -0x1.70264e0000000p-6, 0x1.e66ec00000000p-3, -0x1.f28f9a0000000p-4, 0x1.ea79e80000000p-4, 0x1.a13c740000000p-5, -0x1.1cdca40000000p-3, 0x1.4fdfe80000000p-3, -0x1.b0bd080000000p-6, 0x1.45be960000000p-5, -0x1.4cc36a0000000p-3, 0x1.7d34a60000000p-4, -0x1.31dd740000000p-3, 0x1.22f1f00000000p-3, -0x1.0d7fa40000000p-3, 0x1.94160c0000000p-4, 0x1.09a8940000000p-3, 0x1.dd7ee80000000p-12, -0x1.8f43220000000p-3, 0x1.5ba1a40000000p-5, 0x1.f4b71c0000000p-4, -0x1.9c957e0000000p-7, 0x1.257f8c0000000p-2, 0x1.1ebc700000000p-4, 0x1.97b8a60000000p-7, -0x1.b742560000000p-9, 0x1.a3fdda0000000p-5, -0x1.56e9be0000000p-4, 0x1.8c66720000000p-5, 0x1.55d2400000000p-3, 0x1.e8ca440000000p-7, -0x1.bb01c20000000p-6, 0x1.41d0520000000p-3, -0x1.61f3ee0000000p-3, 0x1.d4e9760000000p-4, -0x1.1c891c0000000p-6, -0x1.4d0c100000000p-3, 0x1.6c16480000000p-3, -0x1.35ba360000000p-3, 0x1.01e9160000000p-3, 0x1.947f500000000p-4, -0x1.bfae780000000p-6, -0x1.2958ae0000000p-7, -0x1.0ba5ac0000000p-3, 0x1.7ad6be0000000p-8, -0x1.83398e0000000p-5, -0x1.e12cc80000000p-3, 0x1.d457780000000p-7, 0x1.15fdc20000000p-4, 0x1.c64f300000000p-4, -0x1.2182a60000000p-5, -0x1.6d95920000000p-3, -0x1.ab2aea0000000p-3, 0x1.0c60b40000000p-8, 0x1.7f47640000000p-5, 0x1.3a46300000000p-6}
, {-0x1.0a0e840000000p-5, -0x1.419f3a0000000p-5, 0x1.bc6b860000000p-4, 0x1.499be40000000p-4, -0x1.1b49580000000p-5, 0x1.1c025a0000000p-3, 0x1.b74d180000000p-6, 0x1.587a4e0000000p-5, 0x1.68a2280000000p-5, -0x1.3e90d60000000p-4, -0x1.3eb8160000000p-4, -0x1.d2756c0000000p-5, -0x1.a116ba0000000p-4, 0x1.41a2ae0000000p-4, -0x1.3fa4ac0000000p-3, -0x1.673af20000000p-2, 0x1.c466560000000p-4, 0x1.12b2b00000000p-4, 0x1.9fb9cc0000000p-8, -0x1.8845b60000000p-4, 0x1.d32bc60000000p-4, 0x1.522c060000000p-5, 0x1.05e3620000000p-4, 0x1.2b85c80000000p-3, -0x1.9c4e540000000p-3, -0x1.0a47020000000p-6, -0x1.6defd00000000p-4, -0x1.c9cef60000000p-7, 0x1.2f8d6c0000000p-5, -0x1.f0c49e0000000p-6, 0x1.c771c20000000p-4, -0x1.256f9c0000000p-7, -0x1.786d580000000p-3, -0x1.4461fe0000000p-5, 0x1.263dda0000000p-6, -0x1.1ead840000000p-3, -0x1.0a6b300000000p-5, -0x1.3d00660000000p-4, 0x1.caa4fc0000000p-5, 0x1.2f999e0000000p-3, -0x1.060fee0000000p-2, -0x1.6ba5000000000p-4, 0x1.41b0040000000p-5, 0x1.47c87e0000000p-5, 0x1.0146ea0000000p-4, 0x1.6a2c4a0000000p-4, -0x1.4574b80000000p-3, 0x1.9fcc8a0000000p-3, -0x1.685c0c0000000p-3, -0x1.93083a0000000p-4, 0x1.5ad8dc0000000p-4, -0x1.422f3e0000000p-3, 0x1.9aa9a00000000p-5, 0x1.4ff5b00000000p-5, -0x1.8589fc0000000p-7, 0x1.d6b12c0000000p-6, 0x1.62ed6c0000000p-6, -0x1.802aba0000000p-5, -0x1.0f1cf20000000p-4, -0x1.dcb4160000000p-4, -0x1.a453040000000p-5, 0x1.d310b80000000p-5, 0x1.3e4cd60000000p-6, 0x1.aa5a6e0000000p-3}
}
}
, {{{-0x1.ccfa920000000p-4, -0x1.ab3f860000000p-3, -0x1.9f35120000000p-6, 0x1.b767680000000p-6, 0x1.11d03e0000000p-9, -0x1.4f8e360000000p-5, -0x1.22952c0000000p-3, -0x1.4c91780000000p-2, 0x1.455d080000000p-5, -0x1.2bcbe60000000p-3, 0x1.c6ed480000000p-5, 0x1.d2f9e20000000p-5, -0x1.51ebd00000000p-5, -0x1.f8a5480000000p-3, -0x1.a577c20000000p-4, -0x1.893c200000000p-3, 0x1.90662e0000000p-7, 0x1.80262e0000000p-6, 0x1.ab67d00000000p-7, -0x1.9fad0a0000000p-3, -0x1.e39c340000000p-4, -0x1.43c25e0000000p-2, 0x1.32ff220000000p-5, 0x1.064c340000000p-5, 0x1.559e680000000p-3, -0x1.0eacac0000000p-3, 0x1.7b0af80000000p-7, -0x1.2a30ca0000000p-4, -0x1.d348ca0000000p-6, 0x1.a676b40000000p-9, -0x1.1efa9e0000000p-5, -0x1.11b5900000000p-2, 0x1.d62cd00000000p-3, -0x1.98f2340000000p-4, -0x1.82a5cc0000000p-2, -0x1.9268820000000p-3, -0x1.0e8a700000000p-3, 0x1.0b64960000000p-5, 0x1.1d95040000000p-3, -0x1.db46760000000p-7, 0x1.132df80000000p-3, -0x1.25447c0000000p-5, -0x1.d1eba00000000p-3, 0x1.30019a0000000p-4, -0x1.0848a80000000p-2, -0x1.4871940000000p-3, -0x1.75f1c40000000p-3, -0x1.65eaec0000000p-5, 0x1.1e71d20000000p-3, -0x1.5114a60000000p-3, -0x1.ae83220000000p-4, -0x1.1a18d40000000p-2, 0x1.a887040000000p-4, -0x1.4c74400000000p-3, -0x1.ec78f20000000p-3, 0x1.22169c0000000p-3, 0x1.1fbcae0000000p-6, -0x1.4f70240000000p-5, 0x1.046ca20000000p-3, -0x1.048d860000000p-2, 0x1.5178700000000p-8, -0x1.cf023a0000000p-9, -0x1.632f740000000p-2, 0x1.9773c20000000p-5}
, {-0x1.3225fe0000000p-4, -0x1.3ff7120000000p-5, 0x1.2b54880000000p-6, -0x1.ce214a0000000p-5, -0x1.1ded9e0000000p-8, -0x1.948a780000000p-5, 0x1.6519de0000000p-4, -0x1.991c1c0000000p-3, 0x1.a3345c0000000p-5, -0x1.f470b80000000p-3, -0x1.3d39080000000p-3, 0x1.41555e0000000p-6, -0x1.ba2e060000000p-2, -0x1.39f74a0000000p-3, -0x1.9d767e0000000p-3, -0x1.37639e0000000p-2, -0x1.f3211a0000000p-4, -0x1.7468a40000000p-4, -0x1.9bcd400000000p-4, -0x1.8f53660000000p-2, -0x1.256c9e0000000p-5, 0x1.7ccdb60000000p-8, 0x1.3440780000000p-3, 0x1.dc92a80000000p-4, -0x1.1c31f60000000p-2, -0x1.236cc00000000p-2, -0x1.28a3960000000p-4, 0x1.55b4ae0000000p-3, 0x1.d4eb840000000p-4, 0x1.81ea140000000p-8, -0x1.25e6f40000000p-3, -0x1.62c2d40000000p-4, -0x1.745e5a0000000p-2, -0x1.24da700000000p-3, -0x1.dcfc120000000p-4, 0x1.c067a80000000p-3, -0x1.343d160000000p-3, -0x1.29e8300000000p-5, 0x1.27e7780000000p-5, 0x1.04891a0000000p-3, -0x1.0c5e440000000p-6, -0x1.723da40000000p-4, -0x1.e04ac80000000p-3, -0x1.8a6b5c0000000p-4, -0x1.aa49100000000p-2, -0x1.47eb040000000p-3, 0x1.14240e0000000p-3, 0x1.908bde0000000p-5, -0x1.e91bea0000000p-4, 0x1.0fc0140000000p-4, 0x1.6a56b60000000p-7, -0x1.eecfb40000000p-2, -0x1.629c9c0000000p-2, 0x1.0ed63a0000000p-3, -0x1.de41600000000p-3, -0x1.236ad20000000p-2, -0x1.d8e3c20000000p-3, -0x1.d715dc0000000p-2, -0x1.9a27e60000000p-3, -0x1.a2c5480000000p-4, 0x1.7734260000000p-3, -0x1.2e153a0000000p-5, -0x1.1052ac0000000p-3, -0x1.2511440000000p-3}
, {-0x1.bafd560000000p-4, -0x1.57b0620000000p-5, 0x1.70d1440000000p-4, 0x1.d18fd20000000p-6, -0x1.03b0d40000000p-3, 0x1.2715900000000p-9, 0x1.6b0bfe0000000p-9, 0x1.9af7600000000p-7, -0x1.a3851e0000000p-3, -0x1.3ebaf00000000p-3, -0x1.1e0e7a0000000p-2, 0x1.1b52800000000p-4, -0x1.3be18a0000000p-3, -0x1.e4ffea0000000p-5, -0x1.67737e0000000p-5, -0x1.fc12660000000p-3, -0x1.ff4b260000000p-5, -0x1.339f5c0000000p-4, -0x1.1c0d780000000p-4, -0x1.3d702e0000000p-4, 0x1.0f82760000000p-5, -0x1.4854e80000000p-3, 0x1.0e78fc0000000p-3, 0x1.bc6cd40000000p-5, -0x1.e8b1100000000p-2, -0x1.6da2320000000p-3, 0x1.00936c0000000p-5, 0x1.52eda80000000p-3, 0x1.c180c20000000p-7, -0x1.3990d00000000p-5, -0x1.409ff00000000p-3, -0x1.c4affe0000000p-3, -0x1.41ecca0000000p-2, 0x1.e582440000000p-6, 0x1.ed92880000000p-7, 0x1.f63dc80000000p-6, -0x1.e480aa0000000p-3, -0x1.67261c0000000p-4, 0x1.be08a60000000p-5, -0x1.605f980000000p-3, -0x1.bd015c0000000p-2, -0x1.5c753c0000000p-2, -0x1.28dc740000000p-3, -0x1.adc4b80000000p-6, -0x1.19777c0000000p-3, -0x1.4de1e20000000p-2, -0x1.3a01ac0000000p-4, 0x1.4711980000000p-3, -0x1.e626b60000000p-3, -0x1.b8840c0000000p-4, 0x1.9cdd1e0000000p-4, -0x1.2d35ea0000000p-4, -0x1.2024900000000p-3, -0x1.8946740000000p-4, -0x1.0832840000000p-4, -0x1.d8cd520000000p-3, -0x1.9ac1780000000p-3, -0x1.4c0e440000000p-2, -0x1.5854660000000p-4, -0x1.0776660000000p-6, 0x1.0edf720000000p-4, -0x1.3128260000000p-8, -0x1.504a640000000p-3, 0x1.2f993a0000000p-4}
}
, {{-0x1.c4c6cc0000000p-8, -0x1.2c5eee0000000p-5, -0x1.3060860000000p-3, -0x1.a9a12c0000000p-3, 0x1.0bf1040000000p-4, -0x1.3effe60000000p-3, 0x1.470a2a0000000p-5, -0x1.0d23c40000000p-3, -0x1.5cfb860000000p-3, 0x1.e23afa0000000p-7, 0x1.faf1ac0000000p-5, -0x1.812b060000000p-4, -0x1.9137380000000p-5, -0x1.bc4f800000000p-3, -0x1.eea5480000000p-4, -0x1.8a08140000000p-4, -0x1.82d58c0000000p-2, 0x1.18982c0000000p-3, -0x1.9668a40000000p-4, -0x1.e83aa20000000p-4, -0x1.1120840000000p-5, -0x1.74c4e40000000p-5, 0x1.9f73cc0000000p-4, -0x1.4eab920000000p-3, -0x1.8c661e0000000p-3, -0x1.b978600000000p-3, -0x1.13aaa00000000p-4, -0x1.64793a0000000p-4, 0x1.2e5cd20000000p-3, 0x1.36f9de0000000p-3, -0x1.51e0ba0000000p-4, 0x1.7a9ace0000000p-4, -0x1.0ee8ee0000000p-3, -0x1.821d9a0000000p-2, 0x1.555b680000000p-9, 0x1.1b28b60000000p-4, -0x1.10fb080000000p-4, -0x1.278f820000000p-3, -0x1.f7c0ae0000000p-4, -0x1.9b947a0000000p-5, -0x1.75c3880000000p-5, 0x1.a2ec1a0000000p-4, 0x1.4c27220000000p-3, 0x1.1f7f280000000p-7, 0x1.38ba360000000p-4, -0x1.6c46da0000000p-5, -0x1.02ade20000000p-7, 0x1.a182520000000p-5, -0x1.7d5c140000000p-3, 0x1.7ae6da0000000p-3, 0x1.0e27ce0000000p-4, -0x1.73eb9a0000000p-3, 0x1.88e11c0000000p-5, 0x1.0ba5a20000000p-6, -0x1.55b5140000000p-3, -0x1.b17d120000000p-5, -0x1.28985c0000000p-2, -0x1.7bf8ba0000000p-2, -0x1.1e404c0000000p-2, 0x1.ef477a0000000p-7, 0x1.ca02220000000p-4, -0x1.e7a6780000000p-5, -0x1.e2ceda0000000p-6, 0x1.96b7520000000p-4}
, {0x1.5b8d4e0000000p-3, -0x1.1fb2c60000000p-5, 0x1.3823180000000p-3, 0x1.0830820000000p-4, 0x1.1d21e80000000p-6, -0x1.3be2720000000p-5, 0x1.cb7a220000000p-6, 0x1.5050480000000p-3, -0x1.76df9c0000000p-3, 0x1.0680a20000000p-2, 0x1.a2c6180000000p-6, 0x1.656bac0000000p-6, -0x1.810e660000000p-6, 0x1.0703260000000p-4, 0x1.7f03ec0000000p-4, -0x1.e7e6260000000p-6, 0x1.be37f40000000p-3, -0x1.99d2000000000p-3, 0x1.3e3e580000000p-4, 0x1.08e2c80000000p-4, 0x1.4887fe0000000p-12, 0x1.9ab2780000000p-3, 0x1.66edcc0000000p-3, -0x1.bc40160000000p-5, 0x1.2359640000000p-3, -0x1.767f3e0000000p-5, -0x1.fc77880000000p-4, -0x1.7d61080000000p-3, -0x1.0cf8d40000000p-3, -0x1.5090940000000p-5, -0x1.cc3d600000000p-4, 0x1.65519a0000000p-6, 0x1.dcfea80000000p-4, 0x1.a1cd740000000p-3, -0x1.4a7d5a0000000p-4, 0x1.2b44160000000p-3, 0x1.d696fc0000000p-5, 0x1.4366ca0000000p-2, 0x1.f6c4600000000p-4, 0x1.12e1b40000000p-7, 0x1.f8e8dc0000000p-6, -0x1.7e1e9e0000000p-3, -0x1.a0de280000000p-5, -0x1.b881ee0000000p-4, 0x1.26a8900000000p-3, -0x1.c36a460000000p-3, 0x1.a2a4fa0000000p-6, -0x1.ce76760000000p-4, 0x1.5411ca0000000p-6, -0x1.9a9e020000000p-5, 0x1.c5959a0000000p-4, 0x1.24f8e60000000p-3, -0x1.e616480000000p-3, -0x1.72a09e0000000p-4, 0x1.05fc740000000p-5, -0x1.38302e0000000p-5, 0x1.958b0e0000000p-8, -0x1.cacd580000000p-9, 0x1.1419840000000p-4, 0x1.876fc60000000p-4, -0x1.68042a0000000p-7, -0x1.8696da0000000p-3, -0x1.f3ce620000000p-4, -0x1.8719d60000000p-4}
, {-0x1.0240fc0000000p-3, 0x1.4e5c120000000p-4, 0x1.24564a0000000p-3, -0x1.367ff00000000p-3, 0x1.68d2c20000000p-3, 0x1.f089fe0000000p-4, 0x1.aec4240000000p-4, 0x1.4363920000000p-5, 0x1.7ee5500000000p-5, 0x1.b829fe0000000p-5, 0x1.2b63880000000p-3, -0x1.6134a60000000p-7, 0x1.6a19d40000000p-6, -0x1.22f3460000000p-4, 0x1.4f5dfe0000000p-3, 0x1.4e4d260000000p-5, 0x1.edce6a0000000p-5, -0x1.2c8cf80000000p-2, 0x1.d9344c0000000p-5, 0x1.49ad760000000p-3, -0x1.6adc840000000p-2, 0x1.6fe3920000000p-6, 0x1.5d7ede0000000p-4, -0x1.fdd13a0000000p-7, 0x1.7f2e1e0000000p-6, -0x1.31eaa40000000p-3, 0x1.89bd0e0000000p-4, -0x1.1fbf2a0000000p-3, -0x1.acc53a0000000p-6, 0x1.2350800000000p-13, -0x1.93519c0000000p-3, -0x1.8382c80000000p-5, -0x1.81ba400000000p-5, 0x1.3425ae0000000p-6, -0x1.d187a60000000p-3, 0x1.0e4f080000000p-3, 0x1.6622fa0000000p-4, 0x1.3051d80000000p-5, 0x1.d93af20000000p-5, -0x1.681caa0000000p-4, 0x1.01bca00000000p-4, 0x1.1164a60000000p-4, -0x1.7f10b60000000p-4, -0x1.d494440000000p-3, -0x1.88ad720000000p-3, -0x1.1e10160000000p-7, 0x1.298b040000000p-3, -0x1.6cb26e0000000p-4, 0x1.3e8c840000000p-5, 0x1.e416900000000p-6, -0x1.8aaa840000000p-3, 0x1.8fe5740000000p-3, -0x1.fa16b00000000p-5, 0x1.8ccb760000000p-4, -0x1.afd5fa0000000p-4, -0x1.830b840000000p-3, -0x1.31f4720000000p-3, -0x1.e4690a0000000p-4, 0x1.7eff8e0000000p-3, -0x1.8b75ca0000000p-7, 0x1.eb63560000000p-4, -0x1.3b8dd80000000p-4, 0x1.6b73960000000p-4, -0x1.c0057c0000000p-2}
}
, {{0x1.199bcc0000000p-5, -0x1.5b97060000000p-4, -0x1.32a7f00000000p-4, 0x1.6f66140000000p-4, 0x1.4151b80000000p-4, -0x1.73fa240000000p-4, 0x1.5532a80000000p-5, 0x1.5973860000000p-3, -0x1.2f57ce0000000p-5, 0x1.951be60000000p-5, -0x1.0dcfc60000000p-3, 0x1.ff73480000000p-7, 0x1.d8f3140000000p-6, -0x1.bf27780000000p-3, 0x1.3c70e80000000p-5, 0x1.11898c0000000p-3, -0x1.9e100e0000000p-4, 0x1.8ab4e20000000p-5, -0x1.affe7c0000000p-5, 0x1.987b9a0000000p-4, -0x1.689cfa0000000p-7, 0x1.eb67e80000000p-7, -0x1.d778ea0000000p-7, -0x1.27dd180000000p-3, -0x1.515f4e0000000p-4, 0x1.d4bd7a0000000p-6, -0x1.c689ec0000000p-5, -0x1.e2283c0000000p-6, -0x1.da3ea80000000p-5, -0x1.205ae40000000p-3, -0x1.1947bc0000000p-4, 0x1.749b4c0000000p-7, -0x1.448e6a0000000p-9, -0x1.6aef840000000p-5, 0x1.9720a80000000p-4, -0x1.0520d00000000p-4, 0x1.5e82be0000000p-3, -0x1.607d980000000p-6, -0x1.ef3e4e0000000p-5, -0x1.c49c8e0000000p-8, -0x1.751c360000000p-5, 0x1.4f5e3a0000000p-4, 0x1.55a1fa0000000p-5, 0x1.0e092e0000000p-3, -0x1.ba18940000000p-6, -0x1.32c46a0000000p-3, 0x1.def63c0000000p-6, -0x1.fd8b7e0000000p-5, -0x1.745d440000000p-3, 0x1.6c1a220000000p-6, -0x1.32bf280000000p-7, -0x1.20bb6c0000000p-4, 0x1.2d20840000000p-6, 0x1.628d100000000p-4, -0x1.6ff70c0000000p-4, -0x1.58f2800000000p-3, 0x1.eb83380000000p-5, -0x1.253a7a0000000p-3, -0x1.25c6a40000000p-6, 0x1.b3959e0000000p-4, 0x1.db8bae0000000p-5, 0x1.1d6e7e0000000p-4, 0x1.80484e0000000p-5, 0x1.e8dc2e0000000p-6}
, {0x1.7fff000000000p-4, 0x1.44544a0000000p-4, 0x1.1b68780000000p-4, 0x1.1721f40000000p-3, -0x1.cb47640000000p-5, -0x1.2c739e0000000p-4, 0x1.7002900000000p-7, -0x1.971daa0000000p-4, 0x1.6652a20000000p-6, -0x1.46367c0000000p-11, 0x1.b380f60000000p-4, -0x1.cbb55e0000000p-4, -0x1.ab0ef60000000p-4, -0x1.d7217c0000000p-5, -0x1.d0edf80000000p-5, 0x1.c57fda0000000p-4, -0x1.46024a0000000p-4, -0x1.6bc43a0000000p-3, 0x1.15e77e0000000p-3, -0x1.ee6a580000000p-4, -0x1.6c88640000000p-7, 0x1.5db9be0000000p-3, 0x1.1674c40000000p-4, 0x1.daa36a0000000p-3, 0x1.f19b0e0000000p-6, -0x1.2442440000000p-5, -0x1.3e42f40000000p-3, 0x1.7103760000000p-3, -0x1.1663100000000p-3, 0x1.0845f80000000p-3, 0x1.6af80e0000000p-5, 0x1.b80a300000000p-4, -0x1.39a4020000000p-6, 0x1.87be400000000p-5, 0x1.89f3660000000p-6, 0x1.2073d40000000p-6, -0x1.6a74840000000p-6, 0x1.4d9d5a0000000p-4, 0x1.37f2fc0000000p-3, 0x1.925e900000000p-5, -0x1.0b77c40000000p-5, -0x1.44dae40000000p-4, 0x1.e8dc500000000p-4, 0x1.6c7f240000000p-4, -0x1.9679320000000p-4, -0x1.0c95620000000p-3, -0x1.0731520000000p-4, 0x1.3cd97e0000000p-3, 0x1.10e8120000000p-5, -0x1.1c9a320000000p-5, -0x1.9c02800000000p-10, -0x1.332bd80000000p-7, 0x1.41a9940000000p-5, -0x1.331d2a0000000p-5, -0x1.34e2ee0000000p-3, 0x1.5d100a0000000p-3, 0x1.2b914a0000000p-3, -0x1.9be4940000000p-8, -0x1.8c1b640000000p-8, 0x1.35783e0000000p-3, 0x1.5ef3520000000p-11, 0x1.6925040000000p-4, 0x1.4c49b80000000p-6, 0x1.7168320000000p-4}
, {-0x1.bae3760000000p-5, 0x1.6825b20000000p-3, -0x1.c25a120000000p-4, 0x1.480b820000000p-4, 0x1.82ffbe0000000p-9, -0x1.dcca060000000p-7, -0x1.95ed320000000p-4, 0x1.47dcd00000000p-4, 0x1.cf66dc0000000p-3, -0x1.33e6f00000000p-3, -0x1.7043cc0000000p-6, -0x1.92f0500000000p-5, -0x1.7ee1080000000p-4, 0x1.9714300000000p-5, 0x1.07f2e00000000p-5, 0x1.2c117c0000000p-4, -0x1.bb08920000000p-6, -0x1.368e500000000p-4, 0x1.57bc5e0000000p-4, 0x1.3026600000000p-4, 0x1.3492cc0000000p-4, 0x1.13e6300000000p-3, -0x1.45adea0000000p-6, 0x1.e3b84c0000000p-8, -0x1.154d360000000p-6, -0x1.081e1a0000000p-9, -0x1.105d4c0000000p-7, -0x1.25c53a0000000p-3, -0x1.49f5800000000p-5, -0x1.9f29d80000000p-4, 0x1.2fa0b40000000p-3, 0x1.6e2a9c0000000p-5, -0x1.46c2fe0000000p-5, 0x1.a1fce60000000p-4, 0x1.3791280000000p-2, -0x1.0542e20000000p-3, -0x1.1417ea0000000p-5, 0x1.df43d20000000p-6, 0x1.6327620000000p-6, -0x1.1c22fe0000000p-6, -0x1.3427d80000000p-4, -0x1.d4bde40000000p-4, -0x1.5945d00000000p-7, 0x1.076d860000000p-3, -0x1.32729a0000000p-4, -0x1.716bd00000000p-5, 0x1.24828c0000000p-3, -0x1.0c20160000000p-5, -0x1.858df40000000p-6, -0x1.ef50980000000p-6, 0x1.0ec1580000000p-3, -0x1.822f220000000p-5, -0x1.85308c0000000p-4, -0x1.1d37b60000000p-4, -0x1.7950e00000000p-4, -0x1.03dfd40000000p-6, 0x1.def6a80000000p-5, 0x1.568de60000000p-5, -0x1.ecf55e0000000p-8, -0x1.626eee0000000p-4, -0x1.109c540000000p-4, -0x1.5b40340000000p-9, 0x1.541e9c0000000p-4, 0x1.8167520000000p-5}
}
}
, {{{0x1.f8f7700000000p-5, 0x1.4767360000000p-4, -0x1.a686420000000p-4, -0x1.6680760000000p-3, -0x1.ea0d5a0000000p-7, -0x1.c9aeec0000000p-4, 0x1.0beb7e0000000p-3, -0x1.e41f8a0000000p-4, -0x1.250b420000000p-4, -0x1.296bb60000000p-5, 0x1.6d73da0000000p-7, -0x1.e32a3a0000000p-4, -0x1.c1b3ae0000000p-4, 0x1.19f6aa0000000p-4, -0x1.1aef7a0000000p-8, -0x1.5a34aa0000000p-8, -0x1.fd26c00000000p-5, -0x1.52fe500000000p-5, 0x1.09b34e0000000p-3, -0x1.b4d6420000000p-4, -0x1.3484360000000p-4, -0x1.9196980000000p-4, -0x1.1e53fc0000000p-3, 0x1.ca3d640000000p-4, 0x1.99dc440000000p-4, 0x1.0d7d9a0000000p-4, -0x1.ff31740000000p-4, 0x1.85c1220000000p-6, 0x1.c593860000000p-4, -0x1.2e965a0000000p-4, 0x1.c065600000000p-5, -0x1.f9451e0000000p-4, 0x1.03571a0000000p-3, -0x1.44da700000000p-4, 0x1.2eb1a60000000p-4, -0x1.bc11520000000p-3, -0x1.387ef80000000p-4, 0x1.fb3c180000000p-5, 0x1.8b67da0000000p-5, -0x1.104c740000000p-7, -0x1.81c2540000000p-4, -0x1.120dd40000000p-5, -0x1.bef8420000000p-4, 0x1.1762460000000p-4, 0x1.f8f7e80000000p-4, -0x1.bd066a0000000p-3, -0x1.8a08b40000000p-7, 0x1.7616440000000p-5, 0x1.988b7e0000000p-5, -0x1.909f500000000p-5, 0x1.8dce200000000p-3, 0x1.78eacc0000000p-7, 0x1.2b85ba0000000p-4, 0x1.82d4b40000000p-4, 0x1.6e388e0000000p-3, -0x1.4cfea60000000p-2, -0x1.343c140000000p-6, -0x1.a05c020000000p-5, -0x1.3454d80000000p-2, 0x1.f5c5740000000p-3, -0x1.dce7f00000000p-4, 0x1.1b4f040000000p-4, -0x1.b6de2a0000000p-4, 0x1.06892e0000000p-4}
, {-0x1.3b80b80000000p-7, 0x1.4ffd120000000p-4, -0x1.0d0a260000000p-3, -0x1.581f660000000p-4, -0x1.33ccce0000000p-3, -0x1.b114000000000p-10, -0x1.fa08260000000p-7, -0x1.3c12d00000000p-4, 0x1.c91e240000000p-7, -0x1.6812ee0000000p-3, -0x1.de9e9e0000000p-6, -0x1.f3a2120000000p-3, -0x1.0fce160000000p-4, -0x1.bf01880000000p-4, -0x1.ca4ad80000000p-4, -0x1.4da5f40000000p-4, 0x1.c215d80000000p-8, -0x1.07d3c40000000p-7, -0x1.2a5bc80000000p-4, -0x1.8cc38c0000000p-4, -0x1.10352e0000000p-8, 0x1.5efa040000000p-5, 0x1.842c4c0000000p-4, -0x1.106d4e0000000p-7, -0x1.b429120000000p-6, -0x1.e51b940000000p-5, -0x1.21880e0000000p-2, 0x1.14c4880000000p-3, -0x1.3d28660000000p-5, 0x1.93617a0000000p-3, 0x1.62bda20000000p-9, -0x1.9c6dee0000000p-4, -0x1.1ab6ee0000000p-4, -0x1.c737300000000p-8, 0x1.6b865c0000000p-5, -0x1.85bf9e0000000p-3, -0x1.8bd8c40000000p-6, -0x1.57eada0000000p-5, -0x1.13ef360000000p-6, -0x1.71d4e40000000p-5, -0x1.309d920000000p-4, -0x1.cfe9580000000p-3, -0x1.956abc0000000p-4, 0x1.250d980000000p-3, 0x1.0ffaf80000000p-4, 0x1.4c1e5a0000000p-5, -0x1.1e26f00000000p-3, 0x1.7b6a1e0000000p-4, -0x1.70fa420000000p-9, 0x1.89bc760000000p-5, 0x1.b92e8c0000000p-4, -0x1.4616f60000000p-3, 0x1.c4f1520000000p-6, 0x1.68ea240000000p-6, -0x1.63a6ca0000000p-9, -0x1.1629000000000p-3, -0x1.2f7f4e0000000p-5, -0x1.345aa60000000p-6, -0x1.916b2c0000000p-5, -0x1.d0e1600000000p-6, -0x1.9c4e040000000p-4, 0x1.d43b440000000p-4, -0x1.af77420000000p-4, 0x1.2cb7f80000000p-4}
, {0x1.bee8d60000000p-7, -0x1.c9d0560000000p-4, 0x1.8766b40000000p-8, 0x1.2adcbc0000000p-5, -0x1.bf32b80000000p-5, -0x1.3f2cbc0000000p-5, 0x1.24b5240000000p-3, -0x1.36e14e0000000p-7, 0x1.e6adc20000000p-8, -0x1.0c49620000000p-2, 0x1.079b900000000p-7, -0x1.556c080000000p-4, -0x1.3d6bc00000000p-3, -0x1.77e0ae0000000p-3, -0x1.f99bf40000000p-7, -0x1.a175b40000000p-6, 0x1.c853400000000p-4, -0x1.e932720000000p-4, 0x1.4fd8a00000000p-7, 0x1.5fe7920000000p-5, 0x1.f7b2000000000p-6, 0x1.dd24620000000p-7, -0x1.eacc580000000p-7, 0x1.121d980000000p-5, -0x1.83d8220000000p-4, 0x1.2864b80000000p-2, 0x1.c8b3020000000p-8, 0x1.188b0c0000000p-5, -0x1.12371a0000000p-3, 0x1.4842f60000000p-3, 0x1.96d7a60000000p-4, 0x1.31e41a0000000p-4, 0x1.9e47200000000p-6, -0x1.3d79820000000p-6, 0x1.4e13de0000000p-4, 0x1.990b080000000p-7, 0x1.0862100000000p-4, -0x1.aee8ca0000000p-4, -0x1.1fffda0000000p-4, -0x1.1580220000000p-6, 0x1.fe69520000000p-9, -0x1.b8c1a40000000p-3, 0x1.0e0bda0000000p-3, -0x1.664b9c0000000p-5, -0x1.29f8420000000p-8, 0x1.255a8e0000000p-8, -0x1.bb68020000000p-6, -0x1.ca36300000000p-5, -0x1.0c875a0000000p-3, -0x1.65d90c0000000p-4, 0x1.1e17500000000p-7, -0x1.1752ac0000000p-3, -0x1.eb20c20000000p-3, 0x1.48b19a0000000p-4, -0x1.7a0dc40000000p-4, 0x1.6c5caa0000000p-4, 0x1.1b33b60000000p-3, 0x1.bc62ec0000000p-4, -0x1.4325420000000p-4, 0x1.89abee0000000p-3, 0x1.9ad83e0000000p-6, -0x1.71e2ce0000000p-3, -0x1.e815e60000000p-9, 0x1.6681ee0000000p-6}
}
