/**
  ******************************************************************************
  * @file    weights/conv2d.cc
  * @author  Pierre-Emmanuel Novac <penovac@unice.fr>, LEAT, CNRS, Université Côte d'Azur, France
  * @version V2.0
  * @date    24 march 2020
  * @brief   Template generating plain C code for the implementation of Convolutional Neural Networks on MCU
  */

#include <stdint.h>

#define INPUT_CHANNELS     1
#define CONV_FILTERS       32
#define CONV_KERNEL_SIZE_Y 3
#define CONV_KERNEL_SIZE_X 3
#define CONV_GROUPS        1


const float conv2d_7_bias[CONV_FILTERS] = {0x1.fb1dc60000000p-6, -0x1.3719860000000p-6, 0x1.21968e0000000p-5, -0x1.b708aa0000000p-11, -0x1.34b3800000000p-4, -0x1.4c2dc00000000p-10, -0x1.949bcc0000000p-10, -0x1.90701c0000000p-4, 0x1.64a8480000000p-12, 0x1.10b08e0000000p-4, 0x1.f05e680000000p-7, -0x1.9503c20000000p-6, -0x1.661c6c0000000p-6, -0x1.01a84c0000000p-10, -0x1.0d72880000000p-3, 0x1.826e000000000p-17, 0x1.03a2020000000p-6, -0x1.18e1440000000p-6, -0x1.1d58c80000000p-10, -0x1.ac05020000000p-5, -0x1.8999800000000p-8, -0x1.3e2d720000000p-10, -0x1.bb9c460000000p-4, -0x1.4c24c60000000p-4, -0x1.9454880000000p-11, -0x1.6b87720000000p-4, -0x1.4bffa60000000p-4, -0x1.5e38ce0000000p-7, 0x1.f3d5d00000000p-7, -0x1.d6c5920000000p-6, -0x1.a2751a0000000p-6, 0x1.c2f3ba0000000p-4}
;


const float conv2d_7_kernel[CONV_FILTERS][CONV_KERNEL_SIZE_Y][CONV_KERNEL_SIZE_X][INPUT_CHANNELS / CONV_GROUPS] = {{{{0x1.6805920000000p-3}
, {0x1.c8668a0000000p-3}
, {0x1.df254e0000000p-3}
}
, {{0x1.774e520000000p-4}
, {-0x1.9c25b40000000p-12}
, {-0x1.8e13480000000p-4}
}
, {{-0x1.4a22ee0000000p-2}
, {-0x1.2c8d1a0000000p-2}
, {-0x1.f233200000000p-2}
}
}
, {{{0x1.3698c60000000p-6}
, {0x1.3043060000000p-3}
, {0x1.82913e0000000p-3}
}
, {{-0x1.cae1c60000000p-3}
, {-0x1.4011b40000000p-1}
, {-0x1.802aae0000000p-2}
}
, {{0x1.1af2600000000p-2}
, {0x1.0d5b420000000p-2}
, {0x1.0db9980000000p-3}
}
}
, {{{0x1.d89ee60000000p-4}
, {0x1.f4f9c40000000p-5}
, {0x1.ed33440000000p-3}
}
, {{-0x1.570a5e0000000p-3}
, {0x1.3946be0000000p-3}
, {0x1.a1e4c40000000p-4}
}
, {{-0x1.8ae39e0000000p-2}
, {-0x1.37fee00000000p-2}
, {-0x1.7e6c060000000p-2}
}
}
, {{{0x1.f5d5560000000p-3}
, {-0x1.702c1a0000000p-5}
, {-0x1.cc3e0a0000000p-3}
}
, {{0x1.19063e0000000p-2}
, {-0x1.53df040000000p-5}
, {-0x1.8907760000000p-2}
}
, {{0x1.0be4440000000p-3}
, {0x1.13e7e00000000p-3}
, {-0x1.b1428c0000000p-4}
}
}
, {{{-0x1.a8723a0000000p-7}
, {-0x1.23e5640000000p-4}
, {-0x1.bda0a80000000p-5}
}
, {{-0x1.3ef4620000000p-7}
, {0x1.20bb660000000p-2}
, {-0x1.29f42e0000000p-4}
}
, {{0x1.b0fc120000000p-5}
, {0x1.7845ca0000000p-5}
, {0x1.0b90f80000000p-4}
}
}
, {{{0x1.c705600000000p-6}
, {-0x1.98ab8c0000000p-3}
, {-0x1.2a5d3a0000000p-2}
}
, {{0x1.9b76680000000p-3}
, {0x1.4d0cf60000000p-2}
, {0x1.da56160000000p-8}
}
, {{-0x1.6b4d060000000p-5}
, {-0x1.bc869c0000000p-4}
, {0x1.7307b00000000p-4}
}
}
, {{{0x1.962b220000000p-4}
, {0x1.d2c3ea0000000p-5}
, {0x1.48d24a0000000p-4}
}
, {{0x1.9efdcc0000000p-4}
, {0x1.8124c40000000p-3}
, {0x1.1d4a4a0000000p-4}
}
, {{-0x1.0ff6ac0000000p-3}
, {-0x1.b653d20000000p-4}
, {-0x1.98dd220000000p-3}
}
}
, {{{0x1.35484e0000000p-5}
, {0x1.2f53b20000000p-3}
, {-0x1.0c17a80000000p-4}
}
, {{0x1.dd442c0000000p-4}
, {0x1.9694a80000000p-3}
, {-0x1.cfff940000000p-7}
}
, {{-0x1.b9f94a0000000p-5}
, {0x1.f163000000000p-7}
, {-0x1.c083c20000000p-8}
}
}
, {{{0x1.4df8c00000000p-5}
, {-0x1.7456fe0000000p-4}
, {-0x1.36890c0000000p-2}
}
, {{-0x1.2411360000000p-6}
, {0x1.0fe47e0000000p-4}
, {-0x1.159a460000000p-2}
}
, {{0x1.0ac32e0000000p-3}
, {0x1.0277460000000p-2}
, {0x1.314b2a0000000p-3}
}
}
, {{{0x1.b291840000000p-3}
, {-0x1.8267860000000p-4}
, {-0x1.ae25340000000p-2}
}
, {{0x1.d95ab80000000p-4}
, {0x1.da5fc40000000p-4}
, {-0x1.773e800000000p-2}
}
, {{0x1.ac66640000000p-3}
, {-0x1.0c15b40000000p-2}
, {-0x1.5f4f7a0000000p-1}
}
}
, {{{-0x1.37a37a0000000p-5}
, {-0x1.c607a60000000p-2}
, {-0x1.befca00000000p-4}
}
, {{0x1.45e0280000000p-5}
, {0x1.40c45e0000000p-3}
, {-0x1.bdeeb80000000p-5}
}
, {{0x1.1af3200000000p-4}
, {0x1.433dba0000000p-2}
, {0x1.2cd5500000000p-6}
}
}
, {{{-0x1.70c7de0000000p-5}
, {0x1.ebb8be0000000p-4}
, {-0x1.927b080000000p-3}
}
, {{-0x1.87ae600000000p-3}
, {0x1.82eab40000000p-3}
, {0x1.0734de0000000p-3}
}
, {{-0x1.0f609c0000000p-5}
, {0x1.c5ffc80000000p-4}
, {0x1.66ed840000000p-6}
}
}
, {{{-0x1.71e6d00000000p-2}
, {-0x1.5a81a40000000p-4}
, {-0x1.0150800000000p-6}
}
, {{-0x1.f4b5340000000p-4}
, {0x1.9f75520000000p-3}
, {0x1.70f91e0000000p-2}
}
, {{-0x1.846e8e0000000p-6}
, {0x1.a8c1ba0000000p-5}
, {-0x1.346f1e0000000p-3}
}
}
, {{{-0x1.10049a0000000p-3}
, {-0x1.ceff6e0000000p-3}
, {-0x1.64de7a0000000p-2}
}
, {{0x1.a9df1e0000000p-3}
, {0x1.a709500000000p-11}
, {0x1.c278880000000p-3}
}
, {{0x1.2fdfd00000000p-4}
, {0x1.2371ac0000000p-4}
, {0x1.09fe500000000p-3}
}
}
, {{{0x1.91411a0000000p-4}
, {0x1.3c177c0000000p-9}
, {-0x1.291b920000000p-4}
}
, {{-0x1.d265e60000000p-4}
, {0x1.d1941e0000000p-4}
, {0x1.85d7680000000p-4}
}
, {{0x1.e692da0000000p-7}
, {0x1.c6e2200000000p-3}
, {0x1.91bd420000000p-5}
}
}
, {{{0x1.5607540000000p-8}
, {0x1.4f98120000000p-3}
, {0x1.0c3fe20000000p-3}
}
, {{0x1.6b056c0000000p-4}
, {0x1.27247e0000000p-5}
, {0x1.7e2ca40000000p-5}
}
, {{-0x1.e698640000000p-3}
, {-0x1.25f7760000000p-5}
, {-0x1.f84ef40000000p-5}
}
}
, {{{0x1.8fcf920000000p-4}
, {-0x1.b3c7a40000000p-2}
, {-0x1.ddb3820000000p-3}
}
, {{-0x1.e46cb40000000p-2}
, {-0x1.ae63280000000p-4}
, {0x1.7aa73c0000000p-4}
}
, {{-0x1.5beaf20000000p-6}
, {0x1.a1bc920000000p-4}
, {0x1.75dc9e0000000p-2}
}
}
, {{{0x1.0baa140000000p-6}
, {-0x1.91cf9e0000000p-5}
, {-0x1.1208720000000p-3}
}
, {{-0x1.389ae80000000p-6}
, {0x1.30cac80000000p-3}
, {-0x1.5e2a6e0000000p-4}
}
, {{0x1.abc4d20000000p-4}
, {0x1.4a81d00000000p-3}
, {-0x1.b5b0fa0000000p-7}
}
}
, {{{-0x1.1622ea0000000p-4}
, {-0x1.969d300000000p-3}
, {-0x1.087fca0000000p-3}
}
, {{-0x1.dcdd800000000p-3}
, {-0x1.5207ca0000000p-3}
, {-0x1.3bbde20000000p-6}
}
, {{0x1.38391a0000000p-2}
, {0x1.2cb6c00000000p-2}
, {0x1.aaee000000000p-3}
}
}
, {{{-0x1.c315400000000p-4}
, {-0x1.387d4e0000000p-5}
, {-0x1.ca5b580000000p-5}
}
, {{0x1.9e192a0000000p-5}
, {0x1.7185980000000p-2}
, {0x1.f0d08a0000000p-4}
}
, {{-0x1.4b19120000000p-2}
, {0x1.906a440000000p-7}
, {0x1.b105940000000p-4}
}
}
, {{{-0x1.6298000000000p-6}
, {-0x1.2e73820000000p-2}
, {-0x1.31791e0000000p-2}
}
, {{0x1.67bad60000000p-4}
, {0x1.4acb0a0000000p-5}
, {-0x1.7ad02a0000000p-4}
}
, {{0x1.4a45d00000000p-3}
, {0x1.46e46e0000000p-3}
, {0x1.1771dc0000000p-5}
}
}
, {{{-0x1.6f26a80000000p-5}
, {0x1.24f8d40000000p-3}
, {-0x1.5a26400000000p-4}
}
, {{0x1.ecd1160000000p-4}
, {0x1.7a09d80000000p-5}
, {0x1.07117a0000000p-2}
}
, {{-0x1.7427ba0000000p-3}
, {0x1.810b900000000p-5}
, {-0x1.4731d20000000p-3}
}
}
, {{{-0x1.1c8eb20000000p-4}
, {0x1.7f7c980000000p-4}
, {-0x1.e3cf760000000p-6}
}
, {{0x1.7509860000000p-4}
, {0x1.36fb1c0000000p-3}
, {0x1.0e51520000000p-4}
}
, {{0x1.8179020000000p-5}
, {-0x1.228c460000000p-6}
, {-0x1.88f98a0000000p-6}
}
}
, {{{-0x1.063a6c0000000p-2}
, {0x1.25806c0000000p-4}
, {0x1.a1a7f20000000p-6}
}
, {{0x1.d5fca00000000p-9}
, {0x1.c856b60000000p-3}
, {-0x1.4cddfa0000000p-4}
}
, {{-0x1.9812ba0000000p-9}
, {0x1.ba54360000000p-3}
, {0x1.12510e0000000p-6}
}
}
, {{{-0x1.4df6ce0000000p-3}
, {-0x1.040b040000000p-2}
, {-0x1.9f1c880000000p-3}
}
, {{0x1.d318d80000000p-4}
, {0x1.63c54a0000000p-3}
, {0x1.01c5be0000000p-3}
}
, {{0x1.0b3ea80000000p-6}
, {0x1.c59de00000000p-5}
, {0x1.34f2ae0000000p-5}
}
}
, {{{-0x1.10858a0000000p-4}
, {0x1.cfc99c0000000p-8}
, {0x1.4599b40000000p-6}
}
, {{0x1.6b4ae60000000p-3}
, {0x1.9bb2120000000p-3}
, {0x1.4756820000000p-6}
}
, {{-0x1.1f2c100000000p-4}
, {0x1.596f420000000p-4}
, {-0x1.5f061a0000000p-3}
}
}
, {{{0x1.07568a0000000p-5}
, {-0x1.c31c720000000p-6}
, {0x1.a055720000000p-6}
}
, {{0x1.61b3d00000000p-3}
, {0x1.e324c80000000p-4}
, {0x1.3caa2e0000000p-5}
}
, {{0x1.cfb3fa0000000p-6}
, {-0x1.2d4f2e0000000p-3}
, {-0x1.ce5b620000000p-6}
}
}
, {{{-0x1.0a73520000000p-2}
, {-0x1.096a820000000p-2}
, {0x1.d2bea60000000p-8}
}
, {{-0x1.b5fdee0000000p-3}
, {-0x1.9c5fe00000000p-5}
, {0x1.dedbd80000000p-3}
}
, {{-0x1.601be20000000p-2}
, {-0x1.56b2740000000p-5}
, {0x1.44dee20000000p-2}
}
}
, {{{0x1.9077fe0000000p-6}
, {0x1.a2d90a0000000p-5}
, {0x1.4688160000000p-2}
}
, {{-0x1.eb07220000000p-4}
, {0x1.4ce3bc0000000p-3}
, {0x1.6b5d340000000p-3}
}
, {{-0x1.e02d880000000p-3}
, {-0x1.db65040000000p-2}
, {-0x1.2e5d600000000p-3}
}
}
, {{{-0x1.5b763a0000000p-4}
, {-0x1.f9d96a0000000p-6}
, {-0x1.70adca0000000p-4}
}
, {{0x1.1a41340000000p-3}
, {0x1.4568e80000000p-3}
, {0x1.323f700000000p-3}
}
, {{0x1.589fe60000000p-6}
, {0x1.30f7aa0000000p-3}
, {-0x1.dca3000000000p-3}
}
}
, {{{-0x1.30e5fe0000000p-2}
, {0x1.eeb5440000000p-6}
, {0x1.39e8b60000000p-5}
}
, {{0x1.5b24cc0000000p-5}
, {0x1.32960c0000000p-8}
, {0x1.aba9ca0000000p-3}
}
, {{-0x1.28706c0000000p-4}
, {-0x1.7d1a800000000p-3}
, {0x1.178c460000000p-3}
}
}
, {{{0x1.d0e38e0000000p-3}
, {0x1.0bfdf60000000p-2}
, {-0x1.7d9ef40000000p-5}
}
, {{0x1.00ee020000000p-5}
, {0x1.b9215a0000000p-4}
, {-0x1.40e74e0000000p-1}
}
, {{-0x1.21405c0000000p-1}
, {-0x1.04f8ec0000000p-1}
, {-0x1.3f89c40000000p-3}
}
}
}
;

#undef INPUT_CHANNELS
#undef CONV_FILTERS
#undef CONV_KERNEL_SIZE_X
#undef CONV_KERNEL_SIZE_Y
#undef CONV_GROUPS