/**
  ******************************************************************************
  * @file    weights/conv2d.cc
  * @author  Pierre-Emmanuel Novac <penovac@unice.fr>, LEAT, CNRS, Université Côte d'Azur, France
  * @version V2.0
  * @date    24 march 2020
  * @brief   Template generating plain C code for the implementation of Convolutional Neural Networks on MCU
  */

#include <stdint.h>

#define INPUT_CHANNELS     1
#define CONV_FILTERS       16
#define CONV_KERNEL_SIZE_Y 3
#define CONV_KERNEL_SIZE_X 3
#define CONV_GROUPS        1


const float conv2d_bias[CONV_FILTERS] = {0x1.63566c0000000p-4, -0x1.f848de0000000p-8, -0x1.ba53580000000p-7, -0x1.a60bf40000000p-8, 0x1.745de60000000p-3, -0x1.6812ae0000000p-8, -0x1.d2840c0000000p-11, -0x1.55ee020000000p-6, -0x1.0fbf9c0000000p-7, 0x1.bdea7e0000000p-4, 0x1.5398960000000p-9, 0x1.62bb520000000p-6, -0x1.b7f3100000000p-8, 0x1.aa58e20000000p-8, -0x1.4136920000000p-6, -0x1.712d120000000p-7}
;


const float conv2d_kernel[CONV_FILTERS][CONV_KERNEL_SIZE_Y][CONV_KERNEL_SIZE_X][INPUT_CHANNELS / CONV_GROUPS] = {{{{0x1.0a74520000000p-2}
, {0x1.6020240000000p-2}
, {0x1.2771460000000p-2}
}
, {{0x1.0723760000000p-4}
, {-0x1.b562360000000p-4}
, {-0x1.866db20000000p-4}
}
, {{-0x1.b36b7a0000000p-2}
, {-0x1.2e4ae40000000p-2}
, {-0x1.d90f6e0000000p-2}
}
}
, {{{-0x1.50265c0000000p-4}
, {0x1.5e9b1c0000000p-2}
, {0x1.3c55d00000000p-2}
}
, {{0x1.3806760000000p-4}
, {0x1.0a35460000000p-2}
, {0x1.b7b9d80000000p-3}
}
, {{-0x1.34adea0000000p-5}
, {-0x1.08852c0000000p-3}
, {-0x1.3c8cbc0000000p-2}
}
}
, {{{-0x1.fd17c80000000p-7}
, {0x1.dcd88e0000000p-10}
, {-0x1.a0133e0000000p-10}
}
, {{0x1.8810900000000p-5}
, {0x1.c9c6be0000000p-3}
, {0x1.70adca0000000p-2}
}
, {{-0x1.b7c6e80000000p-4}
, {0x1.981cda0000000p-3}
, {-0x1.41348e0000000p-3}
}
}
, {{{0x1.68ee9c0000000p-4}
, {0x1.1fae500000000p-3}
, {-0x1.0c22180000000p-3}
}
, {{0x1.3cda0c0000000p-3}
, {0x1.8c5cb80000000p-3}
, {-0x1.1954ba0000000p-4}
}
, {{0x1.094c5e0000000p-3}
, {0x1.d68a200000000p-3}
, {-0x1.abf42a0000000p-4}
}
}
, {{{-0x1.2a31b20000000p-2}
, {0x1.5b77e80000000p-3}
, {0x1.1b7be80000000p-3}
}
, {{-0x1.58ed0a0000000p-2}
, {-0x1.24bd160000000p-1}
, {-0x1.23dbd20000000p-1}
}
, {{0x1.0dd5920000000p-1}
, {0x1.3c66ca0000000p-3}
, {-0x1.cd31440000000p-4}
}
}
, {{{-0x1.4793ac0000000p-2}
, {-0x1.527b200000000p-4}
, {-0x1.6edda20000000p-2}
}
, {{0x1.3b21100000000p-3}
, {0x1.bb8efe0000000p-3}
, {-0x1.6b13e80000000p-3}
}
, {{0x1.6d39ae0000000p-2}
, {0x1.8980f60000000p-2}
, {0x1.dc6d280000000p-3}
}
}
, {{{-0x1.11aaea0000000p-2}
, {0x1.67b2540000000p-3}
, {0x1.e6f0fc0000000p-4}
}
, {{-0x1.0960960000000p-8}
, {0x1.e51af00000000p-3}
, {0x1.36228a0000000p-2}
}
, {{-0x1.cde7e80000000p-6}
, {-0x1.6915ba0000000p-4}
, {0x1.4a0e120000000p-4}
}
}
, {{{-0x1.41463e0000000p-4}
, {-0x1.f933800000000p-6}
, {-0x1.f71a420000000p-4}
}
, {{0x1.11b9f60000000p-4}
, {0x1.bf0e300000000p-2}
, {0x1.28fafc0000000p-2}
}
, {{-0x1.34eed40000000p-2}
, {0x1.a35eea0000000p-3}
, {-0x1.0038240000000p-4}
}
}
, {{{0x1.3ff0f20000000p-4}
, {-0x1.54d9be0000000p-6}
, {-0x1.3c401c0000000p-3}
}
, {{0x1.fc1bce0000000p-3}
, {0x1.d85b420000000p-3}
, {-0x1.63f08a0000000p-2}
}
, {{0x1.4ace640000000p-2}
, {0x1.494eb80000000p-3}
, {-0x1.4df0dc0000000p-2}
}
}
, {{{0x1.10912a0000000p-4}
, {0x1.92a7da0000000p-4}
, {-0x1.ed21760000000p-2}
}
, {{0x1.7e3e740000000p-3}
, {0x1.e606d60000000p-5}
, {-0x1.8f16e40000000p-2}
}
, {{0x1.6d51c80000000p-2}
, {-0x1.76f3fc0000000p-4}
, {-0x1.fe04740000000p-2}
}
}
, {{{-0x1.e13b580000000p-3}
, {0x1.809a540000000p-3}
, {0x1.9d83020000000p-3}
}
, {{0x1.3127680000000p-3}
, {0x1.53f5120000000p-2}
, {0x1.a442540000000p-3}
}
, {{-0x1.3fe7440000000p-2}
, {-0x1.4e63fc0000000p-3}
, {0x1.339fe00000000p-3}
}
}
, {{{0x1.7dcdd40000000p-5}
, {0x1.6916640000000p-2}
, {0x1.3511f00000000p-2}
}
, {{-0x1.fdf8a60000000p-5}
, {0x1.843ba00000000p-3}
, {0x1.244bb00000000p-3}
}
, {{-0x1.66d8180000000p-2}
, {-0x1.1bdf4a0000000p-1}
, {-0x1.cc254c0000000p-2}
}
}
, {{{-0x1.2f77ca0000000p-3}
, {-0x1.0ca1c80000000p-3}
, {-0x1.e763d80000000p-5}
}
, {{0x1.0c90380000000p-3}
, {0x1.77a87c0000000p-4}
, {0x1.70a6040000000p-4}
}
, {{0x1.0bd9f00000000p-3}
, {0x1.d3742e0000000p-3}
, {0x1.9fa14e0000000p-3}
}
}
, {{{0x1.6c37660000000p-6}
, {0x1.6f16be0000000p-2}
, {0x1.6d37b60000000p-2}
}
, {{-0x1.b3055a0000000p-3}
, {-0x1.1cd6500000000p-8}
, {0x1.5581260000000p-2}
}
, {{-0x1.d37f520000000p-2}
, {-0x1.eb60160000000p-2}
, {-0x1.0935940000000p-3}
}
}
, {{{-0x1.e799ee0000000p-8}
, {0x1.b137d20000000p-4}
, {-0x1.502f9e0000000p-3}
}
, {{0x1.c72d160000000p-3}
, {0x1.2f90f60000000p-2}
, {0x1.1039c80000000p-2}
}
, {{-0x1.873b2a0000000p-9}
, {-0x1.4e11b60000000p-4}
, {-0x1.49d3c40000000p-7}
}
}
, {{{-0x1.4f416c0000000p-4}
, {-0x1.c71d7e0000000p-3}
, {-0x1.e7d7260000000p-3}
}
, {{-0x1.a878700000000p-4}
, {0x1.e0cb020000000p-2}
, {0x1.d90fac0000000p-3}
}
, {{0x1.b5399c0000000p-4}
, {0x1.0d768a0000000p-2}
, {0x1.c5880c0000000p-6}
}
}
}
;

#undef INPUT_CHANNELS
#undef CONV_FILTERS
#undef CONV_KERNEL_SIZE_X
#undef CONV_KERNEL_SIZE_Y
#undef CONV_GROUPS