/**
  ******************************************************************************
  * @file    weights/conv2d.cc
  * @author  Pierre-Emmanuel Novac <penovac@unice.fr>, LEAT, CNRS, Université Côte d'Azur, France
  * @version V2.0
  * @date    24 march 2020
  * @brief   Template generating plain C code for the implementation of Convolutional Neural Networks on MCU
  */

#include <stdint.h>

#define INPUT_CHANNELS     16
#define CONV_FILTERS       32
#define CONV_KERNEL_SIZE_Y 3
#define CONV_KERNEL_SIZE_X 3
#define CONV_GROUPS        1


const float conv2d_3_bias[CONV_FILTERS] = {0x1.7e279a0000000p-8, -0x1.486f3c0000000p-7, -0x1.4d3f3a0000000p-6, -0x1.a202ea0000000p-6, 0x1.923e220000000p-5, 0x1.a301c40000000p-7, 0x1.0d55220000000p-5, -0x1.0227860000000p-5, 0x1.c202580000000p-7, 0x1.5abecc0000000p-8, 0x1.9271c60000000p-6, 0x1.40aa160000000p-7, -0x1.9caf720000000p-7, 0x1.a68bb40000000p-9, -0x1.dbe4f20000000p-7, 0x1.3b27f60000000p-4, 0x1.0faf6c0000000p-6, -0x1.24ba0c0000000p-5, -0x1.ec7f8e0000000p-6, -0x1.f55c5c0000000p-8, -0x1.d5489c0000000p-8, -0x1.49cc800000000p-8, -0x1.adf73a0000000p-8, -0x1.9ee7560000000p-7, 0x1.84d4f40000000p-6, -0x1.006f760000000p-7, 0x1.e516ca0000000p-5, 0x1.5bc9f60000000p-5, -0x1.a047d00000000p-7, 0x1.0242ea0000000p-5, 0x1.d459e00000000p-5, 0x1.bd77f60000000p-7}
;


const float conv2d_3_kernel[CONV_FILTERS][CONV_KERNEL_SIZE_Y][CONV_KERNEL_SIZE_X][INPUT_CHANNELS / CONV_GROUPS] = {{{{0x1.02f4d40000000p-6, -0x1.9f0ec20000000p-2, 0x1.eddf0e0000000p-7, -0x1.0a81ba0000000p-3, -0x1.d5b8140000000p-8, -0x1.41ab340000000p-4, 0x1.a706b80000000p-5, -0x1.3a6f280000000p-4, 0x1.1cc3120000000p-3, 0x1.ce178a0000000p-5, -0x1.7da27e0000000p-3, -0x1.9fc6c00000000p-5, -0x1.d132e00000000p-4, -0x1.d630340000000p-8, -0x1.62e7780000000p-3, -0x1.12c5440000000p-4}
, {-0x1.ceb3420000000p-4, -0x1.257acc0000000p-1, -0x1.30d1480000000p-3, -0x1.144d740000000p-3, -0x1.0031c20000000p-5, -0x1.8d14600000000p-3, 0x1.951a3c0000000p-5, -0x1.9a4b1a0000000p-4, 0x1.37d5360000000p-7, -0x1.a28ad40000000p-5, 0x1.282bc00000000p-7, -0x1.7e02c20000000p-9, -0x1.701fa40000000p-4, -0x1.194ed80000000p-2, -0x1.d379a00000000p-2, 0x1.d867480000000p-5}
, {-0x1.1e6b300000000p-6, -0x1.950e720000000p-2, -0x1.60f06a0000000p-4, -0x1.2abbfc0000000p-3, -0x1.6c14280000000p-3, -0x1.ab45b40000000p-4, 0x1.911ff20000000p-5, -0x1.72d4d80000000p-3, -0x1.c23cac0000000p-5, 0x1.89440c0000000p-12, 0x1.b5252e0000000p-5, -0x1.1561ce0000000p-3, -0x1.87b96a0000000p-4, -0x1.85fbea0000000p-3, -0x1.b6376a0000000p-2, 0x1.31b33c0000000p-4}
}
, {{-0x1.af50ea0000000p-7, 0x1.e333100000000p-7, 0x1.670a5a0000000p-3, 0x1.a5e04a0000000p-3, -0x1.41b4d80000000p-4, 0x1.4294420000000p-5, 0x1.c4fb7c0000000p-5, 0x1.02d92e0000000p-6, 0x1.04d4100000000p-3, 0x1.7cd8ba0000000p-7, 0x1.56652e0000000p-5, 0x1.1711640000000p-3, 0x1.d51b500000000p-5, 0x1.5e76a20000000p-3, 0x1.4d856e0000000p-4, -0x1.7b72800000000p-5}
, {0x1.f692940000000p-6, 0x1.1027000000000p-4, 0x1.bc90280000000p-7, 0x1.7db4f20000000p-4, -0x1.19ee2a0000000p-3, 0x1.03dd2a0000000p-4, 0x1.520c380000000p-3, 0x1.75725a0000000p-4, 0x1.eae90c0000000p-5, 0x1.acf5640000000p-4, 0x1.47a49a0000000p-3, 0x1.46abc40000000p-4, 0x1.06741e0000000p-3, -0x1.3775e20000000p-3, -0x1.9442ee0000000p-3, -0x1.f8707e0000000p-4}
, {0x1.10a8040000000p-3, 0x1.9026fc0000000p-3, 0x1.e871460000000p-4, 0x1.3f37d20000000p-5, 0x1.6d56120000000p-5, 0x1.861bbc0000000p-3, 0x1.6a15740000000p-3, 0x1.f755ec0000000p-4, 0x1.5e25480000000p-6, 0x1.f6cce00000000p-4, -0x1.c3358a0000000p-6, 0x1.788b2a0000000p-4, 0x1.af17360000000p-8, 0x1.7c815e0000000p-6, -0x1.0b03000000000p-3, -0x1.6a903a0000000p-4}
}
, {{0x1.7afacc0000000p-4, -0x1.0faeba0000000p-3, 0x1.b91de80000000p-4, 0x1.612d2e0000000p-4, -0x1.90e7120000000p-4, -0x1.46033e0000000p-5, -0x1.798aa00000000p-7, -0x1.7856980000000p-7, -0x1.1eb9480000000p-5, 0x1.305ad80000000p-4, 0x1.4f19ca0000000p-3, 0x1.808c540000000p-4, 0x1.e4bcf60000000p-5, -0x1.eb1a540000000p-6, -0x1.7fe97a0000000p-3, -0x1.4a49280000000p-5}
, {-0x1.3927460000000p-6, 0x1.eb38360000000p-8, -0x1.7ab2720000000p-5, 0x1.7dec060000000p-5, 0x1.6f0d500000000p-4, -0x1.ad64260000000p-9, 0x1.1b0b8a0000000p-4, 0x1.1ed4040000000p-4, 0x1.48fce40000000p-5, 0x1.5b30540000000p-4, -0x1.a1524a0000000p-3, 0x1.000c9c0000000p-3, 0x1.2b47b60000000p-5, 0x1.71e2840000000p-5, -0x1.399d000000000p-5, 0x1.e847400000000p-4}
, {-0x1.03fa3a0000000p-4, 0x1.6ffdb40000000p-9, -0x1.66800a0000000p-3, -0x1.a75a4e0000000p-4, 0x1.c2be400000000p-5, -0x1.a1cf9e0000000p-4, -0x1.0e8dd60000000p-2, -0x1.661a180000000p-5, -0x1.927f460000000p-3, -0x1.fe17ca0000000p-4, -0x1.1f56640000000p-4, -0x1.dac6b20000000p-4, -0x1.dd20040000000p-5, -0x1.4e2c220000000p-7, 0x1.24ddba0000000p-3, 0x1.3a1ffa0000000p-3}
}
}
, {{{-0x1.991fc00000000p-3, 0x1.1883da0000000p-3, -0x1.69ab440000000p-3, -0x1.0753940000000p-3, 0x1.c094260000000p-13, -0x1.309ad40000000p-2, -0x1.8f1e660000000p-3, -0x1.9771f80000000p-3, -0x1.f6ce6e0000000p-3, -0x1.3525ec0000000p-2, -0x1.38a5780000000p-3, -0x1.c15d2c0000000p-2, -0x1.cfabc60000000p-3, -0x1.0b310a0000000p-4, -0x1.29f0b20000000p-5, 0x1.4f161e0000000p-3}
, {-0x1.9d332a0000000p-3, -0x1.ede3b60000000p-8, -0x1.e552980000000p-3, -0x1.cbfa980000000p-3, 0x1.3e60940000000p-4, -0x1.0b43e40000000p-2, -0x1.717a180000000p-3, -0x1.5c4eaa0000000p-2, -0x1.02d5da0000000p-2, -0x1.c618d60000000p-5, -0x1.0949c40000000p-5, -0x1.5e92d80000000p-2, -0x1.7c5a840000000p-3, -0x1.e776c40000000p-7, -0x1.aa5e540000000p-7, 0x1.71b9cc0000000p-3}
, {-0x1.5865920000000p-3, -0x1.d588300000000p-3, -0x1.0493520000000p-6, -0x1.37b2a40000000p-5, 0x1.bf212e0000000p-5, -0x1.6861a60000000p-3, -0x1.31b6ae0000000p-4, -0x1.3d5eae0000000p-2, -0x1.40c1340000000p-4, -0x1.afa7360000000p-4, 0x1.03b7b80000000p-9, -0x1.5be3260000000p-3, -0x1.999ed00000000p-7, -0x1.c27ace0000000p-5, -0x1.fbc2e00000000p-3, 0x1.955bd60000000p-4}
}
, {{-0x1.aac9280000000p-3, -0x1.65879e0000000p-2, -0x1.03f6d20000000p-3, -0x1.164f460000000p-3, -0x1.7394660000000p-4, -0x1.1bfab00000000p-3, 0x1.426f040000000p-4, -0x1.7bea9c0000000p-2, -0x1.33a0840000000p-4, -0x1.0152ce0000000p-3, 0x1.ebbc420000000p-5, -0x1.67d5620000000p-3, -0x1.692fac0000000p-3, -0x1.775e920000000p-3, -0x1.864cbe0000000p-3, -0x1.8909b60000000p-4}
, {-0x1.0888700000000p-6, -0x1.80f7a80000000p-2, 0x1.56d3120000000p-6, -0x1.d918fc0000000p-6, -0x1.89354a0000000p-5, -0x1.49d6780000000p-5, 0x1.7605700000000p-4, -0x1.c180120000000p-3, 0x1.4ffdae0000000p-3, 0x1.26272c0000000p-4, 0x1.3eea920000000p-4, -0x1.22719e0000000p-9, 0x1.35f4a40000000p-6, -0x1.1367520000000p-2, -0x1.1534280000000p-2, -0x1.67e0a00000000p-3}
, {0x1.01175c0000000p-3, -0x1.05017a0000000p-8, 0x1.4d7bde0000000p-3, 0x1.1898e40000000p-5, -0x1.f4098a0000000p-4, -0x1.3ca15e0000000p-8, 0x1.6bb6080000000p-4, -0x1.59fd000000000p-3, 0x1.414e880000000p-3, 0x1.80736a0000000p-6, 0x1.7e43c60000000p-5, 0x1.4423cc0000000p-5, 0x1.0e510a0000000p-3, 0x1.d14a6a0000000p-5, -0x1.41e2c40000000p-3, -0x1.3c7ff60000000p-3}
}
, {{0x1.82e0600000000p-8, 0x1.1d04500000000p-2, 0x1.178cf20000000p-4, 0x1.1943380000000p-3, 0x1.17a8140000000p-7, 0x1.59eb960000000p-4, 0x1.85e5fa0000000p-3, -0x1.c1b1440000000p-5, 0x1.3a2eca0000000p-5, 0x1.d4a6560000000p-4, 0x1.f24f340000000p-4, 0x1.4a2f9c0000000p-4, 0x1.da02ac0000000p-4, 0x1.3186fe0000000p-4, 0x1.75da900000000p-5, -0x1.b56cb60000000p-5}
, {0x1.7b21220000000p-4, 0x1.e70b240000000p-4, 0x1.d9ec180000000p-4, 0x1.25a8d40000000p-3, 0x1.5a13600000000p-4, 0x1.43d9000000000p-4, 0x1.ba94600000000p-5, 0x1.3fabce0000000p-3, 0x1.a272e80000000p-3, 0x1.6cf7320000000p-3, 0x1.66bf8a0000000p-5, 0x1.c0c8b20000000p-4, 0x1.84a8bc0000000p-4, 0x1.07a2640000000p-3, 0x1.93eb960000000p-3, 0x1.c58a780000000p-5}
, {0x1.3d51c80000000p-5, -0x1.73fb820000000p-10, 0x1.2a62260000000p-5, 0x1.c0eca20000000p-4, 0x1.b66b9c0000000p-5, 0x1.31fc920000000p-3, 0x1.c779ba0000000p-5, 0x1.7536780000000p-4, 0x1.a766e80000000p-3, 0x1.ec8d480000000p-5, -0x1.3023700000000p-3, 0x1.1f7ddc0000000p-4, 0x1.9cf7120000000p-3, 0x1.d93e900000000p-4, 0x1.04d6660000000p-2, -0x1.adf1d00000000p-8}
}
}
, {{{0x1.a348da0000000p-5, 0x1.18786a0000000p-4, -0x1.6024080000000p-5, -0x1.8b6aee0000000p-4, -0x1.ee8fb80000000p-6, -0x1.64aaa40000000p-4, 0x1.ab0b100000000p-8, -0x1.0b36ac0000000p-4, 0x1.14d8860000000p-4, 0x1.bb3dc20000000p-5, 0x1.92f90a0000000p-4, -0x1.ff34d00000000p-5, -0x1.be658a0000000p-8, 0x1.1591c20000000p-10, 0x1.91f4360000000p-9, -0x1.737f8c0000000p-5}
, {0x1.4a47be0000000p-6, 0x1.40b7b20000000p-2, -0x1.095d020000000p-5, 0x1.25859c0000000p-8, -0x1.53a7ec0000000p-3, -0x1.f445e00000000p-5, -0x1.024db20000000p-5, -0x1.dc381e0000000p-6, 0x1.4a41400000000p-4, 0x1.d1e62c0000000p-4, -0x1.1e6ff60000000p-7, 0x1.e034360000000p-4, -0x1.665fac0000000p-6, 0x1.dbe7aa0000000p-5, -0x1.992c720000000p-5, -0x1.25779a0000000p-3}
, {0x1.effdbc0000000p-6, 0x1.a0b8160000000p-3, 0x1.03b0ea0000000p-4, 0x1.a6bd380000000p-4, -0x1.008c780000000p-4, 0x1.4b5e660000000p-4, 0x1.bac5560000000p-4, -0x1.74c7680000000p-5, 0x1.b234ba0000000p-5, 0x1.68d6ae0000000p-6, -0x1.52513c0000000p-5, 0x1.223b420000000p-3, -0x1.8557cc0000000p-5, 0x1.6bbb600000000p-3, 0x1.b2635e0000000p-6, -0x1.4eb7a20000000p-3}
}
, {{-0x1.f223da0000000p-9, 0x1.2001220000000p-3, 0x1.3b36b20000000p-4, -0x1.11a8de0000000p-4, 0x1.5f2e980000000p-4, 0x1.3470960000000p-3, 0x1.05117c0000000p-4, 0x1.58414e0000000p-6, 0x1.bb7f300000000p-5, 0x1.8242720000000p-4, -0x1.ff6e240000000p-6, 0x1.8175460000000p-8, 0x1.8e326c0000000p-5, -0x1.e254900000000p-6, 0x1.2852dc0000000p-3, -0x1.8deedc0000000p-5}
, {0x1.c7ebae0000000p-5, 0x1.2c5efe0000000p-2, 0x1.12256e0000000p-5, 0x1.bad2240000000p-4, 0x1.fbd0500000000p-4, 0x1.c02d800000000p-7, -0x1.622ad20000000p-3, 0x1.7ad5fa0000000p-4, 0x1.8417780000000p-4, -0x1.d7593e0000000p-6, -0x1.4ee0ba0000000p-3, -0x1.8d6f580000000p-5, -0x1.9130c60000000p-5, 0x1.a69a700000000p-4, 0x1.85fad40000000p-3, 0x1.327d8e0000000p-4}
, {0x1.01220a0000000p-5, 0x1.1c8ef40000000p-3, 0x1.01b1080000000p-3, 0x1.410f540000000p-3, -0x1.a26d720000000p-4, 0x1.460e300000000p-4, -0x1.d93cd00000000p-6, 0x1.0140560000000p-3, -0x1.79d3de0000000p-5, -0x1.55dd1e0000000p-6, -0x1.f6c3720000000p-4, 0x1.f698520000000p-4, 0x1.5a086c0000000p-5, 0x1.3770720000000p-4, 0x1.2c182c0000000p-3, -0x1.31f4680000000p-4}
}
, {{-0x1.0c10860000000p-4, 0x1.ae792a0000000p-5, -0x1.39d6860000000p-3, 0x1.18c7e60000000p-6, 0x1.260fa80000000p-3, -0x1.98113a0000000p-5, -0x1.969a420000000p-4, 0x1.d65ab80000000p-4, -0x1.e611ac0000000p-3, -0x1.0c98580000000p-4, -0x1.3ebf0a0000000p-3, -0x1.121c5c0000000p-3, 0x1.bda65c0000000p-7, 0x1.3830ee0000000p-5, 0x1.b5b5ba0000000p-3, 0x1.aeb3100000000p-3}
, {-0x1.9ee6160000000p-3, 0x1.cb20000000000p-7, -0x1.17b2bc0000000p-3, -0x1.bc125e0000000p-4, 0x1.6fe8660000000p-3, -0x1.bae3260000000p-3, -0x1.f10b9e0000000p-5, -0x1.3ba0d60000000p-6, -0x1.7e45140000000p-3, -0x1.637e900000000p-4, -0x1.3c40e80000000p-5, -0x1.01adb80000000p-2, -0x1.c1f6e40000000p-4, 0x1.85c5560000000p-5, 0x1.cf80820000000p-4, 0x1.0680040000000p-2}
, {0x1.4181dc0000000p-5, 0x1.0b712a0000000p-4, 0x1.c0d7760000000p-4, 0x1.7e054c0000000p-6, 0x1.ac90300000000p-5, 0x1.2e86080000000p-6, 0x1.553f1e0000000p-5, -0x1.148f100000000p-3, -0x1.30bb560000000p-3, 0x1.3f54920000000p-7, 0x1.7daaba0000000p-4, -0x1.8adc200000000p-5, -0x1.1b1bd40000000p-3, 0x1.df19140000000p-5, 0x1.1644640000000p-4, -0x1.84a6260000000p-6}
}
}
, {{{0x1.3be4e40000000p-9, 0x1.84169e0000000p-3, 0x1.bcbf240000000p-4, 0x1.ad1e040000000p-4, 0x1.73964c0000000p-6, -0x1.7d81040000000p-5, 0x1.d4052a0000000p-4, -0x1.0311000000000p-4, 0x1.7692860000000p-4, 0x1.1218480000000p-3, -0x1.012af60000000p-3, 0x1.4e92a20000000p-4, 0x1.24e77e0000000p-3, 0x1.72b99e0000000p-5, 0x1.52d2ec0000000p-3, 0x1.607af40000000p-3}
, {0x1.0cbce40000000p-3, 0x1.2595da0000000p-2, 0x1.b8bf0c0000000p-7, 0x1.8aed440000000p-4, 0x1.0abc6e0000000p-5, 0x1.3218940000000p-3, 0x1.07909e0000000p-4, 0x1.72ef840000000p-4, 0x1.74c8ee0000000p-3, 0x1.2897d20000000p-4, -0x1.c8e8c00000000p-4, 0x1.a9f3d60000000p-4, 0x1.4d70ee0000000p-7, 0x1.4d18720000000p-3, 0x1.9e533e0000000p-3, 0x1.f1e8600000000p-5}
, {0x1.0cbc700000000p-3, 0x1.492dde0000000p-2, 0x1.16f9f20000000p-3, -0x1.035f3e0000000p-5, 0x1.a3949c0000000p-6, 0x1.25b63a0000000p-3, -0x1.d582080000000p-9, 0x1.55af6c0000000p-4, 0x1.f393200000000p-5, 0x1.6712a60000000p-5, -0x1.c07cea0000000p-3, 0x1.30dbce0000000p-3, -0x1.2733f00000000p-8, 0x1.8296220000000p-3, 0x1.1295300000000p-4, -0x1.41e0200000000p-6}
}
, {{-0x1.41a87c0000000p-4, 0x1.3c24580000000p-3, -0x1.609de20000000p-3, -0x1.1be2ea0000000p-5, 0x1.6361dc0000000p-4, 0x1.05acbc0000000p-4, -0x1.16f6f60000000p-3, -0x1.6ed4c60000000p-4, -0x1.9715680000000p-3, -0x1.a651fe0000000p-4, -0x1.4070180000000p-4, -0x1.84f9660000000p-3, -0x1.ce4d5e0000000p-4, 0x1.5482560000000p-4, 0x1.1381880000000p-3, 0x1.9a0d4a0000000p-3}
, {0x1.52ae0c0000000p-4, 0x1.e3d0560000000p-3, -0x1.29dc680000000p-5, 0x1.d01a300000000p-4, 0x1.ccc7fc0000000p-3, 0x1.7fdde60000000p-6, -0x1.0292e00000000p-4, -0x1.ac39e60000000p-5, -0x1.61594c0000000p-4, -0x1.100e940000000p-4, -0x1.9f1ad40000000p-3, -0x1.ec85380000000p-5, -0x1.5777c40000000p-4, 0x1.3d7bf20000000p-4, 0x1.d849480000000p-5, 0x1.5fe1220000000p-4}
, {0x1.15f31a0000000p-3, 0x1.5791b80000000p-4, -0x1.61ed500000000p-6, 0x1.a046f60000000p-6, 0x1.febb300000000p-4, -0x1.8cd04a0000000p-8, -0x1.df1ed40000000p-6, 0x1.6a4c9c0000000p-5, -0x1.11c5100000000p-6, 0x1.d0fbf80000000p-6, -0x1.0adc380000000p-2, 0x1.34a50c0000000p-3, 0x1.38d3900000000p-4, 0x1.2c8e5c0000000p-3, 0x1.fad40e0000000p-7, 0x1.461fa00000000p-5}
}
, {{-0x1.16bd020000000p-2, -0x1.33474e0000000p-3, -0x1.2fed300000000p-3, -0x1.fe5d7c0000000p-3, 0x1.c651fa0000000p-5, -0x1.0f3db60000000p-2, -0x1.b6423a0000000p-3, -0x1.537d4a0000000p-2, -0x1.efad720000000p-3, -0x1.3446080000000p-2, 0x1.32c5860000000p-9, -0x1.67748a0000000p-2, -0x1.8709e60000000p-3, -0x1.dfa4ac0000000p-3, 0x1.ab90000000000p-18, -0x1.cb5ee40000000p-7}
, {-0x1.59f05c0000000p-4, -0x1.2351100000000p-3, -0x1.6618fe0000000p-5, -0x1.75735c0000000p-3, 0x1.5a82000000000p-4, -0x1.4b870e0000000p-3, -0x1.33f43a0000000p-5, -0x1.9fa3320000000p-3, -0x1.4010420000000p-3, -0x1.61801c0000000p-4, -0x1.1ec0560000000p-5, -0x1.3b18ea0000000p-2, -0x1.35de680000000p-3, -0x1.0d80fa0000000p-3, -0x1.6fdd320000000p-4, 0x1.2c402e0000000p-4}
, {-0x1.5bdc540000000p-5, -0x1.8835be0000000p-5, -0x1.0d605a0000000p-4, 0x1.b34c020000000p-5, 0x1.6028e00000000p-5, 0x1.da9db60000000p-5, -0x1.c4dac00000000p-5, -0x1.408c0e0000000p-9, -0x1.63a0420000000p-7, -0x1.5b4aaa0000000p-5, -0x1.64f2340000000p-5, -0x1.fcb4b40000000p-4, 0x1.1d0fc80000000p-4, 0x1.e410cc0000000p-6, -0x1.e207580000000p-4, 0x1.c70a9c0000000p-5}
}
}
, {{{-0x1.7e08c20000000p-3, -0x1.52d53e0000000p-3, -0x1.c3aff80000000p-3, -0x1.07d22e0000000p-4, 0x1.bea10e0000000p-6, -0x1.564d820000000p-3, -0x1.690d0e0000000p-4, 0x1.658a060000000p-3, 0x1.1355020000000p-4, -0x1.876b100000000p-5, -0x1.94cd660000000p-3, -0x1.5b8e680000000p-4, 0x1.80963c0000000p-8, -0x1.552a3c0000000p-3, 0x1.63c5340000000p-11, 0x1.65338a0000000p-3}
, {-0x1.8c22a80000000p-5, -0x1.3d7c060000000p-2, 0x1.6868660000000p-7, -0x1.2e1db40000000p-5, -0x1.a1fd4e0000000p-4, -0x1.4509cc0000000p-4, -0x1.2424780000000p-3, -0x1.01a34e0000000p-2, -0x1.7912ec0000000p-3, -0x1.65193a0000000p-3, 0x1.b4c7000000000p-3, -0x1.af9c5c0000000p-3, -0x1.0fdc600000000p-4, -0x1.d8972a0000000p-4, -0x1.c827bc0000000p-5, 0x1.cfe6f20000000p-5}
, {0x1.6fe9c60000000p-6, -0x1.e094fa0000000p-3, 0x1.85b9420000000p-3, 0x1.6b38e20000000p-5, -0x1.add90c0000000p-2, 0x1.9dd3140000000p-3, 0x1.03a38c0000000p-4, 0x1.09d90e0000000p-3, -0x1.8652a60000000p-5, 0x1.c22c820000000p-7, 0x1.6d4ee60000000p-3, 0x1.28d19c0000000p-4, 0x1.5f3f720000000p-5, 0x1.c801d00000000p-5, -0x1.c2bff60000000p-3, -0x1.656c9e0000000p-2}
}
, {{-0x1.b6db6e0000000p-4, -0x1.06b0480000000p-2, -0x1.3d39ec0000000p-3, -0x1.e234c80000000p-3, 0x1.7c7cfe0000000p-4, -0x1.2d26680000000p-2, -0x1.9a41660000000p-4, -0x1.75d41a0000000p-5, -0x1.007c760000000p-2, -0x1.addd9e0000000p-4, 0x1.0db5d60000000p-3, -0x1.71321c0000000p-2, -0x1.fa2cae0000000p-4, -0x1.09565e0000000p-2, -0x1.40fdb20000000p-3, 0x1.025cce0000000p-5}
, {-0x1.e1cd1a0000000p-5, -0x1.52fb020000000p-2, 0x1.11d71c0000000p-3, 0x1.2b3de80000000p-3, -0x1.5471cc0000000p-2, 0x1.64be760000000p-4, 0x1.08829c0000000p-3, -0x1.82136a0000000p-3, -0x1.fb66380000000p-4, -0x1.327e080000000p-3, 0x1.cf70780000000p-3, 0x1.5bf6d60000000p-6, -0x1.a5ab440000000p-5, -0x1.4f5da00000000p-3, -0x1.2c86b00000000p-2, -0x1.7faa460000000p-3}
, {0x1.4df0d00000000p-3, 0x1.4b94f60000000p-6, 0x1.3df6b20000000p-3, 0x1.b274680000000p-4, -0x1.701eb60000000p-2, 0x1.84d3980000000p-3, 0x1.7c7f840000000p-6, 0x1.08d1440000000p-3, 0x1.49e6e80000000p-6, 0x1.512d5c0000000p-3, 0x1.591fd00000000p-2, 0x1.fa55d40000000p-4, 0x1.38c65a0000000p-4, -0x1.1e43560000000p-8, -0x1.14eb6e0000000p-2, -0x1.0153ee0000000p-1}
}
, {{-0x1.a18cde0000000p-4, -0x1.7ff0dc0000000p-2, -0x1.08d96a0000000p-4, -0x1.28257e0000000p-6, -0x1.2916be0000000p-3, -0x1.3d384e0000000p-4, 0x1.d0395e0000000p-4, -0x1.9052700000000p-3, -0x1.f8f1e80000000p-5, -0x1.51ac840000000p-4, 0x1.fc2b460000000p-3, -0x1.7cecf00000000p-3, -0x1.5b60520000000p-4, -0x1.5ee8aa0000000p-3, -0x1.1f555a0000000p-2, -0x1.ac5aa00000000p-4}
, {0x1.169d1a0000000p-4, -0x1.8090ea0000000p-4, 0x1.7670a20000000p-4, 0x1.7048fc0000000p-4, -0x1.9d6db20000000p-2, 0x1.7e4d5c0000000p-4, 0x1.27dc7e0000000p-3, -0x1.657ede0000000p-4, 0x1.eea46c0000000p-8, 0x1.fc1cf60000000p-5, 0x1.5c479a0000000p-3, 0x1.409f4e0000000p-3, 0x1.1747be0000000p-4, -0x1.f626b40000000p-6, -0x1.4e97b20000000p-2, -0x1.241de20000000p-2}
, {0x1.3ddac60000000p-4, 0x1.102d780000000p-4, -0x1.7723860000000p-7, 0x1.2e0bee0000000p-7, -0x1.c5bcd40000000p-4, 0x1.6dea260000000p-5, 0x1.646a400000000p-5, 0x1.44a5fa0000000p-4, -0x1.11f80a0000000p-5, 0x1.53ec500000000p-4, -0x1.2e430a0000000p-6, 0x1.1023280000000p-5, -0x1.e4ca020000000p-8, 0x1.82d6ca0000000p-5, -0x1.e30af00000000p-5, -0x1.8538b80000000p-3}
}
}
, {{{0x1.97d7be0000000p-4, 0x1.3b7a220000000p-4, 0x1.4d579a0000000p-5, 0x1.6e3cc40000000p-4, -0x1.ac9cc60000000p-4, -0x1.971bd40000000p-6, -0x1.b6b5bc0000000p-6, 0x1.5ddaee0000000p-4, -0x1.c3f7140000000p-4, -0x1.3329180000000p-6, 0x1.fbd7fa0000000p-5, 0x1.9c12360000000p-6, 0x1.9e50fc0000000p-10, 0x1.e4282e0000000p-5, 0x1.6850960000000p-5, -0x1.61d7b00000000p-3}
, {0x1.668cac0000000p-5, 0x1.a918300000000p-3, 0x1.0d1c860000000p-3, 0x1.e623100000000p-7, -0x1.3ec1840000000p-6, 0x1.8f55280000000p-5, -0x1.9a8d0a0000000p-7, 0x1.6f25960000000p-4, 0x1.1b84220000000p-4, -0x1.7c07200000000p-6, -0x1.10ec260000000p-5, 0x1.0a8be40000000p-11, -0x1.9ae9c80000000p-6, 0x1.04b2200000000p-8, -0x1.2e33460000000p-4, -0x1.b4e5aa0000000p-3}
, {-0x1.4b70040000000p-7, 0x1.5ed7260000000p-3, 0x1.ca66560000000p-6, -0x1.b2d9600000000p-5, -0x1.6fe32c0000000p-10, -0x1.b7a60c0000000p-4, 0x1.308b120000000p-4, -0x1.cc3e8e0000000p-7, 0x1.08979e0000000p-5, -0x1.3e482e0000000p-5, 0x1.809c820000000p-3, 0x1.1b7d500000000p-6, 0x1.7190bc0000000p-5, -0x1.8660240000000p-4, 0x1.85cf9a0000000p-4, -0x1.a99f000000000p-4}
}
, {{0x1.51e60e0000000p-4, 0x1.2286260000000p-3, 0x1.5dfca60000000p-5, 0x1.1026f60000000p-4, -0x1.1328b00000000p-6, 0x1.9790c40000000p-6, 0x1.69251e0000000p-4, 0x1.fd0a4c0000000p-4, 0x1.79290a0000000p-4, 0x1.ffd0540000000p-5, 0x1.a0d5340000000p-7, 0x1.0e50aa0000000p-4, 0x1.b0b2f60000000p-4, 0x1.bc21f60000000p-4, -0x1.cb290e0000000p-5, -0x1.6771d80000000p-4}
, {0x1.c2f6ac0000000p-4, 0x1.71e57e0000000p-2, 0x1.03616a0000000p-6, 0x1.5c8b560000000p-3, 0x1.b48f6c0000000p-4, -0x1.2b42960000000p-6, 0x1.5743e40000000p-4, 0x1.a7b2900000000p-6, 0x1.2621c40000000p-7, 0x1.f6b6420000000p-8, -0x1.00ab180000000p-4, 0x1.ab5c9a0000000p-5, 0x1.641dfa0000000p-4, 0x1.829b8c0000000p-3, 0x1.562c480000000p-5, -0x1.93730a0000000p-4}
, {0x1.36e0920000000p-3, 0x1.9499200000000p-3, 0x1.b37c800000000p-7, -0x1.1bd2640000000p-5, 0x1.9e059c0000000p-4, 0x1.92de180000000p-4, -0x1.18cbb20000000p-5, 0x1.ce43b00000000p-4, 0x1.6534c80000000p-5, -0x1.9ac4060000000p-9, -0x1.a3a0d00000000p-3, -0x1.172d2a0000000p-4, 0x1.d74e880000000p-5, 0x1.53dfb80000000p-6, 0x1.fb814a0000000p-4, 0x1.0e2c9a0000000p-4}
}
, {{-0x1.b9c3a60000000p-4, 0x1.581b7e0000000p-3, -0x1.42f9c20000000p-3, 0x1.0307be0000000p-4, 0x1.0454160000000p-3, -0x1.84f74a0000000p-7, -0x1.4da6600000000p-5, -0x1.9a5bee0000000p-10, -0x1.28dfa00000000p-4, -0x1.d8f4040000000p-5, -0x1.f6c99a0000000p-3, -0x1.5c80660000000p-8, 0x1.0a5d8e0000000p-4, -0x1.a134f20000000p-6, 0x1.3a64460000000p-5, 0x1.4979d00000000p-8}
, {-0x1.1c0a860000000p-3, 0x1.5955f80000000p-4, -0x1.b8ca060000000p-3, 0x1.a969c80000000p-6, 0x1.32b58e0000000p-2, -0x1.0bc5c80000000p-3, -0x1.f4085c0000000p-3, 0x1.47014a0000000p-7, -0x1.33d25e0000000p-2, -0x1.824ada0000000p-4, -0x1.7604e00000000p-3, -0x1.abab600000000p-3, -0x1.7776780000000p-5, 0x1.4227240000000p-3, 0x1.36dc520000000p-3, 0x1.6541000000000p-3}
, {-0x1.f01ff40000000p-4, 0x1.e90de00000000p-4, -0x1.55c9120000000p-4, -0x1.9bb7460000000p-4, 0x1.b572f80000000p-3, -0x1.0e0f6c0000000p-3, -0x1.79d6f20000000p-3, -0x1.ac32680000000p-6, -0x1.e2d1880000000p-3, -0x1.dc046c0000000p-5, -0x1.f18eae0000000p-3, -0x1.a4fb140000000p-4, 0x1.6fd9700000000p-6, 0x1.66b8820000000p-4, 0x1.a8ef420000000p-3, 0x1.11f96c0000000p-2}
}
}
, {{{0x1.5c27160000000p-7, 0x1.46a3da0000000p-2, 0x1.1c47b00000000p-4, -0x1.1e46120000000p-10, -0x1.7e946e0000000p-4, 0x1.e75d5e0000000p-4, 0x1.3250860000000p-3, 0x1.feefc00000000p-6, 0x1.51489a0000000p-3, 0x1.e5915c0000000p-4, -0x1.0852660000000p-3, 0x1.2eba4a0000000p-3, 0x1.774da80000000p-4, 0x1.237e780000000p-9, 0x1.41db840000000p-5, -0x1.77132c0000000p-3}
, {0x1.1ed6e80000000p-4, 0x1.bd434a0000000p-3, 0x1.7643de0000000p-4, 0x1.db58b40000000p-5, -0x1.150f8c0000000p-9, -0x1.1511180000000p-4, 0x1.70e1880000000p-6, 0x1.0f6d920000000p-5, 0x1.b5a3c40000000p-7, -0x1.3377ee0000000p-6, 0x1.d933f40000000p-5, 0x1.e7ceea0000000p-5, 0x1.3f34840000000p-4, -0x1.8077640000000p-8, 0x1.ef395c0000000p-5, -0x1.38ce580000000p-5}
, {0x1.17a6600000000p-3, 0x1.5155a00000000p-3, 0x1.5f880a0000000p-4, 0x1.45033e0000000p-4, -0x1.5a99cc0000000p-12, -0x1.d266960000000p-8, 0x1.2e79280000000p-3, 0x1.6e73280000000p-4, -0x1.ee989c0000000p-5, 0x1.2c72c00000000p-4, 0x1.fcf5400000000p-4, 0x1.017b800000000p-5, 0x1.de81d40000000p-5, -0x1.544fb20000000p-5, -0x1.ce49980000000p-4, -0x1.937cee0000000p-4}
}
, {{0x1.2ec6300000000p-6, 0x1.6d1c3a0000000p-3, 0x1.27440a0000000p-6, 0x1.32623a0000000p-5, 0x1.a280340000000p-3, 0x1.6dfc5c0000000p-4, -0x1.b1b8f60000000p-4, 0x1.11a2d20000000p-3, -0x1.2ac4880000000p-5, 0x1.b944980000000p-4, -0x1.391e3e0000000p-3, 0x1.f16fe20000000p-5, 0x1.0c57fa0000000p-4, 0x1.2d7eb60000000p-4, 0x1.a196b60000000p-3, 0x1.0b28f20000000p-5}
, {0x1.8130ce0000000p-4, 0x1.7899500000000p-3, 0x1.3731a80000000p-6, 0x1.15a1520000000p-6, -0x1.dd4d5a0000000p-7, 0x1.f541d00000000p-5, -0x1.01b8960000000p-4, 0x1.3820a60000000p-3, -0x1.2321dc0000000p-4, 0x1.5cd4e60000000p-6, 0x1.7cead40000000p-6, -0x1.eee4c60000000p-10, 0x1.2048b80000000p-10, 0x1.13814c0000000p-4, 0x1.7cf8ca0000000p-7, 0x1.24c9b20000000p-6}
, {0x1.446fac0000000p-5, 0x1.d1af500000000p-3, 0x1.bb12f80000000p-3, 0x1.d90c160000000p-4, 0x1.0552340000000p-3, 0x1.3d86aa0000000p-5, 0x1.7823580000000p-12, 0x1.8161cc0000000p-4, 0x1.ebf5520000000p-6, 0x1.88175a0000000p-5, -0x1.211ee60000000p-3, 0x1.21864e0000000p-4, -0x1.971ee20000000p-6, 0x1.130ef80000000p-3, 0x1.1a8a5c0000000p-6, -0x1.9523540000000p-6}
}
, {{-0x1.52baee0000000p-3, -0x1.8bfd260000000p-3, -0x1.0ebe740000000p-2, -0x1.0e9e240000000p-3, 0x1.0c3e9e0000000p-2, -0x1.57a0bc0000000p-3, -0x1.bc204a0000000p-3, -0x1.fb1b900000000p-3, -0x1.731ff20000000p-2, -0x1.ff5e8e0000000p-3, -0x1.7ebeca0000000p-4, -0x1.95de720000000p-2, -0x1.76ad380000000p-3, 0x1.3b5a380000000p-4, 0x1.5de8b00000000p-7, 0x1.9601b80000000p-3}
, {-0x1.375d4a0000000p-4, 0x1.937a520000000p-5, -0x1.8f14360000000p-4, -0x1.f7fe580000000p-4, 0x1.6efba20000000p-2, -0x1.d8158a0000000p-4, -0x1.65d6f60000000p-3, -0x1.60723a0000000p-4, -0x1.883a4c0000000p-3, -0x1.8d6f860000000p-3, -0x1.8fec680000000p-4, -0x1.53cdd20000000p-2, -0x1.b025b00000000p-4, 0x1.5553400000000p-4, 0x1.ef0dc80000000p-3, 0x1.5de84c0000000p-3}
, {-0x1.2fa8c20000000p-3, -0x1.51fab40000000p-4, -0x1.e35c500000000p-3, -0x1.98ca200000000p-3, 0x1.fd381a0000000p-4, -0x1.35832c0000000p-4, -0x1.5a06b60000000p-3, -0x1.2294b00000000p-3, -0x1.5802e40000000p-3, -0x1.d957dc0000000p-4, -0x1.fe6cd40000000p-4, -0x1.196f4c0000000p-2, -0x1.4f54c20000000p-3, 0x1.f85bec0000000p-4, 0x1.06944a0000000p-3, 0x1.0744e00000000p-2}
}
}
, {{{0x1.d4bbec0000000p-5, 0x1.83db900000000p-5, 0x1.429e040000000p-4, -0x1.2dfa800000000p-6, 0x1.13c7c80000000p-10, 0x1.973ba60000000p-4, 0x1.20356e0000000p-6, -0x1.1ee3c60000000p-4, 0x1.62373a0000000p-5, 0x1.701dd80000000p-6, -0x1.590f960000000p-4, 0x1.72fcfc0000000p-5, 0x1.5317120000000p-6, 0x1.2cd7be0000000p-4, 0x1.e26af20000000p-4, -0x1.61e48c0000000p-5}
, {0x1.ff6e400000000p-6, 0x1.60de960000000p-3, 0x1.d430d00000000p-4, 0x1.19e0980000000p-4, -0x1.6eac6a0000000p-3, 0x1.9657860000000p-6, -0x1.1cffa00000000p-7, 0x1.5f7a800000000p-4, 0x1.6931720000000p-3, 0x1.b6121e0000000p-6, -0x1.80a9760000000p-5, 0x1.a715080000000p-7, 0x1.3062b80000000p-6, 0x1.2e4e260000000p-5, -0x1.1b5c360000000p-4, -0x1.7e42620000000p-3}
, {-0x1.bc23100000000p-5, -0x1.81c39e0000000p-2, -0x1.745aa00000000p-6, -0x1.ad916e0000000p-5, -0x1.0b86940000000p-1, 0x1.3c4bae0000000p-6, -0x1.b8df140000000p-6, 0x1.38f86a0000000p-5, 0x1.980ea80000000p-6, 0x1.8f5b0e0000000p-4, -0x1.abf7580000000p-7, 0x1.503dec0000000p-3, 0x1.a4c3760000000p-5, -0x1.172ee20000000p-3, -0x1.3bf2200000000p-2, -0x1.3ac2ee0000000p-2}
}
, {{-0x1.de87fa0000000p-4, 0x1.c8fd600000000p-4, -0x1.5c83920000000p-3, -0x1.00fab20000000p-5, 0x1.68ccce0000000p-5, -0x1.cd3fca0000000p-6, -0x1.1f01180000000p-3, -0x1.57469a0000000p-6, -0x1.151bee0000000p-3, -0x1.72afde0000000p-4, -0x1.52f3860000000p-3, -0x1.b5d7a20000000p-4, -0x1.5cf8cc0000000p-4, -0x1.d7e48a0000000p-6, -0x1.8c81260000000p-6, 0x1.c05b9a0000000p-6}
, {-0x1.ad36860000000p-5, 0x1.229bfc0000000p-4, 0x1.0c2bba0000000p-3, 0x1.5de4400000000p-4, -0x1.201d920000000p-4, 0x1.27d9160000000p-5, 0x1.f81ee20000000p-9, -0x1.641ce00000000p-3, -0x1.b0921e0000000p-4, 0x1.276f180000000p-4, -0x1.6d036e0000000p-7, 0x1.0eb7d00000000p-8, 0x1.9ffe700000000p-6, 0x1.e20c7e0000000p-3, 0x1.118e300000000p-4, -0x1.ada3280000000p-4}
, {0x1.8bf9b00000000p-3, -0x1.0f8d8c0000000p-3, 0x1.aba9b20000000p-3, 0x1.a5c6d80000000p-4, -0x1.b3ee440000000p-3, 0x1.e810580000000p-4, 0x1.8451000000000p-5, 0x1.6ad8480000000p-3, 0x1.a9d3080000000p-3, 0x1.3e1af20000000p-3, 0x1.8fb5ca0000000p-5, 0x1.41c2440000000p-4, 0x1.4b42980000000p-9, 0x1.4e636e0000000p-3, -0x1.fe3b600000000p-7, -0x1.439f3c0000000p-2}
}
, {{-0x1.69ec080000000p-3, -0x1.fc11660000000p-3, -0x1.abb2820000000p-3, -0x1.206ef60000000p-3, -0x1.532cfe0000000p-4, -0x1.b3bd460000000p-3, -0x1.b48c060000000p-4, 0x1.45f02e0000000p-4, -0x1.48ec600000000p-4, -0x1.80f2a20000000p-6, -0x1.a2814c0000000p-4, 0x1.ce84bc0000000p-5, -0x1.d23eb20000000p-7, -0x1.2b49980000000p-3, -0x1.631ce80000000p-4, -0x1.4c0fac0000000p-5}
, {-0x1.1800dc0000000p-3, 0x1.ea6f980000000p-6, 0x1.7617d80000000p-7, 0x1.b3be560000000p-5, -0x1.92d4a20000000p-3, -0x1.22df240000000p-4, -0x1.c816f40000000p-4, -0x1.1ee02e0000000p-3, -0x1.e088aa0000000p-3, -0x1.2087b80000000p-3, -0x1.e1e9860000000p-8, -0x1.5943d20000000p-3, -0x1.fbc58a0000000p-5, 0x1.4c75da0000000p-3, 0x1.07db440000000p-6, -0x1.0fe2c60000000p-2}
, {0x1.45cea80000000p-6, -0x1.a935000000000p-3, 0x1.1ba8140000000p-4, 0x1.2c32b20000000p-3, -0x1.2e803a0000000p-2, 0x1.31ee8c0000000p-3, 0x1.91fdc20000000p-4, -0x1.d8bd760000000p-5, 0x1.64e03c0000000p-9, 0x1.be5f880000000p-7, 0x1.604e8a0000000p-3, 0x1.1ce1920000000p-4, 0x1.0d4c6a0000000p-3, 0x1.321d020000000p-3, -0x1.065c4e0000000p-5, -0x1.612bf00000000p-2}
}
}
, {{{0x1.51356c0000000p-6, 0x1.aee0aa0000000p-3, 0x1.507e960000000p-4, 0x1.1a9b5a0000000p-3, 0x1.91c5660000000p-3, 0x1.36eaba0000000p-3, -0x1.06d3720000000p-5, 0x1.1024180000000p-3, -0x1.5e8d100000000p-4, 0x1.d323de0000000p-7, -0x1.483a620000000p-3, -0x1.90be4e0000000p-7, -0x1.4a88d40000000p-4, 0x1.c6a1f00000000p-3, 0x1.702ae00000000p-4, 0x1.3ae9080000000p-3}
, {0x1.3af9aa0000000p-4, 0x1.9d88a20000000p-3, 0x1.6e4a080000000p-4, 0x1.3836d60000000p-3, 0x1.722cec0000000p-4, 0x1.e987240000000p-4, -0x1.9ca5720000000p-5, 0x1.a7d2fe0000000p-6, 0x1.07b1920000000p-3, 0x1.bc60d40000000p-7, -0x1.c522860000000p-4, 0x1.81ea080000000p-7, 0x1.1779300000000p-3, 0x1.5cb1280000000p-3, 0x1.8064800000000p-3, 0x1.b3002c0000000p-3}
, {0x1.1c36c20000000p-3, 0x1.a1e5a00000000p-2, -0x1.6929e00000000p-8, 0x1.0d23ea0000000p-3, 0x1.ca4bfe0000000p-3, 0x1.08db320000000p-4, -0x1.a1ce460000000p-5, 0x1.9570640000000p-4, 0x1.8570380000000p-5, 0x1.baa94c0000000p-5, -0x1.7741e00000000p-4, 0x1.b6e3dc0000000p-4, 0x1.8979400000000p-7, 0x1.90893c0000000p-3, 0x1.08f3560000000p-4, 0x1.2494a00000000p-4}
}
, {{-0x1.35875c0000000p-2, 0x1.07a2540000000p-3, -0x1.895f9a0000000p-2, -0x1.441dce0000000p-2, 0x1.9ab75a0000000p-3, -0x1.1a69720000000p-2, -0x1.61d3da0000000p-2, -0x1.87d38e0000000p-2, -0x1.9753cc0000000p-3, -0x1.97762a0000000p-2, -0x1.e0e38e0000000p-8, -0x1.7aadfe0000000p-2, -0x1.88c4ac0000000p-3, 0x1.215ba40000000p-3, 0x1.b418260000000p-3, 0x1.408aa20000000p-2}
, {-0x1.628ed60000000p-3, 0x1.4908720000000p-3, -0x1.2348320000000p-2, -0x1.dff1600000000p-3, 0x1.1401ec0000000p-2, -0x1.6611280000000p-3, -0x1.2b1fd00000000p-2, -0x1.bc67e20000000p-3, -0x1.74b2c20000000p-2, -0x1.39b5800000000p-2, -0x1.6228720000000p-3, -0x1.0c23440000000p-1, -0x1.91a7ca0000000p-4, 0x1.6764e60000000p-3, 0x1.a51b520000000p-3, 0x1.26bdb20000000p-2}
, {-0x1.881b660000000p-4, -0x1.2fb3080000000p-3, -0x1.ac0a060000000p-3, -0x1.c130580000000p-3, 0x1.3fc5f80000000p-2, -0x1.2569c40000000p-3, -0x1.a90fd20000000p-3, -0x1.8a3a680000000p-3, -0x1.4ade620000000p-3, -0x1.a6d1b80000000p-3, -0x1.9face80000000p-3, -0x1.d81c200000000p-3, -0x1.aa7d2c0000000p-4, 0x1.d80bba0000000p-4, 0x1.2a928a0000000p-3, 0x1.09aed40000000p-2}
}
, {{0x1.8ecce60000000p-5, -0x1.b5a4d80000000p-4, 0x1.fde3ce0000000p-6, 0x1.b6cfca0000000p-7, -0x1.099e340000000p-2, -0x1.c8b69a0000000p-5, 0x1.49cc9e0000000p-2, -0x1.0005800000000p-3, 0x1.546db00000000p-2, 0x1.c364980000000p-5, 0x1.ca59820000000p-3, 0x1.13d83e0000000p-3, 0x1.8c74f00000000p-5, -0x1.3210400000000p-2, -0x1.29a00c0000000p-2, -0x1.f436600000000p-3}
, {0x1.7e0af20000000p-5, -0x1.74b4a60000000p-2, 0x1.ac566c0000000p-5, -0x1.f8c1900000000p-6, -0x1.c6a8ba0000000p-3, -0x1.2729460000000p-5, 0x1.2c7f880000000p-2, -0x1.61222c0000000p-3, 0x1.aa0cd80000000p-3, 0x1.61389a0000000p-3, 0x1.6976b20000000p-6, 0x1.92e7840000000p-3, 0x1.5e402a0000000p-3, -0x1.6a96900000000p-2, -0x1.ea4a5e0000000p-2, -0x1.600ee00000000p-5}
, {-0x1.341c940000000p-6, -0x1.8c52640000000p-2, 0x1.233d4a0000000p-6, -0x1.318a520000000p-3, -0x1.8777160000000p-3, -0x1.cb86500000000p-6, 0x1.a11d3c0000000p-3, -0x1.f161040000000p-5, 0x1.0e97520000000p-2, 0x1.2926fa0000000p-3, -0x1.f7198e0000000p-6, 0x1.1b2c8c0000000p-3, 0x1.6276ba0000000p-5, -0x1.41693a0000000p-2, -0x1.b799f20000000p-2, -0x1.1a97aa0000000p-3}
}
}
, {{{-0x1.3b32c00000000p-4, 0x1.a4cd160000000p-4, 0x1.6eaad00000000p-5, -0x1.652b100000000p-7, 0x1.784e840000000p-5, -0x1.0db6640000000p-6, 0x1.62b9940000000p-6, 0x1.9a0eae0000000p-6, 0x1.161c460000000p-6, -0x1.e786dc0000000p-6, -0x1.02eb760000000p-3, -0x1.095d200000000p-5, 0x1.7a692c0000000p-4, 0x1.474bac0000000p-4, 0x1.b1db540000000p-3, -0x1.8f87fa0000000p-6}
, {0x1.9374360000000p-5, -0x1.66205a0000000p-5, 0x1.b810280000000p-11, 0x1.d7504c0000000p-11, -0x1.be111c0000000p-4, 0x1.43fed20000000p-9, -0x1.cd80f20000000p-6, -0x1.212e980000000p-10, 0x1.7a8dc20000000p-6, -0x1.50e1fe0000000p-6, 0x1.3b44480000000p-4, -0x1.a6273a0000000p-6, 0x1.d4c6d40000000p-7, -0x1.e88cf80000000p-7, -0x1.9062fc0000000p-4, -0x1.2c7ab80000000p-3}
, {-0x1.3b487e0000000p-5, 0x1.269b560000000p-3, -0x1.4719fc0000000p-3, -0x1.1e51a80000000p-4, -0x1.5e97f60000000p-4, -0x1.0348300000000p-3, -0x1.e91d540000000p-8, 0x1.562cb00000000p-8, -0x1.39e6dc0000000p-4, 0x1.38cbf60000000p-10, -0x1.ad64020000000p-4, 0x1.cc1a3a0000000p-6, -0x1.cf3b500000000p-5, 0x1.59fdc00000000p-8, 0x1.17fef60000000p-4, -0x1.8514de0000000p-4}
}
, {{0x1.1fd14e0000000p-3, 0x1.2b1fe40000000p-2, 0x1.b2a71a0000000p-8, 0x1.6c74a00000000p-4, 0x1.4357240000000p-9, 0x1.158bd40000000p-6, 0x1.d951e20000000p-6, -0x1.d1035a0000000p-4, 0x1.af97440000000p-6, -0x1.1210400000000p-5, -0x1.005c0c0000000p-4, 0x1.28b8100000000p-5, 0x1.69b9d20000000p-6, 0x1.23b9040000000p-9, 0x1.fb65ee0000000p-5, -0x1.2a21560000000p-3}
, {0x1.59a0860000000p-4, 0x1.2ee6760000000p-3, 0x1.c9a5e40000000p-4, 0x1.fdf25c0000000p-5, 0x1.f87bfa0000000p-5, 0x1.648f9e0000000p-4, 0x1.9fb9e60000000p-4, 0x1.15dba20000000p-5, 0x1.23192e0000000p-3, 0x1.24b6460000000p-3, -0x1.39c8540000000p-4, 0x1.ff55ac0000000p-4, 0x1.ac06180000000p-4, 0x1.280a9e0000000p-3, -0x1.e75eae0000000p-6, 0x1.5a0df80000000p-7}
, {0x1.6d40d00000000p-6, 0x1.16a90e0000000p-3, 0x1.0b74d80000000p-4, -0x1.9598300000000p-4, 0x1.59f9fe0000000p-9, -0x1.c714e60000000p-5, -0x1.4d4e3a0000000p-6, -0x1.eb92e60000000p-6, 0x1.0fe5540000000p-4, -0x1.c195980000000p-5, -0x1.3ba6260000000p-3, 0x1.68a7760000000p-5, -0x1.7f1e1a0000000p-6, 0x1.3a13f20000000p-3, 0x1.2677520000000p-3, 0x1.95563a0000000p-4}
}
, {{0x1.4ed78a0000000p-7, 0x1.bcf4020000000p-6, -0x1.72d3760000000p-6, -0x1.98fec60000000p-7, -0x1.c393180000000p-5, 0x1.c7d1780000000p-4, 0x1.6c7de80000000p-4, 0x1.1637e00000000p-9, 0x1.5a78e00000000p-5, -0x1.c95be20000000p-5, -0x1.8285ee0000000p-4, -0x1.18bbae0000000p-5, 0x1.830d100000000p-5, -0x1.ef3dd00000000p-4, -0x1.b7a9780000000p-4, -0x1.0ba6660000000p-3}
, {0x1.8b84d20000000p-6, 0x1.5750e60000000p-3, -0x1.c6b4080000000p-6, 0x1.c5e0ca0000000p-5, 0x1.aa11520000000p-5, -0x1.02eb000000000p-4, 0x1.d0aea60000000p-5, -0x1.5409080000000p-5, -0x1.4a20c40000000p-5, 0x1.f50f4a0000000p-6, -0x1.60f19c0000000p-5, 0x1.44942a0000000p-5, -0x1.1246a40000000p-9, -0x1.df11d00000000p-9, 0x1.10225e0000000p-4, 0x1.0620f20000000p-5}
, {-0x1.1afb2c0000000p-6, 0x1.2b36020000000p-3, 0x1.e4d2a40000000p-6, 0x1.0a27ca0000000p-5, 0x1.2696fc0000000p-3, 0x1.64813a0000000p-4, -0x1.0687000000000p-6, -0x1.2c62440000000p-6, 0x1.5839c40000000p-6, -0x1.627fea0000000p-5, -0x1.a4cc3c0000000p-3, -0x1.1b6ce40000000p-4, -0x1.c979dc0000000p-9, 0x1.32fb0a0000000p-3, 0x1.48ee280000000p-3, 0x1.466be20000000p-8}
}
}
, {{{0x1.0387720000000p-4, 0x1.198de40000000p-7, 0x1.180f840000000p-4, 0x1.4442700000000p-5, -0x1.9420fa0000000p-6, 0x1.e654740000000p-4, 0x1.433ab80000000p-4, 0x1.8b6d380000000p-4, 0x1.c9b2d20000000p-4, 0x1.c3037e0000000p-5, 0x1.58e5380000000p-5, 0x1.5a08260000000p-3, 0x1.3ed3720000000p-3, 0x1.7f84460000000p-3, 0x1.2d13ac0000000p-4, -0x1.28c11e0000000p-4}
, {-0x1.b32f460000000p-5, -0x1.f2768a0000000p-6, -0x1.41d9d00000000p-3, -0x1.2e88c20000000p-3, 0x1.19a3ea0000000p-4, -0x1.2a39ec0000000p-3, -0x1.6242960000000p-4, 0x1.93a90e0000000p-3, 0x1.a2b6340000000p-5, -0x1.dbcaf00000000p-6, -0x1.8cf7340000000p-3, 0x1.eeb3740000000p-6, 0x1.00d7d60000000p-3, -0x1.2d7c8a0000000p-5, -0x1.a980440000000p-5, -0x1.b6ec440000000p-9}
, {-0x1.d4bb800000000p-7, 0x1.d523000000000p-5, 0x1.84a07e0000000p-4, 0x1.7f82f80000000p-5, -0x1.11e9f40000000p-4, 0x1.0a6b720000000p-6, -0x1.92b7ca0000000p-5, -0x1.5da0c00000000p-3, -0x1.9c8dfc0000000p-3, 0x1.2705d20000000p-5, 0x1.a55dca0000000p-3, -0x1.1121b40000000p-2, -0x1.1f8ac40000000p-4, 0x1.8062de0000000p-3, 0x1.8807400000000p-3, -0x1.84c08c0000000p-3}
}
, {{0x1.924cce0000000p-3, -0x1.135c200000000p-2, 0x1.2406080000000p-4, 0x1.4fdf280000000p-5, -0x1.3d313a0000000p-3, 0x1.110c9a0000000p-3, 0x1.4e69cc0000000p-3, 0x1.9279440000000p-4, 0x1.98bd000000000p-3, 0x1.fbd4820000000p-4, 0x1.c297200000000p-9, 0x1.ab53ea0000000p-3, 0x1.072e9c0000000p-3, -0x1.61fde80000000p-3, -0x1.32a2840000000p-3, -0x1.752a9c0000000p-3}
, {-0x1.1d7aba0000000p-3, -0x1.e840360000000p-4, -0x1.cee77e0000000p-3, -0x1.19eb920000000p-2, 0x1.49d7300000000p-5, -0x1.081c7a0000000p-2, -0x1.ba71640000000p-3, 0x1.65446c0000000p-3, 0x1.88fe2a0000000p-7, -0x1.6601e00000000p-7, -0x1.dc5dc40000000p-4, -0x1.695df20000000p-4, 0x1.5cf9dc0000000p-5, -0x1.93003e0000000p-3, -0x1.20fd540000000p-3, -0x1.20f8800000000p-4}
, {0x1.ff0f7c0000000p-4, 0x1.c643440000000p-3, 0x1.57b3e80000000p-3, 0x1.c7a35a0000000p-3, -0x1.e436680000000p-4, 0x1.715a280000000p-3, 0x1.4181aa0000000p-6, -0x1.4cbcb60000000p-2, -0x1.6852060000000p-3, -0x1.5dc49e0000000p-3, 0x1.500b7e0000000p-2, -0x1.2f1de40000000p-3, -0x1.1dcc560000000p-7, 0x1.1926380000000p-2, 0x1.60820c0000000p-4, -0x1.8ae7a40000000p-4}
}
, {{0x1.ece1540000000p-5, -0x1.4b47fe0000000p-2, -0x1.8a88be0000000p-6, 0x1.1dbed40000000p-6, -0x1.66f5aa0000000p-3, 0x1.4192520000000p-5, 0x1.46932a0000000p-6, 0x1.40d76a0000000p-3, 0x1.8ac2ce0000000p-3, 0x1.afe7ae0000000p-3, -0x1.0ce8860000000p-3, 0x1.dec9600000000p-4, 0x1.0711b00000000p-10, -0x1.625ac20000000p-3, -0x1.9999ba0000000p-3, -0x1.0494840000000p-3}
, {-0x1.914f000000000p-3, -0x1.031b940000000p-3, -0x1.33d5720000000p-2, -0x1.3e8e380000000p-2, 0x1.5036240000000p-5, -0x1.eabe820000000p-3, -0x1.732fbe0000000p-3, -0x1.2085c40000000p-4, -0x1.74c35c0000000p-4, -0x1.6b3c580000000p-4, -0x1.168fea0000000p-4, -0x1.252d0a0000000p-4, -0x1.ad0fe20000000p-5, -0x1.26ea2e0000000p-2, -0x1.1265f40000000p-5, 0x1.da57a00000000p-4}
, {-0x1.2cccdc0000000p-3, 0x1.05c5840000000p-2, 0x1.b9a8c80000000p-7, 0x1.c31d660000000p-9, 0x1.8fe8600000000p-4, 0x1.3b30e00000000p-5, -0x1.2de1ae0000000p-3, -0x1.2f28040000000p-2, -0x1.20477c0000000p-3, -0x1.a2b6260000000p-4, 0x1.3b5d860000000p-4, -0x1.cfbe860000000p-3, -0x1.3072120000000p-4, 0x1.7179720000000p-4, 0x1.b22a1e0000000p-3, 0x1.a5b2b80000000p-3}
}
}
, {{{0x1.5da4860000000p-5, 0x1.25a4740000000p-8, -0x1.d7c1f00000000p-4, -0x1.58f1000000000p-4, 0x1.6dc9480000000p-3, -0x1.a225d40000000p-4, -0x1.6635c60000000p-4, 0x1.a351640000000p-7, -0x1.803f8c0000000p-4, 0x1.10bda00000000p-6, -0x1.2256980000000p-4, 0x1.49923c0000000p-6, -0x1.8d5e260000000p-4, 0x1.636fba0000000p-3, 0x1.0b4b6a0000000p-4, -0x1.65daa60000000p-8}
, {0x1.430d880000000p-3, -0x1.fd01480000000p-8, 0x1.a8de680000000p-3, 0x1.7011340000000p-3, -0x1.8b6ca20000000p-4, 0x1.fa1cfe0000000p-5, 0x1.b0d2c20000000p-4, 0x1.44a7da0000000p-7, 0x1.f494380000000p-6, 0x1.7a79f40000000p-4, 0x1.bbe4100000000p-13, 0x1.87bbc00000000p-6, -0x1.39ee400000000p-6, 0x1.0ce96a0000000p-4, 0x1.b0e2320000000p-5, -0x1.179d620000000p-7}
, {0x1.86e52c0000000p-4, -0x1.e40fea0000000p-3, 0x1.6f03500000000p-6, -0x1.17ef980000000p-8, -0x1.6363960000000p-2, 0x1.74323e0000000p-6, 0x1.878b640000000p-3, 0x1.1a59720000000p-5, 0x1.f40e240000000p-4, 0x1.fc2f5a0000000p-5, 0x1.af3d940000000p-5, 0x1.6e34d20000000p-3, 0x1.6eb3c00000000p-6, -0x1.5725300000000p-4, -0x1.441bd00000000p-2, -0x1.776e360000000p-2}
}
, {{-0x1.43008e0000000p-4, -0x1.5393700000000p-3, -0x1.215f8c0000000p-3, -0x1.f1a75a0000000p-3, 0x1.80fa0a0000000p-5, -0x1.18209c0000000p-2, -0x1.03b34e0000000p-2, -0x1.2758020000000p-4, -0x1.4054d40000000p-2, -0x1.ec811a0000000p-3, -0x1.446b060000000p-5, -0x1.755d080000000p-2, -0x1.6eed540000000p-3, -0x1.02616c0000000p-3, 0x1.eb6b620000000p-6, 0x1.009e340000000p-7}
, {0x1.da99a60000000p-4, -0x1.0ef4140000000p-2, 0x1.1547300000000p-3, 0x1.3fb3160000000p-3, -0x1.0d94fe0000000p-2, 0x1.25ae340000000p-3, 0x1.0bb9900000000p-3, -0x1.2e24400000000p-2, -0x1.7cf1920000000p-5, -0x1.9f74f00000000p-6, 0x1.2d2ef20000000p-3, -0x1.de23f40000000p-6, -0x1.e581f80000000p-5, -0x1.04f9b20000000p-4, -0x1.db5a600000000p-3, -0x1.22229c0000000p-2}
, {0x1.226f240000000p-3, -0x1.e4ecb60000000p-3, 0x1.2abd680000000p-4, 0x1.5b728c0000000p-4, -0x1.3e19340000000p-2, 0x1.3b6f8a0000000p-3, 0x1.4bb02c0000000p-3, 0x1.fc7e5e0000000p-5, 0x1.10eaa20000000p-3, -0x1.10b22a0000000p-6, 0x1.8d38cc0000000p-3, 0x1.487c520000000p-5, 0x1.1913f80000000p-3, -0x1.b3c0140000000p-6, -0x1.d092d20000000p-3, -0x1.5645fa0000000p-2}
}
, {{-0x1.80aa6a0000000p-3, -0x1.d7d0b00000000p-3, -0x1.9475b40000000p-5, -0x1.63770a0000000p-4, -0x1.08440e0000000p-4, -0x1.3eb9de0000000p-3, -0x1.b0aa620000000p-4, -0x1.8890ee0000000p-3, -0x1.12dc0a0000000p-2, -0x1.eae6660000000p-3, -0x1.a2b5400000000p-7, -0x1.d5f5500000000p-3, -0x1.8a62ea0000000p-3, -0x1.7177dc0000000p-3, -0x1.dc507a0000000p-3, 0x1.ad39700000000p-5}
, {0x1.62a4fe0000000p-4, -0x1.a1dade0000000p-3, 0x1.56c2980000000p-3, 0x1.28b7f80000000p-4, -0x1.f12bba0000000p-3, 0x1.a5e9c80000000p-4, 0x1.40923e0000000p-4, -0x1.557bd00000000p-8, -0x1.06ca6a0000000p-4, -0x1.56e4460000000p-4, 0x1.ffc8d20000000p-3, 0x1.1d905c0000000p-5, 0x1.863e940000000p-9, -0x1.b330660000000p-5, -0x1.99ec500000000p-3, -0x1.e510800000000p-3}
, {-0x1.753db00000000p-7, -0x1.08922c0000000p-4, 0x1.51b91c0000000p-4, -0x1.ebaaa20000000p-6, -0x1.8e4c7a0000000p-2, 0x1.9d05840000000p-4, 0x1.ec90d40000000p-7, 0x1.5ad88a0000000p-3, 0x1.23b2c20000000p-4, 0x1.b19e220000000p-5, 0x1.63156c0000000p-3, -0x1.e652b20000000p-7, 0x1.5bf72c0000000p-4, 0x1.70ee660000000p-5, -0x1.54c2a00000000p-3, -0x1.1c41ae0000000p-1}
}
}
, {{{-0x1.0183c20000000p-3, 0x1.07b8a40000000p-3, -0x1.79c5620000000p-5, -0x1.72343e0000000p-3, 0x1.09f2fa0000000p-3, -0x1.acb9240000000p-4, -0x1.cfd4b60000000p-4, -0x1.15f85a0000000p-4, -0x1.922ecc0000000p-11, -0x1.36b81c0000000p-5, -0x1.d8bee00000000p-3, 0x1.ef7afa0000000p-6, -0x1.1bed860000000p-5, 0x1.ba556c0000000p-4, 0x1.3f8b000000000p-4, 0x1.36891c0000000p-4}
, {-0x1.6d11f00000000p-4, 0x1.481f6e0000000p-5, -0x1.dc1a060000000p-5, -0x1.6da8b20000000p-4, 0x1.b71c060000000p-3, -0x1.7e674e0000000p-3, -0x1.3594560000000p-4, -0x1.778fd20000000p-3, -0x1.3bed640000000p-11, -0x1.ff9a480000000p-4, -0x1.ce365a0000000p-6, -0x1.b8f6ee0000000p-5, -0x1.7a5f4a0000000p-3, 0x1.1a0b2a0000000p-6, 0x1.34b36c0000000p-6, 0x1.8dea7c0000000p-4}
, {-0x1.8195520000000p-5, -0x1.4f886c0000000p-3, 0x1.037f340000000p-8, -0x1.d1f3da0000000p-5, 0x1.6f18700000000p-6, -0x1.cc79de0000000p-6, 0x1.76ab940000000p-5, -0x1.ce01fe0000000p-4, 0x1.67370c0000000p-6, -0x1.63cfe20000000p-4, 0x1.0bd6c00000000p-7, -0x1.e9d4c20000000p-4, 0x1.b559d80000000p-15, -0x1.72b6da0000000p-4, -0x1.7c02be0000000p-6, 0x1.ba217e0000000p-5}
}
, {{0x1.3969100000000p-10, 0x1.7d572e0000000p-3, 0x1.626c280000000p-7, 0x1.0e90400000000p-5, -0x1.18648a0000000p-7, 0x1.12e7660000000p-7, 0x1.cda6340000000p-5, -0x1.28b60a0000000p-6, 0x1.aa1b100000000p-4, 0x1.4b1bfc0000000p-4, -0x1.00bbaa0000000p-4, 0x1.7a87fe0000000p-4, 0x1.7384660000000p-4, 0x1.e38a6e0000000p-6, 0x1.2c16180000000p-6, 0x1.085c280000000p-4}
, {0x1.b177280000000p-5, 0x1.46e93c0000000p-3, 0x1.b6e1720000000p-4, -0x1.713eac0000000p-5, 0x1.78d1d00000000p-5, -0x1.2a46e00000000p-6, 0x1.57f93a0000000p-3, -0x1.ecdb2c0000000p-5, 0x1.df756a0000000p-4, 0x1.564f3a0000000p-7, -0x1.1a87840000000p-10, 0x1.735e140000000p-3, 0x1.6593e80000000p-5, -0x1.d1cf780000000p-6, 0x1.d0e7360000000p-7, -0x1.8df35c0000000p-3}
, {-0x1.fe7f840000000p-6, 0x1.1614bc0000000p-3, 0x1.684fc40000000p-4, 0x1.0987080000000p-4, -0x1.6bb6000000000p-5, 0x1.a3eaa20000000p-5, 0x1.c8bb900000000p-4, 0x1.588bc20000000p-4, 0x1.b5631a0000000p-5, -0x1.348f260000000p-6, 0x1.1fd30c0000000p-3, -0x1.0d2f460000000p-10, 0x1.17f1980000000p-3, -0x1.aab1ec0000000p-6, 0x1.143aa20000000p-4, -0x1.fceac20000000p-4}
}
, {{0x1.1ae4680000000p-3, 0x1.63e4980000000p-4, -0x1.21faf00000000p-7, -0x1.588f740000000p-5, 0x1.3d50e60000000p-3, 0x1.232c700000000p-3, 0x1.194b680000000p-4, -0x1.1616f60000000p-5, 0x1.46f2920000000p-4, -0x1.3242ec0000000p-5, -0x1.07e6fa0000000p-3, -0x1.493c060000000p-6, 0x1.b90d6e0000000p-6, 0x1.a2da1e0000000p-8, 0x1.8011200000000p-4, 0x1.2b05680000000p-5}
, {0x1.11a61c0000000p-3, 0x1.bc6ba80000000p-6, 0x1.0db1c80000000p-3, 0x1.66a8b80000000p-5, -0x1.8834d00000000p-4, 0x1.f459b40000000p-4, 0x1.3124fc0000000p-3, 0x1.6db3460000000p-5, -0x1.b80bce0000000p-6, -0x1.0fa4f20000000p-4, -0x1.72ad580000000p-8, 0x1.07067c0000000p-4, -0x1.49e2e80000000p-6, 0x1.1498b20000000p-3, -0x1.074af80000000p-4, -0x1.9db5480000000p-4}
, {0x1.c9bf420000000p-7, 0x1.e551940000000p-5, 0x1.36a7c80000000p-4, -0x1.a170160000000p-5, 0x1.2583720000000p-6, 0x1.1cc63a0000000p-5, -0x1.4bd7aa0000000p-5, 0x1.1e4f600000000p-3, -0x1.7a555a0000000p-6, 0x1.1bc5b80000000p-4, -0x1.f6baa40000000p-3, -0x1.c8cac20000000p-5, 0x1.7e5a9e0000000p-5, 0x1.4b22a40000000p-6, -0x1.304e2c0000000p-4, -0x1.32377a0000000p-3}
}
}
, {{{-0x1.9ac7c40000000p-4, 0x1.eae7420000000p-3, -0x1.a5f1460000000p-5, -0x1.51d44e0000000p-3, 0x1.b0cd200000000p-7, -0x1.3d3f860000000p-4, 0x1.3207000000000p-5, -0x1.117de80000000p-4, 0x1.a176e00000000p-4, -0x1.f213d80000000p-5, -0x1.7dfc5c0000000p-4, -0x1.e511620000000p-5, -0x1.1a5dde0000000p-4, 0x1.56953a0000000p-4, -0x1.ce6d480000000p-6, -0x1.826d400000000p-7}
, {-0x1.7eedd20000000p-4, 0x1.23bce80000000p-2, -0x1.754a4a0000000p-4, -0x1.31a4040000000p-3, -0x1.1b6fa60000000p-3, -0x1.59a8ba0000000p-3, 0x1.7b20aa0000000p-4, -0x1.b4b1e40000000p-4, 0x1.119b220000000p-5, -0x1.cd9a160000000p-6, -0x1.5e0bca0000000p-4, 0x1.6618d00000000p-4, -0x1.13b50a0000000p-3, 0x1.b155f60000000p-5, 0x1.ac740c0000000p-5, 0x1.d6275a0000000p-6}
, {0x1.3750ee0000000p-4, 0x1.4a37fc0000000p-6, -0x1.dabb4c0000000p-4, 0x1.2b1be20000000p-5, -0x1.00103c0000000p-2, 0x1.fc43520000000p-7, -0x1.1671640000000p-4, -0x1.4687bc0000000p-3, 0x1.5597400000000p-8, -0x1.3dce760000000p-5, -0x1.c27a2c0000000p-4, 0x1.df12f00000000p-5, -0x1.e64bca0000000p-4, 0x1.f8b3bc0000000p-4, -0x1.2011b00000000p-4, -0x1.5175a60000000p-6}
}
, {{0x1.17afc80000000p-4, 0x1.bf810e0000000p-2, 0x1.075b160000000p-4, -0x1.7584640000000p-6, 0x1.b21d000000000p-3, -0x1.1c7ef60000000p-6, 0x1.752ec20000000p-7, -0x1.bc006e0000000p-7, 0x1.2453180000000p-2, 0x1.5c16d00000000p-4, -0x1.6e4ae40000000p-2, 0x1.6963d00000000p-6, 0x1.3461000000000p-4, 0x1.9ca6400000000p-3, 0x1.83a19c0000000p-3, 0x1.3363080000000p-4}
, {0x1.6346b40000000p-6, 0x1.b75c900000000p-3, 0x1.4aba9a0000000p-3, 0x1.21483a0000000p-3, 0x1.e13f2c0000000p-7, 0x1.4155820000000p-8, 0x1.f4fd940000000p-4, -0x1.3273d00000000p-6, 0x1.44deb40000000p-3, 0x1.be41e20000000p-4, -0x1.5ff9a00000000p-3, 0x1.8383300000000p-6, 0x1.2196100000000p-4, 0x1.b0073e0000000p-3, 0x1.e3d1460000000p-4, 0x1.0292de0000000p-3}
, {0x1.3241220000000p-3, 0x1.02e17e0000000p-2, 0x1.5ebefe0000000p-5, -0x1.bfe3200000000p-6, -0x1.e142e00000000p-4, 0x1.bd43c80000000p-4, -0x1.ed4b340000000p-7, -0x1.b37ac40000000p-6, 0x1.18ac6a0000000p-3, -0x1.323b1c0000000p-6, -0x1.f0d2a60000000p-3, 0x1.cb03900000000p-4, 0x1.3350a40000000p-4, 0x1.250e740000000p-5, 0x1.5e55ba0000000p-4, -0x1.8bb17c0000000p-4}
}
, {{-0x1.60dfa60000000p-4, 0x1.6759de0000000p-4, -0x1.69ff520000000p-3, 0x1.dc495e0000000p-6, 0x1.316eac0000000p-3, -0x1.144ff00000000p-3, -0x1.484a280000000p-4, -0x1.9ad5860000000p-5, -0x1.ea39060000000p-3, -0x1.6e934e0000000p-4, -0x1.66c82e0000000p-8, -0x1.ed05280000000p-3, -0x1.3019340000000p-3, 0x1.4747a40000000p-3, 0x1.61f4c40000000p-3, 0x1.3799e40000000p-2}
, {0x1.e6e6460000000p-6, 0x1.04fdb20000000p-2, -0x1.79d7620000000p-4, -0x1.6000500000000p-4, 0x1.449a5e0000000p-3, -0x1.e94a200000000p-7, -0x1.afed720000000p-5, 0x1.58702c0000000p-5, -0x1.5d38f00000000p-3, -0x1.56cc7e0000000p-3, -0x1.7609d20000000p-4, -0x1.97d7e40000000p-4, -0x1.205f140000000p-4, 0x1.1bd1140000000p-4, 0x1.10c7fa0000000p-3, 0x1.d010d80000000p-4}
, {0x1.5b11b40000000p-5, 0x1.c807c20000000p-5, -0x1.745c800000000p-5, 0x1.4368280000000p-4, -0x1.24f31e0000000p-8, 0x1.1ebec60000000p-6, 0x1.ad8c2a0000000p-4, -0x1.7e94160000000p-5, -0x1.7d0b860000000p-6, 0x1.8c57480000000p-4, -0x1.3080200000000p-5, 0x1.85cd7c0000000p-5, -0x1.15a13e0000000p-4, 0x1.330d2e0000000p-3, 0x1.1beaf40000000p-3, 0x1.0e5e920000000p-5}
}
}
, {{{-0x1.bac1f60000000p-6, 0x1.6b35b20000000p-4, 0x1.e452ec0000000p-4, -0x1.9472580000000p-4, -0x1.d419a60000000p-11, -0x1.45043c0000000p-8, 0x1.46cf300000000p-4, 0x1.d614020000000p-7, 0x1.4f02200000000p-5, 0x1.713ca80000000p-4, -0x1.72b0d40000000p-3, 0x1.af766a0000000p-5, 0x1.730a400000000p-4, 0x1.55ae520000000p-6, 0x1.6220d20000000p-4, 0x1.1c521e0000000p-4}
, {0x1.0515860000000p-5, 0x1.f837de0000000p-3, 0x1.22ede00000000p-3, 0x1.0e2a000000000p-5, 0x1.03b1740000000p-4, 0x1.7902240000000p-4, 0x1.5a61460000000p-3, -0x1.3188760000000p-4, 0x1.7456ce0000000p-3, 0x1.09e7640000000p-6, -0x1.7776000000000p-3, 0x1.f846020000000p-4, 0x1.3671620000000p-7, 0x1.84045e0000000p-3, -0x1.cfbb2a0000000p-9, -0x1.39aa0e0000000p-6}
, {0x1.0fc8680000000p-4, 0x1.77fd9a0000000p-2, 0x1.67720c0000000p-4, 0x1.36ac620000000p-5, 0x1.c3d2a00000000p-4, 0x1.53b3d40000000p-3, 0x1.3d2e140000000p-5, 0x1.8f8d8c0000000p-4, 0x1.04a7700000000p-3, 0x1.3a90340000000p-3, -0x1.6b22500000000p-3, 0x1.1c832a0000000p-4, 0x1.73950a0000000p-3, 0x1.6d8f4c0000000p-3, 0x1.f1921e0000000p-4, -0x1.7a63a80000000p-4}
}
, {{-0x1.1e73f00000000p-6, 0x1.66b7200000000p-3, 0x1.2df36e0000000p-4, 0x1.7421800000000p-4, 0x1.7ece0c0000000p-4, 0x1.4962d20000000p-6, -0x1.d9cbde0000000p-4, 0x1.b92efe0000000p-5, -0x1.79a5240000000p-5, -0x1.7827f60000000p-4, 0x1.298f260000000p-4, -0x1.189f5a0000000p-4, 0x1.9311c80000000p-5, 0x1.6531bc0000000p-4, 0x1.a2a1c40000000p-3, 0x1.f4921c0000000p-4}
, {-0x1.4c097a0000000p-7, 0x1.1f0aca0000000p-2, -0x1.083bec0000000p-4, 0x1.14d59c0000000p-3, 0x1.9e12940000000p-4, 0x1.3471120000000p-3, -0x1.7bd8720000000p-3, -0x1.71383e0000000p-7, -0x1.3ec8e80000000p-3, -0x1.067b380000000p-5, -0x1.13a2420000000p-3, -0x1.a632b60000000p-7, -0x1.7ce2900000000p-4, 0x1.1028520000000p-2, 0x1.156f360000000p-3, 0x1.6a453a0000000p-3}
, {0x1.d3db3a0000000p-5, 0x1.bb91760000000p-3, 0x1.93ab5a0000000p-4, 0x1.76a6fc0000000p-7, 0x1.cbfba20000000p-4, 0x1.2d8aca0000000p-6, -0x1.911ec40000000p-3, 0x1.53cc9a0000000p-5, -0x1.9f56660000000p-3, -0x1.6b2a4c0000000p-4, -0x1.056f2e0000000p-2, -0x1.9775780000000p-4, 0x1.22fabe0000000p-8, 0x1.4d5d900000000p-4, 0x1.8e8f5c0000000p-4, 0x1.ab48b60000000p-4}
}
, {{-0x1.09c32c0000000p-5, -0x1.4a8e7c0000000p-2, -0x1.cbedde0000000p-4, -0x1.f072e60000000p-5, -0x1.dedef60000000p-3, -0x1.9099060000000p-6, 0x1.c86c020000000p-4, -0x1.9c7dd20000000p-8, 0x1.e8c39e0000000p-5, 0x1.d0bbf80000000p-7, 0x1.5ce7400000000p-4, -0x1.0f603a0000000p-8, -0x1.bb4d2e0000000p-4, -0x1.ea750c0000000p-4, -0x1.d6e9760000000p-3, -0x1.1943540000000p-3}
, {-0x1.7e2cb60000000p-3, -0x1.ec2f1c0000000p-3, -0x1.0019600000000p-3, -0x1.0bfbac0000000p-3, -0x1.5965980000000p-3, -0x1.e11dc80000000p-3, 0x1.31e0ce0000000p-5, -0x1.a82c0e0000000p-5, -0x1.5f1ca00000000p-7, -0x1.60c6800000000p-4, 0x1.fbec060000000p-5, -0x1.5af6180000000p-4, 0x1.8dbb2a0000000p-5, -0x1.8d9d8e0000000p-4, -0x1.98ca720000000p-4, 0x1.5566740000000p-5}
, {-0x1.df99d40000000p-4, -0x1.2d4ad40000000p-2, -0x1.cfad640000000p-5, -0x1.56f5680000000p-3, -0x1.9a22dc0000000p-4, -0x1.37094e0000000p-4, -0x1.28f6d60000000p-4, -0x1.0f40fa0000000p-3, -0x1.5fffc80000000p-5, -0x1.35c4ba0000000p-3, 0x1.1981c00000000p-4, -0x1.3e371c0000000p-5, -0x1.1bbcae0000000p-4, -0x1.67c7740000000p-3, -0x1.4172b60000000p-3, 0x1.9d13f80000000p-5}
}
}
, {{{-0x1.c349220000000p-5, -0x1.3627400000000p-3, -0x1.7df9aa0000000p-4, 0x1.26ebc20000000p-4, 0x1.412ce40000000p-3, 0x1.3e7dd60000000p-7, -0x1.1481f80000000p-3, 0x1.2664920000000p-9, -0x1.ad049c0000000p-7, 0x1.ccef600000000p-6, 0x1.b0007a0000000p-5, -0x1.3c54b40000000p-4, 0x1.a8437c0000000p-8, 0x1.22d8d40000000p-3, 0x1.0c556e0000000p-3, 0x1.0747780000000p-3}
, {-0x1.1c78da0000000p-5, -0x1.2891e40000000p-5, -0x1.b2e41e0000000p-4, -0x1.a162840000000p-5, 0x1.178bea0000000p-3, -0x1.1afa180000000p-5, -0x1.31de4a0000000p-3, 0x1.39da100000000p-6, -0x1.cbb7840000000p-3, -0x1.0d48f00000000p-3, 0x1.4bd9840000000p-3, -0x1.a2b50e0000000p-3, -0x1.cfc1c60000000p-5, 0x1.8cd1e00000000p-4, 0x1.7b388c0000000p-4, 0x1.2c41da0000000p-5}
, {-0x1.0466620000000p-6, -0x1.9f4a660000000p-3, 0x1.40e2360000000p-3, -0x1.2987420000000p-5, -0x1.2b99440000000p-6, 0x1.4099940000000p-5, 0x1.36b94c0000000p-5, -0x1.cf72b20000000p-5, 0x1.f921c40000000p-6, 0x1.6e3ebc0000000p-4, 0x1.a2530c0000000p-5, -0x1.8827da0000000p-4, 0x1.7894800000000p-3, 0x1.c1b3bc0000000p-4, 0x1.8ccc540000000p-5, -0x1.07e0040000000p-5}
}
, {{-0x1.7437240000000p-3, -0x1.29e5420000000p-3, -0x1.169a940000000p-2, -0x1.bc62400000000p-4, 0x1.1c48800000000p-3, -0x1.fdd8fa0000000p-4, -0x1.d810c40000000p-4, 0x1.635f960000000p-3, 0x1.6abd760000000p-4, 0x1.5bbc3e0000000p-8, 0x1.be955e0000000p-4, 0x1.4838560000000p-4, 0x1.4bfb080000000p-7, -0x1.dc67100000000p-3, -0x1.7138b20000000p-4, 0x1.6f73b00000000p-6}
, {-0x1.56c60c0000000p-4, -0x1.b1f7140000000p-2, -0x1.32b7720000000p-5, -0x1.1d6cfe0000000p-5, -0x1.6e023a0000000p-4, -0x1.fa9c9a0000000p-5, -0x1.bb2f0a0000000p-4, -0x1.d699c20000000p-3, -0x1.0c57f00000000p-5, -0x1.9ee3f60000000p-4, 0x1.1703920000000p-3, -0x1.a5db860000000p-2, -0x1.08c07a0000000p-3, -0x1.e3f78a0000000p-3, -0x1.175f600000000p-2, -0x1.0f2bdc0000000p-6}
, {0x1.f16a260000000p-4, -0x1.39a1d80000000p-2, 0x1.5b36440000000p-4, 0x1.1bf72a0000000p-3, -0x1.ee9fb40000000p-4, 0x1.9515a00000000p-3, 0x1.a395e00000000p-3, 0x1.05ced60000000p-7, 0x1.de84500000000p-6, 0x1.314c540000000p-7, 0x1.05b1d60000000p-4, 0x1.1911e00000000p-4, 0x1.c0de600000000p-6, 0x1.3c8a2c0000000p-5, -0x1.2010600000000p-2, -0x1.9113a20000000p-6}
}
, {{-0x1.2e61680000000p-3, -0x1.0c0a580000000p-2, -0x1.0571960000000p-2, -0x1.a896f60000000p-3, 0x1.070d2c0000000p-4, -0x1.f1d9800000000p-3, -0x1.3768360000000p-3, 0x1.bce15c0000000p-4, -0x1.a398e00000000p-4, -0x1.863ac80000000p-5, -0x1.1b8a920000000p-4, 0x1.a798540000000p-5, -0x1.fd18980000000p-5, -0x1.138b600000000p-2, -0x1.3db1940000000p-4, 0x1.0b9d060000000p-3}
, {-0x1.6bab780000000p-4, -0x1.22051c0000000p-2, 0x1.72f8940000000p-4, -0x1.97b8f00000000p-5, -0x1.3aa1be0000000p-4, -0x1.81b20e0000000p-5, -0x1.3ca9180000000p-3, -0x1.699bd80000000p-2, -0x1.553a340000000p-3, -0x1.bf1acc0000000p-3, 0x1.0234160000000p-3, -0x1.93b3660000000p-3, -0x1.b9d4560000000p-3, -0x1.7804d80000000p-4, -0x1.8126960000000p-3, 0x1.54489a0000000p-3}
, {0x1.6a7e780000000p-4, -0x1.91ad540000000p-2, 0x1.4037c20000000p-3, 0x1.a19d4e0000000p-3, -0x1.e0bc440000000p-4, 0x1.eb55fe0000000p-3, 0x1.86e9de0000000p-3, 0x1.7bdcc00000000p-5, 0x1.90451c0000000p-4, 0x1.7a84360000000p-9, 0x1.f732a40000000p-3, 0x1.34bac20000000p-4, 0x1.40bbc40000000p-5, -0x1.5f1e8c0000000p-4, -0x1.58013e0000000p-2, -0x1.324e140000000p-12}
}
}
, {{{0x1.6897b00000000p-4, 0x1.288afa0000000p-5, -0x1.c6b1860000000p-4, -0x1.90f0d60000000p-8, 0x1.d909460000000p-5, -0x1.9d27940000000p-8, -0x1.ebc1340000000p-3, 0x1.2e7c060000000p-5, -0x1.167eba0000000p-2, -0x1.d035920000000p-4, -0x1.67762a0000000p-3, -0x1.821f520000000p-3, -0x1.3f39f40000000p-4, 0x1.6dc1f00000000p-4, 0x1.e684cc0000000p-6, 0x1.9241840000000p-5}
, {0x1.02b1940000000p-4, 0x1.8c2d9e0000000p-3, 0x1.acf9260000000p-3, 0x1.b543780000000p-3, 0x1.35a53a0000000p-5, 0x1.837b720000000p-3, 0x1.0d47040000000p-5, 0x1.eaf12a0000000p-5, -0x1.4a7b900000000p-4, 0x1.3079fe0000000p-3, -0x1.12d27c0000000p-3, 0x1.3bedd40000000p-5, 0x1.30ccc40000000p-9, 0x1.1c2b1c0000000p-2, 0x1.b48daa0000000p-3, 0x1.01d9960000000p-4}
, {0x1.f3caa20000000p-5, 0x1.45a56e0000000p-2, 0x1.2c8aee0000000p-3, 0x1.3514f40000000p-3, 0x1.13285e0000000p-3, 0x1.91f86e0000000p-3, 0x1.78df560000000p-4, 0x1.2324220000000p-2, 0x1.0598b00000000p-5, 0x1.c21e140000000p-3, -0x1.f785320000000p-5, 0x1.1b734c0000000p-3, 0x1.bc20540000000p-3, 0x1.d5929c0000000p-3, 0x1.3a8a480000000p-3, 0x1.07d24e0000000p-5}
}
, {{-0x1.357ae80000000p-2, -0x1.a73ce40000000p-4, -0x1.4d5eea0000000p-2, -0x1.5edd460000000p-2, -0x1.d1d51a0000000p-5, -0x1.8d1ece0000000p-3, -0x1.9fe3ec0000000p-4, -0x1.ae07620000000p-3, 0x1.67491e0000000p-5, -0x1.2a01520000000p-2, -0x1.dbe5ba0000000p-4, -0x1.b6f4fa0000000p-3, -0x1.c424c20000000p-6, -0x1.103d300000000p-5, -0x1.2bbd2c0000000p-3, -0x1.dc7b800000000p-5}
, {-0x1.bf98720000000p-3, -0x1.6464c20000000p-3, -0x1.91fc2a0000000p-6, -0x1.fa03560000000p-4, 0x1.a100600000000p-4, -0x1.9abb000000000p-4, -0x1.1e51700000000p-2, -0x1.43c3420000000p-2, -0x1.515fe40000000p-2, -0x1.4030700000000p-2, -0x1.3616bc0000000p-5, -0x1.e1bad80000000p-2, -0x1.0d23780000000p-3, 0x1.26bf5c0000000p-3, 0x1.27034a0000000p-6, 0x1.2f863e0000000p-3}
, {0x1.de7df40000000p-4, 0x1.bcf1060000000p-10, 0x1.7ab0c00000000p-4, 0x1.dee07c0000000p-4, -0x1.7650700000000p-5, 0x1.6ead300000000p-4, -0x1.c129280000000p-8, -0x1.c5b2d80000000p-5, -0x1.5fa0240000000p-4, 0x1.02f0540000000p-3, 0x1.754d0c0000000p-4, 0x1.2ff0560000000p-6, -0x1.39b7e60000000p-6, 0x1.58c4f00000000p-3, 0x1.0837cc0000000p-3, 0x1.2635640000000p-3}
}
, {{0x1.05c6820000000p-3, -0x1.a63f100000000p-3, 0x1.3fd9140000000p-4, -0x1.68ae000000000p-5, -0x1.0362720000000p-3, -0x1.a3b4060000000p-4, 0x1.f445220000000p-4, 0x1.0861ec0000000p-2, 0x1.9d99100000000p-3, 0x1.06bbe40000000p-4, -0x1.3b08760000000p-4, 0x1.341e140000000p-2, 0x1.b845360000000p-5, -0x1.5e2d840000000p-3, -0x1.1a50160000000p-2, -0x1.b9f4260000000p-4}
, {-0x1.9b8c9c0000000p-3, -0x1.b88f360000000p-3, -0x1.ab968c0000000p-4, -0x1.5c76ea0000000p-3, -0x1.2766200000000p-4, -0x1.5208c00000000p-3, -0x1.e9d3500000000p-4, -0x1.25e9d40000000p-3, -0x1.4536ca0000000p-5, -0x1.44dea00000000p-3, 0x1.3566da0000000p-4, -0x1.7849560000000p-4, -0x1.2de2ae0000000p-5, -0x1.4c804c0000000p-4, -0x1.1e57fa0000000p-2, 0x1.77577e0000000p-4}
, {0x1.65e7ae0000000p-4, -0x1.a070a40000000p-3, 0x1.61c1aa0000000p-3, 0x1.cd999c0000000p-6, -0x1.d8bc9a0000000p-4, -0x1.df07400000000p-6, 0x1.325c980000000p-5, -0x1.35b6ae0000000p-3, -0x1.638be80000000p-6, -0x1.4375a80000000p-4, 0x1.4cc8100000000p-3, -0x1.2083080000000p-4, 0x1.5644a60000000p-4, 0x1.1ab96e0000000p-3, -0x1.8a23fe0000000p-3, 0x1.4316580000000p-6}
}
}
, {{{-0x1.2694900000000p-4, 0x1.82d9ce0000000p-3, -0x1.124fc40000000p-3, -0x1.9aff360000000p-5, 0x1.e314620000000p-7, -0x1.da66f60000000p-4, -0x1.d822d40000000p-4, -0x1.dcc2400000000p-5, -0x1.4593680000000p-3, 0x1.b485d00000000p-6, 0x1.7873860000000p-5, -0x1.83f26a0000000p-4, 0x1.8e0cce0000000p-5, 0x1.7e367a0000000p-4, 0x1.13fc860000000p-3, 0x1.5efa020000000p-7}
, {-0x1.81bc320000000p-9, -0x1.426dc80000000p-4, -0x1.a106d80000000p-4, -0x1.ecc13e0000000p-3, -0x1.75d7440000000p-4, -0x1.19acb00000000p-2, 0x1.46b7be0000000p-4, -0x1.b8c36c0000000p-3, -0x1.a4006a0000000p-6, 0x1.0dcb100000000p-5, 0x1.79effa0000000p-5, -0x1.1205180000000p-3, -0x1.52f3300000000p-4, -0x1.bc53fa0000000p-6, -0x1.64a76c0000000p-7, -0x1.6c17de0000000p-5}
, {-0x1.8e6c8a0000000p-4, -0x1.462b6c0000000p-4, 0x1.65e3680000000p-4, -0x1.f686a20000000p-5, -0x1.e5cad40000000p-4, -0x1.daa2be0000000p-5, 0x1.20568e0000000p-3, -0x1.4c02c60000000p-3, -0x1.05d5740000000p-4, -0x1.f608860000000p-8, 0x1.bf1f9e0000000p-4, -0x1.1908140000000p-3, -0x1.73ca680000000p-4, -0x1.524ac20000000p-3, -0x1.a9df780000000p-3, -0x1.6b9da00000000p-4}
}
, {{0x1.65956e0000000p-5, 0x1.3778200000000p-2, 0x1.bcdb700000000p-4, 0x1.b5670e0000000p-7, 0x1.3d904a0000000p-5, 0x1.05e2a20000000p-4, 0x1.b5916a0000000p-3, -0x1.a246340000000p-4, 0x1.0f10880000000p-3, -0x1.29b56c0000000p-5, 0x1.c8526a0000000p-8, 0x1.3452340000000p-3, 0x1.f0d1ce0000000p-5, 0x1.edb5420000000p-4, 0x1.647cdc0000000p-3, -0x1.ae20200000000p-7}
, {0x1.5384f40000000p-5, 0x1.3fcf1e0000000p-2, 0x1.a0308a0000000p-5, 0x1.1487d00000000p-4, 0x1.de590a0000000p-4, 0x1.97265a0000000p-3, 0x1.bfc6320000000p-4, 0x1.c7898a0000000p-7, 0x1.7cfd220000000p-3, 0x1.d518620000000p-5, -0x1.6eeb6e0000000p-3, 0x1.6f057c0000000p-5, 0x1.06ee400000000p-4, 0x1.a899440000000p-6, 0x1.1d8a3c0000000p-2, -0x1.3f37300000000p-6}
, {0x1.efa5ec0000000p-6, 0x1.5089f80000000p-2, 0x1.0ee73a0000000p-4, 0x1.b972e80000000p-5, -0x1.fe9d840000000p-6, 0x1.15e7dc0000000p-3, 0x1.0a62460000000p-3, 0x1.1e60dc0000000p-4, 0x1.4d0ee60000000p-3, 0x1.c022da0000000p-4, -0x1.791c140000000p-3, 0x1.d30bde0000000p-7, -0x1.f04c6c0000000p-5, 0x1.4210080000000p-4, 0x1.4343360000000p-4, 0x1.530e880000000p-4}
}
, {{0x1.09afde0000000p-5, 0x1.6dae4e0000000p-2, 0x1.727fb20000000p-6, 0x1.0084620000000p-5, 0x1.dbafd60000000p-4, -0x1.5c15060000000p-5, -0x1.99242e0000000p-3, 0x1.58aad60000000p-3, -0x1.6a25c00000000p-3, -0x1.4e82560000000p-6, -0x1.2b31860000000p-2, -0x1.092f900000000p-6, 0x1.721bb20000000p-5, 0x1.a927c00000000p-3, 0x1.0bc3a40000000p-2, 0x1.4153a80000000p-4}
, {-0x1.b2c71e0000000p-4, 0x1.8cfc720000000p-2, -0x1.c5a3840000000p-4, 0x1.3941180000000p-4, 0x1.8e35e40000000p-2, -0x1.6309dc0000000p-5, -0x1.bdad140000000p-3, -0x1.72be280000000p-5, -0x1.047b860000000p-2, -0x1.859b2c0000000p-5, -0x1.12c3ea0000000p-3, -0x1.18df9e0000000p-2, -0x1.a9163c0000000p-7, 0x1.59a4380000000p-3, 0x1.26c59a0000000p-3, 0x1.03f2780000000p-3}
, {0x1.56dc7e0000000p-4, 0x1.73e1d80000000p-3, -0x1.8200120000000p-5, 0x1.5b27580000000p-4, 0x1.17cf6e0000000p-3, -0x1.13b8a00000000p-4, -0x1.560e7a0000000p-4, -0x1.162c980000000p-4, -0x1.1724e40000000p-3, 0x1.39cff40000000p-4, -0x1.81ee5c0000000p-4, -0x1.2036ca0000000p-3, -0x1.5262fc0000000p-5, 0x1.1088cc0000000p-3, 0x1.44a26e0000000p-3, 0x1.3cb6d80000000p-4}
}
}
, {{{-0x1.56b1240000000p-7, 0x1.fa03120000000p-6, -0x1.16ddec0000000p-4, 0x1.eb84720000000p-4, 0x1.7d84c40000000p-3, 0x1.161e9e0000000p-4, 0x1.039cd60000000p-4, 0x1.27b5300000000p-4, -0x1.da3bce0000000p-6, 0x1.c453140000000p-5, -0x1.0b19180000000p-3, -0x1.2df2ce0000000p-4, 0x1.b5d41e0000000p-4, 0x1.b01e120000000p-4, 0x1.28c0940000000p-4, 0x1.7e56ee0000000p-8}
, {-0x1.fca99a0000000p-8, -0x1.352b300000000p-3, 0x1.d991b20000000p-5, -0x1.3ba4220000000p-5, -0x1.1893180000000p-2, -0x1.4103260000000p-5, 0x1.235ba00000000p-4, -0x1.54b0d60000000p-6, 0x1.f599700000000p-5, 0x1.068a260000000p-3, -0x1.d3e8540000000p-4, 0x1.3dd3a40000000p-4, 0x1.1792a40000000p-3, -0x1.db69ee0000000p-6, 0x1.871a900000000p-6, -0x1.5033f20000000p-2}
, {0x1.8b56c80000000p-4, 0x1.30851a0000000p-3, 0x1.441fd80000000p-7, -0x1.71295c0000000p-4, -0x1.04e6d20000000p-3, -0x1.45e45c0000000p-6, 0x1.9162180000000p-5, -0x1.9617060000000p-5, -0x1.78f6060000000p-5, -0x1.a970a20000000p-4, 0x1.d8420c0000000p-6, -0x1.841c9c0000000p-4, 0x1.2727f20000000p-9, 0x1.34838a0000000p-3, -0x1.36eb380000000p-4, -0x1.01e4860000000p-5}
}
, {{0x1.42d4940000000p-5, 0x1.ab21720000000p-5, 0x1.4526f80000000p-4, 0x1.35b6d00000000p-4, -0x1.ec34760000000p-5, 0x1.8622860000000p-4, 0x1.70e9e60000000p-5, -0x1.87035c0000000p-5, 0x1.504c380000000p-8, -0x1.d3a8240000000p-6, 0x1.bb04d20000000p-4, -0x1.bb638c0000000p-4, 0x1.5746040000000p-6, 0x1.20c3f80000000p-6, 0x1.293ee40000000p-5, -0x1.3719640000000p-3}
, {0x1.92a6180000000p-4, 0x1.7130f20000000p-3, 0x1.0cd72e0000000p-3, 0x1.0f2a4a0000000p-3, -0x1.4cf7980000000p-3, 0x1.cdf4000000000p-4, -0x1.17da460000000p-6, 0x1.bf5d740000000p-5, 0x1.4d30fe0000000p-4, 0x1.ae7e360000000p-6, -0x1.806a5e0000000p-3, 0x1.9e138a0000000p-5, 0x1.557f120000000p-7, -0x1.570e280000000p-5, 0x1.48f4580000000p-5, -0x1.0429be0000000p-2}
, {0x1.84268c0000000p-4, 0x1.be7c500000000p-5, 0x1.372fb80000000p-7, -0x1.bbb1ce0000000p-5, 0x1.16c82c0000000p-4, 0x1.cbe5c00000000p-5, -0x1.123e240000000p-3, 0x1.6406240000000p-5, -0x1.1d37220000000p-4, -0x1.34fda60000000p-4, -0x1.ebf2b20000000p-4, 0x1.4efb4c0000000p-8, 0x1.a5662a0000000p-4, 0x1.c362540000000p-4, 0x1.7aff520000000p-6, -0x1.125edc0000000p-4}
}
, {{0x1.9fd74e0000000p-5, 0x1.f689c00000000p-4, 0x1.0d00380000000p-4, 0x1.a470c00000000p-5, -0x1.2ccc440000000p-4, -0x1.1a2f2a0000000p-4, 0x1.d101840000000p-8, -0x1.59c8ac0000000p-5, 0x1.40c1a80000000p-5, -0x1.b9b2820000000p-5, 0x1.a1f3da0000000p-4, 0x1.1451f00000000p-6, -0x1.47df240000000p-4, 0x1.154dd20000000p-4, -0x1.0899ee0000000p-6, -0x1.1c738e0000000p-3}
, {0x1.cd0eb00000000p-5, 0x1.eb27a20000000p-5, 0x1.65a00c0000000p-6, -0x1.876bb00000000p-4, -0x1.4eb8200000000p-3, 0x1.7cc2920000000p-4, 0x1.092e7a0000000p-4, 0x1.a84aa00000000p-4, 0x1.2189540000000p-5, 0x1.8db0280000000p-4, -0x1.f94a860000000p-4, 0x1.7520760000000p-5, -0x1.04e07e0000000p-5, 0x1.b29cb00000000p-5, -0x1.f133c00000000p-6, -0x1.e2b32c0000000p-3}
, {0x1.3e29160000000p-5, 0x1.1c84920000000p-3, -0x1.22e42c0000000p-6, 0x1.ec404c0000000p-5, -0x1.acb4700000000p-9, -0x1.b5ecc80000000p-5, -0x1.4139f60000000p-4, -0x1.4ec6e60000000p-8, -0x1.008f140000000p-4, 0x1.a087f80000000p-8, -0x1.9ed3880000000p-5, -0x1.99e23c0000000p-4, 0x1.01cfb00000000p-5, -0x1.6b67d40000000p-7, -0x1.a14a0e0000000p-4, -0x1.9402540000000p-5}
}
}
, {{{0x1.1cae0a0000000p-5, 0x1.39f3760000000p-6, 0x1.c776780000000p-5, -0x1.a6713a0000000p-7, -0x1.a4b8780000000p-5, -0x1.875fee0000000p-4, 0x1.1b64880000000p-4, -0x1.feb7760000000p-5, 0x1.d03a320000000p-5, 0x1.6762e80000000p-5, 0x1.a9a8500000000p-4, -0x1.b9a20e0000000p-7, 0x1.316ff20000000p-4, -0x1.f2b54a0000000p-6, -0x1.0180820000000p-6, -0x1.4cc7ba0000000p-4}
, {-0x1.41c9ca0000000p-5, -0x1.324cb40000000p-6, -0x1.a66ac20000000p-4, -0x1.8573e00000000p-5, -0x1.ecb90a0000000p-4, -0x1.5a22c60000000p-4, -0x1.1105e80000000p-4, 0x1.6498ca0000000p-6, -0x1.ed8ec60000000p-7, 0x1.889c280000000p-4, 0x1.6be5520000000p-4, -0x1.d77f4e0000000p-5, 0x1.aa248a0000000p-5, -0x1.6b1a6a0000000p-9, -0x1.5158e40000000p-3, -0x1.e712c40000000p-4}
, {0x1.25651c0000000p-5, 0x1.b5901a0000000p-4, 0x1.9984b40000000p-7, 0x1.326a660000000p-5, 0x1.11c3400000000p-3, 0x1.fa030a0000000p-6, -0x1.324c420000000p-4, -0x1.05f9fe0000000p-5, -0x1.a4276c0000000p-4, 0x1.cce6d80000000p-5, -0x1.0376600000000p-8, -0x1.420a7e0000000p-3, -0x1.4f97500000000p-4, -0x1.6969360000000p-5, 0x1.1550860000000p-4, 0x1.2073140000000p-4}
}
, {{0x1.e982200000000p-10, 0x1.37ccbe0000000p-3, 0x1.2c6a1a0000000p-4, 0x1.56a4be0000000p-7, -0x1.bfccb20000000p-5, 0x1.3426980000000p-7, 0x1.d217b20000000p-4, -0x1.42438a0000000p-4, 0x1.f5bf4e0000000p-8, -0x1.9bddf40000000p-6, -0x1.e964800000000p-4, 0x1.f7eb060000000p-7, 0x1.5f2c760000000p-4, 0x1.01094e0000000p-4, 0x1.192a880000000p-3, -0x1.a37c040000000p-4}
, {0x1.9f29d40000000p-4, 0x1.9f030e0000000p-3, 0x1.e1d9840000000p-4, 0x1.539fce0000000p-4, -0x1.3d2a900000000p-4, 0x1.d9693c0000000p-6, -0x1.8b6e9a0000000p-6, 0x1.c90dc20000000p-7, 0x1.0623be0000000p-4, 0x1.ff2dd80000000p-5, -0x1.1beda80000000p-4, 0x1.92a9620000000p-8, 0x1.afe78e0000000p-4, 0x1.b0fbc00000000p-4, 0x1.125b700000000p-3, -0x1.765f200000000p-6}
, {-0x1.00cadc0000000p-4, 0x1.162cf80000000p-2, -0x1.91d63c0000000p-4, 0x1.a113460000000p-5, 0x1.bd5ef60000000p-8, -0x1.cc99b80000000p-4, -0x1.cfe6a40000000p-6, 0x1.1c18340000000p-4, -0x1.74918a0000000p-5, 0x1.6875e00000000p-7, -0x1.9c54cc0000000p-3, 0x1.2da4e40000000p-4, 0x1.9282c00000000p-7, -0x1.13b16e0000000p-5, 0x1.5808180000000p-3, -0x1.7ec5620000000p-5}
}
, {{-0x1.6612760000000p-7, 0x1.34d2820000000p-5, -0x1.dfdf8a0000000p-7, -0x1.4914e20000000p-5, -0x1.ae38f40000000p-4, -0x1.26382c0000000p-4, 0x1.37dcbe0000000p-4, 0x1.56c5ba0000000p-4, -0x1.005a180000000p-4, -0x1.30e7120000000p-4, 0x1.a3775e0000000p-7, 0x1.7954ea0000000p-5, -0x1.9d6c9c0000000p-9, 0x1.d774aa0000000p-5, -0x1.d93a360000000p-6, -0x1.f38abc0000000p-4}
, {0x1.ae6b9e0000000p-4, 0x1.c63cda0000000p-3, 0x1.993f060000000p-4, 0x1.c4ce720000000p-5, -0x1.09a79c0000000p-5, -0x1.5916740000000p-5, -0x1.a472ce0000000p-4, -0x1.1641d00000000p-5, 0x1.afc3620000000p-5, 0x1.120b140000000p-4, -0x1.58b9240000000p-5, -0x1.25b67a0000000p-4, -0x1.7073960000000p-5, 0x1.2def860000000p-5, 0x1.aa76e00000000p-4, -0x1.4d816a0000000p-4}
, {0x1.26e93a0000000p-4, 0x1.217e760000000p-4, 0x1.cb00980000000p-5, 0x1.937be20000000p-9, 0x1.82921a0000000p-5, 0x1.7a9c740000000p-5, -0x1.dfe33e0000000p-5, -0x1.8ddaf80000000p-4, 0x1.c4b3780000000p-7, -0x1.6e31a20000000p-4, -0x1.0161920000000p-3, 0x1.527dbe0000000p-5, 0x1.b4da640000000p-4, 0x1.a028640000000p-5, 0x1.3d22fa0000000p-4, 0x1.7588020000000p-7}
}
}
, {{{-0x1.3209fe0000000p-2, -0x1.5bf52c0000000p-4, -0x1.b708c00000000p-2, -0x1.9fb8280000000p-2, -0x1.308a3c0000000p-4, -0x1.68d41e0000000p-2, -0x1.252a740000000p-4, -0x1.d8bf760000000p-3, -0x1.002a900000000p-3, -0x1.f822b60000000p-4, -0x1.6220e80000000p-3, -0x1.83adc00000000p-3, -0x1.85e60c0000000p-4, 0x1.20a0f40000000p-8, -0x1.8184800000000p-6, 0x1.5a73f00000000p-3}
, {-0x1.e323e80000000p-3, -0x1.dc47540000000p-4, -0x1.8e63620000000p-3, -0x1.3761640000000p-2, 0x1.b68fe60000000p-3, -0x1.2dad960000000p-2, -0x1.46c32c0000000p-3, -0x1.4dc5b40000000p-2, -0x1.0e75000000000p-3, -0x1.0c59680000000p-2, -0x1.2591da0000000p-3, -0x1.20dfc40000000p-2, -0x1.c9c6780000000p-3, -0x1.090e6c0000000p-3, 0x1.ddb6940000000p-7, 0x1.ecd2440000000p-3}
, {-0x1.f5e48c0000000p-3, 0x1.9cfae60000000p-5, -0x1.60fba60000000p-2, -0x1.730ce00000000p-3, 0x1.1848f20000000p-2, -0x1.8c832e0000000p-3, -0x1.1eda060000000p-2, -0x1.370ace0000000p-2, -0x1.3b5e020000000p-2, -0x1.2cad7e0000000p-3, -0x1.4834a20000000p-3, -0x1.1dcaf80000000p-2, -0x1.835cfc0000000p-3, -0x1.2373540000000p-4, 0x1.108eac0000000p-4, 0x1.5d470a0000000p-2}
}
, {{0x1.f5c8780000000p-4, 0x1.5dfa400000000p-2, -0x1.3d3abe0000000p-6, 0x1.1127120000000p-4, -0x1.6f608c0000000p-3, -0x1.9049420000000p-4, 0x1.1d958c0000000p-3, 0x1.5083f80000000p-3, 0x1.9495140000000p-3, 0x1.1d5daa0000000p-3, -0x1.0805d00000000p-4, 0x1.660c020000000p-3, 0x1.0a36e60000000p-3, -0x1.680c380000000p-4, 0x1.d8c50a0000000p-4, -0x1.1ba2020000000p-4}
, {-0x1.d092480000000p-7, 0x1.b859120000000p-3, 0x1.298c060000000p-5, -0x1.993aa60000000p-4, -0x1.3889ca0000000p-5, 0x1.1899240000000p-7, 0x1.033e980000000p-4, -0x1.873b7a0000000p-4, 0x1.3452b60000000p-3, 0x1.006fa40000000p-3, -0x1.928d800000000p-4, 0x1.2d68680000000p-5, 0x1.132e5e0000000p-8, -0x1.c4e9500000000p-6, 0x1.0cd2ca0000000p-6, -0x1.c975480000000p-7}
, {-0x1.92287c0000000p-5, -0x1.54682e0000000p-3, 0x1.d899c80000000p-7, -0x1.5716a60000000p-4, -0x1.accae40000000p-4, -0x1.d2c5d60000000p-4, 0x1.d397480000000p-4, -0x1.46f6460000000p-4, 0x1.6a9cf80000000p-3, 0x1.5a4fe40000000p-4, 0x1.bf37660000000p-4, 0x1.ac72440000000p-4, 0x1.f201a60000000p-5, -0x1.4d5f880000000p-3, -0x1.74a2720000000p-4, -0x1.eb76a80000000p-4}
}
, {{0x1.4710a40000000p-4, 0x1.2fbcb20000000p-4, 0x1.1eff420000000p-10, 0x1.75c16c0000000p-4, -0x1.2a74a40000000p-6, 0x1.49e2800000000p-4, 0x1.a482d80000000p-8, 0x1.2ba6fa0000000p-3, -0x1.db23780000000p-9, 0x1.4786820000000p-3, -0x1.43bc360000000p-5, 0x1.babfa40000000p-4, 0x1.545ac00000000p-3, 0x1.5313880000000p-4, -0x1.c4e79a0000000p-7, -0x1.228d940000000p-3}
, {0x1.285f420000000p-6, 0x1.77a5640000000p-3, 0x1.6f9e900000000p-4, 0x1.5930e00000000p-4, 0x1.30351c0000000p-5, 0x1.78a5c40000000p-3, 0x1.197ef20000000p-4, 0x1.77f3c00000000p-4, 0x1.3c88420000000p-4, 0x1.44ed8c0000000p-3, -0x1.83a2f40000000p-4, 0x1.c1dec60000000p-4, 0x1.c055120000000p-6, 0x1.493c300000000p-3, 0x1.6c99760000000p-3, 0x1.8e18ba0000000p-5}
, {0x1.08b8ea0000000p-3, 0x1.6f66c60000000p-2, 0x1.2d339a0000000p-3, 0x1.04fa340000000p-4, 0x1.8fd0980000000p-3, 0x1.19627a0000000p-3, 0x1.0f49300000000p-3, 0x1.d204e80000000p-4, 0x1.e64e1a0000000p-6, 0x1.0d50340000000p-6, 0x1.8580460000000p-7, 0x1.d47afc0000000p-5, 0x1.7e1f460000000p-3, 0x1.7bfd500000000p-3, 0x1.d9f4ae0000000p-3, 0x1.7aa7d00000000p-4}
}
}
, {{{-0x1.9923bc0000000p-4, 0x1.abad020000000p-4, -0x1.84c92c0000000p-7, -0x1.516e800000000p-6, 0x1.c8782c0000000p-5, -0x1.64ed520000000p-5, 0x1.d2511a0000000p-6, 0x1.195ffa0000000p-8, -0x1.09be220000000p-5, -0x1.69fd300000000p-4, -0x1.12dde80000000p-6, -0x1.49a2140000000p-6, -0x1.4943fe0000000p-5, 0x1.e904200000000p-5, 0x1.3cfeb60000000p-3, -0x1.3ad6780000000p-5}
, {-0x1.e8e3e40000000p-4, 0x1.28b53a0000000p-5, -0x1.c9e3a40000000p-4, 0x1.b86c540000000p-7, -0x1.c45f020000000p-5, -0x1.fe1bc00000000p-5, 0x1.3917140000000p-5, -0x1.88fdec0000000p-4, 0x1.0d150e0000000p-4, -0x1.89f0de0000000p-5, -0x1.35843e0000000p-5, -0x1.7d051e0000000p-8, 0x1.6f4cf80000000p-5, -0x1.c67ce00000000p-6, 0x1.161fda0000000p-5, 0x1.3e77180000000p-5}
, {-0x1.3163640000000p-4, 0x1.9e38a00000000p-7, 0x1.ca66740000000p-5, -0x1.301a800000000p-4, 0x1.4735840000000p-8, -0x1.8262c40000000p-6, -0x1.5dee6c0000000p-11, -0x1.0d2de20000000p-3, -0x1.268d900000000p-3, -0x1.0c563a0000000p-4, -0x1.77236c0000000p-5, -0x1.3514ee0000000p-4, -0x1.ad09720000000p-5, -0x1.c5bfd40000000p-5, 0x1.75961c0000000p-4, 0x1.fa00000000000p-6}
}
, {{0x1.ce4bfe0000000p-4, 0x1.02be840000000p-3, 0x1.ca13a20000000p-6, 0x1.ace76e0000000p-6, 0x1.aa4b7c0000000p-6, -0x1.ac46660000000p-7, -0x1.9283a80000000p-7, 0x1.e0970e0000000p-5, 0x1.dcbee00000000p-4, 0x1.4b0dcc0000000p-4, 0x1.c7a5260000000p-5, 0x1.3affa80000000p-5, 0x1.2ba47c0000000p-5, 0x1.74c5dc0000000p-4, 0x1.69066e0000000p-3, 0x1.e171420000000p-4}
, {0x1.01db2e0000000p-3, -0x1.e20c0a0000000p-5, -0x1.e282100000000p-5, 0x1.05e2ba0000000p-3, -0x1.82aa840000000p-4, 0x1.9a16180000000p-6, 0x1.31921c0000000p-3, -0x1.5395ce0000000p-4, -0x1.daa6820000000p-6, -0x1.5c90fc0000000p-6, -0x1.1c74820000000p-5, 0x1.758d800000000p-4, -0x1.1ab5600000000p-4, -0x1.0553760000000p-3, -0x1.66f56a0000000p-5, -0x1.b42bca0000000p-5}
, {0x1.482a840000000p-5, 0x1.1a59600000000p-3, -0x1.a0b47e0000000p-6, 0x1.afe70e0000000p-5, -0x1.179d420000000p-4, 0x1.d66a140000000p-5, 0x1.049ece0000000p-3, -0x1.b76f2a0000000p-9, 0x1.0fb0500000000p-3, 0x1.20e0ec0000000p-4, -0x1.9d7eca0000000p-5, 0x1.4c0d500000000p-4, 0x1.75d4860000000p-6, -0x1.6394b60000000p-4, 0x1.c8010a0000000p-9, -0x1.8f27cc0000000p-4}
}
, {{0x1.b5fae60000000p-4, 0x1.cd694a0000000p-7, -0x1.75475e0000000p-5, 0x1.4c6f340000000p-4, 0x1.1b210a0000000p-5, -0x1.02ae6c0000000p-6, -0x1.5c76380000000p-4, 0x1.b01fec0000000p-5, -0x1.1940820000000p-3, -0x1.f409940000000p-5, 0x1.a20bdc0000000p-6, 0x1.94d62a0000000p-5, 0x1.4b8de00000000p-6, 0x1.5bd77c0000000p-5, 0x1.6c6f7c0000000p-6, 0x1.46bdac0000000p-4}
, {0x1.f59e3a0000000p-5, -0x1.0069fc0000000p-6, -0x1.b61e1e0000000p-6, 0x1.362c880000000p-5, -0x1.0921500000000p-3, 0x1.1129120000000p-6, 0x1.4824ae0000000p-6, -0x1.467a940000000p-5, 0x1.413c6c0000000p-6, 0x1.94ee760000000p-7, -0x1.0d849c0000000p-3, -0x1.954e000000000p-5, 0x1.9ea83c0000000p-4, 0x1.8c3c3a0000000p-5, 0x1.0ec2940000000p-5, -0x1.c6a6c60000000p-6}
, {0x1.29670c0000000p-4, 0x1.8f24140000000p-3, 0x1.4815de0000000p-4, 0x1.9f40b80000000p-5, -0x1.0af8e60000000p-3, -0x1.4579980000000p-6, 0x1.888c220000000p-4, 0x1.5b1fbc0000000p-4, -0x1.6018c80000000p-6, 0x1.07334c0000000p-3, -0x1.7e8c2e0000000p-3, 0x1.2177580000000p-4, -0x1.50c7640000000p-4, 0x1.7fe00e0000000p-5, 0x1.fb50d40000000p-5, -0x1.4f500a0000000p-4}
}
}
, {{{0x1.1a42380000000p-8, -0x1.cf06e60000000p-5, 0x1.c55f960000000p-6, -0x1.16244c0000000p-4, -0x1.68ebd00000000p-15, -0x1.46d1680000000p-4, -0x1.31fbba0000000p-4, 0x1.41e1d00000000p-4, 0x1.6fd7cc0000000p-5, 0x1.e9dffe0000000p-4, 0x1.2cc47c0000000p-6, 0x1.4cd4c00000000p-5, -0x1.6956e60000000p-5, 0x1.7ad89c0000000p-4, 0x1.58edfc0000000p-4, 0x1.6b0b980000000p-4}
, {-0x1.891e760000000p-5, -0x1.c5b1280000000p-6, -0x1.cf28b00000000p-6, 0x1.5c8bf40000000p-7, -0x1.cccef20000000p-4, -0x1.56c15a0000000p-5, 0x1.a3e72e0000000p-4, -0x1.2412140000000p-4, 0x1.16e5060000000p-6, 0x1.ede06c0000000p-5, 0x1.bc47b60000000p-5, -0x1.1ae6940000000p-5, -0x1.5d756e0000000p-4, -0x1.afd7f20000000p-9, -0x1.457a920000000p-3, -0x1.aa383c0000000p-3}
, {0x1.12f60e0000000p-4, 0x1.e59d960000000p-3, -0x1.49ef2e0000000p-8, -0x1.64c15e0000000p-4, 0x1.60ab2c0000000p-4, -0x1.9b5cd60000000p-5, 0x1.ac91ca0000000p-5, -0x1.7e74060000000p-4, -0x1.1e59680000000p-4, 0x1.4a5fd40000000p-6, 0x1.cdc63e0000000p-4, 0x1.5231fe0000000p-5, -0x1.0b69ce0000000p-5, -0x1.fad3720000000p-5, 0x1.ee11f60000000p-4, -0x1.082cc60000000p-3}
}
, {{0x1.968c580000000p-10, -0x1.f529dc0000000p-7, 0x1.7d26f60000000p-4, 0x1.d9895a0000000p-10, -0x1.2d10400000000p-5, 0x1.f456180000000p-5, -0x1.984a7c0000000p-6, -0x1.e403400000000p-4, 0x1.39f00e0000000p-5, 0x1.1875460000000p-6, -0x1.2ac15c0000000p-4, 0x1.9fe9460000000p-6, 0x1.66cafc0000000p-7, 0x1.eed5560000000p-6, -0x1.3fd4940000000p-6, -0x1.de72aa0000000p-7}
, {-0x1.b923e80000000p-5, -0x1.66743e0000000p-5, 0x1.b6f2680000000p-4, -0x1.934d840000000p-5, -0x1.81be240000000p-6, 0x1.f6f94a0000000p-7, 0x1.c0a90c0000000p-5, 0x1.2e78fe0000000p-4, 0x1.536b360000000p-4, 0x1.b1d77c0000000p-4, 0x1.108bdc0000000p-3, 0x1.10f4080000000p-4, 0x1.88f24a0000000p-5, -0x1.7c80be0000000p-4, -0x1.1001660000000p-3, -0x1.93d8540000000p-3}
, {-0x1.0a80e80000000p-4, 0x1.3c12720000000p-4, -0x1.2ae5b00000000p-3, 0x1.167cfe0000000p-6, -0x1.936b9a0000000p-5, -0x1.8cf33a0000000p-4, 0x1.101d380000000p-4, 0x1.599de60000000p-8, 0x1.84cfc20000000p-4, 0x1.aeca780000000p-5, -0x1.0c1b8e0000000p-3, 0x1.21d37c0000000p-5, -0x1.737bda0000000p-5, -0x1.61cd300000000p-9, -0x1.cf061e0000000p-5, -0x1.3d0d080000000p-6}
}
, {{0x1.4409640000000p-4, -0x1.1d1b8e0000000p-4, 0x1.65af360000000p-4, -0x1.eb14520000000p-5, -0x1.4d27c60000000p-3, 0x1.faa31c0000000p-4, 0x1.71aa4e0000000p-6, -0x1.a80f120000000p-4, 0x1.bd13fe0000000p-4, 0x1.a340d80000000p-4, -0x1.a094ec0000000p-4, 0x1.f5ac080000000p-4, 0x1.d3e4640000000p-7, -0x1.78d9880000000p-5, -0x1.8d87520000000p-4, -0x1.c2a7ee0000000p-6}
, {0x1.638c040000000p-4, 0x1.6f41260000000p-4, 0x1.03ca9e0000000p-3, -0x1.7a50540000000p-6, -0x1.cdba240000000p-5, 0x1.4aab300000000p-4, 0x1.78796c0000000p-4, -0x1.fa44380000000p-6, -0x1.48c0880000000p-6, 0x1.8269c00000000p-4, -0x1.61e3fc0000000p-3, 0x1.c7a6220000000p-4, 0x1.2073600000000p-4, 0x1.4806e80000000p-4, 0x1.217b640000000p-5, -0x1.c0c53a0000000p-3}
, {-0x1.36f6a60000000p-5, 0x1.17e1ac0000000p-4, -0x1.6e248c0000000p-5, 0x1.5e1da00000000p-6, -0x1.71376e0000000p-4, 0x1.41f9000000000p-5, -0x1.ffd1e00000000p-6, 0x1.29bf8c0000000p-4, 0x1.c757420000000p-4, 0x1.bfba980000000p-4, -0x1.dabcac0000000p-4, 0x1.2944180000000p-3, -0x1.434efc0000000p-4, 0x1.1ea9be0000000p-4, -0x1.903ffe0000000p-4, -0x1.99e50c0000000p-3}
}
}
, {{{-0x1.b2be1a0000000p-5, 0x1.e10a6e0000000p-4, -0x1.a9433e0000000p-5, -0x1.73d1700000000p-4, -0x1.e964a00000000p-13, -0x1.a149060000000p-5, 0x1.2b7aea0000000p-4, -0x1.07ab4a0000000p-6, -0x1.c3c6a80000000p-7, 0x1.a8dd1e0000000p-5, -0x1.98c8a60000000p-3, 0x1.a1b36e0000000p-7, -0x1.bfd9500000000p-4, 0x1.e8ac000000000p-7, 0x1.36d9ac0000000p-2, 0x1.3d3d6c0000000p-4}
, {-0x1.897c320000000p-4, 0x1.4fd1820000000p-2, 0x1.f49dac0000000p-5, -0x1.d673a60000000p-6, -0x1.12f9fa0000000p-3, -0x1.4714960000000p-3, 0x1.3228e80000000p-4, -0x1.74b9440000000p-3, 0x1.0236980000000p-8, 0x1.34adae0000000p-4, -0x1.dc94fe0000000p-3, 0x1.f048c00000000p-5, -0x1.353c700000000p-4, 0x1.303ee20000000p-4, 0x1.d952d00000000p-6, -0x1.9c24900000000p-4}
, {-0x1.16c67e0000000p-3, -0x1.69db680000000p-8, -0x1.6562640000000p-3, -0x1.6229cc0000000p-4, -0x1.5085320000000p-4, -0x1.43e9080000000p-3, 0x1.1e71580000000p-4, -0x1.7f87660000000p-5, -0x1.bab7c00000000p-6, -0x1.6447ae0000000p-3, -0x1.ff87300000000p-6, 0x1.004ef20000000p-4, 0x1.80e36a0000000p-7, -0x1.b6a3980000000p-5, -0x1.2613a80000000p-5, -0x1.444da40000000p-4}
}
, {{0x1.a8f7de0000000p-5, 0x1.286d9e0000000p-2, 0x1.a737340000000p-4, 0x1.b4f5580000000p-4, 0x1.4187940000000p-2, -0x1.8a394a0000000p-6, 0x1.ae9ea00000000p-5, 0x1.e0e1fa0000000p-6, -0x1.50915c0000000p-7, 0x1.a9c96e0000000p-5, -0x1.c2c87a0000000p-3, 0x1.8d82fe0000000p-5, -0x1.32649a0000000p-5, 0x1.ae25480000000p-3, 0x1.1dc4d60000000p-2, 0x1.7e3a6e0000000p-4}
, {-0x1.891ede0000000p-5, 0x1.60ffa20000000p-2, 0x1.ea9c760000000p-4, 0x1.9ebf600000000p-5, 0x1.7e0bde0000000p-4, 0x1.a672b60000000p-4, -0x1.3100b00000000p-8, 0x1.6b62880000000p-7, -0x1.85bbde0000000p-6, 0x1.193bd60000000p-5, -0x1.135b600000000p-3, 0x1.da678a0000000p-4, 0x1.5a719e0000000p-4, 0x1.1ee4b60000000p-3, 0x1.38113e0000000p-2, 0x1.02969a0000000p-4}
, {0x1.7ece6a0000000p-5, 0x1.324b6c0000000p-4, -0x1.4cb1ec0000000p-5, 0x1.0f5d260000000p-5, 0x1.fde8860000000p-4, 0x1.4f912c0000000p-5, 0x1.fa44280000000p-4, 0x1.3e504c0000000p-4, -0x1.b723480000000p-7, 0x1.0b91420000000p-3, -0x1.4206d80000000p-2, 0x1.2f168e0000000p-5, -0x1.121f740000000p-6, 0x1.6916500000000p-3, 0x1.4e59fe0000000p-4, 0x1.e556e80000000p-6}
}
, {{-0x1.716edc0000000p-4, 0x1.8be8600000000p-4, 0x1.a0baae0000000p-8, -0x1.f7f0160000000p-5, 0x1.61f4c20000000p-3, 0x1.c794980000000p-5, -0x1.03bde20000000p-8, -0x1.dea94c0000000p-7, 0x1.634c7a0000000p-4, -0x1.1b23d40000000p-7, -0x1.5023d40000000p-3, -0x1.42bc320000000p-4, -0x1.e9345c0000000p-5, 0x1.94f79c0000000p-4, 0x1.788dce0000000p-3, 0x1.39e3540000000p-4}
, {0x1.37509e0000000p-6, 0x1.6b6f1e0000000p-2, -0x1.d06d680000000p-6, 0x1.a2de300000000p-5, 0x1.1ad2d80000000p-4, 0x1.26c44a0000000p-4, -0x1.a679c40000000p-4, -0x1.7602f60000000p-4, -0x1.064bf20000000p-5, 0x1.2403ca0000000p-7, -0x1.48249c0000000p-3, -0x1.c37bce0000000p-4, 0x1.f2291e0000000p-5, 0x1.6b01500000000p-3, 0x1.0e72760000000p-2, 0x1.08c29a0000000p-5}
, {0x1.6e62ca0000000p-5, 0x1.1736580000000p-4, 0x1.d4712e0000000p-4, 0x1.93ff4a0000000p-6, 0x1.305cc40000000p-9, 0x1.45b6700000000p-12, 0x1.b15c4c0000000p-6, -0x1.1d659c0000000p-4, 0x1.1fa8ca0000000p-4, -0x1.f4b16e0000000p-5, -0x1.acd94c0000000p-4, -0x1.b025ae0000000p-5, 0x1.bc40be0000000p-4, 0x1.dae5fa0000000p-4, 0x1.3394600000000p-3, 0x1.2a4a5a0000000p-6}
}
}
, {{{0x1.18b5220000000p-5, 0x1.1633100000000p-6, 0x1.3cc6e00000000p-4, 0x1.0273c20000000p-4, -0x1.fd3b340000000p-5, -0x1.7420060000000p-10, 0x1.73d1fc0000000p-4, -0x1.e05f740000000p-7, 0x1.1b5b580000000p-4, 0x1.5de2ba0000000p-6, -0x1.cd1d8a0000000p-5, 0x1.1a99ac0000000p-12, 0x1.5008ba0000000p-5, 0x1.5ed4e80000000p-4, -0x1.e3ebfe0000000p-4, -0x1.4432f60000000p-4}
, {-0x1.aa71120000000p-7, -0x1.abb4220000000p-4, 0x1.40cb0e0000000p-4, 0x1.04c51a0000000p-6, -0x1.1888220000000p-2, 0x1.2ef3e20000000p-5, 0x1.0c13ce0000000p-3, -0x1.35dc0c0000000p-5, 0x1.1554e60000000p-4, -0x1.d60ab20000000p-6, 0x1.34279a0000000p-4, -0x1.bf2e480000000p-5, -0x1.1af3a00000000p-4, 0x1.b063d20000000p-6, -0x1.2b17140000000p-3, -0x1.100e860000000p-2}
, {-0x1.27b1120000000p-3, -0x1.3627360000000p-5, -0x1.fd32740000000p-4, -0x1.e368700000000p-3, -0x1.616e120000000p-6, -0x1.52c1200000000p-3, -0x1.e1361c0000000p-6, -0x1.4abbfa0000000p-3, 0x1.1795640000000p-6, -0x1.16a83c0000000p-4, -0x1.a465080000000p-6, -0x1.a5eb640000000p-4, -0x1.bca3e80000000p-6, -0x1.583f720000000p-10, -0x1.4d140e0000000p-4, 0x1.2e33de0000000p-5}
}
, {{-0x1.f5fe780000000p-6, 0x1.2e3f6c0000000p-3, 0x1.1082320000000p-3, -0x1.3a4fbc0000000p-6, -0x1.365f6e0000000p-4, 0x1.a03e300000000p-5, 0x1.2134080000000p-5, -0x1.e83eec0000000p-6, -0x1.2122a60000000p-4, 0x1.0e5af00000000p-5, -0x1.dd7ade0000000p-4, -0x1.44339a0000000p-9, -0x1.6956460000000p-4, 0x1.56b10c0000000p-3, 0x1.a52b1e0000000p-4, -0x1.6854b60000000p-6}
, {0x1.4b70dc0000000p-4, 0x1.d2aa0c0000000p-4, 0x1.0b1bb60000000p-3, 0x1.42a2380000000p-3, -0x1.7305040000000p-6, 0x1.4414140000000p-5, 0x1.9c78700000000p-4, 0x1.e4e16c0000000p-4, 0x1.6e5f240000000p-4, 0x1.0b62280000000p-3, -0x1.98c6ba0000000p-3, 0x1.7369900000000p-4, 0x1.7b5cc60000000p-4, -0x1.889ed60000000p-8, 0x1.0ca4e40000000p-3, 0x1.194a660000000p-6}
, {-0x1.b688fe0000000p-5, 0x1.83bee20000000p-3, -0x1.0ea9ec0000000p-6, -0x1.c603840000000p-6, 0x1.128df00000000p-7, -0x1.d1580a0000000p-4, -0x1.2b3cc60000000p-5, 0x1.0ed5cc0000000p-4, 0x1.319d540000000p-3, 0x1.c4aaaa0000000p-5, -0x1.a7800e0000000p-3, -0x1.4023820000000p-5, -0x1.ed3d8a0000000p-6, 0x1.e0be380000000p-4, 0x1.5fd8780000000p-4, 0x1.f613da0000000p-5}
}
, {{-0x1.5bd09c0000000p-4, 0x1.80788e0000000p-4, -0x1.4e7cec0000000p-4, -0x1.b418d00000000p-5, 0x1.11d9f40000000p-3, -0x1.b110e00000000p-4, -0x1.ceb7d80000000p-5, -0x1.9d79480000000p-6, 0x1.362e340000000p-7, 0x1.67e1f60000000p-6, -0x1.3c82560000000p-3, -0x1.f783a00000000p-6, 0x1.a25b460000000p-9, 0x1.278fa60000000p-5, 0x1.2a51e60000000p-5, 0x1.d483c00000000p-5}
, {-0x1.25f34e0000000p-4, 0x1.c86cf60000000p-4, 0x1.179c5e0000000p-4, 0x1.16b29c0000000p-4, 0x1.0fc0f20000000p-4, 0x1.87dcb20000000p-4, -0x1.94a30c0000000p-4, 0x1.0b136a0000000p-5, -0x1.4c8ad00000000p-4, -0x1.ba88a20000000p-7, -0x1.f7d0560000000p-6, 0x1.6d9b6c0000000p-5, 0x1.5038d60000000p-5, 0x1.aa6a460000000p-3, 0x1.5da0aa0000000p-5, 0x1.9f642a0000000p-5}
, {0x1.94ddf00000000p-5, 0x1.7680f60000000p-3, 0x1.33c5d80000000p-10, 0x1.1186680000000p-3, 0x1.2b49a00000000p-5, 0x1.5c9bfc0000000p-9, 0x1.b85dde0000000p-5, 0x1.fd9bfe0000000p-6, 0x1.188c7a0000000p-3, -0x1.997a960000000p-8, -0x1.3e2e0a0000000p-3, -0x1.b9d96c0000000p-6, 0x1.f688800000000p-6, 0x1.59efd20000000p-3, 0x1.6850cc0000000p-6, 0x1.1865120000000p-8}
}
}
, {{{0x1.98f99e0000000p-6, 0x1.04192a0000000p-2, -0x1.c11a880000000p-5, 0x1.ca19160000000p-5, -0x1.29383e0000000p-3, 0x1.8bbc3a0000000p-7, 0x1.f7f0d40000000p-4, 0x1.4684980000000p-6, 0x1.3760720000000p-3, 0x1.f209cc0000000p-4, -0x1.b7a3420000000p-5, 0x1.1e4c920000000p-5, 0x1.0dfaf00000000p-4, -0x1.4b1f020000000p-5, 0x1.37dc100000000p-5, -0x1.53de260000000p-3}
, {0x1.be67800000000p-4, 0x1.2b66940000000p-2, 0x1.5281320000000p-5, 0x1.1d333e0000000p-6, -0x1.b1eb5e0000000p-5, 0x1.a350c80000000p-4, -0x1.f3352a0000000p-6, 0x1.911bc00000000p-5, 0x1.3f03f60000000p-4, 0x1.006bd00000000p-3, 0x1.d3a43e0000000p-9, 0x1.a9bf300000000p-5, 0x1.dcd5ce0000000p-4, 0x1.1652d00000000p-4, 0x1.bbc6420000000p-3, 0x1.7815b60000000p-6}
, {0x1.7ba3500000000p-4, 0x1.511fe60000000p-3, 0x1.93292e0000000p-5, 0x1.23e5ae0000000p-4, 0x1.4b5c840000000p-6, 0x1.d0d3160000000p-4, 0x1.fe41f00000000p-14, 0x1.1f684e0000000p-5, 0x1.40eee80000000p-4, 0x1.45ef680000000p-5, 0x1.4c540c0000000p-4, 0x1.fcdb600000000p-6, 0x1.3fc63c0000000p-4, 0x1.2d8c920000000p-4, 0x1.5783520000000p-4, 0x1.2b9ad20000000p-6}
}
, {{0x1.fa31ec0000000p-4, 0x1.dac10c0000000p-3, -0x1.6805b00000000p-8, 0x1.dda4f40000000p-4, 0x1.48ee580000000p-4, -0x1.7bd7a80000000p-6, 0x1.fd7e940000000p-9, 0x1.21ed7e0000000p-5, -0x1.65c66a0000000p-5, -0x1.3289e00000000p-5, -0x1.cdca420000000p-3, 0x1.59e47e0000000p-6, -0x1.1c56d20000000p-5, 0x1.9913180000000p-4, 0x1.18bc3c0000000p-6, -0x1.53d1520000000p-6}
, {0x1.31a6c20000000p-3, 0x1.7fce2c0000000p-2, 0x1.317aec0000000p-3, 0x1.68f60a0000000p-5, 0x1.41f9c80000000p-3, 0x1.3fcb2e0000000p-3, 0x1.30765e0000000p-4, -0x1.0a50080000000p-8, 0x1.de0b0c0000000p-4, 0x1.b066120000000p-4, -0x1.f090f00000000p-5, 0x1.485df80000000p-4, -0x1.499d8a0000000p-5, 0x1.1efaa40000000p-4, 0x1.d450f80000000p-3, 0x1.170ba00000000p-3}
, {-0x1.45b3800000000p-4, 0x1.5cf66e0000000p-3, -0x1.8411b60000000p-4, 0x1.23bc9c0000000p-5, 0x1.9f2a660000000p-3, 0x1.27ad020000000p-3, -0x1.54f96c0000000p-3, 0x1.0b31b60000000p-5, -0x1.71dcac0000000p-4, -0x1.9a3fea0000000p-7, -0x1.3387fc0000000p-2, -0x1.8ea48c0000000p-6, 0x1.a539640000000p-6, 0x1.bd7fc00000000p-4, 0x1.6a37e80000000p-3, -0x1.cea08c0000000p-7}
}
, {{-0x1.4098740000000p-4, 0x1.60f3e60000000p-5, -0x1.35d0020000000p-2, -0x1.26a76a0000000p-3, 0x1.25ab4a0000000p-2, -0x1.aa91580000000p-4, -0x1.961b4c0000000p-3, 0x1.09cc440000000p-9, -0x1.6ae5ee0000000p-4, -0x1.4a3a860000000p-3, -0x1.fd7fda0000000p-3, -0x1.f2392c0000000p-4, 0x1.0dd1780000000p-8, 0x1.0e617e0000000p-4, 0x1.789b160000000p-5, 0x1.8eb4020000000p-4}
, {-0x1.9a76980000000p-4, 0x1.5b773c0000000p-9, -0x1.3f0e2e0000000p-3, -0x1.8d2e5e0000000p-3, 0x1.7eda060000000p-3, -0x1.e183780000000p-3, -0x1.30a4300000000p-2, -0x1.c590460000000p-3, -0x1.0ad5c20000000p-3, -0x1.74ee2c0000000p-4, -0x1.508dce0000000p-4, -0x1.5e23d40000000p-2, -0x1.8547f40000000p-3, 0x1.132dde0000000p-3, 0x1.4040000000000p-3, 0x1.c73af80000000p-3}
, {-0x1.87ed620000000p-3, -0x1.34eff80000000p-2, -0x1.219dc00000000p-2, -0x1.c2469c0000000p-3, 0x1.d0195e0000000p-7, -0x1.266e260000000p-2, -0x1.ea50ac0000000p-4, -0x1.1056d60000000p-2, -0x1.069ede0000000p-2, -0x1.85081e0000000p-3, 0x1.3ebc6c0000000p-7, -0x1.8c8d720000000p-3, -0x1.02b9a00000000p-3, -0x1.ab30e00000000p-3, -0x1.1da05c0000000p-4, -0x1.c2f3640000000p-9}
}
}
, {{{0x1.658f1e0000000p-7, -0x1.5d9f620000000p-3, -0x1.5168a80000000p-4, -0x1.4edd720000000p-4, -0x1.29bd140000000p-6, -0x1.0738580000000p-4, 0x1.21967e0000000p-4, 0x1.2693340000000p-2, 0x1.72ef620000000p-3, 0x1.1c4eba0000000p-3, -0x1.0d58040000000p-7, 0x1.6fb5100000000p-4, 0x1.c93bb80000000p-3, -0x1.94744e0000000p-4, -0x1.59724a0000000p-3, -0x1.27a9160000000p-10}
, {-0x1.67f48a0000000p-3, -0x1.69d5b40000000p-2, -0x1.a7ed6e0000000p-3, -0x1.31ccce0000000p-3, 0x1.c5d6920000000p-6, -0x1.ca97f40000000p-3, -0x1.f74daa0000000p-3, -0x1.1635da0000000p-3, -0x1.2820f00000000p-3, -0x1.1bc47a0000000p-3, 0x1.bcf40c0000000p-4, -0x1.59bd7e0000000p-3, -0x1.f81e520000000p-4, -0x1.96f0180000000p-3, -0x1.08fd500000000p-2, -0x1.f18b8e0000000p-6}
, {0x1.6ed93e0000000p-5, -0x1.1448e60000000p-1, 0x1.41f7160000000p-4, 0x1.3ca5fa0000000p-7, -0x1.29a46c0000000p-2, 0x1.d519380000000p-5, 0x1.d064d80000000p-4, -0x1.96fa4c0000000p-3, -0x1.58c9bc0000000p-5, -0x1.25d3840000000p-5, 0x1.0b85940000000p-2, -0x1.b81ace0000000p-5, -0x1.bb92780000000p-5, -0x1.53807a0000000p-3, -0x1.7ea41e0000000p-2, -0x1.2a67d80000000p-3}
}
, {{-0x1.729cac0000000p-4, -0x1.4fe6200000000p-3, -0x1.77f6f00000000p-3, -0x1.fac9fa0000000p-4, -0x1.dba8b40000000p-4, -0x1.171dea0000000p-3, -0x1.ce8a860000000p-7, 0x1.5971980000000p-2, 0x1.7e532c0000000p-3, 0x1.63fddc0000000p-3, 0x1.aa81900000000p-5, 0x1.e1c3380000000p-5, 0x1.0f05ae0000000p-3, -0x1.5106c60000000p-2, -0x1.5e0f200000000p-3, -0x1.0a0a0c0000000p-7}
, {-0x1.703ec80000000p-6, -0x1.303f520000000p-2, 0x1.cf00780000000p-5, -0x1.f358d00000000p-5, -0x1.4982a60000000p-5, -0x1.d270b60000000p-4, -0x1.fd837a0000000p-5, -0x1.6d133e0000000p-2, -0x1.9eec7e0000000p-4, -0x1.b2b85a0000000p-3, 0x1.6b00240000000p-3, -0x1.7272340000000p-3, -0x1.124a340000000p-4, -0x1.f748c80000000p-3, -0x1.ba4c3a0000000p-2, 0x1.c88d8c0000000p-6}
, {0x1.360e420000000p-3, -0x1.1b6cb40000000p-2, 0x1.72a4a80000000p-3, 0x1.6728620000000p-4, -0x1.a8c62a0000000p-3, 0x1.52bc220000000p-3, 0x1.242da00000000p-5, 0x1.0e48a20000000p-5, 0x1.bc43120000000p-5, 0x1.6253d00000000p-7, 0x1.610e220000000p-4, 0x1.bba87a0000000p-4, 0x1.51eb880000000p-3, -0x1.6430cc0000000p-4, -0x1.9bf1cc0000000p-2, -0x1.11b5ca0000000p-3}
}
, {{-0x1.a3fcf80000000p-4, -0x1.eabbf60000000p-3, -0x1.6bb8ec0000000p-3, -0x1.e1ce220000000p-3, -0x1.cf45160000000p-5, -0x1.a9d73c0000000p-3, -0x1.43ea7c0000000p-3, 0x1.ead4b20000000p-5, -0x1.a7e6f40000000p-5, 0x1.28f5c40000000p-5, 0x1.063cb00000000p-5, -0x1.efdb6e0000000p-4, -0x1.23d8a40000000p-4, -0x1.18b4920000000p-2, -0x1.0741580000000p-3, 0x1.ea0e420000000p-5}
, {0x1.ac21f20000000p-6, -0x1.1abdbe0000000p-2, 0x1.d0e87a0000000p-5, 0x1.ea5f8a0000000p-4, -0x1.e5e8b40000000p-3, -0x1.613d160000000p-6, 0x1.18ef3a0000000p-3, -0x1.d578e20000000p-3, -0x1.1544d20000000p-3, -0x1.92bad60000000p-9, 0x1.a42f680000000p-3, -0x1.d616220000000p-4, -0x1.f2a2ee0000000p-7, -0x1.2a07b60000000p-3, -0x1.5e801e0000000p-3, 0x1.a7af900000000p-5}
, {0x1.3bed0a0000000p-3, -0x1.33d5920000000p-3, 0x1.05766c0000000p-4, 0x1.60aafa0000000p-3, -0x1.78bab00000000p-3, 0x1.16f13c0000000p-5, 0x1.2855940000000p-3, 0x1.1f79020000000p-3, 0x1.2ccd500000000p-3, -0x1.90909c0000000p-11, 0x1.f83d4e0000000p-3, 0x1.620bb80000000p-4, 0x1.4735120000000p-4, -0x1.9c24ee0000000p-5, -0x1.7e292a0000000p-3, -0x1.0d0e700000000p-2}
}
}
, {{{-0x1.9da3260000000p-5, -0x1.9c28320000000p-3, 0x1.8d3ac00000000p-4, 0x1.fb0e980000000p-7, 0x1.2139e40000000p-7, 0x1.1b3dc60000000p-6, -0x1.4ae26e0000000p-5, -0x1.f5d0820000000p-3, -0x1.590fe00000000p-2, -0x1.8115340000000p-3, 0x1.250ee80000000p-3, -0x1.62c9260000000p-2, -0x1.0b029c0000000p-4, 0x1.07d8a60000000p-6, -0x1.198bae0000000p-3, 0x1.13b9b60000000p-4}
, {0x1.2feb700000000p-3, -0x1.870a720000000p-2, 0x1.3fa8ec0000000p-3, 0x1.44b3400000000p-4, -0x1.57c7240000000p-2, 0x1.091a320000000p-3, 0x1.75f4480000000p-3, 0x1.29f8960000000p-4, 0x1.a469720000000p-5, 0x1.32008a0000000p-5, 0x1.bfb4e80000000p-3, 0x1.aaa6200000000p-4, 0x1.8507940000000p-4, -0x1.ac89a80000000p-4, -0x1.6e32ea0000000p-2, -0x1.5f267c0000000p-2}
, {0x1.2aa50c0000000p-4, -0x1.d2213a0000000p-4, 0x1.18ed100000000p-5, 0x1.bd67fa0000000p-4, -0x1.01f1a00000000p-3, 0x1.2b179a0000000p-4, 0x1.6b72e00000000p-4, 0x1.8255060000000p-3, -0x1.c035160000000p-6, 0x1.a3abe40000000p-10, 0x1.affcac0000000p-3, 0x1.83a1320000000p-6, 0x1.2e385e0000000p-12, -0x1.43f8ae0000000p-4, -0x1.d76f2e0000000p-3, -0x1.34bffe0000000p-2}
}
, {{0x1.a244f40000000p-4, -0x1.bdf55e0000000p-3, 0x1.f90c260000000p-6, 0x1.2f97580000000p-3, -0x1.d3846e0000000p-3, 0x1.b689c80000000p-5, 0x1.1d0b840000000p-4, -0x1.6dd5940000000p-2, -0x1.2870f00000000p-3, -0x1.4c0cec0000000p-3, 0x1.6f4a580000000p-2, -0x1.9a26ae0000000p-3, -0x1.3fa3980000000p-5, -0x1.53f0f20000000p-4, -0x1.fb20b00000000p-3, -0x1.b04f220000000p-3}
, {0x1.3926540000000p-3, -0x1.253b300000000p-2, 0x1.f136040000000p-4, 0x1.f131d40000000p-5, -0x1.0350880000000p-1, 0x1.18e6660000000p-3, 0x1.4707c60000000p-6, 0x1.12e2ea0000000p-3, 0x1.5a94f00000000p-10, 0x1.16962a0000000p-3, 0x1.6a92f20000000p-2, 0x1.44e2d40000000p-4, 0x1.0ae3100000000p-3, -0x1.63b6580000000p-3, -0x1.296ff40000000p-2, -0x1.9feaf60000000p-2}
, {-0x1.0f2b800000000p-5, -0x1.fd33740000000p-3, 0x1.6964aa0000000p-6, -0x1.fff5640000000p-6, -0x1.2c62f00000000p-2, 0x1.5aece20000000p-6, -0x1.2cab520000000p-6, 0x1.24ad320000000p-5, -0x1.50a1fa0000000p-5, 0x1.0bb1720000000p-5, 0x1.2fc76c0000000p-2, 0x1.bd85680000000p-6, 0x1.cd04860000000p-5, -0x1.cbc4d00000000p-3, -0x1.5825ea0000000p-2, -0x1.9b687e0000000p-2}
}
, {{-0x1.0240a60000000p-6, -0x1.551fc60000000p-3, 0x1.0cf2c00000000p-3, 0x1.16f0f00000000p-4, -0x1.9d9e900000000p-3, 0x1.7b15b00000000p-9, 0x1.06bf3e0000000p-6, -0x1.280b360000000p-5, -0x1.909d180000000p-4, -0x1.5250140000000p-3, 0x1.0c59380000000p-2, -0x1.12d4860000000p-3, -0x1.1edbf40000000p-5, 0x1.1bc11e0000000p-6, -0x1.8b9e180000000p-4, -0x1.7896920000000p-3}
, {0x1.53744e0000000p-5, -0x1.6c76420000000p-2, -0x1.1b4fb40000000p-8, 0x1.82bcae0000000p-4, -0x1.5872d80000000p-3, 0x1.aa2fc80000000p-5, 0x1.3c2cc20000000p-7, 0x1.901dbe0000000p-4, 0x1.99268e0000000p-6, 0x1.07a8f60000000p-4, 0x1.30c5ce0000000p-3, 0x1.a4996a0000000p-6, -0x1.678ffa0000000p-5, -0x1.0890300000000p-3, -0x1.100c5c0000000p-2, -0x1.2ed0420000000p-2}
, {0x1.5b5c3a0000000p-5, -0x1.69131a0000000p-3, -0x1.0d0cb60000000p-6, -0x1.5c308a0000000p-6, -0x1.3283dc0000000p-2, -0x1.c319e80000000p-5, -0x1.cf86840000000p-7, -0x1.011c1e0000000p-5, -0x1.66873e0000000p-4, 0x1.aa7cf20000000p-7, 0x1.2b151e0000000p-2, -0x1.a11d040000000p-5, -0x1.3c3f6c0000000p-5, -0x1.59f2c60000000p-3, -0x1.e548420000000p-3, -0x1.a19b6e0000000p-3}
}
}
, {{{0x1.1a765c0000000p-4, 0x1.3c403e0000000p-3, 0x1.e7ef600000000p-4, 0x1.58503e0000000p-3, 0x1.0e00480000000p-4, 0x1.46e7a00000000p-5, -0x1.1dc21c0000000p-4, -0x1.5354aa0000000p-3, -0x1.18ab5a0000000p-4, 0x1.a25b8e0000000p-5, -0x1.944b3c0000000p-5, -0x1.ae84220000000p-7, -0x1.b8485c0000000p-5, 0x1.e50f640000000p-3, 0x1.ca18c00000000p-4, -0x1.2330e80000000p-7}
, {0x1.3ece800000000p-5, -0x1.218f800000000p-5, 0x1.18265e0000000p-4, 0x1.4826ea0000000p-4, -0x1.6c0e6c0000000p-5, -0x1.6e829a0000000p-6, 0x1.3f09580000000p-9, 0x1.0eff4a0000000p-3, 0x1.2b56880000000p-2, 0x1.1c2ea00000000p-3, -0x1.6f35780000000p-2, 0x1.cf457c0000000p-3, 0x1.37b3f40000000p-4, 0x1.77bd920000000p-4, 0x1.0bbaf20000000p-4, -0x1.5a27ce0000000p-3}
, {-0x1.aac4220000000p-3, -0x1.67d4da0000000p-6, -0x1.c578ba0000000p-3, -0x1.6a6c1c0000000p-3, -0x1.3f29dc0000000p-3, -0x1.f913040000000p-3, -0x1.27ceac0000000p-5, -0x1.2809760000000p-5, 0x1.4659b00000000p-4, 0x1.4651520000000p-6, -0x1.a0d1c20000000p-7, -0x1.018b1e0000000p-4, -0x1.4b18300000000p-9, -0x1.81ea260000000p-8, -0x1.1193c40000000p-4, -0x1.0b2dc00000000p-9}
}
, {{-0x1.2cf9c40000000p-4, -0x1.ff195e0000000p-6, 0x1.0696d60000000p-6, -0x1.089d4a0000000p-5, -0x1.51b2da0000000p-4, -0x1.3ec8300000000p-4, -0x1.2931060000000p-3, -0x1.daa0340000000p-3, -0x1.d58fc60000000p-3, -0x1.a0ab700000000p-3, 0x1.fc53880000000p-5, -0x1.25dfe80000000p-2, -0x1.1522780000000p-3, 0x1.947e080000000p-6, -0x1.add65e0000000p-4, 0x1.3c12ba0000000p-4}
, {0x1.3562b60000000p-6, 0x1.203f2e0000000p-5, 0x1.e7db140000000p-7, 0x1.e69d460000000p-7, -0x1.a7c4940000000p-4, 0x1.3dee5a0000000p-13, -0x1.2cb2f20000000p-6, -0x1.b15d920000000p-6, 0x1.86aea40000000p-3, 0x1.6d39380000000p-3, -0x1.77e3140000000p-9, 0x1.67c3420000000p-4, 0x1.00573e0000000p-4, 0x1.09f1ee0000000p-4, 0x1.23d12a0000000p-4, 0x1.cc983a0000000p-5}
, {-0x1.a1c32a0000000p-7, -0x1.4ef4a60000000p-4, 0x1.7aae0a0000000p-5, -0x1.bf4bea0000000p-6, 0x1.e483ba0000000p-7, -0x1.cf99b00000000p-4, 0x1.a0004c0000000p-4, 0x1.148e840000000p-5, 0x1.aec1ea0000000p-4, -0x1.ed453c0000000p-6, 0x1.2f33160000000p-6, 0x1.85de2a0000000p-4, -0x1.8328600000000p-5, -0x1.f758c60000000p-6, 0x1.e575fc0000000p-11, -0x1.4556560000000p-3}
}
, {{-0x1.ddfa800000000p-4, 0x1.2d62260000000p-5, -0x1.e3db300000000p-4, 0x1.fc46de0000000p-6, -0x1.40df700000000p-3, 0x1.3cdd340000000p-4, 0x1.005d0a0000000p-5, -0x1.0c22f20000000p-2, -0x1.7ce3640000000p-3, -0x1.22ecbc0000000p-3, 0x1.7ef6460000000p-3, -0x1.7f02f80000000p-4, -0x1.d37fbe0000000p-4, 0x1.66f78a0000000p-5, -0x1.0ad43c0000000p-2, -0x1.c5919e0000000p-8}
, {0x1.31571a0000000p-3, -0x1.21c20c0000000p-6, 0x1.1e881e0000000p-6, 0x1.0da9be0000000p-3, -0x1.4a91c60000000p-4, 0x1.efabfa0000000p-4, 0x1.03b3fe0000000p-4, 0x1.e7ca980000000p-5, 0x1.d4b0c20000000p-8, -0x1.e4fd3a0000000p-6, 0x1.b9786a0000000p-4, 0x1.6028ea0000000p-4, 0x1.0518d40000000p-4, 0x1.07f08c0000000p-3, -0x1.2774680000000p-6, -0x1.01cff20000000p-2}
, {-0x1.ebb98c0000000p-11, 0x1.61f59c0000000p-8, 0x1.3773f80000000p-4, 0x1.d4500c0000000p-7, 0x1.491e2a0000000p-7, 0x1.34824c0000000p-4, -0x1.f291680000000p-4, 0x1.3c80c60000000p-5, 0x1.6888c80000000p-5, 0x1.23293a0000000p-4, -0x1.a6e9980000000p-7, 0x1.b200000000000p-5, 0x1.f717960000000p-6, 0x1.f84d860000000p-8, -0x1.fb2cb00000000p-7, -0x1.4a12ba0000000p-3}
}
}
, {{{0x1.88820e0000000p-9, -0x1.5c2d200000000p-2, 0x1.7f49980000000p-4, 0x1.42db700000000p-5, -0x1.0175a80000000p-3, -0x1.27ea820000000p-5, -0x1.4e408e0000000p-6, 0x1.09a86a0000000p-3, 0x1.bac3e20000000p-5, 0x1.3109c40000000p-3, 0x1.08edc20000000p-4, 0x1.e7d8fc0000000p-6, 0x1.d22ae80000000p-5, -0x1.fe5d400000000p-5, -0x1.031d000000000p-3, -0x1.da2bc80000000p-8}
, {0x1.03990c0000000p-4, -0x1.38d2ae0000000p-2, 0x1.9d0e2a0000000p-5, 0x1.f997080000000p-5, -0x1.d62b700000000p-2, 0x1.097db00000000p-4, 0x1.b6ed9e0000000p-4, 0x1.5586b40000000p-5, -0x1.2fe2bc0000000p-6, 0x1.42c88c0000000p-5, 0x1.0b0c840000000p-3, 0x1.a02cf60000000p-4, 0x1.081fc40000000p-4, 0x1.3d39920000000p-5, -0x1.17de000000000p-2, -0x1.c64f020000000p-2}
, {-0x1.b68d220000000p-6, 0x1.607cc00000000p-4, -0x1.259f500000000p-5, -0x1.0e68380000000p-9, 0x1.11b0fc0000000p-4, 0x1.2949ea0000000p-5, -0x1.71049c0000000p-8, 0x1.d778900000000p-4, 0x1.0118720000000p-5, 0x1.7713580000000p-5, 0x1.d317180000000p-5, -0x1.327d8e0000000p-4, 0x1.5fe2a80000000p-4, 0x1.2543aa0000000p-8, -0x1.0a77f80000000p-4, -0x1.0e133e0000000p-6}
}
, {{-0x1.4d66f40000000p-5, -0x1.ce960c0000000p-4, 0x1.2d308a0000000p-4, 0x1.9f1b960000000p-4, -0x1.285fca0000000p-3, 0x1.424f980000000p-6, -0x1.6cbab20000000p-7, -0x1.70ddae0000000p-6, -0x1.b3455c0000000p-5, 0x1.a78b580000000p-4, -0x1.8cf20c0000000p-5, -0x1.3f442e0000000p-7, 0x1.7a18840000000p-4, -0x1.591bc80000000p-4, -0x1.84bd1e0000000p-3, -0x1.75e0d80000000p-4}
, {0x1.752dfe0000000p-4, -0x1.8dad060000000p-4, 0x1.8827560000000p-4, -0x1.d753780000000p-11, -0x1.2f485c0000000p-2, 0x1.ebb4b80000000p-4, 0x1.03e1a60000000p-5, 0x1.8811220000000p-3, 0x1.0acf840000000p-3, 0x1.21aa1c0000000p-3, 0x1.4d042e0000000p-4, 0x1.2f11500000000p-3, 0x1.c478ce0000000p-4, -0x1.028f3e0000000p-3, -0x1.1efd3a0000000p-2, -0x1.722f7e0000000p-2}
, {-0x1.bd56160000000p-4, -0x1.035dcc0000000p-6, -0x1.468d400000000p-4, -0x1.70b17a0000000p-5, -0x1.6e04740000000p-9, -0x1.c4423a0000000p-3, -0x1.15f32a0000000p-3, 0x1.eb04940000000p-4, -0x1.afec6c0000000p-4, -0x1.cd18ae0000000p-4, -0x1.354ae20000000p-3, -0x1.05e7720000000p-5, 0x1.5e78980000000p-5, -0x1.ae92040000000p-7, -0x1.d3f3460000000p-5, -0x1.9a78980000000p-4}
}
, {{0x1.187df40000000p-7, -0x1.1ae66a0000000p-3, -0x1.4030ea0000000p-4, -0x1.c3f78c0000000p-6, -0x1.3f46e40000000p-3, -0x1.c2aa340000000p-6, -0x1.f2d6180000000p-5, -0x1.32f8a00000000p-6, 0x1.f420dc0000000p-9, 0x1.8c378e0000000p-4, 0x1.320a5e0000000p-4, 0x1.f279aa0000000p-5, 0x1.be111e0000000p-6, -0x1.aec60e0000000p-4, -0x1.fdbb040000000p-6, -0x1.e7ee0a0000000p-3}
, {0x1.c9b1900000000p-4, -0x1.95df460000000p-6, -0x1.10f4e40000000p-4, 0x1.3e32160000000p-3, -0x1.acc24c0000000p-4, 0x1.e6942a0000000p-5, 0x1.5d29880000000p-4, 0x1.71be2a0000000p-4, -0x1.6f4ca60000000p-7, 0x1.d3a8ba0000000p-5, -0x1.3064600000000p-6, -0x1.c05cd40000000p-6, -0x1.3c5f8a0000000p-9, 0x1.56ca000000000p-4, 0x1.376e660000000p-5, -0x1.00a8000000000p-2}
, {-0x1.a0fc880000000p-4, -0x1.5ac49a0000000p-5, -0x1.4d0fae0000000p-3, -0x1.549a640000000p-3, 0x1.7066780000000p-5, -0x1.0acb7a0000000p-3, -0x1.63cb000000000p-4, 0x1.14e2b40000000p-5, 0x1.a92b340000000p-5, 0x1.2f06860000000p-5, -0x1.0617f00000000p-2, 0x1.c999dc0000000p-4, -0x1.2e1aa00000000p-4, -0x1.82d1b00000000p-5, -0x1.525e2c0000000p-4, -0x1.ecc5e20000000p-4}
}
}
