/**
  ******************************************************************************
  * @file    weights/fc.cc
  * @author  Pierre-Emmanuel Novac <penovac@unice.fr>, LEAT, CNRS, Université Côte d'Azur, France
  * @version 1.0.0
  * @date    24 march 2020
  * @brief   Template generating plain C code for the implementation of Convolutional Neural Networks on MCU
  */

#include <stdint.h>

#define INPUT_SAMPLES 128
#define FC_UNITS 10


const float dense_1_bias[FC_UNITS] = {0x1.c21a3a0000000p-5, 0x1.b73d380000000p-11, -0x1.e58ad40000000p-4, -0x1.428fc60000000p-4, -0x1.d571420000000p-4, -0x1.6aa9bc0000000p-7, -0x1.261cba0000000p-3, 0x1.0990900000000p-4, 0x1.ed32060000000p-3, 0x1.9fc24e0000000p-6}
;

const float dense_1_kernel[FC_UNITS][INPUT_SAMPLES] = {{0x1.80d0c40000000p-3, 0x1.8ed7080000000p-4, -0x1.40c61a0000000p-3, -0x1.cc8a220000000p-4, -0x1.3fd9840000000p-3, 0x1.65a7ae0000000p-3, 0x1.0310080000000p-3, -0x1.e51ef80000000p-3, 0x1.949e640000000p-3, 0x1.6299040000000p-3, 0x1.67ac160000000p-4, 0x1.6807b40000000p-5, 0x1.7a6e8a0000000p-5, 0x1.3255180000000p-3, -0x1.1804600000000p-2, 0x1.99d37a0000000p-3, -0x1.4a9cfc0000000p-3, -0x1.5e20f80000000p-6, -0x1.e411560000000p-4, -0x1.510d5a0000000p-2, 0x1.f7d88c0000000p-3, -0x1.80bbda0000000p-3, 0x1.3de8f60000000p-3, 0x1.32359c0000000p-3, -0x1.217f5c0000000p-7, 0x1.066ec40000000p-3, -0x1.52df200000000p-3, -0x1.b12fc60000000p-2, -0x1.513c2c0000000p-5, 0x1.61a0b00000000p-3, 0x1.d3d3800000000p-4, -0x1.0fab700000000p-2, -0x1.c401340000000p-6, 0x1.3a8b9c0000000p-3, -0x1.f69c140000000p-4, 0x1.5178de0000000p-3, 0x1.999d500000000p-3, -0x1.41b5280000000p-4, 0x1.89fb740000000p-3, -0x1.eeb2f20000000p-8, 0x1.e7600c0000000p-4, 0x1.ffa6d80000000p-4, -0x1.06c90c0000000p-2, -0x1.bfea1e0000000p-2, -0x1.b606760000000p-8, -0x1.0836080000000p-4, 0x1.5030e00000000p-3, -0x1.37d4400000000p-2, -0x1.23f5cc0000000p-4, -0x1.6a379c0000000p-2, 0x1.7ccc240000000p-3, -0x1.d215a80000000p-3, -0x1.1a8ed80000000p-3, -0x1.f550ae0000000p-7, -0x1.35025a0000000p-4, -0x1.e8cc880000000p-3, 0x1.7ef9200000000p-3, -0x1.560cbe0000000p-6, -0x1.dda16e0000000p-3, -0x1.173aa00000000p-2, 0x1.ea4a080000000p-7, -0x1.3344e60000000p-3, -0x1.acfee80000000p-2, 0x1.c7a81c0000000p-4, 0x1.74eec60000000p-3, -0x1.60b4b80000000p-3, -0x1.d04d340000000p-3, -0x1.d8198e0000000p-3, 0x1.67f1a60000000p-4, 0x1.274b580000000p-4, -0x1.7b1bd20000000p-3, -0x1.3078f40000000p-2, -0x1.3401e60000000p-4, -0x1.88b8c40000000p-4, 0x1.b4af100000000p-3, 0x1.0ccd1c0000000p-3, -0x1.8370340000000p-2, 0x1.1d7c160000000p-3, -0x1.50e93c0000000p-3, -0x1.7575f60000000p-3, -0x1.7413660000000p-3, -0x1.b4df9e0000000p-4, -0x1.ed25060000000p-4, 0x1.0d5f820000000p-3, -0x1.c457f80000000p-4, -0x1.fb8d760000000p-3, 0x1.a14e220000000p-4, 0x1.33c0700000000p-2, -0x1.88e6e20000000p-3, -0x1.c46bb80000000p-5, 0x1.795d800000000p-4, -0x1.2c2c300000000p-2, 0x1.73fd4e0000000p-3, 0x1.d880380000000p-4, 0x1.f008ba0000000p-4, -0x1.6286560000000p-6, 0x1.85539e0000000p-3, 0x1.76acd60000000p-3, -0x1.30664a0000000p-2, 0x1.188e580000000p-3, -0x1.12f5a20000000p-3, -0x1.79b0700000000p-4, -0x1.55d5a80000000p-4, 0x1.79f1660000000p-4, 0x1.306b7c0000000p-6, 0x1.4e7ed80000000p-8, 0x1.ed4fc60000000p-4, -0x1.607ad40000000p-4, 0x1.053eb00000000p-8, -0x1.cd49980000000p-2, -0x1.9041b60000000p-5, -0x1.2f9f140000000p-3, 0x1.75cfd80000000p-3, 0x1.e7163c0000000p-4, -0x1.c064fa0000000p-2, -0x1.ff33e00000000p-3, -0x1.2a3e620000000p-2, 0x1.b00bdc0000000p-3, -0x1.56ce140000000p-3, -0x1.4be8ca0000000p-3, -0x1.bf7ef80000000p-3, 0x1.b865020000000p-3, -0x1.abadbc0000000p-3, 0x1.403b660000000p-3, 0x1.597af00000000p-3, -0x1.77215e0000000p-3, 0x1.a259a60000000p-3, 0x1.d6c9220000000p-4}
, {-0x1.0c07640000000p-2, -0x1.6445060000000p-2, 0x1.84b3600000000p-4, 0x1.63fa6a0000000p-3, 0x1.448a120000000p-3, -0x1.1512660000000p-3, -0x1.ab15760000000p-3, 0x1.3090d40000000p-3, -0x1.07f0580000000p-2, -0x1.57a6a20000000p-3, 0x1.ab2db80000000p-7, -0x1.e4ab5a0000000p-2, 0x1.23e1f20000000p-3, -0x1.fb0ab60000000p-3, 0x1.7b42a60000000p-3, -0x1.6762580000000p-6, 0x1.2c18fe0000000p-3, 0x1.2cd2340000000p-3, 0x1.5342320000000p-5, -0x1.75b35e0000000p-3, -0x1.2f87d80000000p-3, -0x1.4ed7d80000000p-2, -0x1.fec4dc0000000p-3, -0x1.402a2a0000000p-2, -0x1.46b0160000000p-5, 0x1.2000820000000p-4, 0x1.dd62a60000000p-3, 0x1.dd41fe0000000p-4, 0x1.4827ee0000000p-3, -0x1.3fa8bc0000000p-4, 0x1.9ba2ba0000000p-4, 0x1.cf1f340000000p-4, -0x1.f32c800000000p-4, 0x1.415df60000000p-5, 0x1.8a4f680000000p-3, -0x1.8634860000000p-3, -0x1.79f08e0000000p-3, -0x1.a6fea20000000p-3, -0x1.1ca7a00000000p-2, -0x1.f1f7700000000p-4, 0x1.694c900000000p-3, 0x1.0cdfa00000000p-4, -0x1.7e7ac00000000p-2, -0x1.3c7b9a0000000p-2, 0x1.01bc3e0000000p-3, 0x1.fac9da0000000p-4, 0x1.4478220000000p-3, 0x1.cfe6900000000p-3, 0x1.1ef8100000000p-5, 0x1.53d5da0000000p-7, 0x1.07e14c0000000p-2, -0x1.0be6fe0000000p-4, -0x1.5de70a0000000p-1, 0x1.5c1dca0000000p-4, 0x1.32a66e0000000p-3, 0x1.70a1480000000p-3, -0x1.1ae41e0000000p-2, -0x1.b092620000000p-4, 0x1.8ed5020000000p-4, -0x1.0ee9cc0000000p-2, 0x1.710aec0000000p-4, -0x1.0756340000000p-2, -0x1.a4acb40000000p-3, -0x1.c24c540000000p-2, -0x1.d4aeb60000000p-3, 0x1.23c1360000000p-3, 0x1.8382da0000000p-3, 0x1.ad17160000000p-6, -0x1.5350ae0000000p-2, 0x1.30d0fa0000000p-3, -0x1.92257c0000000p-2, -0x1.e4e02e0000000p-3, 0x1.debfec0000000p-3, -0x1.3d44e40000000p-2, -0x1.22e5800000000p-3, -0x1.25b66e0000000p-3, 0x1.6e01fe0000000p-5, 0x1.6f75a60000000p-4, -0x1.11860e0000000p-3, 0x1.3aabe40000000p-3, -0x1.6b18480000000p-2, -0x1.bf10140000000p-2, -0x1.09cb000000000p-2, 0x1.1ade240000000p-2, 0x1.af599a0000000p-3, -0x1.6c7b460000000p-3, 0x1.4b85040000000p-3, 0x1.4b1eca0000000p-3, 0x1.0628d20000000p-3, -0x1.ba04940000000p-3, -0x1.7fd8f20000000p-3, -0x1.98928c0000000p-12, -0x1.c3e4780000000p-4, 0x1.4908120000000p-3, -0x1.ec65960000000p-4, 0x1.ae8b640000000p-4, -0x1.6358020000000p-2, -0x1.5df6920000000p-3, -0x1.dd00da0000000p-3, -0x1.0486de0000000p-2, 0x1.bf0d5a0000000p-4, -0x1.ee5c480000000p-5, 0x1.8484e00000000p-3, 0x1.671c2a0000000p-3, 0x1.ab66dc0000000p-3, 0x1.193f3e0000000p-4, -0x1.5b994e0000000p-3, 0x1.86ffec0000000p-4, 0x1.5d9ca00000000p-3, 0x1.046da00000000p-4, -0x1.f89aba0000000p-3, -0x1.3bbabc0000000p-3, -0x1.8063260000000p-4, -0x1.293dca0000000p-2, 0x1.e0ab100000000p-4, 0x1.1b86b80000000p-3, -0x1.0f34840000000p-2, -0x1.73aaae0000000p-4, 0x1.d772280000000p-4, 0x1.5133d60000000p-3, 0x1.43e9660000000p-5, -0x1.eb55f00000000p-4, 0x1.2c76820000000p-3, 0x1.fd0cc40000000p-5, -0x1.8d60680000000p-4, 0x1.fa6d220000000p-4, -0x1.b8228e0000000p-2, -0x1.ea9e740000000p-3}
, {-0x1.0d2c4c0000000p-2, 0x1.407d300000000p-3, -0x1.c934780000000p-3, 0x1.6e21ce0000000p-3, -0x1.8a4ccc0000000p-2, -0x1.3d6e300000000p-2, -0x1.3fced60000000p-3, 0x1.1b75200000000p-4, 0x1.fb12c80000000p-4, -0x1.a09f300000000p-12, 0x1.a4f3400000000p-3, -0x1.bc3fd80000000p-3, 0x1.4e04120000000p-3, -0x1.c511de0000000p-3, -0x1.a59a2c0000000p-6, -0x1.1b1c3c0000000p-2, -0x1.af46660000000p-3, -0x1.51e0d20000000p-6, -0x1.67f8560000000p-3, -0x1.41b9d80000000p-4, 0x1.c377c60000000p-3, 0x1.2c181c0000000p-3, 0x1.2403a40000000p-3, -0x1.8f13240000000p-3, 0x1.002f1c0000000p-3, -0x1.92e90a0000000p-2, 0x1.959f6c0000000p-3, -0x1.66123a0000000p-3, 0x1.a8b4040000000p-3, -0x1.d3d5500000000p-4, 0x1.482b6c0000000p-4, -0x1.2c9f5c0000000p-2, -0x1.67e4960000000p-2, 0x1.5f77260000000p-4, -0x1.1d70a00000000p-9, 0x1.5992900000000p-3, -0x1.824a5a0000000p-5, -0x1.8660720000000p-5, -0x1.a386680000000p-5, 0x1.6e5d5a0000000p-3, 0x1.ecda5a0000000p-4, -0x1.1a9e860000000p-2, 0x1.9d07d00000000p-3, -0x1.66e0b80000000p-2, 0x1.bb00c40000000p-7, 0x1.7de7a00000000p-3, 0x1.3127200000000p-3, 0x1.cd57920000000p-10, -0x1.bc724c0000000p-3, -0x1.ed2c240000000p-4, 0x1.b7f6ce0000000p-3, -0x1.7df5de0000000p-2, 0x1.c8ab4a0000000p-4, 0x1.2ea55a0000000p-4, 0x1.5f3f8c0000000p-3, 0x1.2c7e8e0000000p-3, 0x1.01f04e0000000p-3, 0x1.9bf9b00000000p-3, 0x1.e44aaa0000000p-4, -0x1.40b0be0000000p-2, 0x1.025fd40000000p-6, -0x1.b6bb340000000p-3, -0x1.61a9100000000p-8, -0x1.93b3f00000000p-7, -0x1.fbc32c0000000p-3, -0x1.c2da1a0000000p-3, 0x1.e4cb480000000p-3, -0x1.2772960000000p-2, 0x1.161d920000000p-4, -0x1.3487660000000p-2, -0x1.ead9ec0000000p-5, -0x1.1bf29e0000000p-3, -0x1.8a51b60000000p-3, 0x1.6535bc0000000p-3, 0x1.2dbc740000000p-3, -0x1.267d660000000p-2, -0x1.30c2cc0000000p-4, -0x1.02929a0000000p-2, 0x1.02012c0000000p-3, -0x1.906e380000000p-2, -0x1.d7b8020000000p-3, 0x1.afcb440000000p-4, -0x1.373c6e0000000p-5, -0x1.672d7c0000000p-3, -0x1.2890560000000p-2, 0x1.e733240000000p-3, -0x1.63308e0000000p-2, 0x1.6498d80000000p-3, 0x1.0a43f00000000p-4, -0x1.f0cbfc0000000p-7, 0x1.240be80000000p-3, 0x1.05058e0000000p-6, -0x1.84fb560000000p-7, -0x1.c5b3cc0000000p-3, -0x1.87c05c0000000p-3, 0x1.25f4c40000000p-4, 0x1.8408980000000p-4, 0x1.fb89940000000p-4, -0x1.ede4360000000p-4, 0x1.62d5b60000000p-4, 0x1.f38ac00000000p-5, 0x1.30f19a0000000p-3, 0x1.99c7980000000p-3, 0x1.55f8c40000000p-3, 0x1.ad71220000000p-3, -0x1.d052f00000000p-4, 0x1.5a48700000000p-4, -0x1.041c340000000p-1, 0x1.35cae00000000p-4, 0x1.82ff2e0000000p-5, 0x1.f301000000000p-4, 0x1.5f31560000000p-3, -0x1.5596c00000000p-2, 0x1.4f897c0000000p-4, 0x1.031c8e0000000p-3, 0x1.61b0400000000p-4, -0x1.3844a00000000p-3, 0x1.4b449c0000000p-3, 0x1.e132360000000p-4, -0x1.73b5060000000p-4, -0x1.a9fbbc0000000p-3, 0x1.21a2580000000p-3, 0x1.50497a0000000p-3, -0x1.f0c1ea0000000p-3, -0x1.35c67a0000000p-4, 0x1.9d103c0000000p-4, 0x1.f8c7280000000p-4, 0x1.08fe140000000p-3}
, {0x1.7c15360000000p-3, -0x1.dd19320000000p-4, -0x1.076f8c0000000p-3, -0x1.09b2500000000p-2, -0x1.f637d20000000p-3, 0x1.08a44c0000000p-4, -0x1.f88c260000000p-3, 0x1.0e78ee0000000p-3, -0x1.cd27aa0000000p-3, -0x1.4b875e0000000p-3, -0x1.3033040000000p-5, 0x1.1549a00000000p-3, 0x1.20be4a0000000p-3, -0x1.ea713a0000000p-5, -0x1.1fa3ca0000000p-3, -0x1.55d7660000000p-3, -0x1.2d16f00000000p-2, 0x1.c57adc0000000p-3, -0x1.7c4bba0000000p-3, 0x1.8698760000000p-2, -0x1.4ed1a40000000p-3, 0x1.6f0b780000000p-3, 0x1.e264200000000p-4, -0x1.bb444c0000000p-3, -0x1.e26f520000000p-3, 0x1.ebf4ac0000000p-4, -0x1.70090e0000000p-3, 0x1.2cff700000000p-3, 0x1.03650a0000000p-4, -0x1.bfbac40000000p-4, 0x1.d212660000000p-4, -0x1.492f160000000p-3, -0x1.00fe5a0000000p-2, -0x1.aa4fce0000000p-5, -0x1.4b15880000000p-2, -0x1.1828b00000000p-2, -0x1.a353ac0000000p-2, 0x1.8e721e0000000p-3, 0x1.cf46ac0000000p-4, -0x1.11aa680000000p-9, 0x1.4adda00000000p-3, -0x1.82af260000000p-2, 0x1.d9a3c80000000p-4, 0x1.986b760000000p-4, 0x1.e770700000000p-7, -0x1.32a2720000000p-5, -0x1.0c40c60000000p-3, 0x1.94bc2e0000000p-6, -0x1.b886ae0000000p-3, 0x1.8cf2480000000p-3, -0x1.aa71700000000p-4, -0x1.1e7a600000000p-2, -0x1.83b2ce0000000p-3, 0x1.f2492a0000000p-5, 0x1.4f1b940000000p-3, 0x1.e5a7a40000000p-4, -0x1.016c800000000p-7, 0x1.ee10200000000p-4, -0x1.1ede5a0000000p-2, 0x1.36a5ba0000000p-3, 0x1.211e2e0000000p-6, 0x1.8ab6ca0000000p-3, 0x1.4b42560000000p-6, -0x1.c669460000000p-3, 0x1.2ed8520000000p-3, -0x1.c7f2c60000000p-5, 0x1.aac7840000000p-3, -0x1.0e4b6a0000000p-2, -0x1.6bcefa0000000p-6, -0x1.96ccf40000000p-3, -0x1.15ba8c0000000p-4, 0x1.5b4f260000000p-4, -0x1.ff8ba60000000p-5, 0x1.1da9740000000p-3, -0x1.bae4ae0000000p-4, -0x1.62c5ae0000000p-4, 0x1.d33ece0000000p-4, 0x1.a5119c0000000p-3, 0x1.65a0620000000p-3, -0x1.34d4400000000p-2, 0x1.74eb5e0000000p-3, -0x1.d5d35a0000000p-3, 0x1.2862900000000p-3, 0x1.a232820000000p-5, -0x1.abe8500000000p-4, -0x1.3a2e220000000p-7, -0x1.55e74e0000000p-3, -0x1.487fba0000000p-4, 0x1.aa4cc60000000p-3, 0x1.362eb40000000p-3, -0x1.b754b80000000p-5, 0x1.08d6260000000p-5, 0x1.60533c0000000p-3, -0x1.2124860000000p-4, -0x1.6573400000000p-2, -0x1.1448ea0000000p-2, 0x1.46b5180000000p-3, 0x1.8673e40000000p-4, -0x1.6ddfb60000000p-3, 0x1.25d0620000000p-3, -0x1.69ebe80000000p-5, 0x1.5181d60000000p-3, -0x1.be4ed20000000p-3, 0x1.0f3dc20000000p-3, -0x1.9644fe0000000p-4, 0x1.28344c0000000p-3, -0x1.f334840000000p-4, -0x1.5bc3e20000000p-3, -0x1.7043540000000p-2, 0x1.7266260000000p-3, 0x1.42e76c0000000p-3, 0x1.349b9c0000000p-3, -0x1.6907320000000p-3, -0x1.984ec40000000p-3, 0x1.ae5fc00000000p-4, 0x1.ee6d020000000p-4, 0x1.312e820000000p-3, 0x1.c6e3860000000p-4, -0x1.9f41800000000p-3, 0x1.c9e38c0000000p-3, -0x1.5d61620000000p-3, -0x1.e15bf20000000p-4, 0x1.366e9e0000000p-3, 0x1.20fbf20000000p-3, -0x1.071cfe0000000p-2, -0x1.c8271e0000000p-3, -0x1.c463a80000000p-4, 0x1.0dc8860000000p-5}
, {-0x1.231dbc0000000p-4, 0x1.25005a0000000p-3, 0x1.11d93e0000000p-2, -0x1.4d1f780000000p-5, 0x1.e76b260000000p-7, -0x1.7e3a500000000p-3, -0x1.2349a40000000p-2, -0x1.224e0e0000000p-4, 0x1.5b2d7e0000000p-3, -0x1.b754260000000p-4, 0x1.3fe71c0000000p-8, -0x1.07aee60000000p-2, -0x1.928c540000000p-7, 0x1.d7a0b00000000p-3, 0x1.9467de0000000p-3, -0x1.43f2ba0000000p-3, 0x1.4c69e60000000p-3, 0x1.8198ac0000000p-3, 0x1.5447f00000000p-5, -0x1.2760660000000p-3, -0x1.a2084e0000000p-5, -0x1.486c8e0000000p-3, -0x1.b0546c0000000p-2, 0x1.b9a2400000000p-3, -0x1.a27faa0000000p-3, -0x1.d006020000000p-3, -0x1.3bc0aa0000000p-6, 0x1.5c07aa0000000p-6, 0x1.652c660000000p-3, 0x1.31d0660000000p-2, -0x1.828bfc0000000p-2, 0x1.83cc720000000p-4, 0x1.c6846e0000000p-4, 0x1.c15e220000000p-5, 0x1.501b0a0000000p-3, 0x1.748ae40000000p-4, 0x1.2645b40000000p-5, -0x1.592aaa0000000p-3, 0x1.26ac5c0000000p-3, -0x1.ad24400000000p-3, -0x1.7c5fa20000000p-2, -0x1.4af9e60000000p-2, -0x1.aa8bfc0000000p-3, 0x1.8dfc1a0000000p-4, 0x1.838eac0000000p-4, -0x1.3368180000000p-3, -0x1.1e1dfc0000000p-4, 0x1.701bd00000000p-3, -0x1.2ea22a0000000p-5, -0x1.9bf9160000000p-3, -0x1.922ede0000000p-2, -0x1.2c1da00000000p-5, 0x1.95ed780000000p-4, 0x1.1fceaa0000000p-4, 0x1.7ac9ea0000000p-9, -0x1.8621bc0000000p-3, -0x1.f11dda0000000p-2, -0x1.d3ee5c0000000p-3, -0x1.d948ec0000000p-3, -0x1.f0dbfe0000000p-3, 0x1.dd1bbe0000000p-5, 0x1.5367760000000p-3, 0x1.04ab9a0000000p-5, -0x1.3497080000000p-3, 0x1.88e2640000000p-3, 0x1.3bdb500000000p-3, -0x1.e07a980000000p-3, -0x1.9785480000000p-3, -0x1.49aba00000000p-2, 0x1.36d9e20000000p-5, 0x1.9a90a60000000p-3, -0x1.e3f79a0000000p-4, -0x1.1ae3da0000000p-3, -0x1.c795c40000000p-3, 0x1.1f6c9c0000000p-2, 0x1.3545a00000000p-3, 0x1.aba5f40000000p-5, -0x1.55f6500000000p-3, -0x1.0891de0000000p-2, 0x1.0a65260000000p-3, 0x1.6a25aa0000000p-3, 0x1.97bee00000000p-3, -0x1.6855aa0000000p-3, -0x1.5294240000000p-2, 0x1.06d30c0000000p-3, -0x1.0291700000000p-2, -0x1.14b68c0000000p-2, 0x1.1c6ee60000000p-5, 0x1.8231b60000000p-3, -0x1.f6bf220000000p-6, -0x1.7c5ae20000000p-4, 0x1.2508560000000p-4, -0x1.04bd240000000p-2, -0x1.2fd2640000000p-4, 0x1.4b5b6c0000000p-3, 0x1.ba36b20000000p-4, -0x1.2802460000000p-4, 0x1.226e900000000p-6, 0x1.323c2e0000000p-3, 0x1.e7eb420000000p-4, 0x1.37b0280000000p-3, -0x1.18ca180000000p-3, 0x1.0af6f20000000p-3, -0x1.7e99620000000p-2, 0x1.5d896a0000000p-3, 0x1.20e1280000000p-3, 0x1.7bfe480000000p-6, -0x1.0ad79c0000000p-3, 0x1.6bff180000000p-3, 0x1.1fd3020000000p-3, 0x1.c251ec0000000p-3, -0x1.c7f3ea0000000p-3, 0x1.44fe500000000p-4, -0x1.4aca0e0000000p-3, 0x1.f2976c0000000p-4, -0x1.0e3d9a0000000p-6, -0x1.1975600000000p-4, -0x1.a5ffbc0000000p-4, 0x1.0122940000000p-3, -0x1.0013860000000p-2, 0x1.86cf400000000p-3, -0x1.58e0260000000p-6, -0x1.cd7ef00000000p-3, -0x1.0000be0000000p-1, 0x1.d6d1c20000000p-3, -0x1.2f03d20000000p-4, 0x1.4f45d60000000p-3, -0x1.7a94ca0000000p-2}
, {-0x1.e0371e0000000p-3, -0x1.abc5da0000000p-8, -0x1.2c17960000000p-3, -0x1.898a060000000p-5, 0x1.69ede20000000p-3, 0x1.492c540000000p-4, 0x1.49bc7a0000000p-3, -0x1.e45f420000000p-3, -0x1.1c8b4e0000000p-5, 0x1.8a94140000000p-3, 0x1.d5d7660000000p-7, 0x1.3d11f00000000p-3, 0x1.b0e9580000000p-4, -0x1.194ef00000000p-3, -0x1.29c4460000000p-2, -0x1.f45f2c0000000p-6, 0x1.3961580000000p-3, 0x1.aee1500000000p-3, 0x1.7fc7f80000000p-3, -0x1.13dd0a0000000p-3, -0x1.22e75a0000000p-8, 0x1.d23b720000000p-4, 0x1.94bd640000000p-4, -0x1.0608180000000p-2, -0x1.28ad4e0000000p-3, 0x1.3f6dea0000000p-3, -0x1.96f9f60000000p-4, 0x1.7ae9060000000p-3, 0x1.9d90480000000p-3, 0x1.170dbc0000000p-4, 0x1.1d09a60000000p-3, 0x1.1883020000000p-3, 0x1.b4b9460000000p-4, 0x1.52a5b00000000p-3, -0x1.2912c60000000p-3, -0x1.10de4c0000000p-4, -0x1.41f3ac0000000p-3, 0x1.a2435c0000000p-3, -0x1.7e34080000000p-3, -0x1.317a8e0000000p-3, 0x1.f708700000000p-5, -0x1.01e7480000000p-3, -0x1.c5e56c0000000p-4, 0x1.6bd72e0000000p-4, 0x1.b96bec0000000p-5, -0x1.2eea280000000p-6, -0x1.964d580000000p-5, 0x1.4d28740000000p-6, 0x1.98d4a00000000p-4, 0x1.5ba1600000000p-3, 0x1.829f3a0000000p-4, 0x1.77dafc0000000p-3, 0x1.7360dc0000000p-4, -0x1.1efac20000000p-2, 0x1.0339ec0000000p-4, -0x1.2778380000000p-3, 0x1.4ef68a0000000p-3, -0x1.f1d0fa0000000p-4, -0x1.0a06a20000000p-2, 0x1.2128e40000000p-3, -0x1.f5f73e0000000p-2, 0x1.9ba68c0000000p-3, 0x1.2b38f80000000p-5, -0x1.34c87a0000000p-3, -0x1.8fcdb40000000p-3, -0x1.80fdd40000000p-3, -0x1.169b020000000p-5, 0x1.7b55480000000p-4, 0x1.9587440000000p-4, -0x1.7a0ce60000000p-3, -0x1.6d57cc0000000p-3, 0x1.608e5e0000000p-4, -0x1.44b36a0000000p-4, -0x1.1fe9c40000000p-6, -0x1.e911740000000p-4, -0x1.6dd5960000000p-4, -0x1.11ae9c0000000p-2, 0x1.7680800000000p-3, 0x1.96868a0000000p-4, -0x1.6140340000000p-3, 0x1.2456300000000p-3, -0x1.b9f1000000000p-5, -0x1.84b28e0000000p-3, 0x1.42b7700000000p-3, -0x1.f5881a0000000p-3, 0x1.1595fa0000000p-2, 0x1.6a3cce0000000p-3, -0x1.8f697a0000000p-4, 0x1.4670c60000000p-4, -0x1.1d23d00000000p-2, -0x1.121f480000000p-2, -0x1.7d6d4a0000000p-3, 0x1.8af2740000000p-3, 0x1.0446f00000000p-3, 0x1.9284040000000p-4, -0x1.4a5f700000000p-2, 0x1.1b25960000000p-3, -0x1.349c340000000p-2, -0x1.791d800000000p-3, -0x1.83f18c0000000p-3, -0x1.2290f00000000p-2, -0x1.673f140000000p-3, -0x1.fb1cee0000000p-4, 0x1.3d17600000000p-7, 0x1.1aa6d60000000p-5, -0x1.2a8e920000000p-2, 0x1.2cab140000000p-3, 0x1.903fae0000000p-3, -0x1.92e77e0000000p-2, 0x1.49a7380000000p-3, -0x1.ba58260000000p-3, 0x1.f873000000000p-5, 0x1.9d218c0000000p-4, 0x1.7fe64c0000000p-4, -0x1.b519a80000000p-3, -0x1.cb10060000000p-3, -0x1.f2bc100000000p-4, 0x1.80bc5e0000000p-9, -0x1.4edc0c0000000p-2, -0x1.ae8ca60000000p-3, 0x1.6b55aa0000000p-3, 0x1.f8250e0000000p-3, -0x1.6a04000000000p-2, 0x1.0aa6b00000000p-3, -0x1.1be3ae0000000p-2, 0x1.cbe1820000000p-4, -0x1.17b2720000000p-4, -0x1.dad9160000000p-4}
, {-0x1.5d92ce0000000p-3, -0x1.412f8e0000000p-3, 0x1.16a0220000000p-3, -0x1.130f100000000p-3, 0x1.e7f8e80000000p-4, -0x1.39566e0000000p-4, 0x1.ad5ac60000000p-3, -0x1.9c2ad00000000p-2, 0x1.7ff0560000000p-6, 0x1.13dd000000000p-3, -0x1.74fdbc0000000p-3, 0x1.325c040000000p-3, 0x1.4f1ed20000000p-3, 0x1.f4811a0000000p-3, -0x1.4c76dc0000000p-3, 0x1.2eac600000000p-3, 0x1.bb6b9a0000000p-4, -0x1.16c3ee0000000p-2, -0x1.cc43d00000000p-3, 0x1.c8757c0000000p-3, -0x1.40f41a0000000p-5, 0x1.65a05a0000000p-3, -0x1.8495700000000p-3, -0x1.76374c0000000p-3, 0x1.d03d4a0000000p-4, 0x1.30c3640000000p-5, 0x1.05f5a80000000p-2, -0x1.1402be0000000p-2, 0x1.6020660000000p-3, 0x1.44c8900000000p-2, 0x1.04b24e0000000p-3, 0x1.ab57aa0000000p-4, 0x1.3b5e6c0000000p-3, -0x1.4ef7ea0000000p-3, 0x1.4098a20000000p-4, -0x1.aa95ca0000000p-3, -0x1.ee7cfa0000000p-3, -0x1.e8006e0000000p-3, 0x1.c7aa400000000p-3, -0x1.e13cbe0000000p-2, 0x1.d084080000000p-7, -0x1.5ac6340000000p-3, 0x1.b8fee20000000p-4, -0x1.ddef420000000p-2, 0x1.3f79140000000p-5, 0x1.2338980000000p-3, 0x1.db04840000000p-4, -0x1.c412da0000000p-4, 0x1.2365a20000000p-3, -0x1.104f320000000p-2, 0x1.d04ea00000000p-7, 0x1.a6a83a0000000p-3, 0x1.9c31240000000p-4, -0x1.b47f3c0000000p-3, -0x1.e8e76e0000000p-2, -0x1.479e6e0000000p-2, 0x1.c968d20000000p-5, 0x1.44d7440000000p-3, -0x1.325b8a0000000p-2, -0x1.028fce0000000p-14, -0x1.c096ac0000000p-2, -0x1.6ff75e0000000p-4, -0x1.30c1c20000000p-1, 0x1.75fa920000000p-4, 0x1.60f36e0000000p-3, -0x1.5833360000000p-2, -0x1.4965ee0000000p-3, -0x1.4175780000000p-2, 0x1.3185840000000p-3, -0x1.5ebdca0000000p-4, 0x1.a607ca0000000p-3, -0x1.5ca3440000000p-2, -0x1.7d6aa00000000p-3, -0x1.3286160000000p-2, -0x1.442fb40000000p-3, 0x1.4f3a400000000p-3, -0x1.a48f3a0000000p-3, 0x1.91f9a60000000p-3, -0x1.45704a0000000p-2, 0x1.64f44a0000000p-4, 0x1.e8a9780000000p-6, 0x1.4355840000000p-3, -0x1.3a51ea0000000p-2, -0x1.ef2d980000000p-6, -0x1.62c38a0000000p-5, -0x1.51fbc20000000p-5, -0x1.6d27ba0000000p-3, 0x1.4521180000000p-4, 0x1.57c45e0000000p-3, 0x1.bb27bc0000000p-3, -0x1.5199a80000000p-2, -0x1.26d5120000000p-3, -0x1.2c61d60000000p-5, 0x1.293c8a0000000p-3, -0x1.22eebc0000000p-3, 0x1.4b45b80000000p-4, 0x1.6ae9bc0000000p-3, -0x1.f0cb660000000p-3, 0x1.57632a0000000p-3, 0x1.8732620000000p-6, -0x1.bb2db80000000p-3, -0x1.48c9ac0000000p-2, 0x1.a223a00000000p-3, -0x1.6e0e640000000p-3, 0x1.9fc6b40000000p-3, -0x1.3f4f940000000p-2, -0x1.5a20dc0000000p-2, 0x1.eb5a0e0000000p-4, -0x1.6cc7a60000000p-4, -0x1.60c3300000000p-3, -0x1.f757b40000000p-3, 0x1.0745dc0000000p-3, 0x1.edb4c00000000p-3, 0x1.03999e0000000p-3, -0x1.484dbc0000000p-4, -0x1.589e9e0000000p-2, -0x1.a1323e0000000p-3, 0x1.2f33400000000p-3, 0x1.0bb4160000000p-3, -0x1.1e21aa0000000p-2, -0x1.a550bc0000000p-2, -0x1.d41c9e0000000p-6, -0x1.19027c0000000p-2, -0x1.941a220000000p-4, -0x1.7bcdb80000000p-4, 0x1.c3c9d80000000p-4, -0x1.47dc3a0000000p-3, -0x1.b5e8740000000p-3}
, {-0x1.438f840000000p-3, 0x1.4cda6e0000000p-3, -0x1.815fdc0000000p-2, 0x1.42b0a20000000p-5, -0x1.b6399c0000000p-4, -0x1.c7e0bc0000000p-4, -0x1.2a0f340000000p-3, 0x1.d80dfa0000000p-3, -0x1.f3acb40000000p-4, -0x1.318f7a0000000p-3, 0x1.7a89da0000000p-3, -0x1.44d7580000000p-3, -0x1.0617cc0000000p-2, 0x1.2e5e700000000p-5, 0x1.7434000000000p-3, 0x1.aded460000000p-3, -0x1.4ad7920000000p-3, 0x1.4f42f40000000p-3, -0x1.2ef85c0000000p-2, -0x1.b70dce0000000p-3, -0x1.e21c3c0000000p-3, 0x1.0198e00000000p-4, 0x1.cc0a440000000p-4, -0x1.9b1c280000000p-4, -0x1.190ab60000000p-2, -0x1.72f5540000000p-2, 0x1.bc04460000000p-6, 0x1.a9431e0000000p-5, -0x1.fba5900000000p-4, 0x1.90f63e0000000p-5, -0x1.2680fe0000000p-2, -0x1.8fa3000000000p-4, -0x1.d7352c0000000p-3, 0x1.3593dc0000000p-2, -0x1.0af5580000000p-3, 0x1.2aa17e0000000p-3, -0x1.ed40240000000p-4, 0x1.6266580000000p-3, -0x1.b08c200000000p-3, 0x1.4782b00000000p-3, 0x1.55d5b40000000p-3, 0x1.3efdaa0000000p-4, -0x1.b92db80000000p-5, 0x1.d187e00000000p-7, -0x1.0def8a0000000p-3, -0x1.fb3a820000000p-3, -0x1.3612c80000000p-3, -0x1.ecb4760000000p-4, 0x1.8614e60000000p-3, -0x1.97b6780000000p-3, 0x1.ea542a0000000p-5, -0x1.2fe5640000000p-3, -0x1.d96b0c0000000p-3, 0x1.ce36980000000p-5, 0x1.833f080000000p-3, 0x1.6598560000000p-3, -0x1.eafeae0000000p-4, 0x1.b6e36c0000000p-3, 0x1.526b0e0000000p-3, -0x1.06079a0000000p-7, 0x1.c04d400000000p-5, -0x1.6c73e60000000p-3, -0x1.79806c0000000p-10, 0x1.acb21a0000000p-4, 0x1.8db76c0000000p-4, 0x1.143ada0000000p-3, 0x1.c9b8120000000p-3, -0x1.327ece0000000p-2, -0x1.314bee0000000p-2, 0x1.9b57220000000p-4, -0x1.d3f92e0000000p-3, 0x1.12b9d40000000p-4, 0x1.8c21200000000p-4, -0x1.90397c0000000p-5, 0x1.a4c0ce0000000p-5, -0x1.d67fc40000000p-3, -0x1.5ea92c0000000p-5, 0x1.e568980000000p-5, -0x1.9676480000000p-6, -0x1.a032a00000000p-3, -0x1.2ea4600000000p-2, -0x1.e06f480000000p-4, 0x1.5912120000000p-3, -0x1.4b23180000000p-3, -0x1.049dce0000000p-2, -0x1.049f3e0000000p-2, 0x1.031c1a0000000p-3, -0x1.d354900000000p-4, 0x1.09ed0c0000000p-8, -0x1.c72c320000000p-3, 0x1.264c480000000p-3, 0x1.1d82c40000000p-2, -0x1.ace9480000000p-3, 0x1.c4ddb00000000p-3, 0x1.63e9120000000p-3, 0x1.2c8d0a0000000p-9, -0x1.61bbee0000000p-2, 0x1.1df21e0000000p-4, 0x1.58d7160000000p-3, 0x1.2183a20000000p-3, -0x1.aa0a300000000p-3, -0x1.a950ca0000000p-3, 0x1.04a1b60000000p-5, -0x1.c6b9600000000p-5, -0x1.eb82f20000000p-3, -0x1.8a048c0000000p-3, 0x1.7793d20000000p-3, -0x1.20dea80000000p-3, -0x1.bedc2a0000000p-3, -0x1.483d7a0000000p-3, 0x1.9540be0000000p-3, 0x1.4097fa0000000p-7, -0x1.3b3bf40000000p-6, -0x1.753f4c0000000p-3, 0x1.201a840000000p-3, -0x1.1d18500000000p-4, 0x1.4256380000000p-3, -0x1.47114c0000000p-2, 0x1.28e7060000000p-3, 0x1.ddc2780000000p-3, 0x1.49aefe0000000p-3, -0x1.4d39600000000p-2, 0x1.62aa640000000p-3, -0x1.425c220000000p-2, 0x1.bf0b360000000p-4, -0x1.8b92620000000p-3, -0x1.ad85ca0000000p-3, 0x1.30be760000000p-4}
, {0x1.b6f1b80000000p-3, 0x1.8dbd2e0000000p-8, 0x1.7afbb20000000p-3, -0x1.32e9a20000000p-2, 0x1.2f47e20000000p-3, 0x1.a7b1a60000000p-4, 0x1.10b0ce0000000p-3, -0x1.9a9b680000000p-3, -0x1.93777a0000000p-3, 0x1.5ac3260000000p-3, -0x1.3757320000000p-2, 0x1.7bf4960000000p-4, -0x1.3409540000000p-4, 0x1.42aa8c0000000p-5, 0x1.581de40000000p-3, -0x1.ec46a40000000p-3, 0x1.6069ca0000000p-4, -0x1.bc6b0e0000000p-3, 0x1.775c7e0000000p-3, -0x1.5df3ee0000000p-4, 0x1.4502d00000000p-3, 0x1.391e500000000p-3, 0x1.32c3000000000p-4, -0x1.d3cbec0000000p-5, -0x1.a1b0100000000p-3, -0x1.555c1a0000000p-5, 0x1.294d7e0000000p-3, -0x1.708eda0000000p-3, -0x1.bdec180000000p-4, -0x1.538c7a0000000p-3, 0x1.2ac0840000000p-3, 0x1.263bbe0000000p-3, -0x1.72ef7a0000000p-3, 0x1.bcf12c0000000p-5, 0x1.a884820000000p-7, -0x1.73db2a0000000p-5, 0x1.1aba720000000p-6, -0x1.f2252a0000000p-6, -0x1.37f7e80000000p-2, 0x1.2ee5a80000000p-3, -0x1.11b6660000000p-3, -0x1.0dc56a0000000p-2, 0x1.40489c0000000p-3, 0x1.0cdaf40000000p-4, -0x1.6994680000000p-3, 0x1.24221e0000000p-3, 0x1.3a07fc0000000p-3, -0x1.0b30400000000p-3, -0x1.03a0ee0000000p-6, -0x1.7110e20000000p-3, -0x1.9524460000000p-3, 0x1.5268b60000000p-3, 0x1.f3f17e0000000p-4, -0x1.c710f20000000p-3, 0x1.4169a20000000p-3, 0x1.487d300000000p-4, -0x1.6edacc0000000p-2, -0x1.8553320000000p-3, -0x1.c700780000000p-4, 0x1.16dc2c0000000p-3, 0x1.73f4080000000p-5, -0x1.69fdb20000000p-3, 0x1.f895600000000p-8, -0x1.84adde0000000p-3, -0x1.b60bdc0000000p-3, 0x1.ec1a6c0000000p-4, -0x1.d540f40000000p-4, -0x1.2a25520000000p-3, 0x1.88e5960000000p-4, 0x1.e5a2460000000p-4, 0x1.69743c0000000p-6, 0x1.f36d640000000p-5, -0x1.c0350c0000000p-3, 0x1.5af9540000000p-3, -0x1.b34fc60000000p-3, 0x1.fc6f000000000p-5, -0x1.724a860000000p-2, 0x1.2223f00000000p-4, 0x1.46f2dc0000000p-3, 0x1.c399f00000000p-4, 0x1.dc50420000000p-5, 0x1.31d0ea0000000p-3, 0x1.dc82ce0000000p-3, -0x1.3dd1580000000p-2, 0x1.71a9140000000p-3, -0x1.4959fc0000000p-4, 0x1.e8c64e0000000p-5, -0x1.0bf9940000000p-3, -0x1.e972740000000p-3, -0x1.1090a80000000p-2, -0x1.0e077e0000000p-4, -0x1.88e0fa0000000p-5, -0x1.2299cc0000000p-2, -0x1.e5878c0000000p-3, -0x1.02c0f40000000p-4, 0x1.49bbba0000000p-4, 0x1.233ff40000000p-3, -0x1.825fb60000000p-3, -0x1.530e7a0000000p-3, 0x1.68ad820000000p-3, 0x1.5d902c0000000p-3, 0x1.d774000000000p-4, -0x1.69547a0000000p-4, 0x1.c93b120000000p-10, 0x1.6c75920000000p-6, 0x1.3723b20000000p-3, -0x1.951d200000000p-3, -0x1.0d64fe0000000p-4, -0x1.ba5f1e0000000p-3, 0x1.617c880000000p-3, -0x1.c58f660000000p-4, 0x1.38c9ca0000000p-3, 0x1.9ce4740000000p-3, -0x1.efc5a00000000p-3, -0x1.82b6e00000000p-4, -0x1.dacec00000000p-3, -0x1.dac5720000000p-3, 0x1.4c64660000000p-3, -0x1.cb53be0000000p-3, -0x1.1c29d00000000p-4, 0x1.589a660000000p-6, 0x1.7590000000000p-4, 0x1.36cd160000000p-3, 0x1.85ca3a0000000p-4, -0x1.58c9760000000p-4, 0x1.41c8de0000000p-4, -0x1.e72e340000000p-4, 0x1.71b2720000000p-4}
, {0x1.2864a80000000p-6, -0x1.e941020000000p-3, -0x1.f89c860000000p-5, -0x1.343d1a0000000p-3, -0x1.5924440000000p-5, -0x1.96adb20000000p-7, 0x1.a79f6e0000000p-7, 0x1.10ee440000000p-2, 0x1.0e22b00000000p-3, -0x1.ab9e000000000p-3, -0x1.06fe6c0000000p-2, -0x1.06e1740000000p-6, -0x1.3054320000000p-2, 0x1.dc99b40000000p-3, 0x1.8c0d360000000p-3, -0x1.bf3dd40000000p-5, -0x1.14d7cc0000000p-3, 0x1.6291160000000p-3, 0x1.fc919a0000000p-3, -0x1.4561e60000000p-3, -0x1.937ac80000000p-5, -0x1.fd60040000000p-3, 0x1.9f19a00000000p-4, 0x1.bd4e640000000p-3, -0x1.649b540000000p-9, 0x1.e132100000000p-4, 0x1.df1d5e0000000p-4, 0x1.28b9660000000p-4, 0x1.4c90520000000p-4, -0x1.2c03300000000p-3, -0x1.0cf8060000000p-2, 0x1.25a5e60000000p-3, 0x1.d99e4c0000000p-4, -0x1.536db40000000p-6, -0x1.7260840000000p-3, -0x1.4b6ad00000000p-3, 0x1.28f9ac0000000p-3, 0x1.daa6700000000p-4, 0x1.a81e640000000p-3, -0x1.2c73f00000000p-2, -0x1.f389780000000p-3, -0x1.decb060000000p-9, -0x1.0f23280000000p-3, 0x1.c9c3720000000p-4, 0x1.2a539c0000000p-3, -0x1.c4abb20000000p-2, -0x1.ecc1b80000000p-3, 0x1.723a620000000p-3, -0x1.2c66ea0000000p-2, 0x1.bb20660000000p-4, -0x1.4057800000000p-2, -0x1.5dd7300000000p-7, 0x1.e0a60c0000000p-4, -0x1.8b6ada0000000p-3, 0x1.aed94a0000000p-4, -0x1.f27f3e0000000p-3, -0x1.9612040000000p-7, -0x1.14a9720000000p-3, -0x1.be16280000000p-3, -0x1.43745c0000000p-3, 0x1.fd28b60000000p-5, 0x1.8a950e0000000p-3, 0x1.379a440000000p-6, 0x1.944cdc0000000p-4, -0x1.03a5a00000000p-7, 0x1.f50ce40000000p-4, -0x1.cae1740000000p-4, 0x1.b8c1480000000p-4, -0x1.4ac0b60000000p-3, -0x1.2d4a6a0000000p-2, -0x1.2171d20000000p-3, 0x1.8a8cd60000000p-4, 0x1.cfb13e0000000p-4, 0x1.736e700000000p-3, 0x1.edebe40000000p-4, -0x1.2d9cf80000000p-3, 0x1.5a82680000000p-4, -0x1.d203360000000p-4, -0x1.c37a560000000p-3, 0x1.6214640000000p-3, 0x1.72c4e20000000p-3, 0x1.5b62da0000000p-3, 0x1.a22a060000000p-3, -0x1.a1fcf00000000p-3, 0x1.6dd92e0000000p-3, -0x1.393f120000000p-3, 0x1.934a7c0000000p-8, 0x1.206dd40000000p-3, -0x1.e79e1e0000000p-3, 0x1.573ac20000000p-3, 0x1.8a7cd00000000p-3, 0x1.e5a4980000000p-3, 0x1.5454ea0000000p-3, -0x1.3f432a0000000p-3, 0x1.8d0c780000000p-6, -0x1.0f94680000000p-2, 0x1.a846760000000p-5, 0x1.0402a20000000p-3, 0x1.4b9dfc0000000p-4, -0x1.21f4700000000p-3, 0x1.688a380000000p-3, -0x1.388b9c0000000p-2, -0x1.356bc00000000p-2, -0x1.3469a00000000p-2, -0x1.3cdbc60000000p-3, -0x1.f6ae920000000p-5, 0x1.8690fa0000000p-3, 0x1.108da20000000p-3, -0x1.46cb360000000p-3, 0x1.cc5e0e0000000p-4, 0x1.935cbc0000000p-3, -0x1.27c6120000000p-2, 0x1.1a15ce0000000p-7, 0x1.d1385e0000000p-5, -0x1.449eea0000000p-2, 0x1.656b660000000p-4, 0x1.5f7c440000000p-3, -0x1.a82a060000000p-3, -0x1.8541060000000p-3, -0x1.425d800000000p-4, 0x1.7332580000000p-3, -0x1.2ce9ce0000000p-3, 0x1.0e48600000000p-3, 0x1.01e70e0000000p-4, -0x1.a4473e0000000p-3, -0x1.00772c0000000p-2, 0x1.3ac1bc0000000p-3, 0x1.a311c80000000p-5}
}
;

#undef INPUT_SAMPLES
#undef FC_UNITS