/**
  ******************************************************************************
  * @file    weights/fc.cc
  * @author  Pierre-Emmanuel Novac <penovac@unice.fr>, LEAT, CNRS, Université Côte d'Azur, France
  * @version 1.0.0
  * @date    24 march 2020
  * @brief   Template generating plain C code for the implementation of Convolutional Neural Networks on MCU
  */

#include <stdint.h>

#define INPUT_SAMPLES 576
#define FC_UNITS 100


const float dense_10_bias[FC_UNITS] = {0x1.b359980000000p-4, -0x1.534c2a0000000p-8, 0x1.f4a56e0000000p-7, 0x1.8e55cc0000000p-7, -0x1.3e17a80000000p-8, -0x1.dc87400000000p-10, 0x1.6ebc0a0000000p-6, 0x1.172cf00000000p-7, 0x1.7455f60000000p-5, 0x1.18200c0000000p-4, 0x1.68621a0000000p-6, 0x1.989a4e0000000p-5, -0x1.2a48460000000p-5, 0x1.5853300000000p-4, -0x1.ad55e80000000p-6, 0x1.e52c0a0000000p-5, -0x1.880a600000000p-6, 0x1.9e76640000000p-11, 0x1.6a5e180000000p-6, 0x1.c9286e0000000p-8, -0x1.4699480000000p-4, -0x1.86ca040000000p-7, 0x1.6fb9140000000p-5, 0x1.88132c0000000p-6, 0x1.f83bb60000000p-5, 0x1.730a400000000p-5, 0x1.6469b20000000p-6, 0x1.191c260000000p-4, -0x1.00b95e0000000p-5, -0x1.071e3c0000000p-5, 0x1.7996460000000p-9, 0x1.0b07fe0000000p-7, -0x1.de75580000000p-8, 0x1.c396fc0000000p-5, -0x1.366a640000000p-8, 0x1.07658c0000000p-5, -0x1.d91f0a0000000p-6, -0x1.886fd20000000p-5, 0x1.3248dc0000000p-4, 0x1.cbbc700000000p-5, 0x1.d34e1c0000000p-4, 0x1.44f01e0000000p-4, 0x1.c2cf280000000p-7, -0x1.c66b700000000p-5, 0x1.8bfaca0000000p-4, 0x1.872d860000000p-6, 0x1.2ff1e60000000p-8, -0x1.a1ac4a0000000p-6, 0x1.4e55fc0000000p-5, 0x1.496d1e0000000p-4, 0x1.fb0e040000000p-5, 0x1.22c07e0000000p-6, 0x1.41fd840000000p-5, 0x1.c8c97c0000000p-6, 0x1.4fd7480000000p-4, 0x1.bed6740000000p-5, -0x1.03fef80000000p-4, 0x1.42b2f80000000p-4, 0x1.52bad80000000p-5, -0x1.52a5a00000000p-7, -0x1.c7c7c00000000p-9, 0x1.207a940000000p-4, 0x1.b7ab2e0000000p-6, 0x1.21ca9c0000000p-6, -0x1.284d920000000p-6, 0x1.2e1b4e0000000p-7, 0x1.2e8cbc0000000p-5, 0x1.f4f84a0000000p-5, -0x1.9d8aba0000000p-5, -0x1.b984de0000000p-8, -0x1.fbcc780000000p-8, 0x1.fe01d60000000p-7, -0x1.43774a0000000p-4, 0x1.0378240000000p-4, 0x1.f664b60000000p-7, 0x1.fdd96c0000000p-8, 0x1.16b4180000000p-5, 0x1.248d1c0000000p-6, -0x1.cffd2e0000000p-5, 0x1.bc75420000000p-5, 0x1.6b62980000000p-4, 0x1.8ad69a0000000p-5, 0x1.3154200000000p-6, -0x1.c8c2680000000p-6, 0x1.2431540000000p-6, 0x1.d6cc4c0000000p-5, 0x1.40f85c0000000p-4, -0x1.ea24380000000p-8, 0x1.09700a0000000p-4, -0x1.27c3800000000p-4, 0x1.773ec60000000p-6, 0x1.e863e40000000p-5, 0x1.0783840000000p-4, 0x1.d7046e0000000p-8, -0x1.29e4ae0000000p-7, 0x1.8c46e00000000p-5, 0x1.ff883c0000000p-5, 0x1.0f3bf80000000p-4, -0x1.0fd6900000000p-4, 0x1.932d7c0000000p-8}
;

const float dense_10_kernel[FC_UNITS][INPUT_SAMPLES] = {{0x1.c775e20000000p-4, 0x1.9bb4a40000000p-5, 0x1.7495740000000p-5, 0x1.2b91be0000000p-3, 0x1.3511780000000p-4, 0x1.8a24c20000000p-4, 0x1.9ecca80000000p-7, 0x1.5be1dc0000000p-3, -0x1.948f3c0000000p-6, -0x1.18b63e0000000p-4, 0x1.1160be0000000p-4, -0x1.ca2d5e0000000p-6, 0x1.9530720000000p-3, 0x1.17f6500000000p-5, 0x1.9282b40000000p-7, 0x1.0fab2c0000000p-3, 0x1.1103580000000p-3, -0x1.2f10b40000000p-7, 0x1.66533a0000000p-3, -0x1.561ffa0000000p-5, 0x1.43d9360000000p-4, -0x1.73d7fe0000000p-7, 0x1.8959760000000p-4, 0x1.74d6780000000p-4, 0x1.f0ae4c0000000p-5, 0x1.e30a760000000p-4, 0x1.78db640000000p-5, 0x1.8525c80000000p-4, 0x1.e783e20000000p-4, 0x1.1dcfe20000000p-5, 0x1.71a3660000000p-4, -0x1.f786ea0000000p-7, 0x1.0e07140000000p-3, 0x1.adf8f60000000p-4, 0x1.0a9e620000000p-3, 0x1.9735020000000p-9, 0x1.ea65340000000p-5, 0x1.4413640000000p-4, 0x1.2d8a620000000p-4, -0x1.f58c8c0000000p-6, 0x1.bd1df80000000p-5, 0x1.92e2740000000p-4, -0x1.199dde0000000p-6, 0x1.b4d7aa0000000p-6, 0x1.c117800000000p-9, -0x1.c8b3aa0000000p-8, 0x1.5cb6040000000p-6, -0x1.bbde920000000p-7, 0x1.363c0a0000000p-5, -0x1.076d680000000p-4, -0x1.9812140000000p-4, -0x1.9ba0720000000p-5, -0x1.1840220000000p-6, -0x1.8a58420000000p-4, -0x1.1494e80000000p-4, -0x1.086c1c0000000p-4, 0x1.cbb2d20000000p-8, -0x1.e905020000000p-5, -0x1.e46e540000000p-5, -0x1.63dd0e0000000p-4, -0x1.1c940c0000000p-6, -0x1.89ed1c0000000p-4, -0x1.6ffab40000000p-7, 0x1.6fc4280000000p-7, 0x1.649ef20000000p-6, 0x1.969fa40000000p-6, 0x1.cafaba0000000p-5, -0x1.0c7d800000000p-4, 0x1.539e9e0000000p-4, -0x1.3f4e380000000p-6, 0x1.26b1c60000000p-4, 0x1.2995800000000p-5, 0x1.7cf7c20000000p-3, 0x1.84e9060000000p-5, 0x1.4db6800000000p-4, 0x1.fcce7e0000000p-5, 0x1.6497880000000p-5, -0x1.46dd0c0000000p-4, 0x1.b888280000000p-5, 0x1.802cd00000000p-6, 0x1.84119e0000000p-4, 0x1.eae8c40000000p-6, 0x1.471b7c0000000p-4, 0x1.924eba0000000p-4, -0x1.ffec480000000p-7, -0x1.095f080000000p-4, -0x1.ad38c00000000p-12, 0x1.1b22f40000000p-3, 0x1.8bddd20000000p-5, -0x1.a9610e0000000p-5, 0x1.9b90fa0000000p-4, -0x1.ac43600000000p-5, 0x1.4c1ff60000000p-3, 0x1.9dcd900000000p-4, 0x1.7f53520000000p-9, 0x1.1380b80000000p-3, 0x1.fb6c620000000p-7, 0x1.6b8b580000000p-5, 0x1.199cac0000000p-4, 0x1.168cfc0000000p-3, 0x1.017f7a0000000p-3, 0x1.89ef8c0000000p-5, 0x1.28cf2c0000000p-5, 0x1.23ab2e0000000p-4, 0x1.8ffdc80000000p-4, 0x1.48e43e0000000p-3, 0x1.0ab8920000000p-3, 0x1.39d90e0000000p-3, 0x1.21a65c0000000p-6, 0x1.5dab340000000p-4, 0x1.522fa80000000p-6, 0x1.b768140000000p-7, 0x1.c650960000000p-5, 0x1.86c84a0000000p-3, 0x1.4428060000000p-4, -0x1.29402a0000000p-5, -0x1.4158660000000p-6, 0x1.9ce6000000000p-5, -0x1.1504780000000p-5, -0x1.1052360000000p-3, 0x1.01e6980000000p-4, 0x1.a3e5620000000p-6, 0x1.b766aa0000000p-5, 0x1.699fa80000000p-6, 0x1.6a709c0000000p-4, -0x1.58f1e20000000p-5, 0x1.74ca0a0000000p-3, 0x1.fd804a0000000p-4, -0x1.24ba440000000p-5, 0x1.02f7120000000p-8, -0x1.51574a0000000p-4, -0x1.a2bb220000000p-4, -0x1.7de2dc0000000p-4, 0x1.818eae0000000p-7, 0x1.145c240000000p-7, -0x1.89c1b20000000p-3, -0x1.108fb20000000p-6, -0x1.ec349e0000000p-4, -0x1.0cf6a40000000p-4, 0x1.13e6ba0000000p-5, 0x1.f1b5200000000p-3, -0x1.22bb3c0000000p-3, 0x1.836d580000000p-6, -0x1.ff56ea0000000p-4, -0x1.0f6bac0000000p-3, -0x1.2ef5b20000000p-3, -0x1.8c8ca80000000p-4, -0x1.2a399c0000000p-3, -0x1.a7ff5e0000000p-3, 0x1.d993b20000000p-9, -0x1.7efca40000000p-4, -0x1.7198ce0000000p-3, 0x1.1cc3300000000p-4, -0x1.8fc57e0000000p-5, -0x1.5f4e520000000p-4, -0x1.cb8de80000000p-4, 0x1.b16bfa0000000p-4, -0x1.38bb720000000p-3, 0x1.d8fb620000000p-7, -0x1.faa5500000000p-4, 0x1.4415e20000000p-5, 0x1.e753dc0000000p-6, -0x1.f97e9a0000000p-5, -0x1.6d6bd00000000p-11, -0x1.46e90e0000000p-3, 0x1.6a87220000000p-3, -0x1.a068c00000000p-6, -0x1.ea2d240000000p-7, 0x1.1628a00000000p-2, 0x1.ba19460000000p-5, 0x1.a782800000000p-5, -0x1.6eaa7e0000000p-6, 0x1.d047b20000000p-5, -0x1.69f9080000000p-5, -0x1.52ac0a0000000p-3, -0x1.3c11400000000p-6, 0x1.22afb60000000p-4, -0x1.088bf80000000p-5, 0x1.10ed7a0000000p-6, 0x1.e29c220000000p-4, -0x1.52b1bc0000000p-6, 0x1.00da4c0000000p-3, -0x1.804fa60000000p-6, 0x1.4b335c0000000p-4, 0x1.2b29d80000000p-6, -0x1.0c25780000000p-4, 0x1.91772e0000000p-5, 0x1.2483ea0000000p-6, 0x1.5090680000000p-4, 0x1.0c02e40000000p-6, -0x1.82213e0000000p-3, -0x1.e9512a0000000p-5, 0x1.90d9d60000000p-4, -0x1.a16bc80000000p-10, -0x1.1de8120000000p-5, -0x1.e423b80000000p-7, 0x1.b620520000000p-5, 0x1.a4defe0000000p-4, 0x1.8a4f580000000p-4, 0x1.ec626e0000000p-5, 0x1.e881a80000000p-6, -0x1.44b9d40000000p-6, 0x1.8746700000000p-9, 0x1.09c8c60000000p-3, 0x1.4636340000000p-5, 0x1.70c4a40000000p-4, 0x1.2b71ac0000000p-3, 0x1.e49ecc0000000p-6, 0x1.03dd800000000p-9, 0x1.4045d40000000p-3, 0x1.63cf900000000p-7, 0x1.a956260000000p-5, 0x1.fac7b80000000p-5, 0x1.d5f4300000000p-5, 0x1.7840640000000p-4, 0x1.d0d7020000000p-4, 0x1.4a54200000000p-4, -0x1.ba94aa0000000p-8, 0x1.6f9be80000000p-4, -0x1.71af320000000p-6, 0x1.2760ca0000000p-4, -0x1.1105b40000000p-4, -0x1.5025160000000p-6, 0x1.bf83500000000p-9, -0x1.46a18a0000000p-6, 0x1.84f5c80000000p-5, -0x1.922c520000000p-6, -0x1.1b70300000000p-4, 0x1.1b60000000000p-4, -0x1.5178f00000000p-6, -0x1.d9c2c60000000p-8, -0x1.c8b8e20000000p-4, -0x1.222b400000000p-6, 0x1.726c980000000p-4, 0x1.b5f12c0000000p-5, -0x1.18ee6c0000000p-5, 0x1.86a7ee0000000p-4, -0x1.caaba00000000p-6, 0x1.007ea80000000p-8, 0x1.e884520000000p-5, -0x1.22e4de0000000p-5, -0x1.61adb20000000p-5, 0x1.67a3280000000p-6, -0x1.9dd1c40000000p-5, -0x1.609e6a0000000p-5, 0x1.33f4800000000p-6, 0x1.cd6fb60000000p-5, -0x1.4a315e0000000p-7, 0x1.1801a40000000p-4, -0x1.1a8a100000000p-5, 0x1.8fae3e0000000p-4, 0x1.2fe6f20000000p-5, 0x1.e9d8940000000p-6, 0x1.e480da0000000p-4, 0x1.dd551e0000000p-7, 0x1.0c3b7c0000000p-5, -0x1.5e2dc00000000p-5, 0x1.402bf80000000p-5, 0x1.d02e5a0000000p-7, 0x1.18972c0000000p-5, 0x1.7564880000000p-6, 0x1.9f02020000000p-4, -0x1.458eb40000000p-8, 0x1.11995e0000000p-6, 0x1.894cb40000000p-4, 0x1.2cda720000000p-4, 0x1.6bc5180000000p-7, 0x1.0f1a500000000p-9, 0x1.432f8a0000000p-4, -0x1.4452b20000000p-5, -0x1.d5ae240000000p-4, -0x1.7794200000000p-5, 0x1.9e6d4c0000000p-5, 0x1.67135e0000000p-3, 0x1.b17e1e0000000p-5, -0x1.08eeb60000000p-5, -0x1.4185a80000000p-4, 0x1.7561dc0000000p-5, 0x1.5262e80000000p-4, 0x1.0994f60000000p-5, 0x1.371a380000000p-4, 0x1.04b0c20000000p-3, 0x1.57fd0e0000000p-5, 0x1.5e3eb80000000p-3, 0x1.4629e20000000p-4, 0x1.37dc320000000p-8, -0x1.964c520000000p-3, -0x1.689c220000000p-4, 0x1.3e77820000000p-6, 0x1.fe6ec60000000p-4, 0x1.3bcbae0000000p-4, 0x1.1be4a40000000p-3, 0x1.3dbd9e0000000p-5, -0x1.d001180000000p-4, -0x1.1a121a0000000p-4, 0x1.d1df140000000p-4, 0x1.653eac0000000p-4, 0x1.1ecdee0000000p-4, -0x1.d07c160000000p-6, -0x1.cebb760000000p-5, -0x1.3fd9b00000000p-8, 0x1.4c09e80000000p-6, 0x1.d1f5d80000000p-4, 0x1.454a4a0000000p-11, -0x1.ee0bc60000000p-8, 0x1.42c1960000000p-4, -0x1.189e360000000p-4, 0x1.e56ff40000000p-6, -0x1.460a080000000p-9, -0x1.0171d20000000p-5, 0x1.b830340000000p-5, 0x1.a94f340000000p-5, -0x1.6d1dce0000000p-8, -0x1.b1e6560000000p-5, -0x1.3fa5780000000p-4, 0x1.a2f12c0000000p-5, -0x1.8cde700000000p-5, -0x1.e2479a0000000p-4, 0x1.72a4360000000p-6, -0x1.3c4b880000000p-5, -0x1.f9811c0000000p-4, -0x1.0fb9c20000000p-4, -0x1.67ce560000000p-4, -0x1.889da20000000p-4, -0x1.be485a0000000p-4, -0x1.d6d7040000000p-6, -0x1.0ad6c00000000p-5, -0x1.18aea40000000p-4, 0x1.b4e7d00000000p-5, -0x1.65e8740000000p-8, 0x1.f23dc00000000p-9, -0x1.5335660000000p-8, 0x1.563b160000000p-6, -0x1.5141d80000000p-3, 0x1.85b6200000000p-4, -0x1.7262160000000p-5, 0x1.46b9140000000p-4, 0x1.29ead80000000p-4, 0x1.05f44e0000000p-4, 0x1.2a680e0000000p-4, -0x1.7a7c560000000p-5, 0x1.2a82540000000p-10, 0x1.59c6a80000000p-5, -0x1.5c757a0000000p-6, 0x1.33038c0000000p-4, 0x1.7480da0000000p-4, 0x1.d43d5a0000000p-4, 0x1.c0096c0000000p-4, -0x1.589ee20000000p-5, -0x1.373d400000000p-4, -0x1.6b79d60000000p-6, -0x1.43e7360000000p-6, -0x1.bb99bc0000000p-7, 0x1.a27b9c0000000p-7, -0x1.29cbba0000000p-6, 0x1.f1e2900000000p-5, 0x1.66b8aa0000000p-4, 0x1.d2dc7e0000000p-7, -0x1.8beae20000000p-4, 0x1.c588e00000000p-6, 0x1.2491480000000p-5, 0x1.9328360000000p-6, -0x1.be8fb80000000p-8, -0x1.22e96a0000000p-4, 0x1.50fb820000000p-6, 0x1.38dc1e0000000p-4, -0x1.5999e00000000p-5, 0x1.58a14e0000000p-4, -0x1.d4a2840000000p-8, -0x1.3be6480000000p-6, -0x1.af39ee0000000p-5, 0x1.21a8720000000p-3, 0x1.988a200000000p-5, 0x1.f3208c0000000p-5, 0x1.8d3f580000000p-12, 0x1.9db0e20000000p-6, -0x1.0c76da0000000p-4, 0x1.2fed440000000p-5, -0x1.b0f0e60000000p-4, -0x1.eabab20000000p-5, 0x1.605f140000000p-5, -0x1.3273ae0000000p-4, -0x1.6c1e400000000p-4, -0x1.ea6d6e0000000p-4, -0x1.e18e120000000p-3, 0x1.1194680000000p-3, -0x1.1b5d620000000p-3, 0x1.0af1000000000p-4, -0x1.512de60000000p-4, -0x1.630eb00000000p-3, -0x1.10aa320000000p-5, 0x1.5d6c0c0000000p-4, -0x1.0430f40000000p-3, -0x1.c110f40000000p-3, -0x1.655e560000000p-6, -0x1.218da60000000p-3, 0x1.88b7860000000p-3, -0x1.aa57ea0000000p-6, -0x1.0a79640000000p-3, -0x1.02a5080000000p-3, -0x1.8ccc1e0000000p-4, -0x1.f41e380000000p-4, -0x1.b9e6840000000p-3, -0x1.de84120000000p-4, -0x1.2e52f40000000p-4, -0x1.049e420000000p-5, -0x1.423f200000000p-7, -0x1.ac02de0000000p-12, -0x1.a6a5660000000p-5, -0x1.58063c0000000p-6, -0x1.5b4a8c0000000p-4, -0x1.74a4c60000000p-5, 0x1.5667e40000000p-3, -0x1.ee004e0000000p-4, -0x1.2358180000000p-6, -0x1.c88c340000000p-4, 0x1.faf9840000000p-6, -0x1.cb405a0000000p-4, -0x1.1205f60000000p-3, -0x1.8bde380000000p-3, 0x1.fdb96e0000000p-8, 0x1.07b1180000000p-6, 0x1.f017580000000p-8, -0x1.ae7e100000000p-4, 0x1.11c68a0000000p-3, 0x1.8a3fde0000000p-6, -0x1.ee61820000000p-4, 0x1.8046740000000p-5, -0x1.c4135c0000000p-5, -0x1.6ae2de0000000p-3, 0x1.d0160c0000000p-5, -0x1.98b7900000000p-4, 0x1.c86b9e0000000p-5, 0x1.907b5a0000000p-4, 0x1.0080620000000p-4, -0x1.04e6f20000000p-3, 0x1.33e2c40000000p-4, 0x1.bc23620000000p-5, 0x1.05a9240000000p-5, -0x1.d7367e0000000p-7, 0x1.e7fe600000000p-4, 0x1.2b56dc0000000p-5, -0x1.9569340000000p-7, -0x1.491f4a0000000p-5, 0x1.040b360000000p-3, -0x1.127f160000000p-3, -0x1.3316300000000p-5, -0x1.2a36ca0000000p-4, -0x1.793a220000000p-7, 0x1.f00d380000000p-5, -0x1.37ec300000000p-7, -0x1.bdd4b80000000p-6, 0x1.272da20000000p-4, -0x1.c4c3220000000p-7, 0x1.7f148a0000000p-7, 0x1.5346760000000p-7, -0x1.6e94ce0000000p-10, -0x1.24a2fe0000000p-4, -0x1.573af60000000p-4, -0x1.0fd9600000000p-5, 0x1.75ecee0000000p-6, -0x1.1383d00000000p-3, -0x1.339e7a0000000p-9, -0x1.4d5e4e0000000p-6, -0x1.9d124c0000000p-3, -0x1.3fa3b80000000p-4, -0x1.09d1ea0000000p-3, 0x1.7708ee0000000p-8, -0x1.74e7f00000000p-3, -0x1.c047c80000000p-4, -0x1.cda9540000000p-4, 0x1.db92b00000000p-5, -0x1.2c56400000000p-3, -0x1.eb63340000000p-5, -0x1.bd53140000000p-4, -0x1.68c4ee0000000p-4, 0x1.a31e200000000p-5, -0x1.641e940000000p-5, -0x1.94afec0000000p-4, -0x1.70ae1e0000000p-3, -0x1.488bea0000000p-3, -0x1.8eb40a0000000p-5, -0x1.671dc00000000p-5, 0x1.c84fb40000000p-5, 0x1.6fe93e0000000p-7, -0x1.d2d6740000000p-5, -0x1.a6eff60000000p-6, 0x1.27ff5c0000000p-4, -0x1.27a7d20000000p-5, -0x1.16448e0000000p-4, 0x1.eedd420000000p-7, -0x1.efda480000000p-4, 0x1.af804e0000000p-4, 0x1.a08e340000000p-5, -0x1.1291580000000p-3, 0x1.123ae80000000p-5, -0x1.cd37ee0000000p-6, 0x1.a5ebfe0000000p-8, -0x1.4e3c100000000p-3, -0x1.8a81040000000p-4, -0x1.3038a00000000p-4, -0x1.9e24a20000000p-9, -0x1.2dbf5a0000000p-3, -0x1.1b6d840000000p-9, -0x1.166b7c0000000p-6, -0x1.6efeb40000000p-5, -0x1.9818a80000000p-3, -0x1.173af80000000p-3, 0x1.9f45340000000p-4, -0x1.9f6c980000000p-6, -0x1.577c920000000p-3, -0x1.95f6040000000p-3, -0x1.1017aa0000000p-4, 0x1.163b3c0000000p-4, -0x1.039e520000000p-3, 0x1.3979960000000p-5, 0x1.8961f60000000p-5, 0x1.0fd9180000000p-5, 0x1.11be160000000p-5, -0x1.030dda0000000p-5, 0x1.51b3040000000p-6, -0x1.1ebc720000000p-5, -0x1.4ed4ea0000000p-4, -0x1.a7b7720000000p-7, 0x1.c9a24c0000000p-6, -0x1.459d3e0000000p-2, -0x1.fa62e40000000p-6, -0x1.0061d40000000p-2, 0x1.b0e61c0000000p-5, 0x1.595c980000000p-4, 0x1.0fdfe40000000p-6, 0x1.2df2080000000p-6, 0x1.1ca7340000000p-6, 0x1.3fb9420000000p-3, -0x1.3340b60000000p-6, -0x1.ba057c0000000p-9, 0x1.eb136a0000000p-5, -0x1.253ab20000000p-6, -0x1.0118060000000p-3, -0x1.240e880000000p-5, -0x1.86ceea0000000p-6, -0x1.2fab5a0000000p-3, 0x1.1ef95c0000000p-4, -0x1.96093a0000000p-6, 0x1.59cd420000000p-5, 0x1.2d9e960000000p-5, 0x1.850a560000000p-4, 0x1.6bd6b20000000p-14, -0x1.7056220000000p-5, 0x1.8b1c180000000p-4, 0x1.ba3f840000000p-12, -0x1.6613880000000p-4, 0x1.3fe4aa0000000p-5, -0x1.68e6680000000p-4, -0x1.aaa49a0000000p-6, 0x1.a8d29a0000000p-6, 0x1.c55eb20000000p-5, -0x1.28efd20000000p-3, -0x1.3810da0000000p-4, -0x1.2dcfc00000000p-4, 0x1.2b652e0000000p-6, 0x1.7733f80000000p-4, -0x1.e5d7a60000000p-5, 0x1.b6d1b00000000p-5, -0x1.95ee1a0000000p-5, -0x1.81e3b80000000p-4, -0x1.9a56b60000000p-5, -0x1.5347e80000000p-11, -0x1.5d03c60000000p-4, -0x1.8b59660000000p-5, -0x1.967e4c0000000p-6, -0x1.a20fb60000000p-4, 0x1.66f5040000000p-5, 0x1.d655340000000p-6, -0x1.4ec26c0000000p-3, 0x1.02b2480000000p-6}
, {0x1.2ea4ae0000000p-4, -0x1.6037920000000p-4, 0x1.2aeeca0000000p-4, 0x1.bf6a720000000p-6, -0x1.ea703e0000000p-7, 0x1.8d74140000000p-7, 0x1.3bda320000000p-5, -0x1.804e8c0000000p-7, 0x1.526b8c0000000p-4, 0x1.1e80ce0000000p-5, -0x1.ab24460000000p-5, -0x1.e7b77e0000000p-5, 0x1.ccf99c0000000p-7, 0x1.2023260000000p-5, -0x1.83b9900000000p-4, 0x1.21e4a40000000p-8, -0x1.6107b40000000p-5, -0x1.2507a60000000p-9, 0x1.a829e40000000p-5, 0x1.094f540000000p-6, -0x1.a0143a0000000p-8, 0x1.5ebf580000000p-5, -0x1.91acea0000000p-4, 0x1.240a3e0000000p-4, 0x1.abca120000000p-6, 0x1.8737100000000p-5, -0x1.33082a0000000p-4, 0x1.8158d40000000p-6, 0x1.0e672e0000000p-4, -0x1.d1a4ba0000000p-6, -0x1.e017a20000000p-5, 0x1.d4a4f60000000p-5, 0x1.3646a80000000p-4, 0x1.2921d80000000p-5, 0x1.1614200000000p-5, 0x1.3fda2a0000000p-4, 0x1.2c29cc0000000p-7, -0x1.c33a580000000p-6, 0x1.0df3a40000000p-6, -0x1.a78a860000000p-7, 0x1.ba0d480000000p-6, -0x1.28d1ea0000000p-5, 0x1.3e520e0000000p-11, -0x1.963ea00000000p-4, 0x1.07738c0000000p-5, 0x1.cb6cfe0000000p-5, -0x1.1ae5c20000000p-4, 0x1.90b2080000000p-6, 0x1.a528f00000000p-6, -0x1.ab4cce0000000p-4, 0x1.4bab760000000p-5, -0x1.582ca40000000p-5, -0x1.c216fc0000000p-5, 0x1.2a5a880000000p-4, -0x1.1d6bde0000000p-4, -0x1.0dda020000000p-5, -0x1.a8c3480000000p-6, 0x1.4f8e700000000p-4, -0x1.9a2c7c0000000p-10, -0x1.5567ea0000000p-4, -0x1.b822880000000p-4, -0x1.f96c560000000p-7, -0x1.92ca500000000p-4, 0x1.3ee7420000000p-5, 0x1.6f228c0000000p-6, -0x1.3012f80000000p-7, -0x1.7d75f20000000p-6, -0x1.9c0ec40000000p-7, -0x1.c89f6c0000000p-5, -0x1.1ea0c00000000p-4, -0x1.964d240000000p-4, -0x1.c14ffa0000000p-5, 0x1.2538fc0000000p-10, -0x1.64c7d00000000p-4, -0x1.e0a42e0000000p-6, 0x1.7bbb2c0000000p-7, -0x1.7b51b40000000p-5, -0x1.fd72400000000p-7, 0x1.48383a0000000p-4, -0x1.8e27e00000000p-6, -0x1.7a82fc0000000p-4, -0x1.dbb6300000000p-6, -0x1.4a3a040000000p-6, -0x1.704e440000000p-4, -0x1.a252d40000000p-7, 0x1.0357fe0000000p-5, -0x1.877d240000000p-6, -0x1.585b480000000p-5, -0x1.6a7f2e0000000p-6, 0x1.eacd760000000p-6, 0x1.3426120000000p-4, 0x1.ff82940000000p-5, -0x1.d2d6f40000000p-5, 0x1.8762d00000000p-5, -0x1.9725e20000000p-5, 0x1.61b6b20000000p-5, -0x1.432c140000000p-4, -0x1.3115b60000000p-4, -0x1.57ca760000000p-7, -0x1.f748be0000000p-5, -0x1.e86fd40000000p-8, 0x1.7f1eca0000000p-5, -0x1.bfd6460000000p-13, -0x1.f43fe40000000p-4, 0x1.750c560000000p-5, -0x1.a9cf360000000p-5, -0x1.43d7040000000p-5, -0x1.e94ef00000000p-5, -0x1.125c320000000p-5, 0x1.82e2600000000p-7, -0x1.f836700000000p-10, 0x1.49845e0000000p-5, -0x1.474d180000000p-6, -0x1.bacabe0000000p-5, -0x1.80eb300000000p-5, -0x1.41b5aa0000000p-12, -0x1.3272da0000000p-4, -0x1.ef6e860000000p-6, -0x1.0def600000000p-6, -0x1.5f20340000000p-5, 0x1.84a2620000000p-5, -0x1.38468c0000000p-4, 0x1.d443000000000p-5, -0x1.7ca4ba0000000p-5, -0x1.7df1180000000p-4, -0x1.ce21f60000000p-5, -0x1.ef1f760000000p-5, -0x1.2319c60000000p-5, 0x1.315b9a0000000p-6, -0x1.afa1380000000p-4, -0x1.3ca46e0000000p-5, 0x1.1001540000000p-5, -0x1.f503420000000p-5, -0x1.836bfe0000000p-4, -0x1.42c8400000000p-4, 0x1.057ce60000000p-4, 0x1.1927ce0000000p-4, -0x1.94c86c0000000p-7, -0x1.5165a40000000p-4, -0x1.ace7cc0000000p-4, -0x1.74341e0000000p-4, 0x1.027b7a0000000p-4, -0x1.4767060000000p-6, -0x1.7b42500000000p-5, -0x1.1cda220000000p-7, -0x1.5e81be0000000p-5, -0x1.1bb3480000000p-4, -0x1.d25f580000000p-6, 0x1.6dce8c0000000p-5, -0x1.c320f60000000p-5, 0x1.1d21de0000000p-11, -0x1.262b540000000p-4, -0x1.c289860000000p-8, -0x1.4700800000000p-4, -0x1.00326e0000000p-4, -0x1.25699a0000000p-11, 0x1.1405f40000000p-4, 0x1.e176700000000p-5, 0x1.e298420000000p-5, -0x1.4a59a60000000p-4, -0x1.0e1d140000000p-5, -0x1.8ed7c00000000p-6, 0x1.ca32ec0000000p-6, -0x1.d6096e0000000p-5, -0x1.18daf20000000p-6, 0x1.9911840000000p-7, -0x1.f2f9580000000p-5, 0x1.14bd180000000p-4, -0x1.8b037c0000000p-5, 0x1.b022c40000000p-7, 0x1.d9d1600000000p-6, 0x1.a5062c0000000p-7, -0x1.599e5c0000000p-4, 0x1.637aa40000000p-6, -0x1.03186a0000000p-5, 0x1.0842360000000p-4, -0x1.5280fa0000000p-6, 0x1.17fe540000000p-5, -0x1.35103e0000000p-6, 0x1.63e0ce0000000p-5, 0x1.834e200000000p-6, -0x1.e584780000000p-5, 0x1.0d980a0000000p-11, 0x1.6bb2d20000000p-10, -0x1.34c96c0000000p-4, -0x1.4c5eaa0000000p-4, 0x1.8d7c620000000p-5, -0x1.0a6fbc0000000p-6, -0x1.d406d80000000p-4, -0x1.6971f60000000p-5, 0x1.8e16a00000000p-4, 0x1.ee72620000000p-6, 0x1.59ab6e0000000p-4, -0x1.b1bf7c0000000p-4, -0x1.1239780000000p-4, 0x1.b622f80000000p-5, 0x1.96dee40000000p-5, -0x1.927e160000000p-4, -0x1.9490a80000000p-8, -0x1.a26f1a0000000p-5, -0x1.1960200000000p-7, -0x1.3de6b20000000p-4, 0x1.f33d840000000p-6, 0x1.47e7120000000p-4, 0x1.e4984e0000000p-7, -0x1.3ad5940000000p-5, 0x1.194a220000000p-4, -0x1.3791400000000p-8, -0x1.fa6c400000000p-5, -0x1.97cbd80000000p-7, -0x1.b2be660000000p-5, 0x1.695d840000000p-5, 0x1.0d53fc0000000p-4, 0x1.c190dc0000000p-5, 0x1.8d74920000000p-7, 0x1.582d380000000p-6, -0x1.dcf96e0000000p-7, -0x1.a137520000000p-4, -0x1.611b500000000p-8, -0x1.094c300000000p-4, 0x1.b99d8c0000000p-6, 0x1.a086140000000p-5, -0x1.a0f87a0000000p-4, 0x1.c7d8020000000p-6, 0x1.db40be0000000p-5, -0x1.7be8ea0000000p-4, -0x1.c2f6aa0000000p-4, -0x1.1226a60000000p-4, -0x1.6a4a0c0000000p-4, -0x1.24152e0000000p-4, 0x1.fa07080000000p-6, -0x1.6c9b0e0000000p-6, -0x1.34cd5a0000000p-4, -0x1.9081620000000p-6, 0x1.1519c00000000p-11, 0x1.7b9bfe0000000p-8, -0x1.8a0f8c0000000p-9, 0x1.3e41fa0000000p-5, -0x1.f7dfa40000000p-6, -0x1.ebf6020000000p-5, -0x1.730df20000000p-4, -0x1.5bd9120000000p-5, -0x1.6572d00000000p-4, 0x1.1cd9880000000p-5, 0x1.e5c7860000000p-7, 0x1.8b50120000000p-5, 0x1.07f2f60000000p-5, -0x1.41f8dc0000000p-4, -0x1.ca25200000000p-5, -0x1.508e5c0000000p-4, -0x1.17b2ac0000000p-4, -0x1.8c3fce0000000p-7, 0x1.1e49220000000p-5, -0x1.b24e520000000p-4, 0x1.d692320000000p-9, -0x1.2baf640000000p-6, -0x1.1fd2220000000p-9, 0x1.7eebe60000000p-11, 0x1.fa4d120000000p-5, -0x1.c1a2c40000000p-5, 0x1.435e3c0000000p-5, -0x1.204d6a0000000p-4, -0x1.99c9b00000000p-7, 0x1.c20c0a0000000p-10, 0x1.dfca5a0000000p-7, -0x1.4d4df40000000p-4, -0x1.11b1d20000000p-5, -0x1.591e8c0000000p-4, 0x1.405e3a0000000p-4, -0x1.b4a6c40000000p-8, 0x1.d64c1c0000000p-6, -0x1.4d3b400000000p-4, -0x1.41d1940000000p-4, 0x1.209eb40000000p-5, 0x1.4bc9a00000000p-4, -0x1.1fbbaa0000000p-4, -0x1.2a19f40000000p-4, 0x1.0cce5e0000000p-6, 0x1.60409a0000000p-4, -0x1.c638040000000p-4, -0x1.c912680000000p-5, -0x1.888d940000000p-5, -0x1.6ede320000000p-5, -0x1.78306c0000000p-4, 0x1.213aee0000000p-6, 0x1.55fa920000000p-4, -0x1.2404180000000p-6, -0x1.3a340c0000000p-5, -0x1.553f500000000p-9, -0x1.3098740000000p-4, -0x1.7117b80000000p-4, 0x1.9529b60000000p-6, -0x1.98ec060000000p-5, -0x1.83de900000000p-5, 0x1.7ab6180000000p-5, -0x1.8493320000000p-5, -0x1.78e8fe0000000p-4, -0x1.60057c0000000p-4, -0x1.8f18860000000p-4, 0x1.2156ce0000000p-4, 0x1.52b3a60000000p-9, -0x1.1925ca0000000p-5, 0x1.49b6860000000p-4, 0x1.a8664e0000000p-7, -0x1.9aacec0000000p-4, -0x1.00f31e0000000p-4, 0x1.cae3380000000p-6, -0x1.b0ff7c0000000p-6, -0x1.579eae0000000p-7, -0x1.32c1cc0000000p-4, 0x1.0d8fd20000000p-10, 0x1.6bed380000000p-9, -0x1.015b580000000p-4, -0x1.f4d93c0000000p-8, -0x1.944d780000000p-5, 0x1.4ead260000000p-7, -0x1.2189920000000p-5, 0x1.1f282e0000000p-4, -0x1.26d2bc0000000p-4, 0x1.42873e0000000p-7, 0x1.a864020000000p-6, -0x1.373b4c0000000p-4, -0x1.70ff140000000p-4, 0x1.2d29de0000000p-4, -0x1.245f640000000p-9, -0x1.454bfa0000000p-6, -0x1.9805080000000p-7, 0x1.2f9bf40000000p-4, -0x1.79ea2e0000000p-5, 0x1.6f04780000000p-6, -0x1.a44d0c0000000p-4, 0x1.6bc2ca0000000p-5, 0x1.3f139c0000000p-7, 0x1.1b68280000000p-4, 0x1.aceb320000000p-6, -0x1.765acc0000000p-4, -0x1.7b6fea0000000p-4, -0x1.4687da0000000p-5, -0x1.2bf5980000000p-5, 0x1.025cb40000000p-4, -0x1.01537a0000000p-4, -0x1.916e520000000p-6, -0x1.9772ac0000000p-5, 0x1.8e37480000000p-8, -0x1.00153e0000000p-4, -0x1.742d540000000p-6, -0x1.40d4b20000000p-4, -0x1.c7080a0000000p-6, -0x1.3c5f540000000p-5, -0x1.299a120000000p-4, 0x1.0254440000000p-5, 0x1.8fc3060000000p-5, 0x1.3ebd280000000p-5, 0x1.2a19060000000p-5, -0x1.1263000000000p-4, -0x1.4e11260000000p-5, 0x1.320dc00000000p-4, -0x1.3071aa0000000p-5, -0x1.96804a0000000p-5, -0x1.b898020000000p-7, 0x1.e2af4e0000000p-5, 0x1.82e2dc0000000p-6, -0x1.2a93340000000p-4, 0x1.fdd5da0000000p-5, -0x1.b37a100000000p-9, 0x1.7a33900000000p-8, -0x1.230d5c0000000p-5, -0x1.3920940000000p-5, -0x1.52588a0000000p-6, -0x1.60122c0000000p-4, -0x1.47d8540000000p-8, -0x1.c18a7a0000000p-4, -0x1.243ba60000000p-4, -0x1.ceab400000000p-5, -0x1.bf89980000000p-6, -0x1.b67ffa0000000p-4, 0x1.2fbf940000000p-4, -0x1.8d79ea0000000p-5, 0x1.384a460000000p-4, -0x1.de384c0000000p-5, 0x1.50d8e20000000p-5, -0x1.2dd1880000000p-5, -0x1.2556660000000p-4, -0x1.695c8e0000000p-4, 0x1.04e93e0000000p-4, 0x1.90fd7a0000000p-5, 0x1.04cc740000000p-5, -0x1.780b3e0000000p-4, -0x1.438a740000000p-5, 0x1.58bd9e0000000p-9, 0x1.a599ba0000000p-5, 0x1.1c20f20000000p-4, -0x1.4ada940000000p-4, 0x1.36ee340000000p-4, -0x1.ab70420000000p-8, 0x1.0150c40000000p-4, -0x1.b2441e0000000p-4, -0x1.6ab3ea0000000p-4, -0x1.7dc2fe0000000p-4, -0x1.6b0b860000000p-5, 0x1.888fec0000000p-5, -0x1.3824d00000000p-5, 0x1.00a62c0000000p-4, -0x1.b095fa0000000p-6, -0x1.9973f60000000p-4, -0x1.557b000000000p-5, -0x1.e57bea0000000p-5, -0x1.7e74e40000000p-5, 0x1.3bc1780000000p-5, -0x1.1ae4300000000p-4, -0x1.dd98440000000p-5, -0x1.59fe120000000p-4, -0x1.b7965a0000000p-7, -0x1.ed530a0000000p-8, 0x1.0b499e0000000p-5, 0x1.24ee780000000p-4, -0x1.a562900000000p-4, -0x1.4b57c20000000p-8, -0x1.9777d60000000p-4, -0x1.13d1980000000p-4, 0x1.09b7dc0000000p-4, -0x1.f6f32e0000000p-4, -0x1.3e627e0000000p-4, 0x1.291f440000000p-6, -0x1.6f43ca0000000p-4, -0x1.8263700000000p-10, -0x1.4060600000000p-4, 0x1.24eddc0000000p-4, -0x1.7dd6c40000000p-5, 0x1.225e960000000p-7, -0x1.e573280000000p-4, -0x1.0e1bb00000000p-4, -0x1.02e4500000000p-5, -0x1.6f26080000000p-4, -0x1.7dd22c0000000p-6, -0x1.c2b1fc0000000p-8, -0x1.105cb60000000p-5, 0x1.7b1d2a0000000p-4, -0x1.72dfe60000000p-5, -0x1.1fea0c0000000p-4, -0x1.dd64d00000000p-5, -0x1.2221d20000000p-5, -0x1.f9846c0000000p-10, 0x1.c859b00000000p-5, 0x1.9668440000000p-5, 0x1.563a920000000p-5, -0x1.931a600000000p-4, -0x1.b8a55a0000000p-4, -0x1.84bbac0000000p-6, 0x1.0bd98a0000000p-4, 0x1.f5eca60000000p-5, -0x1.b135860000000p-4, -0x1.2a45560000000p-4, -0x1.b91cca0000000p-5, -0x1.11099c0000000p-4, 0x1.3ceda00000000p-6, -0x1.b80f660000000p-7, -0x1.81a08e0000000p-4, 0x1.a91c700000000p-6, 0x1.193b6c0000000p-5, -0x1.732eea0000000p-4, -0x1.7ce2780000000p-4, 0x1.f629060000000p-6, 0x1.a688dc0000000p-5, 0x1.b165ac0000000p-6, -0x1.aed7920000000p-5, -0x1.7679e00000000p-5, -0x1.2c1c2a0000000p-8, 0x1.4d409e0000000p-6, 0x1.b436ee0000000p-5, -0x1.8bb9ec0000000p-7, -0x1.d016f00000000p-4, 0x1.7fce3c0000000p-8, 0x1.1cd18e0000000p-10, -0x1.b91bfa0000000p-5, 0x1.f697960000000p-7, -0x1.bd717e0000000p-4, -0x1.218df00000000p-6, -0x1.5657940000000p-5, -0x1.55a7d20000000p-4, -0x1.13cf660000000p-4, 0x1.ddd0700000000p-5, 0x1.0b6e7a0000000p-4, 0x1.3b1c1a0000000p-7, -0x1.82c97e0000000p-4, 0x1.60e8fc0000000p-4, -0x1.aa23f60000000p-4, -0x1.8eb1ba0000000p-4, 0x1.d7e7860000000p-6, 0x1.45c0c40000000p-4, -0x1.7df8e80000000p-4, 0x1.f6d9640000000p-9, 0x1.4152b40000000p-8, 0x1.abcb520000000p-10, -0x1.513ea40000000p-4, 0x1.8ab6800000000p-4, -0x1.7e243e0000000p-5, -0x1.4111060000000p-6, -0x1.84599e0000000p-5, 0x1.be8f2c0000000p-5, 0x1.0cb4080000000p-6, -0x1.1ae0060000000p-6, 0x1.88f03c0000000p-6, -0x1.42fa4e0000000p-6, -0x1.498dee0000000p-8, 0x1.cf5b740000000p-5, -0x1.8251240000000p-7, -0x1.c6ac860000000p-6, -0x1.016dce0000000p-5, -0x1.7678840000000p-4, -0x1.7a3a260000000p-5, 0x1.793ba80000000p-5, -0x1.780e4c0000000p-5, -0x1.dce8880000000p-4, -0x1.cd8d5e0000000p-4, -0x1.5792a00000000p-4, 0x1.6ebb7a0000000p-7, 0x1.136c960000000p-4, -0x1.e2509a0000000p-5, -0x1.44ee600000000p-5, -0x1.29d7220000000p-4, 0x1.023db60000000p-4, 0x1.4628d00000000p-4, -0x1.0f48f20000000p-4, 0x1.a5efb40000000p-5, 0x1.9628d60000000p-7, 0x1.ed2e400000000p-5, 0x1.8a004c0000000p-6, -0x1.2816160000000p-6, -0x1.01b5980000000p-4, -0x1.224e220000000p-6, -0x1.de0f720000000p-5, 0x1.0876f40000000p-4, -0x1.060b780000000p-4, 0x1.2fc10c0000000p-5, -0x1.88d4c80000000p-4, -0x1.a497b60000000p-4, -0x1.051e480000000p-8, 0x1.dfa4be0000000p-5, 0x1.07bb960000000p-7, 0x1.c76dc00000000p-6, 0x1.9a08b80000000p-5, 0x1.6558000000000p-5, 0x1.75cf840000000p-7, 0x1.4be6ca0000000p-4, 0x1.b0096a0000000p-10, 0x1.60ef7e0000000p-5, -0x1.3bab5e0000000p-6, 0x1.7339a00000000p-8, -0x1.808d060000000p-4, 0x1.9eecf80000000p-6, 0x1.8983c60000000p-6, -0x1.5d46220000000p-6, -0x1.963cea0000000p-4, -0x1.2fd9300000000p-5, -0x1.a88df80000000p-4, 0x1.7021bc0000000p-5, 0x1.a2b3dc0000000p-6, -0x1.3284c40000000p-4, 0x1.1577b00000000p-8, 0x1.4e43760000000p-4, -0x1.c6f3200000000p-6, 0x1.9c06900000000p-7, -0x1.a797720000000p-7, -0x1.1460e20000000p-4, 0x1.51e1540000000p-4, -0x1.4a14d40000000p-5, -0x1.2f3c800000000p-6, 0x1.559a100000000p-4, 0x1.5b63480000000p-5, -0x1.66dd860000000p-7, 0x1.81e5420000000p-5, -0x1.7e6d440000000p-4, -0x1.8373880000000p-6, -0x1.c29b5a0000000p-8, 0x1.4816cc0000000p-4}
, {-0x1.e7c3ce0000000p-5, -0x1.e1998a0000000p-8, 0x1.1739000000000p-4, -0x1.0806b20000000p-5, 0x1.3d1e860000000p-4, -0x1.1852720000000p-5, 0x1.412ca00000000p-5, -0x1.788b8a0000000p-5, 0x1.4172c20000000p-12, -0x1.f2b6c60000000p-4, 0x1.cf54840000000p-5, -0x1.4925060000000p-5, -0x1.0eded40000000p-9, 0x1.69982c0000000p-4, 0x1.f278ea0000000p-5, 0x1.5e278a0000000p-6, 0x1.14b6a60000000p-4, 0x1.2fe31e0000000p-5, 0x1.06ad940000000p-6, -0x1.3be9aa0000000p-7, 0x1.6789100000000p-5, 0x1.15fe160000000p-4, -0x1.8616300000000p-6, -0x1.8c308a0000000p-6, -0x1.3998ac0000000p-11, -0x1.fc47ce0000000p-5, -0x1.5d49520000000p-4, 0x1.0a00260000000p-4, 0x1.ef5a3c0000000p-5, -0x1.3977380000000p-5, -0x1.b17e9e0000000p-6, -0x1.0b87320000000p-5, 0x1.5ab68c0000000p-6, -0x1.8f1d000000000p-8, -0x1.1ec4d60000000p-5, -0x1.266d580000000p-3, -0x1.d4b2780000000p-4, 0x1.61639c0000000p-5, -0x1.057c120000000p-5, -0x1.256d200000000p-7, 0x1.de9f880000000p-8, 0x1.2d7d620000000p-4, 0x1.eae6960000000p-6, -0x1.6ca9020000000p-6, 0x1.afe5d00000000p-5, -0x1.ee842a0000000p-4, -0x1.6d52120000000p-5, -0x1.0e9b120000000p-4, 0x1.bfa1380000000p-5, 0x1.3fb3b80000000p-5, 0x1.34a6620000000p-6, -0x1.250dea0000000p-3, -0x1.34edd80000000p-4, 0x1.0276c60000000p-4, 0x1.4007140000000p-4, -0x1.b174360000000p-3, 0x1.478b600000000p-4, 0x1.7d63160000000p-4, -0x1.b76a440000000p-5, -0x1.5ef8320000000p-6, 0x1.2335680000000p-6, -0x1.36b2fc0000000p-5, -0x1.a04c920000000p-6, -0x1.5e628c0000000p-6, 0x1.5c43a40000000p-3, 0x1.b0c8380000000p-4, 0x1.c259de0000000p-7, 0x1.bc7ef20000000p-4, 0x1.848ed40000000p-4, -0x1.96822a0000000p-7, 0x1.994b020000000p-4, -0x1.81e4020000000p-4, 0x1.6d0df20000000p-5, 0x1.3908600000000p-3, 0x1.71e33e0000000p-6, 0x1.aa248c0000000p-10, -0x1.4dfd6e0000000p-5, 0x1.16acbc0000000p-5, -0x1.c4017e0000000p-8, 0x1.9616f60000000p-5, 0x1.fa25860000000p-3, 0x1.7dc78e0000000p-3, 0x1.12edc20000000p-3, 0x1.30c5ea0000000p-6, 0x1.e319040000000p-3, 0x1.90473a0000000p-5, 0x1.ceffdc0000000p-3, -0x1.f9f37e0000000p-5, 0x1.4fd1760000000p-3, 0x1.26c2980000000p-2, 0x1.fd1e820000000p-4, 0x1.26ba440000000p-4, 0x1.2e26fe0000000p-4, -0x1.8c89ea0000000p-5, 0x1.232dd20000000p-5, -0x1.20708c0000000p-5, -0x1.5f204e0000000p-3, 0x1.b0e3d00000000p-4, -0x1.6784040000000p-3, -0x1.c465460000000p-5, -0x1.923ea40000000p-3, -0x1.07b8e60000000p-5, -0x1.6f1a220000000p-6, 0x1.626b940000000p-6, -0x1.41cae20000000p-4, -0x1.8c09c80000000p-4, -0x1.06fd360000000p-3, -0x1.1fb4c40000000p-8, 0x1.4820dc0000000p-4, -0x1.c18e3e0000000p-5, -0x1.5d995e0000000p-6, -0x1.5bab100000000p-4, -0x1.49519e0000000p-5, -0x1.57480a0000000p-3, -0x1.6332880000000p-4, -0x1.aefeda0000000p-2, -0x1.07679e0000000p-2, 0x1.33faa00000000p-5, -0x1.c928e80000000p-6, -0x1.ddf0d40000000p-3, 0x1.393d140000000p-4, -0x1.34396a0000000p-4, 0x1.1c685c0000000p-5, -0x1.035b540000000p-8, 0x1.081cae0000000p-4, -0x1.003f9a0000000p-4, -0x1.0dad900000000p-3, -0x1.82db680000000p-6, -0x1.88208c0000000p-7, -0x1.40b0d00000000p-4, -0x1.1cbea40000000p-4, 0x1.0acaaa0000000p-4, -0x1.60c7f20000000p-4, -0x1.7dbeca0000000p-7, -0x1.0a08b60000000p-4, -0x1.1deb5e0000000p-4, 0x1.84b18e0000000p-7, -0x1.0e6f5c0000000p-4, -0x1.c97cdc0000000p-6, -0x1.8884680000000p-6, -0x1.5be5200000000p-3, -0x1.6d8e2c0000000p-8, -0x1.4523c80000000p-4, 0x1.f4e3c80000000p-7, 0x1.d0160c0000000p-7, 0x1.9bcefe0000000p-7, -0x1.77487c0000000p-6, 0x1.9017c00000000p-8, 0x1.41e8ea0000000p-6, -0x1.2423840000000p-4, 0x1.e117740000000p-5, 0x1.3808800000000p-5, -0x1.f620040000000p-8, 0x1.ff329a0000000p-7, -0x1.274c1e0000000p-4, -0x1.0f14540000000p-6, -0x1.b0536e0000000p-8, -0x1.1288120000000p-7, -0x1.0abd6e0000000p-3, -0x1.81d1940000000p-8, 0x1.f54a3c0000000p-8, -0x1.2cba3a0000000p-7, -0x1.3ccda80000000p-6, 0x1.c9149a0000000p-3, 0x1.2418400000000p-3, -0x1.349d9c0000000p-5, -0x1.bbbd760000000p-5, 0x1.047ae00000000p-2, -0x1.96ea920000000p-5, -0x1.19b4500000000p-8, 0x1.5a64c20000000p-7, -0x1.eb25e40000000p-6, -0x1.17f7aa0000000p-5, 0x1.c0d90a0000000p-5, 0x1.b325780000000p-6, -0x1.cbbad00000000p-5, -0x1.cceb080000000p-7, 0x1.db6c080000000p-8, 0x1.578ae40000000p-9, 0x1.534f200000000p-4, 0x1.cd4fd00000000p-4, -0x1.2432700000000p-4, 0x1.e4a86c0000000p-6, 0x1.93d5840000000p-4, -0x1.d58b980000000p-5, -0x1.64f52c0000000p-5, 0x1.f86dd80000000p-8, -0x1.084afa0000000p-3, -0x1.2f67c20000000p-5, 0x1.6a8bf00000000p-4, 0x1.da94de0000000p-3, 0x1.53522a0000000p-4, -0x1.df6c5e0000000p-4, -0x1.69db9a0000000p-3, -0x1.039db00000000p-2, -0x1.d455de0000000p-5, -0x1.c868660000000p-5, -0x1.ab2f840000000p-7, -0x1.ae4c140000000p-6, -0x1.44972e0000000p-5, 0x1.c811220000000p-9, -0x1.249fba0000000p-4, -0x1.5cac280000000p-4, -0x1.9bd8a60000000p-4, -0x1.cb2afc0000000p-5, -0x1.9cacf40000000p-6, -0x1.fb3f700000000p-5, -0x1.e14a180000000p-8, 0x1.49f5960000000p-4, 0x1.14e87c0000000p-7, -0x1.94661e0000000p-6, -0x1.27ddf60000000p-4, -0x1.1ef2ec0000000p-6, 0x1.613a860000000p-3, 0x1.798ac40000000p-4, -0x1.7792c80000000p-2, 0x1.9cbb560000000p-4, 0x1.387f900000000p-5, 0x1.c2ff0c0000000p-5, 0x1.54efdc0000000p-3, -0x1.488a9e0000000p-2, -0x1.8b0c140000000p-3, 0x1.3304b60000000p-4, -0x1.951e9c0000000p-6, -0x1.44c7820000000p-9, 0x1.d9f24a0000000p-4, -0x1.61e89a0000000p-9, -0x1.40bdd40000000p-3, -0x1.a5a5a80000000p-5, 0x1.a75b760000000p-5, -0x1.6ac5bc0000000p-6, -0x1.4a1a420000000p-3, 0x1.25b7160000000p-7, 0x1.8b5cbc0000000p-6, 0x1.f1c0f80000000p-5, 0x1.ebd0160000000p-5, 0x1.27142a0000000p-3, -0x1.2f8ae40000000p-4, -0x1.9db7620000000p-4, 0x1.d93e2a0000000p-9, -0x1.ff93f80000000p-4, -0x1.5fdda40000000p-5, -0x1.3646c00000000p-5, -0x1.ad9f2a0000000p-3, -0x1.c600420000000p-4, 0x1.db9c8a0000000p-7, 0x1.e4c4ac0000000p-7, -0x1.e74b760000000p-5, -0x1.9361680000000p-7, -0x1.8937dc0000000p-5, 0x1.8921e80000000p-5, -0x1.474bcc0000000p-4, 0x1.64da480000000p-4, 0x1.3192120000000p-5, -0x1.5c16540000000p-4, 0x1.4414d00000000p-6, -0x1.eb442e0000000p-8, 0x1.0041ac0000000p-4, 0x1.51850a0000000p-4, -0x1.3386300000000p-5, -0x1.ddf3c20000000p-5, -0x1.c54d0c0000000p-6, -0x1.3531ea0000000p-5, 0x1.e1341e0000000p-5, -0x1.bc1fca0000000p-5, -0x1.4ee5600000000p-6, 0x1.0470440000000p-3, 0x1.e4a4540000000p-7, -0x1.ad521a0000000p-7, 0x1.4df0cc0000000p-3, 0x1.d5275c0000000p-6, 0x1.c830ea0000000p-5, 0x1.eccf100000000p-6, -0x1.5ef3060000000p-7, 0x1.11defe0000000p-5, 0x1.a6020c0000000p-5, 0x1.809fce0000000p-5, -0x1.0d6b5c0000000p-3, 0x1.cc2e440000000p-4, 0x1.24ecb20000000p-5, -0x1.57a2b40000000p-4, -0x1.a19aee0000000p-4, -0x1.2318200000000p-3, 0x1.e8e27c0000000p-5, -0x1.6206f80000000p-5, 0x1.cc509c0000000p-6, 0x1.eae27a0000000p-4, 0x1.9da5be0000000p-9, 0x1.43487a0000000p-4, -0x1.ba96740000000p-9, -0x1.d001a60000000p-5, 0x1.3db4160000000p-5, 0x1.ae87980000000p-6, -0x1.fef6c20000000p-6, -0x1.39d7840000000p-3, -0x1.5680320000000p-5, -0x1.8108780000000p-7, -0x1.b6c1d60000000p-8, -0x1.35bffa0000000p-3, -0x1.baa44a0000000p-8, 0x1.66913e0000000p-4, -0x1.b6fffe0000000p-3, -0x1.8186380000000p-5, -0x1.095c8a0000000p-4, -0x1.f8b9f80000000p-6, 0x1.9f53f80000000p-4, -0x1.6c67a60000000p-6, -0x1.085c020000000p-6, -0x1.94b0e60000000p-6, 0x1.662e3c0000000p-4, 0x1.bb78400000000p-5, 0x1.f738540000000p-7, 0x1.efdd8e0000000p-8, -0x1.d1ec0a0000000p-7, 0x1.76d8480000000p-4, 0x1.e6ba800000000p-4, -0x1.0b7e9c0000000p-3, -0x1.3cb0e80000000p-2, 0x1.37b09c0000000p-11, -0x1.1c216c0000000p-2, 0x1.0018260000000p-9, 0x1.d3de4e0000000p-4, 0x1.7a88d20000000p-4, -0x1.2e90640000000p-6, 0x1.9778140000000p-4, -0x1.89c53e0000000p-7, 0x1.1c6a860000000p-3, 0x1.4cb2e80000000p-4, -0x1.47b9c60000000p-5, 0x1.a7417c0000000p-4, 0x1.26f2b80000000p-5, 0x1.82dcf60000000p-8, -0x1.bdb2760000000p-4, 0x1.701e340000000p-4, 0x1.30140a0000000p-4, 0x1.a3dc880000000p-4, 0x1.9e0f9c0000000p-4, -0x1.f74a9c0000000p-8, 0x1.55a38c0000000p-3, 0x1.01698a0000000p-4, 0x1.7141be0000000p-3, -0x1.1dd44a0000000p-9, 0x1.f3e3c20000000p-5, 0x1.86a7a80000000p-3, -0x1.06b3e60000000p-5, 0x1.20984a0000000p-5, 0x1.ef451c0000000p-5, 0x1.b229560000000p-5, -0x1.5d83be0000000p-3, -0x1.84630a0000000p-8, 0x1.d561c40000000p-5, 0x1.41137c0000000p-3, -0x1.46b6720000000p-7, -0x1.4a127c0000000p-6, 0x1.28c8900000000p-5, 0x1.4a55b60000000p-4, 0x1.a599880000000p-5, -0x1.7ddb5c0000000p-5, -0x1.5083d60000000p-5, 0x1.163ed40000000p-3, -0x1.3189820000000p-4, -0x1.55b1bc0000000p-5, 0x1.e730820000000p-5, -0x1.1e6ca60000000p-6, 0x1.b4b7da0000000p-5, 0x1.236a4a0000000p-9, 0x1.f5389c0000000p-5, -0x1.f9db820000000p-5, -0x1.e00f600000000p-4, -0x1.3fd0d40000000p-3, 0x1.ac74b20000000p-8, -0x1.4bec1e0000000p-4, -0x1.1b472e0000000p-4, -0x1.3f3de20000000p-3, -0x1.37d1d60000000p-4, -0x1.405e480000000p-5, -0x1.3e173a0000000p-4, -0x1.1e56ca0000000p-4, -0x1.cd3a220000000p-6, -0x1.6e76cc0000000p-5, -0x1.4d9c140000000p-6, -0x1.88bb480000000p-5, -0x1.3fc5d20000000p-4, -0x1.dbaae00000000p-7, -0x1.438b620000000p-3, -0x1.6369d60000000p-6, 0x1.d2ddfc0000000p-8, -0x1.d63ae60000000p-5, -0x1.f11e4c0000000p-5, -0x1.47a7960000000p-3, -0x1.66cf960000000p-3, 0x1.8546360000000p-4, -0x1.48d7760000000p-5, -0x1.7ce35a0000000p-3, -0x1.8707fa0000000p-4, -0x1.bf4e220000000p-3, 0x1.0e07b80000000p-5, -0x1.490a220000000p-4, -0x1.383eac0000000p-5, -0x1.f1562c0000000p-5, -0x1.3408ee0000000p-8, -0x1.1e87f00000000p-4, 0x1.f0bea80000000p-6, 0x1.15d8dc0000000p-4, 0x1.6197400000000p-6, -0x1.f180340000000p-5, 0x1.7dce2a0000000p-5, 0x1.a012880000000p-5, -0x1.31a7f00000000p-4, -0x1.4572600000000p-5, -0x1.777c960000000p-6, 0x1.af55d00000000p-6, -0x1.c9cbb80000000p-4, -0x1.39e9940000000p-4, 0x1.9892960000000p-5, 0x1.780d780000000p-5, -0x1.ccdddc0000000p-7, -0x1.902ada0000000p-7, 0x1.fa05660000000p-6, 0x1.7330060000000p-4, 0x1.48d7380000000p-3, 0x1.3e60060000000p-5, 0x1.73ced20000000p-6, -0x1.9d6da80000000p-6, 0x1.9287e40000000p-6, -0x1.8fed5c0000000p-6, -0x1.ab7e500000000p-5, -0x1.3092a20000000p-7, -0x1.9299420000000p-4, -0x1.2a9e780000000p-4, 0x1.8e05e40000000p-5, -0x1.7746460000000p-7, -0x1.d548040000000p-7, 0x1.fb17960000000p-7, 0x1.5e4fb00000000p-5, 0x1.daefee0000000p-5, 0x1.b2c62e0000000p-4, -0x1.296f1e0000000p-10, -0x1.0fda760000000p-5, -0x1.9e04ce0000000p-4, 0x1.0ccd6c0000000p-6, 0x1.335ff40000000p-4, -0x1.ad6bb80000000p-5, -0x1.612cb60000000p-8, -0x1.c6d21e0000000p-5, -0x1.86902a0000000p-5, 0x1.0ab1940000000p-5, -0x1.1fe1ae0000000p-4, 0x1.376b3c0000000p-4, -0x1.2a2b600000000p-5, -0x1.54f4fc0000000p-6, -0x1.0a2d980000000p-6, -0x1.f4f45e0000000p-7, -0x1.cd23340000000p-6, -0x1.9ff00a0000000p-5, -0x1.daa0380000000p-4, 0x1.00392e0000000p-6, 0x1.17819a0000000p-5, -0x1.6e5fd40000000p-7, -0x1.d7f9700000000p-5, 0x1.9011120000000p-5, -0x1.fe33820000000p-5, 0x1.08e3480000000p-11, -0x1.58d09e0000000p-5, 0x1.2a9fc20000000p-4, -0x1.e714800000000p-5, -0x1.68f8d40000000p-6, -0x1.4513680000000p-12, -0x1.91a4440000000p-5, -0x1.6310e20000000p-5, 0x1.7940860000000p-5, -0x1.8bc91e0000000p-4, 0x1.2411b80000000p-3, 0x1.687bc20000000p-7, -0x1.cbdacc0000000p-8, 0x1.18196c0000000p-5, -0x1.62c2500000000p-6, -0x1.d65cc60000000p-5, -0x1.cf60740000000p-4, 0x1.f45bb80000000p-4, -0x1.5818420000000p-3, -0x1.57d0a60000000p-6, -0x1.6526d00000000p-3, -0x1.a894e00000000p-4, -0x1.7cd2a60000000p-3, -0x1.7e67aa0000000p-4, -0x1.b9a0960000000p-5, -0x1.ec3fe80000000p-5, -0x1.ed77bc0000000p-4, -0x1.d76d6a0000000p-4, 0x1.13cde20000000p-5, -0x1.3f8c980000000p-3, 0x1.bc501e0000000p-5, 0x1.426aea0000000p-5, -0x1.bd6d580000000p-4, -0x1.5ca6b40000000p-6, -0x1.3381fa0000000p-8, -0x1.0d4d2c0000000p-3, -0x1.c8968c0000000p-5, 0x1.734f9c0000000p-7, 0x1.de35e20000000p-10, -0x1.df4b120000000p-5, -0x1.5635680000000p-4, 0x1.149e320000000p-9, -0x1.377f1c0000000p-4, 0x1.3b89400000000p-7, -0x1.90e6f20000000p-4, -0x1.efce3e0000000p-5, -0x1.c1d7160000000p-4, -0x1.e4e6de0000000p-4, -0x1.8176cc0000000p-7, -0x1.fa5c6a0000000p-5, 0x1.3148180000000p-5, 0x1.bb6aa80000000p-4, -0x1.7138ac0000000p-5, -0x1.49f39c0000000p-11, -0x1.c8bcac0000000p-6, 0x1.c9fa220000000p-6, -0x1.f7d2500000000p-6, -0x1.f8efd60000000p-6, -0x1.11dd380000000p-8, -0x1.d4be860000000p-5, -0x1.703cc40000000p-4, -0x1.2b36b60000000p-4, -0x1.f461a00000000p-4, -0x1.7d04cc0000000p-4, 0x1.196cc40000000p-6, -0x1.15bede0000000p-4, -0x1.0dfa3c0000000p-8, -0x1.3f29de0000000p-5, 0x1.4f88160000000p-5, 0x1.232d6a0000000p-9, -0x1.3583060000000p-6, 0x1.62a8d60000000p-6, -0x1.1ebc3a0000000p-4, -0x1.7e95240000000p-6, -0x1.3e5ffa0000000p-8, 0x1.3fd4b20000000p-7, -0x1.e9674a0000000p-4, -0x1.1d416e0000000p-4, 0x1.afdf2a0000000p-5, -0x1.9901780000000p-4, 0x1.af07d60000000p-6, -0x1.48774c0000000p-4, -0x1.01141e0000000p-5, 0x1.713daa0000000p-5, 0x1.09fe520000000p-5, -0x1.100a2c0000000p-4, 0x1.9ac6e20000000p-5, 0x1.ff87ce0000000p-4, 0x1.8362040000000p-5, -0x1.e7257a0000000p-5, 0x1.41659a0000000p-3, 0x1.804e500000000p-6, 0x1.5cc4f00000000p-4, 0x1.8e6abc0000000p-4, 0x1.d4f5380000000p-10, -0x1.17b4380000000p-6, 0x1.4778960000000p-3, -0x1.e186f60000000p-7, 0x1.76d0bc0000000p-3, 0x1.50a6440000000p-3, 0x1.2ae94e0000000p-3, 0x1.0d71180000000p-3, 0x1.b5c8ea0000000p-4, 0x1.04a0fe0000000p-4, 0x1.175ed80000000p-3, 0x1.7cde840000000p-7, 0x1.75187c0000000p-5, 0x1.5caa9e0000000p-5, 0x1.d39e940000000p-4, 0x1.ad97ea0000000p-3, 0x1.09202a0000000p-3, 0x1.593db80000000p-4, 0x1.bf542a0000000p-6, 0x1.4536140000000p-5}
, {0x1.cda3260000000p-5, 0x1.202efe0000000p-4, -0x1.1ebeca0000000p-5, -0x1.1847640000000p-5, -0x1.4ba52e0000000p-5, -0x1.7bd5bc0000000p-4, -0x1.727f340000000p-4, 0x1.34260a0000000p-6, 0x1.ed793c0000000p-6, -0x1.3cd5e20000000p-3, -0x1.ec8c340000000p-5, -0x1.454b520000000p-4, 0x1.39e0600000000p-10, 0x1.6081740000000p-5, -0x1.877d0e0000000p-4, -0x1.b6a3380000000p-7, -0x1.1d2c000000000p-3, 0x1.aff41c0000000p-5, -0x1.7a9ad80000000p-3, 0x1.83fdaa0000000p-5, -0x1.2bd5e20000000p-4, -0x1.1f79980000000p-5, -0x1.63b3860000000p-4, -0x1.6a95960000000p-6, 0x1.ba45440000000p-4, -0x1.7995ec0000000p-4, 0x1.fc6dea0000000p-6, 0x1.2953e40000000p-4, 0x1.2cf1120000000p-3, -0x1.2598580000000p-4, -0x1.173a460000000p-5, 0x1.bc1dec0000000p-9, 0x1.180d6e0000000p-8, -0x1.f118cc0000000p-7, 0x1.3825c00000000p-4, -0x1.8aaeca0000000p-5, 0x1.cb3ffc0000000p-4, 0x1.f73c760000000p-4, 0x1.e8705c0000000p-6, -0x1.930c420000000p-4, -0x1.aa18fc0000000p-6, -0x1.5c7f240000000p-5, 0x1.50c7720000000p-5, -0x1.a336c60000000p-5, -0x1.3b5f3c0000000p-8, 0x1.c96b4e0000000p-4, 0x1.1a77ce0000000p-5, 0x1.deeee80000000p-4, 0x1.a2aaae0000000p-5, 0x1.fb30a40000000p-5, 0x1.05c7660000000p-5, -0x1.6b3fc00000000p-5, -0x1.18865a0000000p-4, -0x1.3141260000000p-7, 0x1.88109c0000000p-5, -0x1.85140a0000000p-5, 0x1.3bbcae0000000p-4, -0x1.5f87480000000p-6, -0x1.d4b7040000000p-7, 0x1.46c8140000000p-5, 0x1.7bfe580000000p-5, 0x1.212cea0000000p-5, -0x1.3a573c0000000p-3, 0x1.2111480000000p-5, 0x1.a1b5480000000p-6, -0x1.7fd9e60000000p-6, 0x1.dfc0dc0000000p-4, -0x1.0a5ffa0000000p-3, 0x1.b8ce080000000p-6, 0x1.9624e00000000p-6, 0x1.40eec40000000p-4, -0x1.f035a80000000p-4, -0x1.99f2960000000p-4, 0x1.432c320000000p-6, 0x1.c5ee7a0000000p-7, -0x1.c89ab60000000p-6, 0x1.7896940000000p-4, -0x1.233fc00000000p-7, -0x1.ca60200000000p-5, -0x1.9308b80000000p-6, -0x1.1da0780000000p-3, 0x1.6fa19a0000000p-6, -0x1.4810da0000000p-4, 0x1.884bcc0000000p-6, 0x1.acae820000000p-6, 0x1.89d6340000000p-12, -0x1.6ef4380000000p-4, 0x1.4699840000000p-4, -0x1.cbf6780000000p-4, 0x1.c728b40000000p-6, -0x1.bc69980000000p-6, 0x1.6ad5fc0000000p-6, 0x1.4e83aa0000000p-5, 0x1.7b42b00000000p-8, -0x1.528b9c0000000p-4, -0x1.ee4cb00000000p-6, 0x1.f53ed20000000p-4, 0x1.5bac120000000p-6, 0x1.4a1f1e0000000p-5, 0x1.62b85a0000000p-9, 0x1.c8183a0000000p-4, -0x1.3e2c700000000p-5, -0x1.b613a00000000p-9, 0x1.a0af0c0000000p-4, 0x1.7471160000000p-4, 0x1.58e8300000000p-4, -0x1.59f0f60000000p-6, 0x1.8b72040000000p-5, 0x1.a225da0000000p-6, 0x1.31e6f40000000p-6, 0x1.0583880000000p-3, 0x1.1380720000000p-4, 0x1.d809500000000p-9, -0x1.2a47300000000p-7, 0x1.6535980000000p-4, 0x1.2d54c40000000p-7, 0x1.456f4a0000000p-3, -0x1.1801f80000000p-6, 0x1.136e780000000p-4, 0x1.03f8900000000p-4, 0x1.5961fe0000000p-5, 0x1.b3a9f00000000p-7, -0x1.5f6cea0000000p-7, -0x1.21d6600000000p-7, 0x1.c7bea40000000p-4, 0x1.481db00000000p-6, 0x1.4e0f040000000p-7, 0x1.eee5ec0000000p-5, 0x1.ab58040000000p-9, 0x1.47cc520000000p-4, 0x1.0e52e80000000p-5, 0x1.c7fbfa0000000p-7, 0x1.5e18620000000p-5, 0x1.6b1ac80000000p-4, -0x1.b90f780000000p-5, 0x1.5ad4060000000p-7, -0x1.05ebfe0000000p-6, 0x1.a846ca0000000p-4, -0x1.85bd720000000p-7, 0x1.6e1b240000000p-4, -0x1.103fda0000000p-3, 0x1.f846020000000p-8, 0x1.0907760000000p-4, 0x1.f30ddc0000000p-8, 0x1.11134c0000000p-4, -0x1.9659560000000p-5, 0x1.0404d00000000p-5, -0x1.de4ecc0000000p-8, 0x1.6bedd60000000p-4, -0x1.2b80560000000p-4, 0x1.4c39ee0000000p-4, 0x1.7d3d300000000p-5, -0x1.9151900000000p-7, 0x1.6562700000000p-6, 0x1.17d7080000000p-6, -0x1.40250c0000000p-9, -0x1.0b9f900000000p-3, 0x1.cf169e0000000p-5, 0x1.2d0efe0000000p-5, 0x1.4ebc7c0000000p-6, 0x1.940f0a0000000p-8, 0x1.a282e80000000p-4, 0x1.bbaf500000000p-6, -0x1.6967280000000p-4, 0x1.2571300000000p-8, -0x1.6d2b080000000p-4, 0x1.ca79420000000p-5, -0x1.90fd5c0000000p-4, -0x1.613bea0000000p-6, 0x1.4337760000000p-4, -0x1.2fca6e0000000p-5, 0x1.716a9c0000000p-5, -0x1.04c55c0000000p-4, 0x1.741cf00000000p-4, 0x1.afeee00000000p-4, 0x1.34554e0000000p-4, -0x1.884dbc0000000p-5, -0x1.5d45260000000p-5, -0x1.a8b0680000000p-7, -0x1.05aad40000000p-4, -0x1.ea78780000000p-4, 0x1.61fb2a0000000p-4, -0x1.0baa940000000p-10, -0x1.36cb4c0000000p-3, -0x1.ee07d80000000p-6, 0x1.0ac9e80000000p-5, 0x1.592aba0000000p-4, 0x1.14cf480000000p-4, -0x1.d5c0600000000p-5, 0x1.0aa5d80000000p-4, 0x1.0d1caa0000000p-4, 0x1.cf06dc0000000p-4, 0x1.f311980000000p-6, 0x1.1b33a20000000p-6, -0x1.8edcba0000000p-5, 0x1.5798960000000p-3, 0x1.4160ce0000000p-10, -0x1.fa87ea0000000p-4, 0x1.31e6380000000p-5, 0x1.508eba0000000p-7, 0x1.1d3e380000000p-5, -0x1.33d0dc0000000p-6, 0x1.3b06300000000p-5, -0x1.0dfd000000000p-3, 0x1.b29db40000000p-8, -0x1.cb13820000000p-4, 0x1.d132820000000p-6, -0x1.4cc4f60000000p-4, 0x1.4f24520000000p-4, 0x1.b1c0600000000p-4, 0x1.75c14e0000000p-7, 0x1.fd819c0000000p-4, 0x1.413b460000000p-4, 0x1.1042420000000p-8, 0x1.e625060000000p-5, 0x1.29246a0000000p-4, 0x1.5332620000000p-7, 0x1.550b140000000p-4, -0x1.79820a0000000p-4, 0x1.5cc2a40000000p-5, -0x1.0e5ca60000000p-4, -0x1.2eb5cc0000000p-3, 0x1.895cc40000000p-4, -0x1.be28320000000p-4, 0x1.56c6d60000000p-4, 0x1.0f1eda0000000p-6, -0x1.6f56980000000p-5, 0x1.013b300000000p-7, -0x1.8c34740000000p-11, 0x1.d8399e0000000p-7, -0x1.57c4a40000000p-6, 0x1.107c720000000p-4, -0x1.829dbe0000000p-9, -0x1.c70e800000000p-6, -0x1.5727ae0000000p-5, 0x1.ae0e280000000p-5, -0x1.69ef560000000p-9, -0x1.63d8ea0000000p-3, 0x1.27c1ce0000000p-4, -0x1.de7b6e0000000p-3, -0x1.31bb360000000p-4, -0x1.4ffc580000000p-4, -0x1.ddb3060000000p-6, -0x1.474fc60000000p-6, -0x1.16350e0000000p-3, -0x1.30a90a0000000p-4, -0x1.c76c960000000p-5, 0x1.8038100000000p-4, -0x1.79837e0000000p-6, -0x1.ca77ca0000000p-5, -0x1.ab5c560000000p-4, -0x1.51867e0000000p-4, -0x1.c8162a0000000p-5, -0x1.2ddca00000000p-3, 0x1.d353b60000000p-4, -0x1.efb8d00000000p-5, 0x1.3e5a8c0000000p-4, 0x1.3479980000000p-6, 0x1.b2cbba0000000p-6, 0x1.491b740000000p-4, -0x1.58970c0000000p-5, 0x1.37e8340000000p-4, 0x1.d4b0c40000000p-10, -0x1.a1ae400000000p-5, 0x1.50531c0000000p-4, -0x1.1440940000000p-6, 0x1.4770620000000p-5, 0x1.a8a7d80000000p-4, -0x1.3919140000000p-6, -0x1.89a3000000000p-5, -0x1.6172000000000p-6, -0x1.ee2f720000000p-6, 0x1.3484400000000p-5, 0x1.67e8de0000000p-6, -0x1.653b000000000p-5, 0x1.ec37fe0000000p-5, -0x1.7571440000000p-10, 0x1.7975200000000p-4, 0x1.8ac3b20000000p-4, 0x1.233dda0000000p-5, 0x1.1984e60000000p-4, -0x1.7b59660000000p-9, -0x1.7f9d540000000p-5, -0x1.83874a0000000p-5, -0x1.5cfdd20000000p-5, -0x1.a166ae0000000p-6, 0x1.1367320000000p-8, -0x1.53b0700000000p-4, -0x1.01cd880000000p-6, 0x1.6c296e0000000p-5, -0x1.3e09f40000000p-3, -0x1.35f1220000000p-6, -0x1.8f56ec0000000p-4, -0x1.67b8dc0000000p-3, -0x1.71801e0000000p-7, 0x1.e83fe20000000p-6, -0x1.65111e0000000p-3, -0x1.6985e40000000p-4, -0x1.4efcc80000000p-3, -0x1.b99c180000000p-9, 0x1.50e0180000000p-5, 0x1.08cf560000000p-8, -0x1.17a44c0000000p-3, -0x1.0d56d20000000p-2, -0x1.0e11420000000p-3, -0x1.e282900000000p-4, -0x1.ebf87e0000000p-4, -0x1.1f7b320000000p-3, -0x1.c25ece0000000p-4, -0x1.0311620000000p-4, -0x1.88171e0000000p-5, 0x1.0878ee0000000p-5, -0x1.67731c0000000p-8, -0x1.cf65de0000000p-4, 0x1.4e90fc0000000p-5, -0x1.a7e8200000000p-5, 0x1.0433220000000p-4, 0x1.ce0ef60000000p-4, -0x1.aee8700000000p-5, 0x1.2166520000000p-3, -0x1.5239840000000p-9, 0x1.d8dc860000000p-5, 0x1.a273660000000p-6, -0x1.b3e7000000000p-3, -0x1.fa93600000000p-5, 0x1.6d36260000000p-4, -0x1.8d596e0000000p-5, -0x1.daabee0000000p-3, 0x1.f25d2e0000000p-4, -0x1.a4087c0000000p-7, -0x1.0f76400000000p-5, -0x1.8020fa0000000p-5, -0x1.114b780000000p-3, 0x1.a96c360000000p-12, -0x1.a4df620000000p-4, -0x1.38c7300000000p-3, -0x1.d99b360000000p-8, -0x1.239ae00000000p-5, -0x1.05b4200000000p-6, -0x1.6d84620000000p-5, -0x1.8466fc0000000p-5, -0x1.f6ef1c0000000p-5, -0x1.4741140000000p-5, -0x1.1822da0000000p-4, -0x1.0120660000000p-4, -0x1.1fc9e40000000p-5, 0x1.8427f00000000p-9, -0x1.179eda0000000p-6, -0x1.18c81e0000000p-4, -0x1.1604480000000p-5, -0x1.5eb6220000000p-4, -0x1.4e4ad00000000p-4, -0x1.024aac0000000p-6, 0x1.4464060000000p-5, -0x1.6b84520000000p-6, -0x1.c557720000000p-5, 0x1.39a51c0000000p-5, -0x1.c0b74e0000000p-5, 0x1.9d48660000000p-5, -0x1.37cdfe0000000p-6, -0x1.47e21a0000000p-5, -0x1.62ff220000000p-4, -0x1.26ec8a0000000p-5, -0x1.bc3fda0000000p-5, 0x1.d6bd9e0000000p-6, -0x1.0a7a1e0000000p-5, 0x1.1cc6680000000p-4, -0x1.06d2e20000000p-3, -0x1.0da18e0000000p-4, -0x1.e5fb0c0000000p-9, -0x1.5fee640000000p-9, -0x1.7fe37e0000000p-5, -0x1.fa236c0000000p-5, -0x1.a787540000000p-5, 0x1.5978600000000p-6, 0x1.3088420000000p-3, 0x1.aa96f00000000p-4, -0x1.483c740000000p-4, 0x1.d75b280000000p-5, -0x1.3bc1700000000p-6, -0x1.41a87e0000000p-11, 0x1.ca90720000000p-7, 0x1.9ede860000000p-4, 0x1.b991a60000000p-8, -0x1.57253c0000000p-4, 0x1.d894640000000p-5, -0x1.3427ec0000000p-5, -0x1.03bbaa0000000p-3, -0x1.89a44a0000000p-6, 0x1.5c22c40000000p-5, 0x1.8e7b120000000p-5, -0x1.0c75580000000p-3, 0x1.5f03740000000p-4, 0x1.1e02de0000000p-13, 0x1.2daea20000000p-8, 0x1.583c800000000p-7, 0x1.1203fe0000000p-7, 0x1.b278720000000p-7, -0x1.0347c00000000p-4, 0x1.0f77200000000p-3, 0x1.e53e880000000p-4, -0x1.24810a0000000p-3, -0x1.98eba20000000p-6, -0x1.de625a0000000p-3, -0x1.56ebe00000000p-5, 0x1.98e80e0000000p-5, -0x1.48882e0000000p-5, -0x1.ff1a800000000p-3, 0x1.8c56800000000p-4, -0x1.cdbd040000000p-8, -0x1.0acc2e0000000p-5, 0x1.39791c0000000p-4, -0x1.6fcf060000000p-2, -0x1.18a9dc0000000p-2, -0x1.fb22b80000000p-5, -0x1.74ae940000000p-3, 0x1.e9b3ce0000000p-6, 0x1.b975700000000p-7, -0x1.01d1820000000p-5, -0x1.f251920000000p-4, -0x1.fe88280000000p-5, 0x1.2ecec80000000p-14, 0x1.744aa00000000p-4, -0x1.d65cb60000000p-3, -0x1.7b93da0000000p-7, 0x1.1ed3900000000p-4, -0x1.d713460000000p-4, 0x1.ba7d0a0000000p-4, 0x1.0a7b4e0000000p-4, -0x1.26b9380000000p-2, -0x1.10adf60000000p-4, -0x1.fa24720000000p-3, -0x1.8de80c0000000p-6, -0x1.07159c0000000p-4, 0x1.38580a0000000p-4, -0x1.fcbb860000000p-4, 0x1.63e1180000000p-4, -0x1.2503f60000000p-4, -0x1.76e5240000000p-5, -0x1.8dc7240000000p-3, -0x1.b07c980000000p-6, 0x1.5a67920000000p-5, -0x1.5bbe340000000p-6, -0x1.5596b20000000p-4, -0x1.be39940000000p-5, 0x1.3c4b9a0000000p-4, 0x1.d459ec0000000p-7, 0x1.67ccd60000000p-5, -0x1.b8a3ce0000000p-5, 0x1.74fb560000000p-5, 0x1.405bfc0000000p-4, 0x1.81dcee0000000p-4, 0x1.3fa2080000000p-5, -0x1.8506ec0000000p-5, -0x1.7d30120000000p-6, -0x1.cad0e20000000p-11, 0x1.1b155a0000000p-5, -0x1.069cea0000000p-9, 0x1.f15f8e0000000p-5, -0x1.531e540000000p-4, 0x1.00fb400000000p-6, 0x1.5c5cb80000000p-5, 0x1.cc79400000000p-4, 0x1.16ce900000000p-4, -0x1.60f2320000000p-5, -0x1.370d1e0000000p-8, 0x1.edff4a0000000p-5, -0x1.9919540000000p-5, -0x1.2a449c0000000p-4, 0x1.cb15340000000p-4, 0x1.3dbf760000000p-4, -0x1.01d0ca0000000p-10, -0x1.3d38980000000p-5, -0x1.4cd77a0000000p-7, -0x1.3c3fa20000000p-6, 0x1.8806440000000p-11, -0x1.8c524e0000000p-6, -0x1.0ac8180000000p-3, 0x1.dfcf680000000p-6, -0x1.0a0a200000000p-5, -0x1.4867ca0000000p-3, 0x1.1092400000000p-5, -0x1.e3e8d60000000p-5, 0x1.5bb6840000000p-6, 0x1.67e0c20000000p-4, -0x1.4117220000000p-4, 0x1.9d7a4c0000000p-10, 0x1.c392bc0000000p-9, -0x1.1329a00000000p-5, -0x1.6c94140000000p-6, -0x1.a82c960000000p-4, -0x1.aef77c0000000p-4, 0x1.7818760000000p-4, -0x1.46087e0000000p-3, -0x1.b095ee0000000p-5, -0x1.3e5fdc0000000p-4, 0x1.6ccc5c0000000p-7, 0x1.05e6fc0000000p-4, -0x1.a59abe0000000p-4, 0x1.474dde0000000p-4, -0x1.7c11be0000000p-5, 0x1.55ee6e0000000p-4, 0x1.032a840000000p-6, 0x1.34e3b60000000p-4, 0x1.0727020000000p-4, -0x1.55e8880000000p-5, 0x1.4783be0000000p-5, 0x1.78796a0000000p-7, -0x1.1fc6b40000000p-4, -0x1.5767e00000000p-2, 0x1.cf581c0000000p-5, -0x1.0169d80000000p-2, 0x1.7b66ea0000000p-5, 0x1.c1c47a0000000p-6, 0x1.bddeb20000000p-4, 0x1.08a6d80000000p-5, -0x1.1cb10a0000000p-7, 0x1.b2c2600000000p-5, 0x1.dea5f40000000p-11, -0x1.0705ec0000000p-5, -0x1.4178220000000p-5, 0x1.e9eef20000000p-6, -0x1.068fb40000000p-8, 0x1.04dca60000000p-6, -0x1.120aa00000000p-2, -0x1.d0a18c0000000p-4, -0x1.b2aee40000000p-7, -0x1.c936ea0000000p-10, 0x1.4943560000000p-6, 0x1.f6b6740000000p-4, 0x1.e2f49a0000000p-4, 0x1.4669fa0000000p-5, 0x1.2f27540000000p-5, -0x1.0d69ca0000000p-6, 0x1.35c3ca0000000p-6, 0x1.dc62500000000p-6, -0x1.54bdf40000000p-5, 0x1.d014840000000p-5, 0x1.3a5d020000000p-3, 0x1.4e7d0e0000000p-4, -0x1.c470ea0000000p-4, 0x1.0803260000000p-3, 0x1.59677c0000000p-5, 0x1.a8c5be0000000p-3, 0x1.27cf100000000p-4, -0x1.c9fbce0000000p-5, 0x1.876e8a0000000p-4, 0x1.98483c0000000p-6, -0x1.0ec6b40000000p-4, 0x1.5f16fa0000000p-5, -0x1.2dc4400000000p-7, 0x1.1e0d3a0000000p-5, 0x1.4007b60000000p-4, 0x1.31c5800000000p-5, 0x1.18c4ce0000000p-3, -0x1.3ab82a0000000p-15, 0x1.5a97960000000p-5, 0x1.cde85c0000000p-4, -0x1.678b460000000p-3, 0x1.83f53e0000000p-5, 0x1.aa94de0000000p-4, -0x1.478eb20000000p-6, -0x1.1d040a0000000p-5, -0x1.2e84b00000000p-4, -0x1.e22b8a0000000p-7, 0x1.40a2a00000000p-6, -0x1.5479480000000p-6, 0x1.0149160000000p-5, -0x1.21d84c0000000p-4, -0x1.67b7ba0000000p-4, -0x1.a91d120000000p-4, 0x1.1fefe40000000p-4, -0x1.ed67a00000000p-5, 0x1.165c560000000p-3, 0x1.f0c3e00000000p-6, 0x1.0deeb80000000p-6}
, {0x1.f8e9800000000p-5, -0x1.eeb6880000000p-5, 0x1.8b79b80000000p-4, 0x1.1656960000000p-4, 0x1.78bf5c0000000p-7, 0x1.37e3300000000p-4, 0x1.4b1b9c0000000p-7, 0x1.15f3d00000000p-5, -0x1.660d420000000p-4, -0x1.0834020000000p-3, -0x1.b99ff60000000p-5, 0x1.c410720000000p-9, -0x1.d5caae0000000p-5, -0x1.1cf3b60000000p-4, 0x1.276ace0000000p-5, -0x1.7be2f20000000p-7, -0x1.372bbc0000000p-4, 0x1.00d9440000000p-7, -0x1.e6c0da0000000p-4, 0x1.378f680000000p-6, -0x1.0649f20000000p-10, -0x1.2f914c0000000p-4, -0x1.0e622a0000000p-6, 0x1.05b8e80000000p-4, -0x1.74c2ea0000000p-4, -0x1.8cc1400000000p-5, -0x1.809b5e0000000p-5, -0x1.1621720000000p-6, 0x1.77d4dc0000000p-4, -0x1.6fa4e80000000p-4, -0x1.17cd160000000p-4, -0x1.074ec40000000p-6, -0x1.2408f80000000p-7, 0x1.5d38920000000p-4, -0x1.9c0b760000000p-4, 0x1.f229440000000p-5, -0x1.5878d60000000p-4, -0x1.7f4b0e0000000p-4, -0x1.8637a60000000p-7, 0x1.71f1800000000p-4, -0x1.92f5b40000000p-5, -0x1.809c980000000p-3, -0x1.1cd70e0000000p-3, 0x1.3881600000000p-6, 0x1.7784f60000000p-4, -0x1.858c1c0000000p-4, -0x1.a5a52e0000000p-5, -0x1.a9b24a0000000p-3, -0x1.ea77280000000p-4, -0x1.892bf00000000p-6, -0x1.6690b60000000p-4, 0x1.3f8caa0000000p-3, 0x1.af19760000000p-6, -0x1.1a5eaa0000000p-5, -0x1.129e6c0000000p-3, 0x1.ac45420000000p-3, -0x1.a547f40000000p-3, -0x1.5cc5680000000p-3, -0x1.b096780000000p-4, -0x1.834daa0000000p-4, -0x1.4ca7b20000000p-4, -0x1.dec1c60000000p-5, 0x1.f2b60e0000000p-5, -0x1.305b400000000p-3, -0x1.3ed06c0000000p-3, -0x1.82d2d80000000p-6, -0x1.0b46b20000000p-8, 0x1.26eb3c0000000p-8, -0x1.e8020e0000000p-4, -0x1.31ac120000000p-4, -0x1.3e052c0000000p-3, 0x1.0745e60000000p-3, -0x1.b5593c0000000p-4, -0x1.ebcfd40000000p-4, -0x1.959ba20000000p-7, -0x1.d1ba380000000p-4, -0x1.63ec780000000p-6, -0x1.0f94ec0000000p-4, -0x1.06ea160000000p-3, -0x1.4687ec0000000p-5, -0x1.88f62c0000000p-3, -0x1.c695300000000p-5, -0x1.1e2b260000000p-4, 0x1.1c99ac0000000p-4, -0x1.312fd20000000p-3, -0x1.08e58c0000000p-4, -0x1.6f81780000000p-3, -0x1.23ab740000000p-4, -0x1.9992960000000p-5, -0x1.559a940000000p-3, -0x1.0349760000000p-5, -0x1.3e27e80000000p-3, -0x1.1fdc120000000p-5, -0x1.924d400000000p-3, 0x1.37d95e0000000p-4, -0x1.7f5a9e0000000p-5, -0x1.5e80ac0000000p-4, -0x1.5554820000000p-7, -0x1.c92dda0000000p-4, -0x1.550a060000000p-5, -0x1.097f060000000p-3, -0x1.577a040000000p-4, -0x1.da200a0000000p-5, 0x1.c01f480000000p-4, -0x1.27bbf80000000p-3, -0x1.aeda480000000p-4, -0x1.0bb8900000000p-3, 0x1.cee4920000000p-10, -0x1.6751200000000p-8, -0x1.bd4fee0000000p-4, -0x1.7c748a0000000p-4, -0x1.700b540000000p-4, -0x1.7519c40000000p-4, -0x1.37bca40000000p-7, -0x1.85eebe0000000p-7, -0x1.aacf080000000p-4, -0x1.74f6aa0000000p-5, -0x1.07aa880000000p-5, 0x1.7489f00000000p-7, 0x1.af9e2a0000000p-4, -0x1.3119240000000p-4, 0x1.5e02020000000p-5, -0x1.972de80000000p-5, -0x1.7e4ab00000000p-5, -0x1.2d2bd40000000p-8, 0x1.d477680000000p-7, 0x1.64ecf40000000p-7, 0x1.6275f00000000p-7, -0x1.07567a0000000p-5, -0x1.b5f9220000000p-7, -0x1.953bf80000000p-4, 0x1.2dfdac0000000p-4, -0x1.61bbbe0000000p-9, -0x1.f2e9740000000p-5, 0x1.0308e40000000p-4, 0x1.e35e040000000p-4, -0x1.3dc6f00000000p-3, -0x1.2b51720000000p-3, -0x1.d976c00000000p-6, 0x1.143b360000000p-5, 0x1.ec46da0000000p-5, 0x1.a39e480000000p-4, 0x1.6469960000000p-4, 0x1.1af66c0000000p-3, 0x1.3a6a200000000p-5, -0x1.0941a60000000p-3, 0x1.f3ed720000000p-5, 0x1.6f335e0000000p-4, 0x1.417c7a0000000p-3, -0x1.ce780a0000000p-5, -0x1.4208880000000p-5, 0x1.860b3e0000000p-7, -0x1.47b7c00000000p-4, -0x1.1228da0000000p-3, -0x1.109be60000000p-3, 0x1.6d94360000000p-6, 0x1.3e11c40000000p-3, 0x1.75d7260000000p-4, -0x1.1f77e20000000p-5, -0x1.2848f60000000p-5, -0x1.63c0280000000p-4, -0x1.c9824a0000000p-8, 0x1.9853360000000p-7, 0x1.5342760000000p-4, -0x1.3f69da0000000p-6, 0x1.d3e0fa0000000p-7, -0x1.8be2dc0000000p-4, 0x1.1580380000000p-3, -0x1.98c8a60000000p-3, -0x1.64e4d80000000p-5, 0x1.6cb1f40000000p-5, -0x1.3d95140000000p-3, -0x1.9bdcc60000000p-4, 0x1.4de3c40000000p-7, 0x1.c1da180000000p-4, -0x1.4bc0860000000p-4, -0x1.96be340000000p-11, -0x1.0073ca0000000p-3, 0x1.252c0a0000000p-4, -0x1.2d4ba80000000p-3, -0x1.6143860000000p-3, -0x1.f583480000000p-6, -0x1.c4b1760000000p-7, -0x1.0343280000000p-3, -0x1.9c71220000000p-4, -0x1.3db4c80000000p-3, -0x1.3a3d340000000p-8, -0x1.c9d4e20000000p-4, -0x1.708b720000000p-5, 0x1.f242240000000p-4, 0x1.e82cb80000000p-9, 0x1.7e49700000000p-6, -0x1.3ff4760000000p-4, 0x1.2e58040000000p-4, 0x1.521ee80000000p-4, -0x1.252caa0000000p-3, -0x1.4c77760000000p-6, -0x1.ecbd5c0000000p-4, -0x1.28e3ee0000000p-4, 0x1.dc92260000000p-6, 0x1.2008440000000p-8, -0x1.55de020000000p-4, -0x1.3cc53a0000000p-5, -0x1.8e869e0000000p-4, -0x1.7532ea0000000p-4, -0x1.3e67c60000000p-8, -0x1.50f9500000000p-4, -0x1.d9c34a0000000p-5, 0x1.2f7a840000000p-3, -0x1.222c480000000p-3, 0x1.5db0180000000p-5, -0x1.8a50980000000p-5, -0x1.5c4c8a0000000p-9, 0x1.0c3ec00000000p-4, -0x1.5ef92c0000000p-4, -0x1.c994340000000p-7, -0x1.3dfd600000000p-5, -0x1.b0e4780000000p-5, 0x1.e8bf520000000p-5, -0x1.a219ec0000000p-8, 0x1.2ca7ac0000000p-6, -0x1.5b53560000000p-4, -0x1.c54d9e0000000p-5, 0x1.db383a0000000p-6, -0x1.6d3b780000000p-8, 0x1.bbf0500000000p-6, 0x1.f289a40000000p-5, 0x1.3f709c0000000p-4, 0x1.d93bfa0000000p-4, -0x1.37e51e0000000p-6, -0x1.f5753c0000000p-5, -0x1.53f8dc0000000p-6, -0x1.5f46da0000000p-4, -0x1.2375540000000p-5, 0x1.504a560000000p-7, -0x1.f762cc0000000p-5, -0x1.4057c60000000p-5, 0x1.57d7640000000p-3, 0x1.9b9dca0000000p-4, -0x1.10ff180000000p-7, 0x1.f7aafc0000000p-6, 0x1.507a220000000p-4, -0x1.0a08340000000p-5, 0x1.5414200000000p-7, 0x1.2524920000000p-3, 0x1.04a6ac0000000p-3, 0x1.d75c6e0000000p-4, -0x1.a6e9560000000p-5, -0x1.aa74280000000p-6, -0x1.a4e8960000000p-8, 0x1.47f7e80000000p-4, 0x1.4b49100000000p-5, 0x1.c046420000000p-4, -0x1.1934280000000p-4, -0x1.8b8fa60000000p-4, 0x1.cc20420000000p-5, -0x1.2e4a220000000p-8, -0x1.0e7e6e0000000p-4, -0x1.2121700000000p-4, -0x1.85b0aa0000000p-7, -0x1.2832660000000p-5, -0x1.cb489e0000000p-5, 0x1.3bcec20000000p-8, 0x1.76ae2a0000000p-4, 0x1.4845d80000000p-6, -0x1.eb330c0000000p-4, -0x1.cdb60e0000000p-5, -0x1.aa63440000000p-3, 0x1.038df60000000p-4, 0x1.8d7ca00000000p-5, 0x1.89838e0000000p-3, 0x1.2e58c80000000p-4, 0x1.582fe00000000p-6, -0x1.208de20000000p-5, 0x1.04d4b20000000p-5, -0x1.d271ec0000000p-4, -0x1.40a21e0000000p-6, 0x1.bdb8560000000p-6, -0x1.1bc41e0000000p-4, -0x1.56dd800000000p-3, 0x1.dc4f100000000p-4, 0x1.99b1e20000000p-4, 0x1.4831ee0000000p-3, 0x1.8a24720000000p-4, -0x1.3ca60c0000000p-4, 0x1.e061500000000p-6, -0x1.94420c0000000p-4, 0x1.36255a0000000p-5, -0x1.9567920000000p-5, -0x1.12eef60000000p-4, -0x1.5cda9c0000000p-4, -0x1.a22f180000000p-9, 0x1.32220a0000000p-12, -0x1.5f87420000000p-8, 0x1.c018bc0000000p-5, 0x1.ec2b3c0000000p-8, -0x1.b910220000000p-6, -0x1.9f65e80000000p-4, 0x1.818a6e0000000p-6, 0x1.3e2c380000000p-6, -0x1.f41e4e0000000p-6, -0x1.d308d20000000p-5, -0x1.ffd8980000000p-5, -0x1.256be40000000p-5, -0x1.decce00000000p-5, 0x1.5fb9e60000000p-4, -0x1.07f2fe0000000p-4, 0x1.1c03c60000000p-5, 0x1.7c56f80000000p-4, 0x1.978cb60000000p-5, -0x1.2872e00000000p-4, 0x1.2360460000000p-5, 0x1.639fec0000000p-7, 0x1.2167920000000p-4, 0x1.a3d5860000000p-6, 0x1.b1cc700000000p-5, 0x1.7e91320000000p-6, 0x1.1fdce20000000p-3, 0x1.b4fa260000000p-4, 0x1.1cd8220000000p-4, 0x1.af12ee0000000p-4, 0x1.74d8e80000000p-5, 0x1.00ee4c0000000p-4, 0x1.287dda0000000p-4, 0x1.69e3ee0000000p-6, -0x1.23e2940000000p-5, 0x1.5b17200000000p-6, -0x1.6e40e80000000p-5, 0x1.558f2e0000000p-6, -0x1.e566600000000p-6, 0x1.8c09340000000p-6, 0x1.72d07c0000000p-4, -0x1.39b2440000000p-8, 0x1.f688180000000p-5, -0x1.08e4380000000p-3, -0x1.0ef90e0000000p-7, 0x1.fc3e6a0000000p-5, -0x1.5a8a320000000p-5, 0x1.aef91c0000000p-11, 0x1.ab832c0000000p-5, 0x1.325a2c0000000p-4, -0x1.24ade00000000p-3, -0x1.5b69820000000p-3, -0x1.49e11a0000000p-5, -0x1.14454e0000000p-3, -0x1.546b9a0000000p-4, 0x1.2594680000000p-4, 0x1.0e46880000000p-5, 0x1.8faa220000000p-4, 0x1.7d704a0000000p-4, -0x1.2c8b440000000p-4, 0x1.c0d4620000000p-4, -0x1.1e017c0000000p-6, -0x1.a04de40000000p-4, 0x1.5cbbf80000000p-5, 0x1.7220b80000000p-4, 0x1.3f47000000000p-3, 0x1.0075de0000000p-5, -0x1.8d31c00000000p-5, 0x1.ba69160000000p-5, 0x1.88316e0000000p-4, 0x1.c3d2220000000p-4, -0x1.c97f8a0000000p-5, 0x1.b4ee3e0000000p-5, -0x1.c2b1320000000p-6, 0x1.22bbe60000000p-4, 0x1.b99e7c0000000p-8, 0x1.312a4e0000000p-7, -0x1.a194940000000p-4, 0x1.1397540000000p-3, 0x1.624af60000000p-4, 0x1.12041c0000000p-3, 0x1.ce78840000000p-4, 0x1.024e740000000p-4, 0x1.e6390a0000000p-5, 0x1.f7066c0000000p-6, 0x1.4c03dc0000000p-6, -0x1.7f19f00000000p-7, 0x1.579df60000000p-4, -0x1.cb91580000000p-6, 0x1.b818120000000p-7, -0x1.38fe460000000p-6, 0x1.6d735c0000000p-3, -0x1.dfbc320000000p-6, 0x1.44b4400000000p-4, 0x1.2d2e220000000p-5, 0x1.999d500000000p-4, 0x1.026ba60000000p-3, 0x1.2f983e0000000p-5, -0x1.4849f60000000p-7, 0x1.8e32de0000000p-6, -0x1.2caaea0000000p-5, 0x1.21889e0000000p-4, -0x1.6485dc0000000p-5, 0x1.48eff80000000p-4, 0x1.ea8cb60000000p-4, -0x1.101c460000000p-5, -0x1.3756640000000p-3, 0x1.a0a3c60000000p-4, -0x1.7a031e0000000p-5, 0x1.37c8720000000p-4, 0x1.727f640000000p-3, -0x1.738f700000000p-5, 0x1.5b76500000000p-4, 0x1.d23c380000000p-5, -0x1.62095e0000000p-9, 0x1.47d9ca0000000p-5, -0x1.5583d60000000p-6, 0x1.2273680000000p-6, 0x1.623ca20000000p-4, 0x1.e886c20000000p-6, -0x1.b47a660000000p-9, 0x1.7108b20000000p-8, -0x1.1a66f40000000p-3, -0x1.020b680000000p-9, -0x1.6d44f20000000p-6, 0x1.c201240000000p-4, 0x1.134b1e0000000p-5, -0x1.64e7260000000p-3, 0x1.deb54a0000000p-5, 0x1.fc4e240000000p-4, 0x1.9971c80000000p-7, -0x1.15a6ae0000000p-3, 0x1.0b93c40000000p-3, -0x1.e9b79e0000000p-4, -0x1.e493fe0000000p-6, -0x1.fd6cb80000000p-5, 0x1.4d4d800000000p-5, -0x1.41a2ca0000000p-5, 0x1.2deb120000000p-6, -0x1.96d2360000000p-5, 0x1.eda1980000000p-6, -0x1.94c4600000000p-4, -0x1.e709940000000p-5, 0x1.9740640000000p-8, -0x1.3d43260000000p-5, 0x1.79359a0000000p-5, -0x1.d92ba00000000p-3, -0x1.1029d60000000p-3, 0x1.446ba40000000p-3, -0x1.940d1e0000000p-3, -0x1.0248180000000p-3, -0x1.0fb1e00000000p-4, -0x1.c935a00000000p-4, 0x1.e4b1560000000p-5, -0x1.e3d4ac0000000p-7, 0x1.9db47a0000000p-6, -0x1.bb3e520000000p-4, -0x1.f05fd80000000p-5, -0x1.8cfe060000000p-6, -0x1.0491920000000p-3, -0x1.87b4ec0000000p-4, -0x1.5e4cf20000000p-4, -0x1.6c24e60000000p-3, -0x1.0952c20000000p-3, 0x1.b922120000000p-5, -0x1.7b9e760000000p-4, -0x1.6018a40000000p-4, -0x1.4a48860000000p-4, -0x1.7569920000000p-3, 0x1.4a768c0000000p-6, -0x1.a1662c0000000p-6, 0x1.8db7060000000p-4, -0x1.474f560000000p-6, -0x1.995cc00000000p-5, -0x1.b5bfdc0000000p-4, -0x1.f4d2020000000p-7, 0x1.82c0120000000p-5, -0x1.352d040000000p-8, 0x1.e3a6820000000p-5, -0x1.962b660000000p-4, 0x1.786c120000000p-4, -0x1.7c40d60000000p-4, -0x1.9cdfa40000000p-4, 0x1.4b0b020000000p-8, -0x1.2451ce0000000p-3, -0x1.680a600000000p-8, -0x1.114fce0000000p-5, 0x1.1c07000000000p-3, -0x1.bab9920000000p-6, -0x1.795c0a0000000p-4, 0x1.3257940000000p-6, 0x1.0459d80000000p-4, -0x1.e4a0ec0000000p-4, -0x1.e2541e0000000p-3, -0x1.60b12c0000000p-4, -0x1.60e4e60000000p-3, 0x1.053d4c0000000p-5, -0x1.6cac4a0000000p-4, -0x1.e796520000000p-8, 0x1.4a4d400000000p-4, 0x1.c3f6280000000p-4, -0x1.aba0de0000000p-7, -0x1.10a1500000000p-4, 0x1.fc20920000000p-5, -0x1.2a73240000000p-5, -0x1.4957760000000p-3, -0x1.8d98620000000p-4, 0x1.d4c80c0000000p-7, -0x1.4d5c5c0000000p-5, -0x1.5717ac0000000p-4, 0x1.f9c0080000000p-7, -0x1.e2f87e0000000p-6, -0x1.8d17fa0000000p-6, -0x1.f5fabc0000000p-4, -0x1.b39f1e0000000p-4, -0x1.af322c0000000p-6, -0x1.bbeb8c0000000p-5, 0x1.efafa00000000p-5, 0x1.15e5680000000p-3, 0x1.ae71820000000p-6, 0x1.1bf4c00000000p-6, -0x1.4e217e0000000p-4, -0x1.068b3c0000000p-4, -0x1.98f1060000000p-4, -0x1.801e040000000p-5, -0x1.2c8fba0000000p-7, -0x1.75e3d20000000p-3, -0x1.dae7940000000p-4, -0x1.5b83960000000p-4, -0x1.6f954e0000000p-3, -0x1.53d2920000000p-3, -0x1.1483380000000p-3, 0x1.716b800000000p-5, 0x1.cec73a0000000p-5, 0x1.0bbf140000000p-4, -0x1.4c6cee0000000p-3, 0x1.9353000000000p-5, -0x1.1917680000000p-3, -0x1.7715b80000000p-3, -0x1.1124120000000p-3, -0x1.5243040000000p-4, -0x1.badeb40000000p-3, -0x1.fc2aca0000000p-3, -0x1.cea7680000000p-3, -0x1.3cba460000000p-4, -0x1.7022760000000p-5, -0x1.c42bd00000000p-4, -0x1.aab8a80000000p-3, -0x1.a2814a0000000p-3, -0x1.3b936c0000000p-4, 0x1.fb00440000000p-4, -0x1.4e11500000000p-3, -0x1.106ec80000000p-3, -0x1.581a200000000p-3, -0x1.29c6600000000p-3, -0x1.430b180000000p-5, -0x1.56e2bc0000000p-3, -0x1.e599a80000000p-5, -0x1.55ca820000000p-6, -0x1.2956d60000000p-3, -0x1.10b30e0000000p-3, -0x1.e2e9700000000p-4, -0x1.41d0da0000000p-3, 0x1.5de70e0000000p-4, -0x1.9cf8d20000000p-4, -0x1.55c7f60000000p-4, 0x1.95dec80000000p-5, -0x1.e5b6180000000p-4, 0x1.4d025c0000000p-5, -0x1.a0f6040000000p-6, -0x1.77fd720000000p-6, -0x1.3ad10a0000000p-5, -0x1.7cba780000000p-7, 0x1.0742040000000p-4, 0x1.c732fe0000000p-6, 0x1.d063c20000000p-6, -0x1.925f140000000p-4, -0x1.8034300000000p-4, -0x1.ba49220000000p-4, 0x1.404d600000000p-5, -0x1.2d05b00000000p-3, -0x1.815c2c0000000p-6, 0x1.2f3d720000000p-4, 0x1.2b338e0000000p-7, 0x1.1e1a660000000p-6}
, {-0x1.41d6340000000p-5, -0x1.6bc0d60000000p-4, -0x1.1b61e60000000p-6, -0x1.fa81f60000000p-6, -0x1.be181e0000000p-4, -0x1.c4a9120000000p-4, -0x1.d33f9e0000000p-5, -0x1.b7b94a0000000p-6, 0x1.c9d0000000000p-6, 0x1.48e7380000000p-5, -0x1.e77cc00000000p-6, -0x1.7e36640000000p-4, 0x1.eac94a0000000p-6, -0x1.65f07e0000000p-5, -0x1.5cff820000000p-4, 0x1.2956340000000p-6, -0x1.0cc2b20000000p-6, -0x1.767c7e0000000p-7, 0x1.39d3dc0000000p-5, 0x1.6364ba0000000p-5, 0x1.1405ee0000000p-3, 0x1.54bc6a0000000p-8, 0x1.311b000000000p-6, 0x1.36e9460000000p-5, 0x1.1990420000000p-3, -0x1.77fdf40000000p-7, 0x1.18dd480000000p-5, -0x1.15d09c0000000p-6, 0x1.4a6dfa0000000p-8, -0x1.c550260000000p-4, 0x1.a18e440000000p-4, 0x1.e53fd80000000p-7, 0x1.4bd2ea0000000p-3, 0x1.72f8c20000000p-5, 0x1.1edd800000000p-3, 0x1.386e660000000p-4, 0x1.99b17a0000000p-5, 0x1.6cb2840000000p-4, 0x1.08a74c0000000p-4, -0x1.9a60140000000p-8, -0x1.278b020000000p-6, 0x1.19ae3c0000000p-4, 0x1.6061620000000p-5, -0x1.7ac50e0000000p-8, 0x1.5d13340000000p-9, -0x1.129f700000000p-5, -0x1.d553120000000p-4, -0x1.1130700000000p-3, -0x1.8ecfb60000000p-5, -0x1.5eae400000000p-6, -0x1.8657b00000000p-4, 0x1.6645a40000000p-4, 0x1.5e81860000000p-4, 0x1.bed3f60000000p-7, 0x1.ca96140000000p-4, 0x1.5a508c0000000p-3, -0x1.c01dce0000000p-9, 0x1.c6f3320000000p-4, -0x1.f29a7e0000000p-5, -0x1.f9ffa00000000p-7, -0x1.781bde0000000p-8, -0x1.ac68200000000p-9, 0x1.431cfe0000000p-6, 0x1.198fe60000000p-5, 0x1.0a6bf80000000p-3, 0x1.89a8480000000p-4, 0x1.9743240000000p-5, 0x1.9a21100000000p-3, 0x1.f790980000000p-4, 0x1.697d360000000p-4, 0x1.105ba80000000p-4, 0x1.e1f0ea0000000p-3, 0x1.850f560000000p-5, 0x1.009bcc0000000p-6, -0x1.0e6c920000000p-4, 0x1.2910280000000p-5, -0x1.1840b80000000p-4, -0x1.86c1080000000p-5, -0x1.5fbc160000000p-4, -0x1.8d4c1e0000000p-6, 0x1.3502dc0000000p-5, 0x1.87825c0000000p-6, 0x1.54017c0000000p-3, 0x1.b199cc0000000p-6, 0x1.538b160000000p-3, 0x1.f49ea80000000p-6, 0x1.5417000000000p-5, 0x1.182ea80000000p-7, -0x1.6148900000000p-5, 0x1.fac50c0000000p-6, -0x1.979b440000000p-6, 0x1.5805900000000p-5, 0x1.4a84d80000000p-4, -0x1.2ce8b80000000p-4, -0x1.0bb7200000000p-3, -0x1.b251b00000000p-7, 0x1.1625de0000000p-5, 0x1.876ab40000000p-5, -0x1.9f773c0000000p-7, -0x1.acbc4a0000000p-5, -0x1.60f9e60000000p-7, -0x1.954e540000000p-5, -0x1.df557c0000000p-4, 0x1.4bbbda0000000p-4, -0x1.fef3a40000000p-5, 0x1.504ed60000000p-7, -0x1.1ee3160000000p-4, -0x1.c01f520000000p-4, 0x1.15b6100000000p-4, 0x1.fbc49c0000000p-6, -0x1.1eec9a0000000p-3, -0x1.a2cce40000000p-4, -0x1.dc29b60000000p-7, -0x1.488abe0000000p-6, -0x1.3b2a1a0000000p-4, -0x1.d6fc480000000p-5, -0x1.94757a0000000p-9, -0x1.5036700000000p-4, -0x1.67220e0000000p-9, -0x1.b621b00000000p-4, 0x1.1148460000000p-4, -0x1.79c2da0000000p-5, -0x1.4068860000000p-5, -0x1.6e09240000000p-6, -0x1.99662c0000000p-5, -0x1.ca80a20000000p-5, 0x1.efec040000000p-7, -0x1.c572280000000p-6, 0x1.99957c0000000p-6, 0x1.cdbfa20000000p-5, -0x1.7cbd700000000p-5, 0x1.6de56e0000000p-4, -0x1.6064d00000000p-5, -0x1.5c1b5e0000000p-6, 0x1.e8ebf00000000p-4, -0x1.3bdb180000000p-9, 0x1.81ce3c0000000p-4, 0x1.a33b9e0000000p-4, 0x1.eb67740000000p-7, -0x1.d420900000000p-6, -0x1.fe35460000000p-5, 0x1.2c5de80000000p-4, -0x1.0b70a60000000p-5, -0x1.1d91c40000000p-5, 0x1.0f0cf80000000p-4, -0x1.1164440000000p-5, 0x1.16824e0000000p-4, 0x1.8ef28e0000000p-5, 0x1.2967a80000000p-4, 0x1.41202c0000000p-7, 0x1.5d410c0000000p-5, 0x1.09d9780000000p-3, -0x1.8d419e0000000p-6, -0x1.176b260000000p-5, 0x1.9ba7d40000000p-4, -0x1.f8bd680000000p-5, 0x1.58eaba0000000p-6, 0x1.2976540000000p-5, -0x1.0d62220000000p-6, 0x1.1489680000000p-5, -0x1.d7e0fe0000000p-8, -0x1.b2a8cc0000000p-7, -0x1.27dce60000000p-7, 0x1.4bc7d60000000p-4, -0x1.52dd9a0000000p-7, -0x1.d16a6e0000000p-4, -0x1.763dc80000000p-5, 0x1.2fe9f20000000p-3, -0x1.83157e0000000p-3, -0x1.e198cc0000000p-10, -0x1.a602140000000p-4, 0x1.7326f80000000p-7, 0x1.029aa00000000p-4, 0x1.36e39a0000000p-5, 0x1.61c5220000000p-6, 0x1.0ce4580000000p-11, -0x1.8f6c700000000p-4, -0x1.3f7ee40000000p-9, -0x1.4ec6a00000000p-4, 0x1.be9d6e0000000p-4, 0x1.845c260000000p-4, -0x1.7c3be40000000p-4, -0x1.f8a9f40000000p-4, 0x1.1ab0ba0000000p-4, -0x1.ca7a3e0000000p-7, 0x1.0ffaee0000000p-6, -0x1.e01cf20000000p-7, -0x1.0776ae0000000p-4, -0x1.27ba5c0000000p-3, 0x1.b3eb3a0000000p-5, 0x1.5c1a240000000p-3, -0x1.260cfe0000000p-8, -0x1.74e3f60000000p-6, 0x1.05a22e0000000p-4, 0x1.35c6140000000p-6, 0x1.3c24560000000p-4, -0x1.79a5060000000p-7, -0x1.04f6700000000p-2, -0x1.1147de0000000p-4, 0x1.14489a0000000p-8, -0x1.92f2b60000000p-3, -0x1.f9c2760000000p-4, -0x1.79534c0000000p-4, -0x1.5cf3fc0000000p-3, 0x1.2a46dc0000000p-5, -0x1.0a52d00000000p-5, -0x1.8dd5540000000p-4, -0x1.2688b20000000p-4, -0x1.5ad1d20000000p-4, -0x1.fd88520000000p-4, -0x1.e228ec0000000p-4, 0x1.0cea000000000p-5, -0x1.d720720000000p-6, -0x1.f2d2ae0000000p-6, -0x1.7a1bfa0000000p-4, 0x1.251fc60000000p-5, -0x1.91e2760000000p-5, -0x1.5de4440000000p-5, -0x1.e6421e0000000p-6, -0x1.b7eb960000000p-5, 0x1.9b53840000000p-4, -0x1.6df3060000000p-8, 0x1.6de7fa0000000p-5, 0x1.9850040000000p-5, -0x1.3fb41c0000000p-4, -0x1.540b560000000p-10, -0x1.3d16a80000000p-4, -0x1.f95e3c0000000p-4, -0x1.66a9ae0000000p-3, 0x1.1769920000000p-6, -0x1.71e6500000000p-5, 0x1.a697880000000p-6, -0x1.21a7d80000000p-5, -0x1.6373480000000p-5, 0x1.226eba0000000p-5, -0x1.77dd460000000p-4, 0x1.bede5e0000000p-5, -0x1.8929c20000000p-6, -0x1.2758160000000p-3, -0x1.9e93360000000p-5, -0x1.8a7bb60000000p-3, -0x1.98334e0000000p-4, -0x1.d819cc0000000p-4, 0x1.b4711c0000000p-4, -0x1.ffd72a0000000p-5, -0x1.9a493a0000000p-3, -0x1.48d14c0000000p-3, 0x1.3674f40000000p-3, -0x1.56fc320000000p-5, -0x1.894ab00000000p-3, -0x1.00e5440000000p-4, -0x1.0f49620000000p-3, 0x1.84c9d60000000p-3, 0x1.1ec8ac0000000p-4, 0x1.aa2b620000000p-4, 0x1.6b8f5e0000000p-7, -0x1.8628f60000000p-7, 0x1.d286300000000p-7, -0x1.02c9340000000p-3, -0x1.c528ae0000000p-8, 0x1.37c2240000000p-5, -0x1.bd7da00000000p-4, -0x1.11b3b40000000p-3, 0x1.c361e00000000p-4, -0x1.8f10ac0000000p-6, -0x1.c1f3340000000p-4, -0x1.b2d4b20000000p-6, -0x1.60c43a0000000p-5, 0x1.28f2dc0000000p-4, 0x1.fd33700000000p-5, 0x1.9e5e300000000p-3, 0x1.a324a40000000p-4, -0x1.363be80000000p-8, -0x1.36fa000000000p-3, -0x1.cbb4380000000p-6, -0x1.a281e40000000p-4, -0x1.e33f1e0000000p-8, -0x1.3397580000000p-6, 0x1.17ae4e0000000p-5, -0x1.1ee22c0000000p-3, 0x1.142c200000000p-8, -0x1.add1740000000p-6, 0x1.1423cc0000000p-7, -0x1.f88a900000000p-4, -0x1.bcc7500000000p-5, 0x1.01edd40000000p-4, 0x1.b77fea0000000p-4, -0x1.89be1e0000000p-6, -0x1.8c3caa0000000p-5, 0x1.a2fdf80000000p-5, -0x1.2d20960000000p-8, -0x1.04d7180000000p-2, -0x1.e1c6100000000p-5, -0x1.445f620000000p-4, 0x1.6a574e0000000p-5, -0x1.46d6180000000p-3, -0x1.9b4c180000000p-4, 0x1.daa7920000000p-11, -0x1.84a4100000000p-4, -0x1.1ef9520000000p-5, 0x1.46bb1e0000000p-4, 0x1.bbdf1e0000000p-6, -0x1.aa71a20000000p-6, -0x1.68418e0000000p-6, -0x1.118e1a0000000p-4, -0x1.4b23440000000p-4, 0x1.2297660000000p-6, -0x1.5d8dda0000000p-4, 0x1.4639320000000p-8, -0x1.aed5880000000p-6, 0x1.1c28f60000000p-5, -0x1.1d73140000000p-3, 0x1.df593c0000000p-6, -0x1.352b180000000p-5, -0x1.8682280000000p-6, 0x1.517f640000000p-4, -0x1.6699ae0000000p-4, -0x1.2381360000000p-7, -0x1.7cbd280000000p-5, 0x1.3f748a0000000p-5, 0x1.40f6fa0000000p-4, 0x1.1f47820000000p-4, 0x1.af142c0000000p-5, 0x1.3f8d420000000p-4, -0x1.7e0c6e0000000p-4, 0x1.1d4cc80000000p-3, 0x1.273ae20000000p-4, -0x1.c927120000000p-4, 0x1.2b55880000000p-5, 0x1.f0d96a0000000p-5, -0x1.3720460000000p-5, 0x1.06878e0000000p-4, -0x1.b59e580000000p-5, 0x1.a36be00000000p-4, -0x1.5e05ac0000000p-4, 0x1.4fea8e0000000p-4, -0x1.d355800000000p-4, 0x1.0f7aae0000000p-7, 0x1.374db40000000p-5, -0x1.088d9c0000000p-3, -0x1.bb8a3a0000000p-4, -0x1.4d23bc0000000p-5, 0x1.920e7c0000000p-6, 0x1.27f19a0000000p-5, -0x1.fefea80000000p-7, 0x1.f7c04c0000000p-6, -0x1.2caae80000000p-4, -0x1.4bbae00000000p-4, 0x1.da52da0000000p-4, -0x1.0576140000000p-5, -0x1.ded4300000000p-6, 0x1.98af8a0000000p-4, 0x1.e5ff5a0000000p-5, -0x1.e6dd000000000p-5, -0x1.138f8e0000000p-6, -0x1.5b4c2c0000000p-3, -0x1.12b8520000000p-3, -0x1.51b9360000000p-5, -0x1.8dad580000000p-6, -0x1.372cd00000000p-4, 0x1.0c2fe40000000p-5, -0x1.15a4c20000000p-4, 0x1.5984100000000p-5, -0x1.e4cc0e0000000p-5, 0x1.0243120000000p-5, 0x1.e744500000000p-5, 0x1.8fe7140000000p-6, 0x1.83dc3a0000000p-5, -0x1.33913c0000000p-5, 0x1.f3ef0a0000000p-6, -0x1.522d500000000p-4, 0x1.f5d95e0000000p-5, 0x1.8422120000000p-4, -0x1.00b0920000000p-7, 0x1.db3d660000000p-4, -0x1.6931480000000p-4, 0x1.e43f860000000p-4, 0x1.41cb840000000p-4, 0x1.d256de0000000p-4, 0x1.554a120000000p-5, 0x1.fec04c0000000p-6, 0x1.9839d40000000p-6, -0x1.9b3fce0000000p-5, -0x1.ca7f4a0000000p-5, 0x1.002e280000000p-4, -0x1.ef79860000000p-7, -0x1.21afa60000000p-4, -0x1.1a3f980000000p-4, 0x1.e9c31e0000000p-5, 0x1.12128a0000000p-4, 0x1.6894340000000p-6, -0x1.64f5420000000p-5, 0x1.dd16e40000000p-4, 0x1.c3e0720000000p-4, 0x1.b225d60000000p-5, 0x1.1b10780000000p-11, -0x1.fb3cba0000000p-5, -0x1.0c1b100000000p-5, 0x1.2950f80000000p-5, 0x1.c530920000000p-5, -0x1.bad85a0000000p-4, -0x1.36f3b60000000p-4, 0x1.452de00000000p-5, -0x1.16c1360000000p-3, -0x1.1959e20000000p-5, -0x1.9189a80000000p-6, 0x1.bfdf9c0000000p-5, -0x1.9a67340000000p-4, 0x1.aa117c0000000p-5, 0x1.ac57920000000p-6, 0x1.d0c18a0000000p-5, 0x1.6f3a9a0000000p-4, -0x1.cf78cc0000000p-4, -0x1.72170c0000000p-3, 0x1.169bf80000000p-4, -0x1.77750c0000000p-4, 0x1.f1385e0000000p-5, 0x1.3b8f1e0000000p-5, -0x1.1d23ec0000000p-4, -0x1.5be45e0000000p-4, -0x1.45b2340000000p-4, 0x1.ad0ef60000000p-5, 0x1.15180e0000000p-3, -0x1.d8a3460000000p-4, 0x1.1c02140000000p-3, -0x1.60401e0000000p-6, 0x1.1f09240000000p-5, 0x1.3f57bc0000000p-3, 0x1.2567f80000000p-6, -0x1.8aa7760000000p-5, -0x1.f2ecc00000000p-5, -0x1.c78d180000000p-5, 0x1.5665d40000000p-4, 0x1.8baec00000000p-4, 0x1.34b0c00000000p-5, 0x1.f89c380000000p-6, 0x1.c091c40000000p-5, -0x1.2912b00000000p-5, 0x1.20e1000000000p-5, -0x1.2391860000000p-3, -0x1.dd4dee0000000p-5, -0x1.12f1ec0000000p-9, 0x1.2775ac0000000p-3, 0x1.16132c0000000p-4, 0x1.ea09a80000000p-5, 0x1.968ff20000000p-4, -0x1.2d1ba60000000p-7, 0x1.e4ce3e0000000p-4, 0x1.64a0080000000p-7, 0x1.5a77a80000000p-4, 0x1.2d6a7c0000000p-6, -0x1.4eb1bc0000000p-7, 0x1.248d3c0000000p-4, -0x1.73ba900000000p-4, 0x1.1eb6f20000000p-5, -0x1.8e2d740000000p-10, 0x1.579c100000000p-5, -0x1.7e73c80000000p-8, 0x1.a3d08e0000000p-4, 0x1.7968c40000000p-5, 0x1.23161c0000000p-6, 0x1.bcbb3a0000000p-4, 0x1.0243280000000p-6, 0x1.f597e00000000p-4, 0x1.560ce80000000p-4, 0x1.aa413a0000000p-5, -0x1.7f20460000000p-6, 0x1.0d6b020000000p-4, -0x1.a03a820000000p-6, 0x1.bd86c60000000p-7, -0x1.c3fd2a0000000p-9, 0x1.1dfdd40000000p-11, 0x1.59d73e0000000p-8, 0x1.25c7440000000p-6, 0x1.b9a60c0000000p-3, 0x1.5aa0cc0000000p-5, -0x1.8790cc0000000p-8, 0x1.14a4f20000000p-3, 0x1.3d66fc0000000p-4, 0x1.7d3b6a0000000p-3, 0x1.7a977e0000000p-3, -0x1.0ce6440000000p-5, -0x1.ba88b60000000p-5, 0x1.8625ee0000000p-4, 0x1.b8bb2a0000000p-4, 0x1.6d34cc0000000p-4, 0x1.9b6bde0000000p-5, 0x1.07a7da0000000p-8, -0x1.dcd7b60000000p-5, 0x1.eb53700000000p-6, -0x1.09f2580000000p-4, 0x1.c7f39a0000000p-4, -0x1.367ede0000000p-9, -0x1.eb355c0000000p-5, 0x1.586dca0000000p-3, -0x1.3ebaac0000000p-3, 0x1.09619e0000000p-4, 0x1.ac917a0000000p-5, -0x1.9d5ea80000000p-4, 0x1.0e32fe0000000p-4, 0x1.b004fa0000000p-7, 0x1.f70dba0000000p-7, 0x1.195bf20000000p-4, 0x1.84719e0000000p-4, -0x1.7038ea0000000p-4, -0x1.157b0e0000000p-4, -0x1.33019c0000000p-4, -0x1.61c31c0000000p-4, -0x1.1421cc0000000p-8, -0x1.e1fd6a0000000p-3, 0x1.d010900000000p-6, -0x1.6458800000000p-4, -0x1.38c7500000000p-6, -0x1.bc6bcc0000000p-6, 0x1.054bf20000000p-5, -0x1.52a4b20000000p-5, 0x1.6218120000000p-4, 0x1.2d22ce0000000p-9, -0x1.19170c0000000p-7, 0x1.31a3640000000p-4, -0x1.ecc7a00000000p-4, 0x1.e0c7540000000p-9, -0x1.c2a7f40000000p-6, -0x1.c2b6400000000p-6, -0x1.72f20a0000000p-8, 0x1.c30fc20000000p-5, 0x1.a01d6e0000000p-4, 0x1.53cf480000000p-4, 0x1.82f4fe0000000p-4, -0x1.7460ea0000000p-5, 0x1.a1a8060000000p-5, 0x1.a2817c0000000p-7, 0x1.18def20000000p-4, -0x1.b401240000000p-3, 0x1.1823aa0000000p-4, 0x1.7b7cba0000000p-4, -0x1.6ef0500000000p-4, -0x1.868ca60000000p-9, -0x1.282dda0000000p-9, -0x1.027ef00000000p-3, -0x1.b5cc000000000p-9, 0x1.61e7aa0000000p-3, 0x1.d66f840000000p-6, 0x1.41254c0000000p-3, -0x1.1a268c0000000p-5, -0x1.5e1eee0000000p-4, 0x1.d52bf00000000p-5, 0x1.d265780000000p-5, 0x1.33ee840000000p-5, -0x1.07f6fa0000000p-7, -0x1.8e566a0000000p-8, 0x1.a82a3e0000000p-4, -0x1.140e720000000p-3, -0x1.7244200000000p-5, -0x1.e9486e0000000p-12, -0x1.5b84660000000p-3, 0x1.4059440000000p-6, -0x1.90f6280000000p-4, -0x1.0082bc0000000p-6, 0x1.d271360000000p-3, -0x1.37a1f80000000p-5, 0x1.5e77e20000000p-4, -0x1.869ad60000000p-5, 0x1.e9c29c0000000p-5, 0x1.b3d8e80000000p-4, 0x1.bf16020000000p-4, 0x1.b31f6c0000000p-4, 0x1.f185340000000p-4, 0x1.a118b00000000p-4, 0x1.194da00000000p-3, 0x1.59bdec0000000p-4, -0x1.3a370e0000000p-5, 0x1.5b59b80000000p-9, -0x1.c5f8b40000000p-7, 0x1.c100180000000p-5, -0x1.39ff8c0000000p-5}
, {0x1.1b10760000000p-5, -0x1.19fa800000000p-7, 0x1.8414980000000p-7, 0x1.f5af1e0000000p-7, 0x1.84feb80000000p-4, -0x1.ab93340000000p-7, 0x1.69575e0000000p-4, 0x1.7da9880000000p-5, -0x1.42f0ae0000000p-4, 0x1.183d700000000p-5, 0x1.59c4660000000p-4, -0x1.d4709e0000000p-5, 0x1.5e86f00000000p-4, 0x1.093d9e0000000p-4, 0x1.7207440000000p-6, 0x1.49961e0000000p-6, -0x1.1ffd400000000p-5, 0x1.b511d20000000p-7, -0x1.9474360000000p-5, 0x1.82197c0000000p-5, -0x1.812b1c0000000p-7, -0x1.cb72e00000000p-4, 0x1.0869b80000000p-5, -0x1.8bdb980000000p-9, -0x1.f281560000000p-5, -0x1.9a8d960000000p-4, 0x1.846ba80000000p-7, -0x1.53620a0000000p-5, -0x1.5f4cca0000000p-5, 0x1.513d580000000p-4, -0x1.841aec0000000p-6, -0x1.9748ce0000000p-5, -0x1.270f0c0000000p-4, -0x1.2d73a80000000p-4, -0x1.113ece0000000p-8, -0x1.7a04860000000p-5, -0x1.800a9a0000000p-5, 0x1.cc76ee0000000p-5, -0x1.2e4e000000000p-3, 0x1.98743e0000000p-5, -0x1.6242760000000p-11, -0x1.cebd000000000p-4, -0x1.b725000000000p-5, -0x1.b9220e0000000p-4, 0x1.24e16e0000000p-3, 0x1.c89d360000000p-5, -0x1.11d66e0000000p-5, -0x1.a8a0320000000p-5, -0x1.5cd1da0000000p-6, -0x1.e8e86c0000000p-4, -0x1.69ce740000000p-4, -0x1.325eea0000000p-7, -0x1.bce7800000000p-10, -0x1.bcf9340000000p-7, 0x1.ba6c360000000p-5, -0x1.11dece0000000p-4, -0x1.1a5a720000000p-4, -0x1.8c25ae0000000p-6, -0x1.55e2160000000p-7, -0x1.958b0c0000000p-4, -0x1.e958300000000p-5, -0x1.7f6b780000000p-11, 0x1.266ada0000000p-7, -0x1.c422260000000p-7, 0x1.010fca0000000p-5, 0x1.a734900000000p-4, -0x1.12d8b60000000p-5, 0x1.57fc380000000p-3, 0x1.be5f7a0000000p-4, 0x1.466de80000000p-5, 0x1.7483420000000p-5, -0x1.52cc480000000p-9, -0x1.5694c80000000p-4, 0x1.06ffae0000000p-4, 0x1.5942a80000000p-7, -0x1.d823ce0000000p-6, -0x1.0d68c20000000p-6, -0x1.7dbd980000000p-5, 0x1.0a40220000000p-3, 0x1.32eae40000000p-7, 0x1.d255e40000000p-8, -0x1.7e027c0000000p-6, -0x1.92f2000000000p-6, 0x1.3c3d1c0000000p-4, 0x1.02f29a0000000p-3, -0x1.5956ec0000000p-5, -0x1.ba5fe40000000p-7, 0x1.492fd40000000p-5, 0x1.3711cc0000000p-5, 0x1.1f0a520000000p-4, -0x1.528e600000000p-8, 0x1.c8b1f60000000p-5, 0x1.0cf6c60000000p-5, -0x1.4154e60000000p-5, -0x1.4f4c020000000p-9, -0x1.42c3f80000000p-6, -0x1.54b7ca0000000p-6, 0x1.29db0e0000000p-5, 0x1.71615c0000000p-7, -0x1.76922e0000000p-8, -0x1.accf300000000p-4, -0x1.a5cb0e0000000p-4, 0x1.b627540000000p-6, -0x1.ae0a960000000p-5, -0x1.135e760000000p-5, -0x1.ca03600000000p-5, 0x1.3d262c0000000p-7, -0x1.f271580000000p-5, 0x1.9785e00000000p-4, -0x1.f1373e0000000p-5, 0x1.8092460000000p-5, -0x1.d811ae0000000p-5, -0x1.496b920000000p-5, -0x1.3892d00000000p-4, 0x1.2e3d7c0000000p-4, -0x1.33c5560000000p-2, -0x1.b4a7fa0000000p-4, -0x1.53db0c0000000p-7, -0x1.055d160000000p-5, -0x1.47b5f00000000p-8, -0x1.2e2ac20000000p-8, -0x1.70c3500000000p-5, -0x1.1c4b9a0000000p-4, -0x1.0ed3c80000000p-4, -0x1.0062b00000000p-5, -0x1.fb09b00000000p-6, -0x1.3fadee0000000p-6, -0x1.335a580000000p-4, 0x1.eded440000000p-6, 0x1.0d62880000000p-5, 0x1.0b3ae00000000p-6, 0x1.09ae540000000p-4, -0x1.2c2c900000000p-4, 0x1.6e1b460000000p-5, 0x1.145f720000000p-6, -0x1.d6dd120000000p-5, 0x1.abb8ec0000000p-6, -0x1.aa1bda0000000p-8, 0x1.06da8c0000000p-4, -0x1.dbddd60000000p-5, -0x1.6f84400000000p-3, -0x1.4b4ede0000000p-4, 0x1.dd20ba0000000p-5, 0x1.39c81a0000000p-7, 0x1.2341240000000p-5, 0x1.b4e7bc0000000p-5, -0x1.ee93ae0000000p-5, 0x1.6fb3bc0000000p-4, -0x1.cb3d180000000p-5, -0x1.d919280000000p-6, 0x1.318e8e0000000p-5, 0x1.3914ea0000000p-3, 0x1.778e260000000p-5, -0x1.ec95cc0000000p-5, -0x1.951ce20000000p-4, 0x1.deefd60000000p-7, -0x1.cebf4a0000000p-4, -0x1.116be20000000p-5, -0x1.99a7ce0000000p-5, 0x1.cd9a2c0000000p-5, 0x1.373b6e0000000p-8, 0x1.8c410a0000000p-4, 0x1.7a9c020000000p-6, 0x1.0e43fe0000000p-3, 0x1.3571c60000000p-4, -0x1.00e0f00000000p-5, 0x1.6b8e920000000p-4, 0x1.7398760000000p-3, -0x1.db7d280000000p-5, 0x1.a72a8e0000000p-6, 0x1.e62a3e0000000p-6, -0x1.58278e0000000p-5, -0x1.2529860000000p-5, 0x1.3b4ebc0000000p-4, -0x1.125df00000000p-5, 0x1.1bc5e80000000p-5, 0x1.4277800000000p-5, 0x1.6e97bc0000000p-5, -0x1.7d4a8c0000000p-4, 0x1.750e700000000p-3, 0x1.c704b60000000p-3, -0x1.aff7d00000000p-4, -0x1.4c80bc0000000p-5, 0x1.be17520000000p-3, -0x1.b409860000000p-5, 0x1.ca667c0000000p-6, -0x1.0040dc0000000p-4, -0x1.c5a2080000000p-5, 0x1.1d56c40000000p-7, -0x1.09582e0000000p-8, 0x1.cf3e620000000p-4, -0x1.99285a0000000p-7, -0x1.79d7220000000p-5, 0x1.7b69360000000p-5, -0x1.63341c0000000p-5, -0x1.048d100000000p-3, -0x1.f0b7a00000000p-4, -0x1.05e82e0000000p-4, -0x1.64a85c0000000p-4, -0x1.22c9560000000p-4, 0x1.b609b20000000p-8, -0x1.6267e80000000p-5, 0x1.fb98760000000p-5, 0x1.8937700000000p-9, 0x1.2ccd1c0000000p-4, -0x1.d948480000000p-10, -0x1.37f3340000000p-4, -0x1.3c5cea0000000p-9, 0x1.62f4740000000p-5, -0x1.e2bc740000000p-7, -0x1.aec3380000000p-4, -0x1.657ad40000000p-4, -0x1.624cec0000000p-6, 0x1.352dd20000000p-4, 0x1.598a320000000p-4, -0x1.7327fe0000000p-5, 0x1.2d509e0000000p-4, -0x1.e0a9cc0000000p-5, -0x1.5824800000000p-4, 0x1.2865e40000000p-4, -0x1.4b0d0c0000000p-3, -0x1.222b220000000p-3, 0x1.3c849c0000000p-5, -0x1.98c75c0000000p-4, 0x1.5a22640000000p-8, 0x1.9789960000000p-4, -0x1.71ba340000000p-5, 0x1.6760760000000p-5, -0x1.2bb02a0000000p-7, 0x1.869a1c0000000p-4, 0x1.a1e14a0000000p-4, -0x1.7730440000000p-6, -0x1.c255ae0000000p-7, 0x1.dfd6420000000p-9, 0x1.25cdfc0000000p-4, -0x1.c5c1180000000p-8, 0x1.a06f280000000p-6, -0x1.fa10220000000p-4, -0x1.6cc0320000000p-4, -0x1.2980020000000p-6, -0x1.a03fc20000000p-6, 0x1.09e34a0000000p-8, -0x1.ebf5100000000p-5, 0x1.fe4a6a0000000p-5, 0x1.3de1ee0000000p-4, -0x1.ef09280000000p-5, -0x1.ae4da20000000p-9, -0x1.cad8c80000000p-4, -0x1.d8ccda0000000p-5, -0x1.6b74ca0000000p-5, -0x1.e5c15e0000000p-5, -0x1.a1fcfe0000000p-7, 0x1.bd8ac80000000p-4, 0x1.0f1fda0000000p-5, -0x1.d01ae00000000p-6, -0x1.1cda300000000p-6, -0x1.052b100000000p-4, -0x1.29ebb60000000p-4, 0x1.190c040000000p-4, -0x1.6b91700000000p-4, -0x1.fe4b8c0000000p-4, 0x1.eb7c0c0000000p-7, -0x1.ec490a0000000p-5, 0x1.cdaea80000000p-5, -0x1.47e7ca0000000p-4, -0x1.7b66bc0000000p-4, -0x1.a029f80000000p-9, 0x1.58593a0000000p-6, 0x1.1777000000000p-3, 0x1.4594100000000p-5, 0x1.f301760000000p-7, 0x1.bcaac20000000p-4, -0x1.266f520000000p-2, -0x1.4c8ca80000000p-3, -0x1.fd88e60000000p-4, -0x1.7e31640000000p-3, -0x1.df69440000000p-3, -0x1.e8b09c0000000p-4, -0x1.9528920000000p-3, -0x1.5b7c820000000p-6, -0x1.f747880000000p-3, -0x1.04df820000000p-2, -0x1.98f8de0000000p-3, -0x1.964e980000000p-4, 0x1.0386200000000p-4, 0x1.9ace1e0000000p-5, 0x1.230fd60000000p-7, 0x1.b146a60000000p-9, -0x1.ad60ac0000000p-6, -0x1.0ece580000000p-4, -0x1.c4a93c0000000p-7, 0x1.60b65a0000000p-4, 0x1.fa44de0000000p-5, 0x1.ea66d00000000p-5, -0x1.8a76ce0000000p-8, -0x1.7319a40000000p-5, -0x1.1f716e0000000p-3, -0x1.74fc220000000p-4, 0x1.7789ce0000000p-6, -0x1.228fa40000000p-4, -0x1.c7b8120000000p-8, 0x1.f78e120000000p-7, 0x1.752a460000000p-5, -0x1.78188c0000000p-6, -0x1.d0799c0000000p-4, 0x1.df86480000000p-4, -0x1.80d4020000000p-5, 0x1.b1ebac0000000p-6, 0x1.4b8bd20000000p-6, -0x1.09beb60000000p-4, -0x1.f5d6ee0000000p-5, -0x1.875dd00000000p-5, 0x1.28d1980000000p-6, -0x1.b2858e0000000p-4, 0x1.3665460000000p-6, -0x1.2b46b00000000p-5, 0x1.be5b8c0000000p-4, -0x1.00d91e0000000p-3, -0x1.b9f2420000000p-5, -0x1.09ead20000000p-4, 0x1.4ade320000000p-9, 0x1.a325640000000p-4, 0x1.f393180000000p-7, 0x1.2c95de0000000p-5, 0x1.f64e3e0000000p-6, -0x1.c7f03c0000000p-5, 0x1.2b47440000000p-4, 0x1.9945f00000000p-5, -0x1.4c79ba0000000p-7, 0x1.2402de0000000p-7, 0x1.6617bc0000000p-3, -0x1.09e90e0000000p-7, 0x1.6ab6f60000000p-4, 0x1.27a1d40000000p-3, 0x1.38258e0000000p-6, 0x1.590d5e0000000p-4, 0x1.ecfca60000000p-5, -0x1.4191140000000p-4, -0x1.0e6f580000000p-4, 0x1.c1b2880000000p-8, 0x1.d51a7c0000000p-6, 0x1.01c7780000000p-5, -0x1.aba35e0000000p-5, 0x1.269d9a0000000p-3, 0x1.f12e6c0000000p-6, -0x1.4ec5220000000p-6, -0x1.74d8920000000p-5, -0x1.8684180000000p-4, -0x1.9a64860000000p-5, 0x1.393cc60000000p-9, 0x1.f07a360000000p-4, 0x1.8ea63e0000000p-4, 0x1.336b4e0000000p-3, 0x1.425f240000000p-7, 0x1.285c660000000p-4, -0x1.2ba5a80000000p-6, -0x1.9ac6320000000p-4, 0x1.1c980e0000000p-3, -0x1.56455c0000000p-5, -0x1.e24ec60000000p-4, 0x1.747c8c0000000p-5, 0x1.f8dde40000000p-4, 0x1.cdd45c0000000p-9, 0x1.4ded440000000p-5, -0x1.c6c1900000000p-6, -0x1.2272f60000000p-4, 0x1.4dc7e20000000p-7, -0x1.081aae0000000p-5, -0x1.9aabfa0000000p-4, -0x1.0127f20000000p-5, 0x1.039ffc0000000p-4, -0x1.4b20200000000p-3, -0x1.a108cc0000000p-3, -0x1.2d72600000000p-3, -0x1.d85a4c0000000p-4, -0x1.f10cda0000000p-5, -0x1.ab20ce0000000p-3, -0x1.1602500000000p-3, -0x1.9de2020000000p-6, -0x1.07ce340000000p-4, 0x1.05821c0000000p-7, -0x1.c834e40000000p-4, -0x1.0a7dc20000000p-2, -0x1.6ce7100000000p-6, -0x1.206cae0000000p-4, -0x1.a246e80000000p-5, 0x1.c49e040000000p-4, 0x1.8d561e0000000p-4, -0x1.13b5d40000000p-3, -0x1.977ac20000000p-5, -0x1.2b60e00000000p-4, 0x1.d387500000000p-4, -0x1.6fc5b40000000p-4, -0x1.726d1e0000000p-3, 0x1.326a360000000p-4, -0x1.8a5c5a0000000p-4, 0x1.0dea9c0000000p-4, -0x1.95a0020000000p-5, -0x1.1110f40000000p-3, 0x1.c45a980000000p-6, -0x1.a23bbe0000000p-4, 0x1.255f2a0000000p-5, 0x1.21d8500000000p-11, 0x1.1ed88a0000000p-2, 0x1.299f2c0000000p-4, -0x1.5be9b40000000p-4, -0x1.689dfc0000000p-5, 0x1.018d3e0000000p-3, -0x1.06e1d40000000p-2, -0x1.8df8a00000000p-3, -0x1.b42b3c0000000p-6, -0x1.062b000000000p-3, 0x1.ffaaec0000000p-4, 0x1.e5c64a0000000p-3, -0x1.b97fea0000000p-8, 0x1.8b34b00000000p-6, -0x1.2afdcc0000000p-3, -0x1.c206bc0000000p-4, 0x1.3aa0e60000000p-6, 0x1.158fd40000000p-3, 0x1.59193a0000000p-6, -0x1.58b5da0000000p-4, -0x1.9b83080000000p-4, 0x1.e1421c0000000p-3, -0x1.7fd29c0000000p-3, -0x1.56d63a0000000p-3, 0x1.be7ea60000000p-5, -0x1.6b14460000000p-3, 0x1.5179460000000p-4, 0x1.e4de780000000p-3, 0x1.3b3af00000000p-4, 0x1.92634e0000000p-3, 0x1.1665a40000000p-5, -0x1.dd97100000000p-7, -0x1.73ab660000000p-5, 0x1.b5652a0000000p-5, 0x1.0563080000000p-4, 0x1.f1239c0000000p-6, -0x1.4cc7980000000p-4, -0x1.f5c6d00000000p-5, 0x1.66efda0000000p-4, -0x1.dac0380000000p-7, -0x1.31728a0000000p-4, -0x1.d5f9c00000000p-5, -0x1.08c6100000000p-4, 0x1.fa05be0000000p-7, 0x1.52dd7c0000000p-4, -0x1.d56d460000000p-8, 0x1.794dae0000000p-7, -0x1.cb9e960000000p-5, -0x1.0da1f60000000p-6, -0x1.3e2c660000000p-11, 0x1.280b1c0000000p-6, 0x1.6d65f40000000p-5, 0x1.a936a00000000p-6, 0x1.1979de0000000p-5, 0x1.973df20000000p-4, 0x1.2929000000000p-4, -0x1.f806900000000p-6, 0x1.a9ff1e0000000p-5, 0x1.724cae0000000p-4, -0x1.c240f00000000p-4, -0x1.726cee0000000p-5, -0x1.b098f60000000p-3, -0x1.2a79500000000p-4, -0x1.1329880000000p-4, 0x1.32643c0000000p-7, -0x1.f89ede0000000p-4, -0x1.24ad6a0000000p-3, 0x1.cc02900000000p-6, -0x1.9c7a9a0000000p-5, -0x1.8f76fc0000000p-5, 0x1.354cc80000000p-5, -0x1.83cca00000000p-7, 0x1.6577e00000000p-4, 0x1.ea97220000000p-12, 0x1.36f7640000000p-5, 0x1.b689720000000p-7, -0x1.4832620000000p-4, -0x1.668f940000000p-4, -0x1.d924160000000p-6, 0x1.19f0880000000p-4, 0x1.bac8a20000000p-4, -0x1.42863a0000000p-4, -0x1.149f540000000p-3, 0x1.6a034a0000000p-5, 0x1.5428e80000000p-8, 0x1.12d68c0000000p-8, -0x1.2512a00000000p-3, -0x1.31b6520000000p-4, 0x1.26fd320000000p-5, 0x1.224fec0000000p-4, 0x1.0c1eae0000000p-5, -0x1.bca5860000000p-7, -0x1.31528a0000000p-3, 0x1.6d6ff20000000p-4, -0x1.efe4e40000000p-7, -0x1.3e1e2e0000000p-3, 0x1.8a54dc0000000p-5, -0x1.4c53060000000p-4, -0x1.5aae880000000p-4, -0x1.f4558c0000000p-6, -0x1.35c12c0000000p-3, -0x1.a274780000000p-5, -0x1.395e640000000p-4, -0x1.1fa0ae0000000p-6, 0x1.7843120000000p-5, -0x1.ba01f60000000p-4, 0x1.e4a7ca0000000p-4, 0x1.fb71a00000000p-3, -0x1.2301380000000p-3, 0x1.2722fa0000000p-2, -0x1.c69e360000000p-10, 0x1.17580c0000000p-6, 0x1.18adf00000000p-5, 0x1.ba77160000000p-6, -0x1.59ac560000000p-6, 0x1.78ff320000000p-7, -0x1.5af3040000000p-5, -0x1.1569f40000000p-4, 0x1.61f8760000000p-4, -0x1.c183b20000000p-6, -0x1.c76f400000000p-6, 0x1.2993720000000p-4, 0x1.6696680000000p-4, 0x1.aced500000000p-7, -0x1.36fdc80000000p-4, 0x1.42013c0000000p-4, 0x1.8dae680000000p-7, 0x1.2fd3080000000p-4, 0x1.375aa20000000p-9, -0x1.c61e780000000p-7, -0x1.f047780000000p-7, -0x1.4dcf740000000p-8, 0x1.d1b5140000000p-6, 0x1.b1b1380000000p-8, 0x1.c7ea3a0000000p-6, 0x1.24d6c40000000p-5, -0x1.a6d3e60000000p-6, 0x1.c57c6e0000000p-5, 0x1.d02c9e0000000p-3, -0x1.3a0b320000000p-8, -0x1.b8fe6a0000000p-6, -0x1.3e620e0000000p-5, -0x1.51f5c20000000p-4, -0x1.feebbc0000000p-6, 0x1.7afc200000000p-4, -0x1.0816b00000000p-4, -0x1.007bc60000000p-4, 0x1.73ff580000000p-8, 0x1.024f6c0000000p-7, -0x1.f6239e0000000p-4, 0x1.1e07fc0000000p-3, 0x1.50d03e0000000p-5, 0x1.d8255e0000000p-5, -0x1.ac21120000000p-6, 0x1.9cccb20000000p-5, 0x1.5439ca0000000p-4, -0x1.6443d00000000p-4, 0x1.0576d60000000p-4, 0x1.91e0e80000000p-3, 0x1.10c3600000000p-4, 0x1.5175ba0000000p-4, 0x1.d3efee0000000p-4, 0x1.6e7f4c0000000p-5, 0x1.4db0720000000p-3, 0x1.d4352e0000000p-4, -0x1.1260440000000p-5, 0x1.b2ae840000000p-3, 0x1.e1106e0000000p-4, 0x1.a665560000000p-3, 0x1.5515080000000p-3, 0x1.0077080000000p-5, 0x1.43ce5a0000000p-4, 0x1.5de8200000000p-5, 0x1.0061060000000p-4}
