/**
  ******************************************************************************
  * @file    weights/fc.cc
  * @author  Pierre-Emmanuel Novac <penovac@unice.fr>, LEAT, CNRS, Université Côte d'Azur, France
  * @version 1.0.0
  * @date    24 march 2020
  * @brief   Template generating plain C code for the implementation of Convolutional Neural Networks on MCU
  */

#include <stdint.h>

#define INPUT_SAMPLES 128
#define FC_UNITS 10


const float dense_7_bias[FC_UNITS] = {0x1.3d88a20000000p-4, 0x1.45526c0000000p-5, -0x1.79b3b80000000p-3, 0x1.17f08a0000000p-5, -0x1.4a1e920000000p-3, 0x1.fd78aa0000000p-10, -0x1.ab310e0000000p-3, 0x1.47beda0000000p-4, 0x1.1b67b40000000p-2, -0x1.8ba8380000000p-7}
;

const float dense_7_kernel[FC_UNITS][INPUT_SAMPLES] = {{0x1.1e056e0000000p-3, -0x1.e632100000000p-6, -0x1.c8262c0000000p-3, 0x1.ad6bb80000000p-3, -0x1.cb98040000000p-3, 0x1.e127c00000000p-5, -0x1.17ca3e0000000p-2, -0x1.032bfc0000000p-2, -0x1.8b96340000000p-2, 0x1.0234ae0000000p-3, -0x1.2d232e0000000p-3, -0x1.024aba0000000p-2, 0x1.2710260000000p-4, -0x1.417b5c0000000p-2, 0x1.a000a00000000p-10, 0x1.36abb00000000p-3, 0x1.3112f00000000p-3, -0x1.ccd9340000000p-2, 0x1.0355a60000000p-3, 0x1.5a723a0000000p-3, -0x1.023e2e0000000p-2, -0x1.5c3dee0000000p-3, -0x1.3981e00000000p-2, 0x1.64a9a60000000p-3, -0x1.5cdcce0000000p-2, 0x1.c40dae0000000p-3, -0x1.8e39400000000p-5, 0x1.17405a0000000p-3, 0x1.52fcf60000000p-3, -0x1.c622200000000p-4, 0x1.8ddad60000000p-9, -0x1.1f0f900000000p-2, 0x1.18d3180000000p-3, -0x1.f5c43e0000000p-4, -0x1.261f680000000p-2, -0x1.68676e0000000p-2, -0x1.bf7aee0000000p-2, 0x1.ee21fc0000000p-10, 0x1.10b31e0000000p-3, 0x1.6876f20000000p-3, -0x1.c95ec20000000p-4, 0x1.3f7eae0000000p-4, -0x1.1bcab60000000p-3, -0x1.9375ce0000000p-2, 0x1.864df60000000p-4, 0x1.8b2e4e0000000p-3, -0x1.18bbb00000000p-3, -0x1.27f30c0000000p-4, 0x1.8b9e940000000p-3, -0x1.8644b00000000p-2, 0x1.18ab8c0000000p-2, -0x1.a738300000000p-3, -0x1.b3cf0a0000000p-2, -0x1.0853040000000p-2, -0x1.0813500000000p-2, 0x1.ca3a640000000p-3, -0x1.bf61e00000000p-3, -0x1.456cd00000000p-2, -0x1.21a3b20000000p-2, -0x1.c9dd000000000p-2, -0x1.47042c0000000p-2, -0x1.25f9c40000000p-3, -0x1.60cc3a0000000p-2, -0x1.5b15fa0000000p-3, -0x1.ad276a0000000p-5, 0x1.8c9dea0000000p-3, -0x1.53fb400000000p-3, 0x1.a1fc4a0000000p-5, -0x1.0c93380000000p-4, 0x1.e7e2f20000000p-3, 0x1.67a69a0000000p-3, -0x1.8dd9680000000p-2, -0x1.6c64400000000p-3, -0x1.0255940000000p-2, -0x1.21b7e00000000p-2, 0x1.359ffc0000000p-3, 0x1.e047ce0000000p-4, 0x1.56fcce0000000p-3, 0x1.9651500000000p-3, -0x1.219b440000000p-1, 0x1.4915780000000p-3, 0x1.a0c52e0000000p-3, -0x1.42f1940000000p-2, 0x1.408cde0000000p-3, -0x1.3a9adc0000000p-2, 0x1.86e9da0000000p-3, 0x1.2ceaf00000000p-3, -0x1.385b4c0000000p-2, 0x1.61407a0000000p-3, -0x1.5f941a0000000p-2, -0x1.6d6c3e0000000p-2, -0x1.bc8f400000000p-4, -0x1.c7060a0000000p-3, -0x1.6edd220000000p-3, -0x1.edf47c0000000p-4, -0x1.709ec40000000p-2, -0x1.43bf600000000p-3, -0x1.2422c60000000p-3, 0x1.9f31d80000000p-3, 0x1.ba4d3c0000000p-3, -0x1.2534fa0000000p-2, -0x1.ffa7120000000p-3, -0x1.718ee60000000p-3, 0x1.2d464c0000000p-4, 0x1.35d7a20000000p-4, 0x1.6c572c0000000p-3, -0x1.51e7460000000p-3, -0x1.04163e0000000p-2, 0x1.0461da0000000p-3, -0x1.09f8de0000000p-2, 0x1.1b30a60000000p-4, -0x1.b2d9fa0000000p-2, 0x1.2217fa0000000p-3, 0x1.494f040000000p-4, 0x1.24b3fc0000000p-3, -0x1.c32bba0000000p-3, -0x1.377e260000000p-2, -0x1.af82de0000000p-2, 0x1.8fd3300000000p-3, 0x1.15a8920000000p-3, -0x1.bb8e240000000p-3, -0x1.1149e00000000p-3, 0x1.4d6d680000000p-3, 0x1.34dbac0000000p-4, -0x1.a6e8760000000p-8, -0x1.7dab900000000p-2, 0x1.b71c2a0000000p-5, -0x1.ccdbae0000000p-3}
, {0x1.422c560000000p-3, 0x1.41f5060000000p-3, -0x1.f5955e0000000p-4, -0x1.9486460000000p-1, -0x1.bbd1080000000p-3, 0x1.e760940000000p-4, 0x1.03bd040000000p-4, -0x1.29639c0000000p-2, 0x1.9952580000000p-3, -0x1.476baa0000000p-2, 0x1.7727260000000p-3, -0x1.3817f20000000p-3, -0x1.2f6b560000000p-2, -0x1.13b5d20000000p-2, 0x1.42e4da0000000p-3, 0x1.9649500000000p-3, -0x1.b99b780000000p-3, -0x1.7cd5a20000000p-3, -0x1.0b8e020000000p-2, 0x1.d51d120000000p-5, -0x1.9b06a20000000p-2, 0x1.870b1e0000000p-4, -0x1.d637960000000p-4, -0x1.3623f60000000p-2, 0x1.ffc9c20000000p-4, -0x1.6da6be0000000p-3, -0x1.6238a60000000p-2, -0x1.94f2160000000p-2, -0x1.b544c40000000p-2, 0x1.08058a0000000p-2, -0x1.cccda00000000p-2, 0x1.d843600000000p-5, 0x1.cef9520000000p-4, 0x1.53c09c0000000p-3, 0x1.6ad24e0000000p-4, -0x1.05b27a0000000p-4, 0x1.076fea0000000p-3, -0x1.16a1d40000000p-2, -0x1.8a147e0000000p-4, -0x1.d4a05c0000000p-2, -0x1.e361f40000000p-3, -0x1.4432860000000p-3, 0x1.0729300000000p-3, 0x1.d840420000000p-7, -0x1.9113b40000000p-3, -0x1.64f6c00000000p-2, -0x1.5786240000000p-2, 0x1.006f160000000p-3, -0x1.717f640000000p-5, -0x1.c7d7380000000p-4, -0x1.fc0dec0000000p-2, -0x1.143b040000000p-1, -0x1.3f90bc0000000p-4, -0x1.27b9820000000p-2, 0x1.2b1ee60000000p-4, 0x1.5e2fbc0000000p-3, -0x1.2f14960000000p-2, -0x1.75f0100000000p-7, 0x1.4a9c6c0000000p-3, 0x1.5167a60000000p-3, -0x1.6121680000000p-3, -0x1.ccc6920000000p-2, 0x1.2d93ba0000000p-3, -0x1.1522a60000000p-2, 0x1.4a4c920000000p-2, -0x1.8874340000000p-2, -0x1.28c0360000000p-2, 0x1.568e280000000p-4, -0x1.2d6bb40000000p-3, -0x1.5f455a0000000p-3, -0x1.b5aed20000000p-4, -0x1.ba86ee0000000p-3, 0x1.4534a80000000p-3, 0x1.4ef18a0000000p-4, -0x1.3209f80000000p-2, 0x1.31c34c0000000p-3, -0x1.5384420000000p-2, -0x1.c0a1c40000000p-2, -0x1.b2fe200000000p-3, -0x1.c387cc0000000p-3, -0x1.5cef020000000p-4, -0x1.45de5a0000000p-2, -0x1.be8c980000000p-3, 0x1.89ae5c0000000p-4, -0x1.0933cc0000000p-2, -0x1.00d1b60000000p-3, -0x1.d3a6240000000p-3, -0x1.5b3fd00000000p-4, 0x1.4688680000000p-3, 0x1.d958c60000000p-4, 0x1.e309e20000000p-5, 0x1.deb3700000000p-4, 0x1.1fd41c0000000p-3, 0x1.7dd7c00000000p-3, 0x1.9fef820000000p-3, -0x1.a2cdd60000000p-2, 0x1.15163e0000000p-2, 0x1.aa3f500000000p-3, 0x1.5b06820000000p-3, -0x1.51d2400000000p-3, 0x1.aa89ca0000000p-4, -0x1.8e46320000000p-3, 0x1.ed666c0000000p-4, -0x1.9f3cc60000000p-2, -0x1.ddc82c0000000p-3, -0x1.88926a0000000p-5, -0x1.12db9c0000000p-3, 0x1.90d2580000000p-3, -0x1.2487480000000p-2, 0x1.bbfc080000000p-4, -0x1.f7a4360000000p-2, -0x1.24f8ee0000000p-5, 0x1.24bf040000000p-3, -0x1.56bc300000000p-5, 0x1.61f8600000000p-3, 0x1.33af6a0000000p-3, -0x1.48a4760000000p-2, 0x1.2457960000000p-4, -0x1.da651c0000000p-3, -0x1.21aca80000000p-3, 0x1.347a6a0000000p-3, 0x1.14c25c0000000p-3, 0x1.4135240000000p-3, -0x1.47ca900000000p-2, 0x1.e620d00000000p-4, 0x1.cba0480000000p-4, 0x1.4beebc0000000p-3, -0x1.bc50b20000000p-2}
, {-0x1.7513980000000p-6, -0x1.5411c00000000p-2, -0x1.2d717a0000000p-4, -0x1.71ef9a0000000p-5, -0x1.1e20ce0000000p-2, -0x1.0c4b3a0000000p-3, -0x1.2658d60000000p-2, -0x1.7947d80000000p-3, 0x1.78a0da0000000p-3, 0x1.01a43a0000000p-4, 0x1.bcfbd20000000p-3, 0x1.47d9ce0000000p-3, -0x1.db0a9a0000000p-4, -0x1.c106460000000p-3, -0x1.5c41240000000p-3, 0x1.b4438c0000000p-3, 0x1.328d5c0000000p-3, -0x1.4c85640000000p-2, 0x1.fa73280000000p-4, -0x1.71f9000000000p-2, -0x1.9b16820000000p-5, -0x1.00848e0000000p-3, -0x1.b022100000000p-4, 0x1.85be820000000p-4, -0x1.d5d0080000000p-4, -0x1.6e22380000000p-3, 0x1.25679e0000000p-3, 0x1.e69a8c0000000p-5, 0x1.c638680000000p-4, -0x1.0f40440000000p-2, -0x1.da34080000000p-5, 0x1.106f880000000p-3, -0x1.81d6580000000p-3, -0x1.118d940000000p-2, 0x1.155a7a0000000p-3, -0x1.75799e0000000p-2, -0x1.67a1320000000p-3, 0x1.6298160000000p-3, -0x1.00ab740000000p-2, -0x1.20c8960000000p-3, 0x1.7f65980000000p-3, -0x1.0cd72a0000000p-4, 0x1.cd588e0000000p-3, -0x1.42d58c0000000p-3, -0x1.e53a920000000p-3, -0x1.8aaf380000000p-3, -0x1.8dd28c0000000p-5, 0x1.22ee1c0000000p-3, 0x1.5628a00000000p-3, 0x1.9e7fbc0000000p-3, -0x1.60780e0000000p-3, 0x1.64819a0000000p-3, -0x1.3e3bb80000000p-4, 0x1.af2e920000000p-5, -0x1.a5f0cc0000000p-3, -0x1.00cafc0000000p-2, -0x1.de0b480000000p-3, 0x1.1a65260000000p-2, 0x1.4ea5280000000p-3, -0x1.04e1100000000p-3, -0x1.a176520000000p-4, -0x1.4720280000000p-2, -0x1.0f54e60000000p-2, 0x1.08d3960000000p-5, -0x1.c0bf1a0000000p-3, -0x1.c3e2520000000p-3, -0x1.c0b9ea0000000p-3, 0x1.d05fe00000000p-4, 0x1.577de20000000p-4, 0x1.9d9d220000000p-3, 0x1.46911a0000000p-3, -0x1.0b6b580000000p-2, -0x1.81c6dc0000000p-7, -0x1.09c4d20000000p-3, 0x1.2006420000000p-3, -0x1.34dcde0000000p-2, -0x1.4c64f20000000p-2, -0x1.47781e0000000p-3, 0x1.5d89900000000p-3, -0x1.d01fba0000000p-4, 0x1.e6c48a0000000p-5, -0x1.40a8660000000p-3, -0x1.48f8580000000p-2, 0x1.f4bf4e0000000p-4, -0x1.ab1e220000000p-4, 0x1.8a97520000000p-3, 0x1.ed16040000000p-4, 0x1.5da2fc0000000p-3, -0x1.2c70b00000000p-3, -0x1.c12b220000000p-3, -0x1.8c08a00000000p-3, 0x1.9b691c0000000p-3, -0x1.ca51500000000p-7, 0x1.f70a1c0000000p-4, -0x1.0e70940000000p-3, 0x1.28278a0000000p-5, -0x1.7129640000000p-3, -0x1.0f28520000000p-4, -0x1.11be300000000p-3, 0x1.97aa7c0000000p-3, -0x1.d38dfa0000000p-2, -0x1.8483a40000000p-3, 0x1.6df4da0000000p-5, -0x1.d962c80000000p-3, -0x1.2381a20000000p-2, 0x1.67b5480000000p-6, -0x1.a4652c0000000p-5, 0x1.3ba9c60000000p-3, 0x1.2a07960000000p-3, -0x1.2b9fa60000000p-2, -0x1.18b4080000000p-2, 0x1.9d97c60000000p-4, -0x1.3eeffc0000000p-2, 0x1.8d2b300000000p-3, -0x1.b6f2680000000p-3, -0x1.0f2b900000000p-5, -0x1.4a20cc0000000p-2, 0x1.280f360000000p-4, -0x1.2244240000000p-2, 0x1.48df9c0000000p-6, -0x1.39db980000000p-5, 0x1.18fc700000000p-3, 0x1.3cc1f80000000p-3, 0x1.7d92ec0000000p-3, 0x1.8b72740000000p-4, 0x1.0522620000000p-4, -0x1.be981a0000000p-3, 0x1.b3f3700000000p-4}
, {0x1.d6d7fc0000000p-4, -0x1.5bd22a0000000p-2, -0x1.0f29ba0000000p-2, 0x1.3bcc9e0000000p-4, -0x1.75c1b60000000p-4, -0x1.a182080000000p-4, 0x1.16379e0000000p-3, -0x1.243cb00000000p-3, 0x1.ce80860000000p-3, -0x1.0819500000000p-3, 0x1.e421740000000p-4, 0x1.cbedf60000000p-3, -0x1.f64b000000000p-4, -0x1.3239940000000p-2, -0x1.4b46940000000p-3, -0x1.fd74500000000p-3, 0x1.b9d3d80000000p-4, 0x1.69a5c60000000p-3, 0x1.7d648a0000000p-4, -0x1.325e640000000p-4, -0x1.66db240000000p-2, 0x1.658c440000000p-3, 0x1.4a62ec0000000p-3, 0x1.531dbc0000000p-4, 0x1.b488bc0000000p-4, -0x1.e7b4da0000000p-3, 0x1.4b504e0000000p-3, -0x1.2b77380000000p-2, -0x1.1e2f1a0000000p-2, -0x1.ba250c0000000p-4, 0x1.87e3280000000p-3, 0x1.e769620000000p-4, -0x1.36a2260000000p-4, -0x1.da71920000000p-2, -0x1.a256b00000000p-5, 0x1.da09ec0000000p-4, -0x1.0600f20000000p-3, -0x1.cc1aa60000000p-3, -0x1.d6c7420000000p-5, -0x1.24599a0000000p-2, 0x1.6d3a0e0000000p-3, 0x1.6e25ba0000000p-3, -0x1.b81ba00000000p-4, 0x1.5b25a80000000p-3, -0x1.57fef40000000p-4, 0x1.bcc1960000000p-3, 0x1.b92f880000000p-3, -0x1.2ecef60000000p-3, -0x1.6f7df20000000p-5, 0x1.63059a0000000p-3, -0x1.4f16700000000p-2, 0x1.2a01b60000000p-6, 0x1.1536d20000000p-4, 0x1.a53aea0000000p-4, 0x1.2725b00000000p-2, -0x1.618c360000000p-3, -0x1.bfc8c20000000p-4, 0x1.b138b00000000p-3, -0x1.e65ec40000000p-3, -0x1.d676be0000000p-3, -0x1.ddd8f80000000p-3, -0x1.8efa940000000p-3, 0x1.3e0da00000000p-3, 0x1.aef1680000000p-4, -0x1.858ef00000000p-3, -0x1.7b74c60000000p-2, -0x1.b863760000000p-6, -0x1.5cc20c0000000p-2, -0x1.531c680000000p-4, -0x1.fa5b9c0000000p-3, 0x1.eb905e0000000p-9, -0x1.f515c20000000p-3, -0x1.f430c80000000p-3, 0x1.66fa020000000p-3, 0x1.847a800000000p-9, -0x1.99306a0000000p-2, -0x1.71c67a0000000p-3, -0x1.35e61e0000000p-2, -0x1.59c02a0000000p-3, -0x1.5f9fd60000000p-2, -0x1.0642a40000000p-3, -0x1.5ea45a0000000p-3, -0x1.0acd380000000p-2, -0x1.3d19ec0000000p-5, 0x1.7ab49a0000000p-3, 0x1.03726c0000000p-6, 0x1.5bef880000000p-3, -0x1.4118fa0000000p-4, 0x1.a7c08c0000000p-3, -0x1.a3747e0000000p-2, -0x1.f59dd60000000p-4, -0x1.e139920000000p-4, -0x1.8558aa0000000p-3, -0x1.393d160000000p-2, -0x1.1355360000000p-2, -0x1.2658b60000000p-2, -0x1.929bc40000000p-3, 0x1.40df8a0000000p-3, 0x1.d5167a0000000p-5, -0x1.6c47a80000000p-4, -0x1.0d28b40000000p-3, 0x1.7b895a0000000p-3, -0x1.3fc5520000000p-3, -0x1.04a3ee0000000p-2, -0x1.8e5f4a0000000p-3, -0x1.642df20000000p-3, 0x1.c7ac320000000p-3, 0x1.beabb60000000p-4, 0x1.6a11fe0000000p-4, 0x1.7477ca0000000p-3, 0x1.dcc5ae0000000p-4, 0x1.08a02c0000000p-3, -0x1.518dc20000000p-2, -0x1.f0bb2e0000000p-3, -0x1.53e7620000000p-3, -0x1.d77dba0000000p-3, -0x1.6b68620000000p-2, 0x1.99c4220000000p-4, -0x1.a1fe140000000p-3, -0x1.c33bc20000000p-3, 0x1.c9e9ac0000000p-3, -0x1.ccf90c0000000p-5, -0x1.d618700000000p-4, 0x1.20da300000000p-3, -0x1.7697f20000000p-2, 0x1.9692260000000p-4, -0x1.19f9c80000000p-2, 0x1.5df3180000000p-5}
, {-0x1.e5352a0000000p-2, 0x1.6a23c20000000p-9, 0x1.02ecbe0000000p-2, -0x1.a56fa60000000p-4, 0x1.493a6c0000000p-4, -0x1.9511580000000p-4, 0x1.7faae00000000p-3, 0x1.50b6ca0000000p-3, -0x1.03a7140000000p-3, 0x1.824ad20000000p-3, -0x1.7cbe300000000p-3, -0x1.d736ec0000000p-3, -0x1.4e80a20000000p-3, 0x1.f6b7f80000000p-4, 0x1.2f45920000000p-3, 0x1.207d8e0000000p-3, -0x1.7b928e0000000p-2, -0x1.91a16a0000000p-2, -0x1.d259ca0000000p-3, 0x1.e407100000000p-4, 0x1.89a9e60000000p-3, -0x1.30414e0000000p-4, -0x1.9265d00000000p-4, -0x1.d6527e0000000p-3, -0x1.c0ec7e0000000p-6, -0x1.3961160000000p-2, 0x1.c86a040000000p-5, -0x1.a59bd20000000p-13, 0x1.44b57c0000000p-3, -0x1.5feb4c0000000p-3, 0x1.9c5e640000000p-4, -0x1.97e5440000000p-2, -0x1.a4a6ea0000000p-2, -0x1.8b88580000000p-4, -0x1.e2e7fa0000000p-2, 0x1.786ad40000000p-3, 0x1.d63e840000000p-4, 0x1.87edc00000000p-4, -0x1.d21ddc0000000p-4, 0x1.27313a0000000p-4, -0x1.3bcce00000000p-2, -0x1.b286560000000p-3, -0x1.9e97940000000p-4, -0x1.26c9380000000p-3, -0x1.d0a7800000000p-6, -0x1.875dc20000000p-2, -0x1.bd02500000000p-3, 0x1.12872a0000000p-4, 0x1.53855c0000000p-3, -0x1.397abc0000000p-2, 0x1.d8ff940000000p-3, -0x1.451b640000000p-6, 0x1.e1d8f20000000p-3, 0x1.3bb0060000000p-3, -0x1.5fbdc60000000p-6, -0x1.6a4a400000000p-3, -0x1.b089fc0000000p-5, 0x1.85b5280000000p-4, -0x1.a33e1e0000000p-3, 0x1.b72af00000000p-3, 0x1.bb99c60000000p-4, -0x1.7603c20000000p-3, 0x1.1cc96c0000000p-3, 0x1.e469d20000000p-5, 0x1.5a9eac0000000p-7, 0x1.629dc20000000p-3, 0x1.b3e9f60000000p-4, 0x1.47f8a00000000p-5, -0x1.615e200000000p-5, -0x1.8266ce0000000p-3, -0x1.5546960000000p-2, 0x1.437adc0000000p-3, 0x1.f528340000000p-4, -0x1.bf43f20000000p-4, -0x1.32dfc40000000p-4, -0x1.5c8afe0000000p-3, -0x1.19e4d40000000p-4, 0x1.56fa680000000p-3, 0x1.5787480000000p-3, 0x1.e9bf580000000p-3, 0x1.3c38ea0000000p-3, 0x1.1dcf2a0000000p-3, -0x1.f6a03c0000000p-5, 0x1.d8ea2c0000000p-4, 0x1.b67ab60000000p-3, -0x1.9ce9980000000p-3, -0x1.9b79300000000p-3, -0x1.47d8d60000000p-3, -0x1.069a2e0000000p-3, 0x1.553aca0000000p-3, 0x1.13fb160000000p-3, 0x1.4143260000000p-3, 0x1.3617fa0000000p-3, 0x1.618c320000000p-3, 0x1.d4234e0000000p-7, 0x1.7667400000000p-6, 0x1.6cd0240000000p-3, -0x1.34c32a0000000p-2, 0x1.10c6520000000p-4, -0x1.1e7dc60000000p-3, 0x1.2b0f0e0000000p-3, -0x1.9db78c0000000p-3, 0x1.89ceda0000000p-4, -0x1.e76d780000000p-3, 0x1.2a083c0000000p-3, -0x1.4502c60000000p-3, -0x1.57f0080000000p-4, -0x1.646b4a0000000p-2, -0x1.9eaad80000000p-2, -0x1.a985e60000000p-3, -0x1.c7bb5a0000000p-2, -0x1.ca2fda0000000p-2, -0x1.dff5ac0000000p-3, -0x1.1fb0c60000000p-2, -0x1.f0dd260000000p-3, 0x1.fb3f480000000p-4, 0x1.7b36f20000000p-3, -0x1.6cfb400000000p-2, -0x1.e24f620000000p-3, 0x1.b602720000000p-6, -0x1.d804e00000000p-4, 0x1.55f6e80000000p-3, -0x1.5ad8560000000p-2, -0x1.cfb94c0000000p-3, 0x1.c1d6720000000p-4, -0x1.a100680000000p-2, -0x1.e4a8980000000p-7, -0x1.4ba41a0000000p-2}
, {-0x1.e9dd040000000p-3, -0x1.49973a0000000p-3, 0x1.4ee6100000000p-5, -0x1.27fe2e0000000p-3, 0x1.6bd7620000000p-3, 0x1.5c8f2c0000000p-3, 0x1.4019480000000p-3, -0x1.d17ca80000000p-4, 0x1.50e4860000000p-3, -0x1.a0163c0000000p-3, -0x1.caee920000000p-3, -0x1.857fdc0000000p-2, 0x1.aebb440000000p-4, -0x1.8cc0fe0000000p-3, -0x1.4df0200000000p-6, -0x1.20c2660000000p-2, 0x1.ea752e0000000p-4, -0x1.f1e9860000000p-5, 0x1.1e24e60000000p-3, -0x1.94e8ec0000000p-3, -0x1.d25f700000000p-3, -0x1.3f5dd40000000p-2, -0x1.2d8f1a0000000p-3, -0x1.8028f60000000p-5, -0x1.16209a0000000p-2, 0x1.629a9a0000000p-3, -0x1.5534500000000p-2, 0x1.1a8ca60000000p-4, -0x1.1861a60000000p-2, -0x1.04d84a0000000p-3, -0x1.8cddde0000000p-3, -0x1.00262c0000000p-5, 0x1.b7a0e40000000p-4, 0x1.b70e9e0000000p-3, -0x1.57aa140000000p-3, 0x1.4776640000000p-3, 0x1.392d840000000p-3, -0x1.91f0b80000000p-2, 0x1.5afce40000000p-3, 0x1.186f240000000p-3, 0x1.4087fe0000000p-4, 0x1.d916820000000p-4, 0x1.0e6cfa0000000p-4, 0x1.72c77a0000000p-3, 0x1.1363d00000000p-3, 0x1.0eb8d00000000p-3, -0x1.27012a0000000p-4, 0x1.39efac0000000p-4, -0x1.6463b80000000p-3, -0x1.ebad700000000p-3, -0x1.29b4780000000p-2, -0x1.f7e5c40000000p-4, -0x1.04d8600000000p-3, 0x1.03a78e0000000p-3, -0x1.9610380000000p-3, -0x1.e7a0300000000p-5, -0x1.2b8ab20000000p-3, -0x1.e555f40000000p-4, -0x1.4ad9360000000p-2, -0x1.840c800000000p-3, -0x1.000fb80000000p-2, 0x1.ed777a0000000p-4, 0x1.82fdec0000000p-3, -0x1.003d380000000p-2, -0x1.44506e0000000p-3, 0x1.a8fd680000000p-4, -0x1.dca41e0000000p-4, -0x1.1fe1ce0000000p-4, -0x1.844ec60000000p-4, -0x1.5e12740000000p-3, -0x1.5de2c80000000p-2, -0x1.b669100000000p-3, -0x1.966ecc0000000p-3, 0x1.6f408e0000000p-3, 0x1.9b92260000000p-3, 0x1.bb4a020000000p-4, 0x1.0d5c220000000p-3, -0x1.39baf40000000p-2, 0x1.076f7c0000000p-3, -0x1.36c3de0000000p-5, -0x1.6cbe4e0000000p-2, 0x1.6666420000000p-5, 0x1.f11eaa0000000p-4, -0x1.b15cf20000000p-2, 0x1.41070c0000000p-3, -0x1.e41e680000000p-4, -0x1.0d63780000000p-2, -0x1.900bfc0000000p-3, -0x1.3b41060000000p-4, -0x1.728a2c0000000p-4, -0x1.a1e4180000000p-2, -0x1.995e960000000p-5, -0x1.6005660000000p-2, -0x1.09e8760000000p-2, 0x1.81580e0000000p-3, -0x1.b3d6040000000p-2, -0x1.619aa40000000p-2, 0x1.7ac75c0000000p-3, -0x1.ed0e8e0000000p-4, 0x1.950c6e0000000p-4, 0x1.4d462e0000000p-3, 0x1.8915900000000p-3, -0x1.f5854a0000000p-3, 0x1.a8b72c0000000p-5, -0x1.5a496e0000000p-2, 0x1.539bc40000000p-3, -0x1.6aaa240000000p-3, -0x1.e745100000000p-8, 0x1.8513700000000p-4, 0x1.46cede0000000p-3, 0x1.50c2ea0000000p-4, 0x1.1922ae0000000p-3, 0x1.c1791a0000000p-4, -0x1.9fba820000000p-4, -0x1.90d6900000000p-5, -0x1.a2f92c0000000p-5, -0x1.92e74c0000000p-3, 0x1.17c2a20000000p-3, 0x1.3d31760000000p-3, 0x1.bfb3880000000p-3, -0x1.a025840000000p-3, -0x1.5be4980000000p-2, -0x1.0395960000000p-2, -0x1.9292320000000p-3, -0x1.c055a40000000p-4, -0x1.0a17920000000p-2, 0x1.59b12e0000000p-4, 0x1.bff6fa0000000p-4}
, {-0x1.dc46fe0000000p-4, 0x1.00f5160000000p-4, 0x1.08a7220000000p-2, -0x1.27b0f20000000p-3, -0x1.57a3e80000000p-1, -0x1.e7d5ce0000000p-2, -0x1.64d1760000000p-2, -0x1.4a12480000000p-3, 0x1.55de400000000p-5, 0x1.570af40000000p-3, 0x1.771cf60000000p-3, -0x1.17ec4e0000000p-1, -0x1.cc52da0000000p-3, 0x1.0a09880000000p-3, 0x1.2c83000000000p-3, -0x1.b6b08e0000000p-4, -0x1.5a21c60000000p-2, -0x1.588b300000000p-4, 0x1.0ea2800000000p-6, 0x1.3b15300000000p-4, 0x1.3e2dce0000000p-3, -0x1.e2c9d20000000p-2, -0x1.3c97160000000p-2, 0x1.90cfd00000000p-3, -0x1.85db180000000p-2, 0x1.70b8860000000p-3, -0x1.33cb3c0000000p-3, 0x1.4c29780000000p-3, -0x1.8d9d1a0000000p-2, 0x1.44f2280000000p-3, -0x1.d229e40000000p-3, -0x1.63e4f20000000p-2, -0x1.bd30220000000p-3, 0x1.666d280000000p-3, -0x1.93fb6a0000000p-2, 0x1.19f2b40000000p-3, -0x1.91e8560000000p-2, -0x1.5642cc0000000p-4, -0x1.6d5cae0000000p-3, 0x1.30e8d40000000p-3, -0x1.3c2e660000000p-1, -0x1.c5bd440000000p-3, 0x1.26ff680000000p-3, -0x1.a862a80000000p-3, 0x1.17006e0000000p-3, 0x1.5514120000000p-3, 0x1.a024b00000000p-3, -0x1.94b3fe0000000p-3, -0x1.59fd2c0000000p-3, 0x1.0858d60000000p-7, -0x1.1cd68a0000000p-4, 0x1.81c7720000000p-3, -0x1.b298e40000000p-2, -0x1.7818d60000000p-2, -0x1.464f800000000p-5, -0x1.c204100000000p-4, 0x1.9e10980000000p-3, -0x1.9c32ea0000000p-2, -0x1.b62dcc0000000p-5, -0x1.c03d5e0000000p-4, -0x1.c143780000000p-2, 0x1.88710a0000000p-3, -0x1.8c52520000000p-2, -0x1.50eb240000000p-2, -0x1.a5d2980000000p-3, -0x1.11f3d80000000p-4, -0x1.ba80c40000000p-3, 0x1.6e57bc0000000p-5, -0x1.7b7bae0000000p-2, 0x1.48b9220000000p-3, -0x1.a66d3e0000000p-3, -0x1.1bb8be0000000p-2, -0x1.91f4e00000000p-2, -0x1.9693c40000000p-3, 0x1.13c8140000000p-3, 0x1.088da80000000p-3, 0x1.2d11e00000000p-3, 0x1.920a8e0000000p-3, -0x1.316a540000000p-3, -0x1.7b4d600000000p-2, 0x1.2606e20000000p-3, -0x1.5898880000000p-3, 0x1.2408a40000000p-3, -0x1.1de21a0000000p-3, -0x1.95ba400000000p-2, 0x1.0e97640000000p-4, -0x1.0c70b00000000p-3, -0x1.47a9da0000000p-2, -0x1.94830a0000000p-4, 0x1.ff00180000000p-4, -0x1.fd5d460000000p-4, 0x1.0aa51a0000000p-3, -0x1.3b2efa0000000p-3, -0x1.bded7e0000000p-3, 0x1.3d4bbc0000000p-3, -0x1.655dba0000000p-3, -0x1.ee59ac0000000p-3, -0x1.285c320000000p-2, -0x1.a833360000000p-3, 0x1.ea918e0000000p-3, 0x1.9ec6780000000p-3, 0x1.b1edb40000000p-4, 0x1.7e6a140000000p-4, 0x1.2cbee00000000p-5, -0x1.43bd540000000p-2, 0x1.c282800000000p-7, -0x1.320e0e0000000p-3, -0x1.4fd4c40000000p-2, 0x1.a275400000000p-9, -0x1.4322a20000000p-2, 0x1.3103ce0000000p-3, -0x1.65214a0000000p-2, -0x1.15eb040000000p-3, -0x1.6ad2260000000p-2, -0x1.55bb3a0000000p-3, 0x1.9b108c0000000p-3, -0x1.f29cd40000000p-4, -0x1.e46c160000000p-3, 0x1.9edd620000000p-3, -0x1.13b2940000000p-2, -0x1.010be40000000p-1, -0x1.9f6c500000000p-2, -0x1.1bf96c0000000p-2, 0x1.3e98660000000p-3, 0x1.24e7940000000p-4, -0x1.b0d33e0000000p-5, 0x1.e72a300000000p-4, -0x1.b69c640000000p-3}
, {-0x1.1a45240000000p-2, -0x1.b4192a0000000p-5, 0x1.db44e20000000p-3, -0x1.3d5f7c0000000p-2, 0x1.c632fa0000000p-3, 0x1.acce260000000p-3, 0x1.eeadde0000000p-4, -0x1.a0a88c0000000p-3, 0x1.71be1a0000000p-3, 0x1.072dec0000000p-3, -0x1.6014c80000000p-3, 0x1.37b3a60000000p-3, 0x1.3962b60000000p-3, -0x1.1806c80000000p-2, -0x1.9216b40000000p-2, -0x1.713c860000000p-3, 0x1.29831e0000000p-3, -0x1.2eca360000000p-2, -0x1.fb1bc80000000p-4, -0x1.3af8be0000000p-2, 0x1.7fa7860000000p-3, 0x1.561b4a0000000p-3, 0x1.2d5adc0000000p-3, -0x1.884f9e0000000p-4, 0x1.2e99c00000000p-3, -0x1.1263d00000000p-2, 0x1.b6d72c0000000p-5, 0x1.5fb7c20000000p-8, 0x1.20ceb20000000p-3, -0x1.c4d1a20000000p-5, -0x1.f37be80000000p-3, 0x1.325ce40000000p-3, 0x1.7a32980000000p-4, -0x1.197c160000000p-2, 0x1.2902ae0000000p-3, 0x1.46a7b60000000p-3, -0x1.5ab0a00000000p-3, 0x1.6db3440000000p-3, -0x1.fe879e0000000p-3, -0x1.945de40000000p-3, 0x1.91b7520000000p-3, 0x1.2c169c0000000p-3, -0x1.3e07860000000p-3, -0x1.cb01f80000000p-3, 0x1.0ee66a0000000p-3, -0x1.0e236a0000000p-2, -0x1.f2f8640000000p-3, 0x1.29fd800000000p-3, -0x1.881eb20000000p-5, -0x1.d1c5480000000p-4, -0x1.8b02960000000p-3, -0x1.46409c0000000p-2, 0x1.06462e0000000p-2, -0x1.5fbe100000000p-2, -0x1.326c780000000p-4, 0x1.feb96e0000000p-4, -0x1.9fd0000000000p-4, 0x1.508a600000000p-3, 0x1.e4f0180000000p-4, -0x1.58748e0000000p-2, 0x1.2d40980000000p-3, -0x1.5da1480000000p-2, -0x1.37d7940000000p-5, -0x1.9eafbc0000000p-5, -0x1.f01ec60000000p-6, 0x1.bf3ce20000000p-3, 0x1.ea5bf80000000p-5, -0x1.25e5480000000p-2, -0x1.93503e0000000p-3, -0x1.a218ee0000000p-5, 0x1.441b380000000p-3, 0x1.1788920000000p-3, -0x1.7a58020000000p-3, 0x1.4c53000000000p-3, -0x1.4ef6600000000p-2, -0x1.866b220000000p-3, -0x1.58e4a80000000p-2, -0x1.a23bc80000000p-3, -0x1.90a0dc0000000p-3, 0x1.1b4c300000000p-6, -0x1.5dd6380000000p-2, -0x1.8ed60a0000000p-3, -0x1.72fbac0000000p-2, -0x1.a3de100000000p-3, 0x1.459c200000000p-7, 0x1.44f1a60000000p-6, -0x1.02e6240000000p-2, 0x1.8671200000000p-3, 0x1.0a03d80000000p-6, -0x1.44d07c0000000p-3, 0x1.9ceb8e0000000p-4, -0x1.74d41a0000000p-2, -0x1.d1f50c0000000p-4, 0x1.8dec260000000p-3, -0x1.24c5ec0000000p-4, 0x1.6654000000000p-8, -0x1.053bbc0000000p-2, -0x1.ecdb2e0000000p-3, 0x1.cd27020000000p-4, -0x1.1b3cca0000000p-2, -0x1.d54f7c0000000p-4, -0x1.555f3c0000000p-3, 0x1.f0b5380000000p-4, 0x1.b68d580000000p-4, -0x1.1159c00000000p-2, -0x1.a9963a0000000p-3, 0x1.e85e460000000p-3, 0x1.d811cc0000000p-4, -0x1.6a01120000000p-2, 0x1.4b31380000000p-3, -0x1.225b300000000p-2, -0x1.1e0c860000000p-2, 0x1.f258a80000000p-4, 0x1.a841400000000p-6, 0x1.1526ee0000000p-3, 0x1.6ce8840000000p-3, -0x1.af77ae0000000p-3, -0x1.4d540c0000000p-5, -0x1.ca1a6c0000000p-3, -0x1.52ed020000000p-5, 0x1.fdac5c0000000p-3, 0x1.29eaa80000000p-3, 0x1.5ce6200000000p-5, 0x1.9ffa8e0000000p-3, -0x1.f0278a0000000p-3, -0x1.b23aee0000000p-5, 0x1.47edb40000000p-3, -0x1.2db7be0000000p-2}
, {0x1.893cf80000000p-3, 0x1.017ed80000000p-3, -0x1.93eea00000000p-7, -0x1.1850440000000p-2, -0x1.c317f00000000p-5, -0x1.2cc1280000000p-3, 0x1.f7d89e0000000p-4, 0x1.c68c3e0000000p-3, -0x1.97c9780000000p-3, -0x1.e28d540000000p-3, -0x1.0082280000000p-6, 0x1.11e8200000000p-3, 0x1.adc9880000000p-3, 0x1.34c04a0000000p-3, -0x1.0ae7ce0000000p-5, -0x1.a787200000000p-4, -0x1.f3a1a80000000p-4, 0x1.8015e60000000p-4, 0x1.f7f1dc0000000p-4, -0x1.b765a20000000p-3, -0x1.1948f20000000p-6, 0x1.6c47860000000p-3, -0x1.2cf3be0000000p-3, 0x1.092cf80000000p-3, -0x1.22417c0000000p-2, 0x1.3751600000000p-3, 0x1.e8a5a60000000p-4, -0x1.8b835c0000000p-3, -0x1.7bc4960000000p-5, -0x1.044c540000000p-2, 0x1.0f0e140000000p-5, 0x1.7cdd9c0000000p-5, -0x1.dcb4100000000p-3, 0x1.6be5be0000000p-3, -0x1.829b060000000p-6, 0x1.7da20e0000000p-5, -0x1.39e6120000000p-2, 0x1.7790240000000p-4, -0x1.c41f6c0000000p-3, 0x1.de533a0000000p-4, -0x1.1de9ac0000000p-3, -0x1.fbaf520000000p-3, 0x1.53fee20000000p-3, -0x1.e2d4480000000p-3, 0x1.37bb6a0000000p-4, 0x1.11686a0000000p-3, 0x1.18f3c80000000p-2, -0x1.00ae380000000p-2, -0x1.5c65f40000000p-2, 0x1.83077e0000000p-7, -0x1.33a4980000000p-3, 0x1.56333e0000000p-3, -0x1.1cca760000000p-3, -0x1.8bea5e0000000p-3, -0x1.3520e20000000p-3, -0x1.0ec14e0000000p-3, 0x1.d8eb260000000p-3, -0x1.448be20000000p-2, -0x1.3bcec80000000p-2, -0x1.ed69400000000p-3, -0x1.8248a60000000p-3, 0x1.254d080000000p-8, 0x1.0519c60000000p-6, 0x1.f98cb80000000p-4, 0x1.bcb9d60000000p-3, -0x1.946a920000000p-3, 0x1.591d000000000p-5, 0x1.12ea440000000p-4, 0x1.044dfc0000000p-2, -0x1.6d77420000000p-6, -0x1.42bc380000000p-2, -0x1.53e99e0000000p-3, 0x1.258e440000000p-3, 0x1.00249a0000000p-3, 0x1.0b063c0000000p-3, 0x1.3c20480000000p-4, 0x1.4a09700000000p-3, -0x1.03de240000000p-2, 0x1.79db340000000p-3, -0x1.2159340000000p-2, -0x1.0d5cf80000000p-2, -0x1.2968420000000p-2, 0x1.a3f40e0000000p-4, 0x1.98d0ba0000000p-3, -0x1.ebc6c60000000p-3, 0x1.c4f9b40000000p-3, 0x1.a58d5a0000000p-6, -0x1.bfe2d40000000p-3, -0x1.24403c0000000p-2, 0x1.b174f00000000p-5, 0x1.f7ab480000000p-4, -0x1.bb8c900000000p-5, -0x1.8a50940000000p-3, -0x1.e5c1480000000p-4, -0x1.54a1300000000p-5, 0x1.a90c140000000p-5, 0x1.5d8e100000000p-4, -0x1.3558c60000000p-3, 0x1.476ff80000000p-4, -0x1.00b49a0000000p-3, -0x1.43a4620000000p-3, 0x1.a5cea40000000p-3, -0x1.6711e80000000p-2, -0x1.c721fc0000000p-3, -0x1.8da9080000000p-3, -0x1.75555e0000000p-4, -0x1.d5bbc40000000p-3, -0x1.b41ba60000000p-3, 0x1.c8d42e0000000p-4, -0x1.9c86860000000p-3, 0x1.d70ffc0000000p-7, 0x1.ea6bda0000000p-5, 0x1.d3401c0000000p-4, -0x1.19a6ae0000000p-2, -0x1.adc9300000000p-4, 0x1.e78f0e0000000p-4, -0x1.46df0c0000000p-5, 0x1.3766aa0000000p-5, -0x1.43ad280000000p-3, 0x1.c0a6900000000p-3, -0x1.1290d40000000p-2, 0x1.cd88c60000000p-4, 0x1.17333c0000000p-3, -0x1.b1fad60000000p-4, -0x1.b914a80000000p-3, 0x1.9477f80000000p-6, -0x1.0277380000000p-2, 0x1.32cba20000000p-4}
, {-0x1.c5f7520000000p-3, 0x1.2a95a00000000p-3, 0x1.2121da0000000p-10, -0x1.4e1cfe0000000p-3, 0x1.5430e40000000p-3, 0x1.92fb880000000p-4, 0x1.31af3a0000000p-3, -0x1.6396260000000p-4, -0x1.df118a0000000p-4, -0x1.03ba640000000p-3, -0x1.0fbf9a0000000p-2, 0x1.a582f40000000p-4, -0x1.587ad40000000p-3, 0x1.5bd3820000000p-3, -0x1.1f32b00000000p-2, 0x1.f953060000000p-4, 0x1.190d120000000p-3, 0x1.4238d20000000p-3, -0x1.ed460a0000000p-3, 0x1.f335240000000p-4, 0x1.8671000000000p-4, 0x1.1090ca0000000p-3, 0x1.21dce80000000p-3, -0x1.ddad020000000p-3, 0x1.00b9780000000p-3, -0x1.1a3f820000000p-5, -0x1.b243240000000p-3, 0x1.1f31c00000000p-10, 0x1.7b4b500000000p-3, -0x1.64aac00000000p-2, -0x1.183fc00000000p-3, -0x1.3f779a0000000p-2, 0x1.dc6e1c0000000p-6, -0x1.11a2ae0000000p-2, -0x1.6f25b60000000p-3, 0x1.2e8a7a0000000p-5, 0x1.044d700000000p-3, 0x1.c8f5140000000p-6, 0x1.0b227a0000000p-2, 0x1.3cd3700000000p-3, 0x1.157c6e0000000p-3, 0x1.2f94e20000000p-3, -0x1.fbb2580000000p-2, 0x1.43e4400000000p-3, -0x1.a155860000000p-3, -0x1.fe5f1e0000000p-3, 0x1.6086f80000000p-4, -0x1.40f1300000000p-3, 0x1.45fdee0000000p-4, -0x1.b679560000000p-2, 0x1.88db900000000p-4, 0x1.134fce0000000p-3, -0x1.16dfa80000000p-4, 0x1.4043420000000p-3, -0x1.e4c6be0000000p-4, -0x1.0ee61c0000000p-3, 0x1.79e5f00000000p-3, -0x1.8135140000000p-3, -0x1.8c061c0000000p-3, -0x1.5fdfca0000000p-5, 0x1.3633700000000p-3, -0x1.2acc400000000p-2, 0x1.6d3d460000000p-3, 0x1.2c2f4a0000000p-2, 0x1.8151dc0000000p-4, -0x1.fea5ce0000000p-7, -0x1.899dec0000000p-5, -0x1.7673320000000p-2, 0x1.8ffd980000000p-3, 0x1.96c0740000000p-9, -0x1.0620d40000000p-7, 0x1.2fad100000000p-3, 0x1.2baf2e0000000p-3, -0x1.47648a0000000p-3, -0x1.19e7ce0000000p-5, 0x1.8b23060000000p-4, 0x1.b1bcb40000000p-4, 0x1.b066c40000000p-3, -0x1.431a880000000p-3, 0x1.6c052c0000000p-3, 0x1.ff3c660000000p-4, 0x1.6777c80000000p-3, 0x1.d50b2a0000000p-4, 0x1.315d9c0000000p-3, 0x1.a39d240000000p-3, -0x1.3735360000000p-2, -0x1.9771700000000p-6, 0x1.44365c0000000p-5, -0x1.3737780000000p-2, -0x1.2b549c0000000p-2, 0x1.cc40380000000p-4, -0x1.1af60e0000000p-2, -0x1.0515a20000000p-3, -0x1.f967620000000p-3, -0x1.13a7340000000p-4, 0x1.1b52300000000p-6, -0x1.40cc740000000p-4, -0x1.0f7e440000000p-3, -0x1.c39d7c0000000p-3, 0x1.09064c0000000p-2, 0x1.56dbaa0000000p-3, -0x1.53697c0000000p-4, -0x1.57f08a0000000p-2, -0x1.3635300000000p-2, 0x1.4ed9b20000000p-3, 0x1.e96b980000000p-4, 0x1.7b14060000000p-3, -0x1.8e3bbe0000000p-3, 0x1.efae1c0000000p-5, 0x1.8fbe220000000p-5, -0x1.8e47f00000000p-5, 0x1.4ab8ca0000000p-6, 0x1.e3fd3a0000000p-4, -0x1.64c25a0000000p-2, 0x1.4cb6820000000p-3, -0x1.99bafa0000000p-3, 0x1.7a6f060000000p-3, -0x1.5f0fde0000000p-4, -0x1.6a70e40000000p-3, 0x1.adf3080000000p-3, -0x1.b0dd3c0000000p-3, 0x1.e456e60000000p-4, -0x1.237cc60000000p-2, -0x1.2138860000000p-4, -0x1.8d817e0000000p-3, -0x1.4b21b00000000p-2, -0x1.6d9d9e0000000p-3, -0x1.8193cc0000000p-3}
}
;

#undef INPUT_SAMPLES
#undef FC_UNITS