/**
  ******************************************************************************
  * @file    weights/fc.cc
  * @author  Pierre-Emmanuel Novac <penovac@unice.fr>, LEAT, CNRS, Université Côte d'Azur, France
  * @version 1.0.0
  * @date    24 march 2020
  * @brief   Template generating plain C code for the implementation of Convolutional Neural Networks on MCU
  */

#include <stdint.h>

#define INPUT_SAMPLES 100
#define FC_UNITS 10


const float dense_1_bias[FC_UNITS] = {0x1.bbd1220000000p-6, 0x1.01ae100000000p-4, -0x1.8878f00000000p-3, -0x1.25e7f20000000p-3, 0x1.34ffb00000000p-4, -0x1.1ab2a80000000p-3, -0x1.b70c4a0000000p-5, -0x1.3d62060000000p-9, 0x1.36ac600000000p-3, 0x1.08417e0000000p-3}
;

const float dense_1_kernel[FC_UNITS][INPUT_SAMPLES] = {{-0x1.667b980000000p-2, -0x1.4075060000000p-2, -0x1.fb6c8c0000000p-3, -0x1.5e053e0000000p-3, -0x1.a174120000000p-3, -0x1.f32bbe0000000p-4, -0x1.2e56220000000p-7, -0x1.7aedb20000000p-3, -0x1.28cae40000000p-3, -0x1.9b7fa20000000p-3, -0x1.0a76a60000000p-2, 0x1.05983e0000000p-3, 0x1.db942a0000000p-4, -0x1.ed15960000000p-3, -0x1.7e18fc0000000p-3, -0x1.0d3f680000000p-2, 0x1.80a1120000000p-9, -0x1.04a1820000000p-2, 0x1.dbb9a20000000p-4, -0x1.761dce0000000p-5, 0x1.fb5f020000000p-3, 0x1.1ebd4a0000000p-2, -0x1.31f3900000000p-2, -0x1.d6a55a0000000p-6, 0x1.2fad920000000p-3, 0x1.951c0a0000000p-4, -0x1.7a343c0000000p-2, 0x1.872cc60000000p-3, 0x1.1f536c0000000p-3, 0x1.0d9ec00000000p-2, 0x1.4eb9f40000000p-2, -0x1.1ee7ac0000000p-2, 0x1.7666860000000p-3, 0x1.04faaa0000000p-4, -0x1.7323180000000p-2, 0x1.a106960000000p-3, 0x1.75a1220000000p-5, -0x1.8c35b20000000p-2, -0x1.0078d80000000p-2, 0x1.9fcf580000000p-4, 0x1.58eb820000000p-3, -0x1.4aadc60000000p-2, -0x1.044d240000000p-4, 0x1.c16f660000000p-4, -0x1.946f800000000p-3, 0x1.2bdf6a0000000p-3, 0x1.2586380000000p-2, -0x1.34857c0000000p-2, -0x1.c086940000000p-4, 0x1.eeed440000000p-6, 0x1.1ece3e0000000p-3, 0x1.c035c00000000p-3, 0x1.f3fe760000000p-3, 0x1.6e9eae0000000p-3, -0x1.607e9a0000000p-4, 0x1.4382020000000p-4, -0x1.c596ae0000000p-3, 0x1.5b13700000000p-3, 0x1.b81a620000000p-3, -0x1.cddc820000000p-3, -0x1.1984180000000p-2, -0x1.8350aa0000000p-3, 0x1.a647e20000000p-3, -0x1.a272f00000000p-2, 0x1.ebfa160000000p-4, -0x1.412f940000000p-2, -0x1.e8e8ac0000000p-4, -0x1.7ac8c00000000p-3, -0x1.f0c2a40000000p-4, -0x1.060ef80000000p-2, 0x1.16b2b00000000p-3, -0x1.04e9860000000p-2, 0x1.b3a73c0000000p-3, 0x1.6d4d560000000p-3, 0x1.ee9e8e0000000p-4, -0x1.8b5c2e0000000p-2, 0x1.3a34060000000p-4, -0x1.96dd780000000p-4, -0x1.2684c80000000p-4, -0x1.2cccfc0000000p-2, -0x1.c128920000000p-2, 0x1.1d07400000000p-9, -0x1.6bfb920000000p-3, 0x1.7d3d9e0000000p-3, -0x1.ffd6bc0000000p-3, 0x1.ae63e40000000p-4, 0x1.b406240000000p-3, -0x1.7edd960000000p-2, 0x1.8f795a0000000p-3, 0x1.2017fe0000000p-3, -0x1.09364a0000000p-2, -0x1.b00f1c0000000p-3, -0x1.257d080000000p-6, -0x1.02def20000000p-2, 0x1.1e0c460000000p-3, 0x1.bc569a0000000p-4, -0x1.fd59a80000000p-6, -0x1.00055c0000000p-2, 0x1.1c56540000000p-3, -0x1.309c7e0000000p-8}
, {-0x1.998b300000000p-4, 0x1.c5ed420000000p-3, 0x1.49f1020000000p-3, 0x1.1397540000000p-3, 0x1.37c9e00000000p-3, 0x1.5aebbc0000000p-3, -0x1.427c0a0000000p-2, -0x1.4811200000000p-4, 0x1.acc5e80000000p-4, 0x1.f1efce0000000p-3, -0x1.9c33920000000p-3, 0x1.50c85a0000000p-8, -0x1.69b5fa0000000p-3, -0x1.3f8f360000000p-2, 0x1.068a060000000p-2, -0x1.5aac880000000p-2, -0x1.2120340000000p-3, -0x1.81c0f60000000p-2, -0x1.3d53740000000p-2, 0x1.fc53940000000p-3, 0x1.774e8c0000000p-3, 0x1.745b240000000p-4, 0x1.2d48420000000p-2, 0x1.735e1e0000000p-3, -0x1.8b85320000000p-2, 0x1.82caaa0000000p-3, 0x1.2d05660000000p-2, -0x1.2670940000000p-2, -0x1.a16c800000000p-3, -0x1.af7e5a0000000p-5, 0x1.afbcb40000000p-3, 0x1.20c76c0000000p-2, 0x1.cdfbae0000000p-4, -0x1.9da75a0000000p-2, -0x1.2235c60000000p-5, -0x1.f07d280000000p-3, 0x1.128a820000000p-3, 0x1.2caf3c0000000p-3, 0x1.6f5cb80000000p-3, -0x1.174c580000000p-2, -0x1.2a2d3c0000000p-2, 0x1.16df180000000p-4, -0x1.2bbcd00000000p-2, 0x1.68a0ae0000000p-4, 0x1.cafd0a0000000p-4, -0x1.18ee900000000p-2, 0x1.0a8f9a0000000p-5, 0x1.1211160000000p-2, 0x1.39d83e0000000p-3, 0x1.9a68b40000000p-2, -0x1.53c2a20000000p-2, -0x1.35a98c0000000p-3, 0x1.45902a0000000p-3, -0x1.9b2fba0000000p-3, 0x1.e43b600000000p-3, 0x1.37e8d40000000p-2, 0x1.7216ea0000000p-2, 0x1.c9f8020000000p-4, 0x1.5862d40000000p-3, -0x1.878ecc0000000p-4, 0x1.bddcee0000000p-3, 0x1.0514860000000p-2, -0x1.0fb1440000000p-3, -0x1.b80c6e0000000p-3, -0x1.a30e480000000p-2, -0x1.0e431c0000000p-4, -0x1.3f647c0000000p-2, -0x1.cbcb5c0000000p-3, -0x1.82d6080000000p-4, 0x1.6ec3220000000p-3, -0x1.5d75a80000000p-2, 0x1.253ab20000000p-3, 0x1.401b8e0000000p-3, -0x1.49abde0000000p-2, -0x1.7ab74c0000000p-2, -0x1.4440440000000p-2, -0x1.0c6cd20000000p-2, 0x1.a29ecc0000000p-3, -0x1.6f421a0000000p-5, -0x1.8d772a0000000p-2, 0x1.2230e40000000p-3, -0x1.0c04580000000p-2, 0x1.c2b9e80000000p-3, -0x1.bd6be80000000p-5, 0x1.8b857a0000000p-3, -0x1.fc064e0000000p-3, -0x1.1599bc0000000p-4, 0x1.9c6c020000000p-8, 0x1.7cb2b20000000p-3, -0x1.12c1460000000p-2, -0x1.4f513e0000000p-2, 0x1.2975940000000p-3, 0x1.09a4f00000000p-4, 0x1.5439880000000p-3, -0x1.9fc9ca0000000p-3, 0x1.8535b60000000p-3, -0x1.8f1c5c0000000p-3, 0x1.cbad760000000p-4, -0x1.2d68980000000p-2, -0x1.7ee4b80000000p-3}
, {0x1.954b580000000p-3, 0x1.0fe0ca0000000p-2, -0x1.eca2280000000p-3, -0x1.c58bec0000000p-2, 0x1.bf320e0000000p-4, -0x1.17ce600000000p-6, 0x1.339e8a0000000p-3, 0x1.336bf00000000p-2, -0x1.372e2e0000000p-2, 0x1.c59eee0000000p-4, 0x1.6460480000000p-3, -0x1.20c2640000000p-2, -0x1.11d6c40000000p-4, 0x1.923c0c0000000p-3, 0x1.1ba8560000000p-3, -0x1.49a5040000000p-2, 0x1.c3e79c0000000p-3, -0x1.994b480000000p-2, 0x1.5f8b760000000p-5, -0x1.e6455a0000000p-3, 0x1.9996840000000p-3, 0x1.a0481c0000000p-3, -0x1.d4284a0000000p-3, 0x1.0a35180000000p-2, -0x1.6c5a280000000p-4, -0x1.0add7e0000000p-3, 0x1.0ab8e40000000p-2, -0x1.b26b940000000p-4, 0x1.16b55e0000000p-3, 0x1.9c2e0a0000000p-3, 0x1.019c460000000p-2, 0x1.3034ce0000000p-3, 0x1.038d600000000p-3, 0x1.a684940000000p-6, -0x1.36ab980000000p-3, 0x1.3745160000000p-3, -0x1.4961460000000p-3, -0x1.d6d2180000000p-2, 0x1.9c6be60000000p-4, 0x1.1823540000000p-3, 0x1.1b84a20000000p-4, 0x1.4e29be0000000p-4, -0x1.f418b20000000p-3, 0x1.fd5d6e0000000p-4, 0x1.e482360000000p-3, 0x1.47f5da0000000p-3, 0x1.f4a1240000000p-3, -0x1.221c400000000p-2, 0x1.6641960000000p-3, -0x1.a5a9420000000p-2, 0x1.107e040000000p-4, 0x1.6725aa0000000p-3, 0x1.7b653a0000000p-5, 0x1.c0450a0000000p-7, 0x1.1c71260000000p-2, 0x1.097a2e0000000p-2, -0x1.b32a880000000p-4, 0x1.fd1fbc0000000p-4, 0x1.76eaae0000000p-3, 0x1.110abe0000000p-2, 0x1.ef5bc60000000p-3, 0x1.59b70c0000000p-3, 0x1.7299f20000000p-3, -0x1.04492a0000000p-2, -0x1.0c53600000000p-2, 0x1.8956420000000p-3, -0x1.9612a20000000p-2, -0x1.a99a8e0000000p-5, 0x1.73842a0000000p-7, -0x1.5292d40000000p-3, 0x1.770a740000000p-4, 0x1.7e8ece0000000p-3, -0x1.288aa40000000p-2, -0x1.dc20e60000000p-4, -0x1.713d100000000p-3, -0x1.e33aca0000000p-3, 0x1.e2193e0000000p-7, 0x1.9bc2d00000000p-3, -0x1.b572cc0000000p-3, -0x1.08309e0000000p-4, 0x1.4cf8d60000000p-3, 0x1.d411b80000000p-3, -0x1.04a4b20000000p-3, -0x1.902d780000000p-3, -0x1.108fb20000000p-2, -0x1.9b26f60000000p-5, -0x1.0e8e580000000p-4, -0x1.6c67f80000000p-2, -0x1.e599b80000000p-3, -0x1.d855840000000p-3, 0x1.c14e460000000p-5, 0x1.ad64880000000p-3, 0x1.5c26360000000p-4, 0x1.15f83a0000000p-3, -0x1.52d49e0000000p-6, -0x1.2004de0000000p-1, 0x1.3479220000000p-7, 0x1.ecf57e0000000p-5, -0x1.07bc5e0000000p-2, -0x1.7bf6b00000000p-4}
, {0x1.4872180000000p-4, 0x1.eb87b00000000p-3, -0x1.62e9380000000p-3, 0x1.fef3060000000p-4, 0x1.8f0f7a0000000p-3, 0x1.aedd680000000p-8, 0x1.0fb2ac0000000p-4, -0x1.84c8a00000000p-4, 0x1.e45e180000000p-3, 0x1.93b0ee0000000p-7, 0x1.08e5c20000000p-3, -0x1.4b27500000000p-2, -0x1.825a1a0000000p-3, 0x1.58e99e0000000p-3, -0x1.caf6500000000p-3, 0x1.a02f2a0000000p-3, -0x1.b4475a0000000p-3, 0x1.e9eeca0000000p-3, 0x1.7d0bec0000000p-5, -0x1.effa080000000p-4, -0x1.6d99ba0000000p-3, -0x1.c3506a0000000p-4, 0x1.a054000000000p-3, -0x1.1df97a0000000p-3, 0x1.0a51900000000p-3, -0x1.32f6b20000000p-2, 0x1.a49dee0000000p-3, 0x1.0e25820000000p-3, -0x1.d2f5680000000p-3, 0x1.c03af40000000p-3, -0x1.771fbe0000000p-3, -0x1.475f0c0000000p-3, -0x1.cece620000000p-3, 0x1.472f4e0000000p-5, -0x1.7f059a0000000p-2, 0x1.6b74920000000p-10, 0x1.0f2f1c0000000p-2, -0x1.2500500000000p-2, 0x1.7ebf500000000p-3, 0x1.af0c260000000p-3, 0x1.08a7ae0000000p-3, 0x1.0c79a40000000p-3, -0x1.4f63980000000p-2, 0x1.a302ee0000000p-4, 0x1.0a6bf40000000p-2, -0x1.166c040000000p-4, 0x1.93a9c60000000p-6, 0x1.5ff7880000000p-3, 0x1.1904040000000p-3, -0x1.84ba360000000p-2, -0x1.7baed80000000p-7, 0x1.422bfc0000000p-3, 0x1.328f5e0000000p-3, 0x1.ed8baa0000000p-5, 0x1.407cfa0000000p-4, 0x1.920a900000000p-5, -0x1.94fd6e0000000p-3, -0x1.7821000000000p-3, 0x1.45cc4c0000000p-3, 0x1.be99ea0000000p-6, 0x1.97ad6e0000000p-3, 0x1.6d4a140000000p-3, 0x1.6b6be20000000p-3, 0x1.2ddfd40000000p-4, -0x1.8b339c0000000p-3, 0x1.24794a0000000p-3, -0x1.6fac300000000p-3, -0x1.b7156c0000000p-4, -0x1.1446ea0000000p-2, -0x1.982a820000000p-2, -0x1.1921540000000p-4, 0x1.f869e00000000p-5, -0x1.53bd8a0000000p-2, -0x1.27ee140000000p-3, 0x1.112fe20000000p-3, -0x1.8631600000000p-5, -0x1.4a8abe0000000p-3, 0x1.3a1ff40000000p-3, -0x1.8971a00000000p-3, 0x1.9282520000000p-3, 0x1.22d3800000000p-3, 0x1.9d81fc0000000p-6, 0x1.9902f80000000p-5, -0x1.8099680000000p-2, 0x1.b01b100000000p-3, 0x1.5ed4e80000000p-8, -0x1.7cd0880000000p-4, -0x1.6319500000000p-2, 0x1.684b8e0000000p-3, 0x1.6258260000000p-3, 0x1.9881a40000000p-4, 0x1.710e780000000p-3, 0x1.cb081e0000000p-4, -0x1.52d8440000000p-2, -0x1.25a3300000000p-2, -0x1.25a4340000000p-2, -0x1.d270c20000000p-3, 0x1.1e0fa80000000p-3, 0x1.6ea26e0000000p-3, -0x1.34d6d40000000p-3}
, {0x1.16836e0000000p-3, -0x1.429d6a0000000p-2, 0x1.710d400000000p-3, 0x1.1adfba0000000p-3, 0x1.1a7c0a0000000p-3, 0x1.68f23a0000000p-3, 0x1.3b956c0000000p-3, -0x1.40c2100000000p-2, 0x1.35e1980000000p-5, 0x1.1400d00000000p-2, -0x1.8a0aba0000000p-5, 0x1.acba500000000p-4, -0x1.9e424e0000000p-2, -0x1.dbb2a00000000p-6, 0x1.5b31fa0000000p-3, -0x1.978fac0000000p-4, 0x1.0a16ae0000000p-2, 0x1.53397a0000000p-3, -0x1.2354a60000000p-2, 0x1.ad06160000000p-3, -0x1.6826540000000p-7, 0x1.6413680000000p-5, -0x1.dab1be0000000p-3, -0x1.a130f20000000p-4, -0x1.8e11840000000p-2, 0x1.6685300000000p-3, 0x1.1634b80000000p-4, -0x1.c9d7920000000p-3, -0x1.4da9380000000p-3, 0x1.d01bd80000000p-3, -0x1.e1cb480000000p-5, 0x1.ad81960000000p-3, -0x1.331bb00000000p-4, 0x1.52bc000000000p-4, 0x1.d02d160000000p-3, 0x1.ffcee60000000p-4, -0x1.53bb2a0000000p-6, 0x1.44a3e00000000p-4, 0x1.6b0ed40000000p-3, -0x1.58252e0000000p-4, -0x1.d241900000000p-2, -0x1.b181e80000000p-3, 0x1.9eddac0000000p-3, -0x1.ec75180000000p-2, -0x1.9f52460000000p-4, 0x1.bcd4ba0000000p-3, 0x1.08595e0000000p-2, -0x1.6e65680000000p-4, 0x1.ac16200000000p-4, -0x1.f5c63e0000000p-4, 0x1.ac6b720000000p-4, -0x1.3301dc0000000p-2, -0x1.2aab400000000p-3, -0x1.2d540e0000000p-2, -0x1.3e683e0000000p-2, -0x1.61916a0000000p-3, -0x1.3d62520000000p-2, 0x1.31721e0000000p-3, -0x1.7b92f40000000p-3, -0x1.106a560000000p-3, -0x1.bc91d40000000p-4, 0x1.b522f60000000p-7, -0x1.1983160000000p-2, 0x1.5333480000000p-4, -0x1.2a24720000000p-2, -0x1.ce481c0000000p-3, -0x1.5b9b7a0000000p-3, 0x1.12472a0000000p-2, 0x1.93c7fa0000000p-3, 0x1.0f9ac20000000p-3, 0x1.6d43800000000p-4, -0x1.d758700000000p-2, 0x1.60ddf80000000p-3, -0x1.a7a5e40000000p-5, 0x1.6c74c00000000p-3, 0x1.67a23a0000000p-3, 0x1.7548700000000p-4, 0x1.1778c80000000p-3, -0x1.3fe1000000000p-2, -0x1.88eaa20000000p-4, -0x1.4e7e8a0000000p-3, 0x1.82d3e40000000p-3, -0x1.0e25200000000p-2, -0x1.76627e0000000p-2, 0x1.915ce80000000p-3, 0x1.0c50740000000p-3, 0x1.bbcbea0000000p-3, 0x1.21f1560000000p-5, -0x1.02b7a60000000p-2, -0x1.15752a0000000p-2, -0x1.42d5800000000p-3, -0x1.1137700000000p-3, -0x1.4373be0000000p-5, -0x1.8b6b420000000p-3, 0x1.88e0e00000000p-3, 0x1.5576a60000000p-7, 0x1.be220c0000000p-3, -0x1.1ddc2e0000000p-2, -0x1.722b8a0000000p-3, 0x1.84e46c0000000p-5}
, {0x1.99da9e0000000p-6, 0x1.0ef1d40000000p-3, -0x1.f22f5e0000000p-3, 0x1.1974ee0000000p-4, -0x1.8cd1d00000000p-3, 0x1.393b3a0000000p-3, -0x1.3c76920000000p-3, -0x1.59e52a0000000p-4, 0x1.f1825a0000000p-3, -0x1.86e97e0000000p-2, -0x1.0e45ae0000000p-6, 0x1.04eebe0000000p-3, 0x1.359e080000000p-3, 0x1.23024c0000000p-3, -0x1.594a220000000p-3, 0x1.9c8bf80000000p-3, -0x1.8533820000000p-3, 0x1.0f55040000000p-2, 0x1.1e83100000000p-4, -0x1.75dbd80000000p-2, -0x1.5ca6880000000p-4, 0x1.b695560000000p-3, 0x1.a105c00000000p-3, -0x1.afafae0000000p-2, 0x1.a10a5c0000000p-4, 0x1.9141c60000000p-3, -0x1.154f100000000p-3, 0x1.de274e0000000p-4, 0x1.b49f220000000p-3, 0x1.b118080000000p-5, 0x1.c56e8c0000000p-11, 0x1.a8f1280000000p-4, -0x1.369e7e0000000p-3, -0x1.9f1e9a0000000p-2, -0x1.3b45a00000000p-3, -0x1.0216240000000p-2, -0x1.2717520000000p-2, 0x1.24616a0000000p-3, 0x1.892b220000000p-3, -0x1.97294e0000000p-4, 0x1.3755a60000000p-3, 0x1.8ac0d40000000p-4, -0x1.db1ad20000000p-4, -0x1.89372e0000000p-2, 0x1.ef947c0000000p-4, -0x1.5d618c0000000p-6, -0x1.4475d60000000p-6, 0x1.ff05a00000000p-4, -0x1.e4a0060000000p-2, -0x1.6c04b60000000p-3, 0x1.ce3b900000000p-4, -0x1.5259c20000000p-3, -0x1.69e9f00000000p-4, 0x1.07e61a0000000p-2, -0x1.8ff82c0000000p-5, -0x1.61fa2c0000000p-3, 0x1.82c22a0000000p-2, -0x1.8c90540000000p-2, 0x1.21eafa0000000p-3, 0x1.0e8f7e0000000p-3, 0x1.036f100000000p-2, -0x1.ba01f80000000p-2, 0x1.a1089a0000000p-5, 0x1.07b8a20000000p-4, 0x1.0df23c0000000p-3, 0x1.786cf40000000p-3, 0x1.d770ba0000000p-4, -0x1.1d7c540000000p-2, -0x1.a2332e0000000p-2, -0x1.028a7c0000000p-2, 0x1.3a8c160000000p-3, -0x1.1adec00000000p-2, 0x1.4abb700000000p-5, 0x1.1af7b20000000p-5, 0x1.5d93e60000000p-3, 0x1.46cef80000000p-3, -0x1.015fb80000000p-2, -0x1.a9b2120000000p-5, 0x1.4840b40000000p-2, 0x1.b599380000000p-3, 0x1.1ec23a0000000p-3, 0x1.9655520000000p-3, 0x1.2ea40e0000000p-2, 0x1.7615620000000p-4, 0x1.af03520000000p-3, 0x1.63c7ac0000000p-4, 0x1.82fbb40000000p-3, -0x1.4425fc0000000p-3, 0x1.66b0960000000p-10, 0x1.a609000000000p-3, 0x1.be080c0000000p-4, -0x1.44d05e0000000p-4, 0x1.d376280000000p-4, -0x1.2d5f840000000p-3, -0x1.8a0c5e0000000p-2, 0x1.58e4800000000p-3, -0x1.01f4440000000p-3, -0x1.aee2160000000p-2, -0x1.8037fc0000000p-4, -0x1.bedd900000000p-5}
, {-0x1.0843f60000000p-5, -0x1.63ab7c0000000p-3, -0x1.8a67da0000000p-2, -0x1.107db40000000p-2, -0x1.5fdb0e0000000p-3, 0x1.f046380000000p-3, 0x1.f82ba40000000p-4, -0x1.ba0cc40000000p-4, -0x1.8356cc0000000p-4, -0x1.1d26460000000p-2, -0x1.5810e60000000p-2, 0x1.5ba9d80000000p-3, 0x1.a7fdbe0000000p-3, 0x1.83b8bc0000000p-3, 0x1.7479380000000p-3, 0x1.4926dc0000000p-3, 0x1.b72df80000000p-3, -0x1.2ce2780000000p-6, -0x1.331b620000000p-2, -0x1.8744020000000p-3, -0x1.5a2a940000000p-3, 0x1.34638c0000000p-3, -0x1.bc90100000000p-4, -0x1.4dad440000000p-2, 0x1.c2def00000000p-5, 0x1.efdbfe0000000p-3, -0x1.0fc8040000000p-6, 0x1.e31c860000000p-9, 0x1.c1d6f00000000p-3, 0x1.9133940000000p-4, -0x1.0b9d720000000p-3, -0x1.d5d12c0000000p-4, 0x1.8c295a0000000p-3, 0x1.7806f40000000p-5, -0x1.23ab0a0000000p-2, -0x1.2d69580000000p-3, 0x1.bf7f480000000p-6, 0x1.5c9e900000000p-3, -0x1.530c0a0000000p-2, 0x1.155c400000000p-5, 0x1.5e599e0000000p-4, -0x1.37fb180000000p-2, 0x1.7b5a160000000p-5, -0x1.8f60d40000000p-2, -0x1.24dcf00000000p-2, -0x1.f356960000000p-4, 0x1.d726240000000p-5, -0x1.8939140000000p-2, -0x1.d01f120000000p-6, -0x1.4fbfda0000000p-5, 0x1.291a480000000p-3, 0x1.9ad9a80000000p-4, 0x1.b495320000000p-3, -0x1.4187380000000p-2, 0x1.2c32360000000p-7, 0x1.64f1a00000000p-2, -0x1.63a98e0000000p-3, 0x1.57b8aa0000000p-3, 0x1.7c98720000000p-3, 0x1.e8d7bc0000000p-3, 0x1.72d4e80000000p-3, -0x1.bd81700000000p-4, -0x1.403d960000000p-2, -0x1.c790420000000p-2, 0x1.2f8c6e0000000p-3, -0x1.08a19a0000000p-2, 0x1.54cb3a0000000p-3, -0x1.0bd2360000000p-5, 0x1.084ad40000000p-3, 0x1.47ab020000000p-4, 0x1.625c2c0000000p-3, 0x1.6ae0fa0000000p-4, 0x1.7fa9de0000000p-3, -0x1.2b3e9c0000000p-2, 0x1.8425100000000p-3, -0x1.067ed40000000p-2, -0x1.17abd80000000p-3, 0x1.5955820000000p-3, -0x1.bfffe00000000p-3, 0x1.a8e4220000000p-3, -0x1.078c1a0000000p-3, -0x1.69d00a0000000p-3, 0x1.054a160000000p-2, -0x1.428abe0000000p-5, -0x1.fa4dfa0000000p-3, 0x1.00b4c80000000p-3, -0x1.5157c60000000p-3, -0x1.292a900000000p-2, -0x1.0f4d360000000p-2, -0x1.f8661a0000000p-4, -0x1.c285820000000p-2, -0x1.41654e0000000p-2, -0x1.0ac4300000000p-1, 0x1.14ffb40000000p-2, -0x1.0ad1280000000p-5, 0x1.2b9d8e0000000p-3, 0x1.d3c0d00000000p-3, -0x1.7f2b3c0000000p-2, -0x1.bc46040000000p-8, -0x1.cf5a620000000p-4}
, {-0x1.2691940000000p-2, 0x1.18a6d60000000p-2, 0x1.40f0240000000p-3, 0x1.fcba300000000p-4, 0x1.cb557a0000000p-3, -0x1.1b66aa0000000p-2, -0x1.ffce740000000p-5, 0x1.a62bee0000000p-3, -0x1.7d503c0000000p-2, 0x1.d8071a0000000p-4, -0x1.4e9ec00000000p-2, -0x1.7017580000000p-3, -0x1.857ada0000000p-2, 0x1.6ec3fe0000000p-8, 0x1.96f1dc0000000p-3, -0x1.9a06b80000000p-2, 0x1.3cbd200000000p-3, -0x1.1a982a0000000p-5, 0x1.1c1f140000000p-4, 0x1.cc64860000000p-3, 0x1.677da20000000p-3, -0x1.2e15e00000000p-3, -0x1.f53fce0000000p-3, 0x1.5435a40000000p-3, -0x1.7f7ec00000000p-2, -0x1.7482600000000p-2, -0x1.b8e9a00000000p-7, 0x1.c7429c0000000p-3, -0x1.55dba80000000p-2, -0x1.d383000000000p-3, -0x1.c4daec0000000p-3, -0x1.acfbf00000000p-3, -0x1.45345c0000000p-3, -0x1.5471320000000p-7, 0x1.6263ea0000000p-3, -0x1.075f7c0000000p-2, 0x1.53ee5a0000000p-3, -0x1.b6c6460000000p-3, -0x1.8bf0d00000000p-3, 0x1.fe8c9a0000000p-3, 0x1.a558a60000000p-4, -0x1.11da2a0000000p-2, -0x1.49b4f80000000p-3, 0x1.7dcdfe0000000p-5, 0x1.25e5f00000000p-2, 0x1.9c43200000000p-3, 0x1.fb9b000000000p-3, -0x1.bc60be0000000p-4, 0x1.4eabf00000000p-3, -0x1.2ac2b60000000p-4, -0x1.77215e0000000p-4, 0x1.4e3f640000000p-3, -0x1.5f11da0000000p-2, 0x1.9694e60000000p-3, 0x1.1dbde00000000p-3, 0x1.cdfeb60000000p-4, 0x1.217c820000000p-3, -0x1.ea47de0000000p-4, -0x1.2329540000000p-2, -0x1.c6d8140000000p-3, -0x1.1175f40000000p-11, 0x1.e6c1ba0000000p-5, 0x1.c40bd00000000p-6, 0x1.8200340000000p-5, -0x1.59b0740000000p-4, 0x1.16638e0000000p-2, 0x1.84a19e0000000p-3, -0x1.7699f80000000p-3, 0x1.acdd9a0000000p-3, -0x1.51e2f20000000p-2, -0x1.0c9e880000000p-2, 0x1.6da2220000000p-3, 0x1.2225c00000000p-3, 0x1.3a50920000000p-3, -0x1.491bde0000000p-7, 0x1.22c7c00000000p-3, 0x1.20041e0000000p-4, 0x1.c560040000000p-5, 0x1.5c5b580000000p-2, -0x1.7e9c140000000p-5, 0x1.7a02620000000p-3, -0x1.61f77a0000000p-3, 0x1.4a93d80000000p-2, 0x1.060e280000000p-2, -0x1.31ba840000000p-3, -0x1.900d3c0000000p-3, 0x1.6691b80000000p-2, -0x1.8627f20000000p-3, 0x1.ada3620000000p-3, -0x1.4c9f1a0000000p-2, 0x1.e32c5c0000000p-4, -0x1.12c9bc0000000p-4, 0x1.b371440000000p-4, -0x1.c075e00000000p-3, -0x1.cd7fbe0000000p-4, -0x1.4c5c960000000p-2, 0x1.e7ac900000000p-5, 0x1.f881de0000000p-4, -0x1.0c54700000000p-3, -0x1.8677da0000000p-3}
, {0x1.487be20000000p-3, -0x1.6a50400000000p-5, -0x1.36dfe80000000p-3, 0x1.a974d80000000p-4, -0x1.94c9a20000000p-2, 0x1.8878ae0000000p-3, -0x1.d885740000000p-3, 0x1.1edba80000000p-3, 0x1.ee51aa0000000p-3, 0x1.ed986a0000000p-4, 0x1.c625e20000000p-3, 0x1.2729020000000p-3, 0x1.3b90220000000p-3, 0x1.cb8da60000000p-3, -0x1.56973c0000000p-2, 0x1.2e07640000000p-3, -0x1.18b23c0000000p-2, -0x1.9c10560000000p-4, -0x1.af81720000000p-3, -0x1.3dc1ae0000000p-4, 0x1.56deac0000000p-3, -0x1.1ee64a0000000p-2, -0x1.3b71820000000p-2, 0x1.827b560000000p-3, 0x1.e14a0e0000000p-4, 0x1.a0c3840000000p-3, -0x1.ee55e00000000p-6, 0x1.6018200000000p-4, 0x1.b047320000000p-4, -0x1.6e222c0000000p-4, -0x1.c0685e0000000p-2, 0x1.12cfac0000000p-5, 0x1.5118840000000p-3, -0x1.f413120000000p-5, 0x1.e5473a0000000p-3, -0x1.f75e840000000p-5, 0x1.cb9e740000000p-3, 0x1.8e3a5c0000000p-4, 0x1.1a8fcc0000000p-4, -0x1.37a34c0000000p-4, 0x1.1214660000000p-3, 0x1.fede740000000p-4, 0x1.2410660000000p-7, 0x1.371c420000000p-4, -0x1.aab4c40000000p-3, -0x1.1ef03e0000000p-2, -0x1.c3f3d40000000p-3, -0x1.6693b00000000p-2, 0x1.3603460000000p-3, -0x1.4038e80000000p-2, -0x1.ebbb4e0000000p-5, 0x1.cb5d720000000p-4, -0x1.2a05100000000p-4, -0x1.cc3fee0000000p-4, 0x1.bca1700000000p-3, -0x1.8311880000000p-3, 0x1.6094400000000p-3, -0x1.50fe460000000p-2, 0x1.9062120000000p-3, -0x1.f7c0160000000p-6, 0x1.2fd7500000000p-5, -0x1.64bf280000000p-3, 0x1.988d5a0000000p-3, 0x1.d63f040000000p-5, 0x1.1711420000000p-3, -0x1.0538ba0000000p-2, -0x1.db40d00000000p-3, -0x1.f698e80000000p-3, -0x1.f16ab60000000p-3, 0x1.1625a20000000p-4, 0x1.5469080000000p-3, 0x1.93d5f00000000p-7, 0x1.756c020000000p-4, 0x1.ab53cc0000000p-4, -0x1.2efd500000000p-7, 0x1.6d7c3e0000000p-4, 0x1.dbef320000000p-5, 0x1.510f940000000p-3, -0x1.9431c60000000p-3, 0x1.1d2f9c0000000p-10, 0x1.2829da0000000p-3, -0x1.f9efe20000000p-3, 0x1.9ec3de0000000p-4, -0x1.66a1d60000000p-2, 0x1.949ce80000000p-4, 0x1.04ff060000000p-3, -0x1.feee1a0000000p-3, 0x1.c77d840000000p-5, 0x1.b090f20000000p-4, -0x1.2f63960000000p-5, 0x1.ce52bc0000000p-4, 0x1.bb05760000000p-3, 0x1.63fb200000000p-4, -0x1.d1038e0000000p-3, -0x1.abb2260000000p-3, -0x1.5618260000000p-3, -0x1.1bbfa40000000p-3, -0x1.25459c0000000p-4, -0x1.0835dc0000000p-3, -0x1.7727c60000000p-3}
, {0x1.444c040000000p-3, -0x1.46c9fe0000000p-2, 0x1.76207c0000000p-3, 0x1.2aefd40000000p-3, 0x1.45354e0000000p-3, -0x1.2fe2e40000000p-2, -0x1.c643420000000p-2, -0x1.a4055e0000000p-2, 0x1.8bbd180000000p-3, -0x1.9d7d820000000p-3, -0x1.ca5f520000000p-4, 0x1.89dadc0000000p-4, 0x1.2ea5e80000000p-4, -0x1.ed765e0000000p-3, -0x1.27909c0000000p-2, 0x1.22f7040000000p-3, -0x1.ae6c3c0000000p-3, 0x1.c451bc0000000p-3, -0x1.01b7380000000p-5, 0x1.c166460000000p-3, -0x1.6fccf20000000p-2, -0x1.a1b3640000000p-4, -0x1.55d22a0000000p-4, -0x1.cf2bd40000000p-3, 0x1.28cdfa0000000p-4, -0x1.f230520000000p-3, -0x1.5fd9760000000p-4, -0x1.da8f680000000p-6, -0x1.b2e5300000000p-3, -0x1.373ee20000000p-2, -0x1.3740ae0000000p-3, -0x1.06aa980000000p-2, -0x1.3b198c0000000p-2, 0x1.c7094a0000000p-4, 0x1.61fa9a0000000p-6, 0x1.2872660000000p-3, -0x1.864a2c0000000p-6, 0x1.51f1c00000000p-3, 0x1.ba6dae0000000p-3, 0x1.d6ba1c0000000p-3, 0x1.0df00c0000000p-3, 0x1.7bfe700000000p-10, 0x1.5d78620000000p-3, 0x1.2d7c2e0000000p-4, -0x1.0d75440000000p-2, 0x1.b090a20000000p-3, -0x1.99c3520000000p-3, 0x1.2402660000000p-3, 0x1.3a81e40000000p-3, 0x1.f63a860000000p-5, 0x1.33b5320000000p-3, 0x1.75cde80000000p-5, -0x1.688d440000000p-3, 0x1.d3fc760000000p-3, -0x1.f733840000000p-6, -0x1.ccc8180000000p-3, 0x1.6d34620000000p-6, -0x1.86a9040000000p-5, -0x1.fa7fee0000000p-5, -0x1.78316c0000000p-2, -0x1.bbf1500000000p-9, -0x1.56fbd60000000p-2, 0x1.b675280000000p-7, 0x1.2c9b5e0000000p-4, -0x1.3211f80000000p-5, -0x1.ade2200000000p-2, 0x1.6e513a0000000p-5, 0x1.bfb09a0000000p-3, 0x1.6265a60000000p-3, 0x1.ade3bc0000000p-4, 0x1.dd300e0000000p-4, 0x1.49eb1a0000000p-3, -0x1.cff8a20000000p-3, 0x1.51612e0000000p-3, -0x1.3281ae0000000p-3, 0x1.59fd200000000p-3, 0x1.2cd7c60000000p-4, -0x1.4e906c0000000p-2, -0x1.ae66e00000000p-3, -0x1.55fdbc0000000p-5, -0x1.267ce00000000p-2, 0x1.d629fa0000000p-3, -0x1.21f4140000000p-2, -0x1.53c2e00000000p-3, 0x1.a19e080000000p-3, -0x1.39234e0000000p-2, -0x1.e41c940000000p-4, 0x1.4cdd6a0000000p-7, 0x1.97bc040000000p-3, 0x1.3facfe0000000p-3, -0x1.2112c00000000p-5, -0x1.1b2aca0000000p-5, 0x1.a3ce6e0000000p-4, -0x1.4e61d20000000p-2, 0x1.75e36a0000000p-3, -0x1.f9ee140000000p-4, 0x1.7c98f80000000p-3, 0x1.15869c0000000p-3, -0x1.02413e0000000p-3, 0x1.045ee00000000p-3}
}
;

#undef INPUT_SAMPLES
#undef FC_UNITS