/**
  ******************************************************************************
  * @file    weights/fc.cc
  * @author  Pierre-Emmanuel Novac <penovac@unice.fr>, LEAT, CNRS, Université Côte d'Azur, France
  * @version 1.0.0
  * @date    24 march 2020
  * @brief   Template generating plain C code for the implementation of Convolutional Neural Networks on MCU
  */

#include <stdint.h>

#define INPUT_SAMPLES 512
#define FC_UNITS 128


const float dense_6_bias[FC_UNITS] = {0x1.67b6760000000p-4, 0x1.ebffc20000000p-5, -0x1.62f1540000000p-5, -0x1.a1e54a0000000p-4, 0x1.eeb1ca0000000p-10, -0x1.679bfa0000000p-6, 0x1.db72e20000000p-4, 0x1.05c9180000000p-3, -0x1.0a128a0000000p-3, -0x1.8c25400000000p-5, -0x1.af5aa20000000p-6, 0x1.bb65860000000p-6, 0x1.1def540000000p-5, 0x1.6565d60000000p-4, -0x1.7aacf60000000p-5, -0x1.74f8f40000000p-4, -0x1.ee6bd20000000p-4, 0x1.9ae4040000000p-4, 0x1.ec8a7c0000000p-6, -0x1.a388920000000p-6, -0x1.0f43e40000000p-6, 0x1.81d7f80000000p-4, 0x1.45e3de0000000p-6, -0x1.408d800000000p-4, -0x1.a0b6840000000p-10, 0x1.84eae20000000p-5, 0x1.9c63f00000000p-5, -0x1.5d577a0000000p-4, -0x1.1f79de0000000p-5, -0x1.82e0be0000000p-5, 0x1.70d1cc0000000p-6, 0x1.c4bd0a0000000p-6, -0x1.b1c5440000000p-4, -0x1.ec73d40000000p-9, -0x1.6ae6840000000p-4, -0x1.1b64640000000p-5, -0x1.d09e460000000p-5, -0x1.0870300000000p-3, -0x1.a809160000000p-5, 0x1.935dc60000000p-5, -0x1.33ceb40000000p-10, -0x1.b7bd660000000p-9, -0x1.d94d340000000p-7, -0x1.b073380000000p-8, -0x1.72d9bc0000000p-5, 0x1.b965de0000000p-5, 0x1.38cca40000000p-4, -0x1.7e87880000000p-3, -0x1.c304360000000p-4, -0x1.972a340000000p-5, -0x1.0c8a620000000p-10, -0x1.55cc3a0000000p-8, -0x1.49af2e0000000p-6, -0x1.df23da0000000p-6, -0x1.4ebeba0000000p-9, -0x1.cadcca0000000p-5, 0x1.f5c7540000000p-4, -0x1.2080800000000p-8, -0x1.4407d20000000p-4, -0x1.4529dc0000000p-5, 0x1.b947c80000000p-5, -0x1.323b0c0000000p-4, -0x1.472e9e0000000p-7, 0x1.bba8840000000p-6, 0x1.04368c0000000p-4, -0x1.75b5c40000000p-7, 0x1.33baf20000000p-5, 0x1.64e1dc0000000p-10, 0x1.0404f20000000p-4, -0x1.c81d3a0000000p-4, -0x1.997ae60000000p-4, 0x1.51f5860000000p-6, 0x1.716f7e0000000p-4, 0x1.c170260000000p-4, 0x1.d9d65e0000000p-5, 0x1.64cbc80000000p-5, 0x1.a0b3b00000000p-4, -0x1.b64f320000000p-7, 0x1.8319360000000p-4, 0x1.bdfc7a0000000p-7, -0x1.08ebb80000000p-3, -0x1.8cd4c00000000p-4, 0x1.98f1fa0000000p-5, 0x1.b08a120000000p-5, -0x1.4468be0000000p-5, 0x1.5557b00000000p-5, -0x1.8d62840000000p-5, -0x1.2213560000000p-4, 0x1.2b36540000000p-5, -0x1.02f5700000000p-6, 0x1.82e8160000000p-4, -0x1.20eee60000000p-4, 0x1.4dc2a00000000p-8, -0x1.390e080000000p-5, -0x1.be5ec20000000p-4, 0x1.d07cfa0000000p-5, 0x1.a2c8520000000p-7, -0x1.a4eaec0000000p-5, 0x1.810a100000000p-6, -0x1.f970660000000p-4, -0x1.0de0560000000p-4, 0x1.32b8740000000p-4, -0x1.7394820000000p-4, -0x1.a2123a0000000p-3, 0x1.cc19380000000p-8, -0x1.cd9f940000000p-5, -0x1.0d073e0000000p-5, -0x1.0ce67c0000000p-3, 0x1.089ce60000000p-4, -0x1.fbbe200000000p-6, 0x1.9233220000000p-5, 0x1.28df920000000p-4, 0x1.5707640000000p-4, -0x1.2bab3a0000000p-4, -0x1.73c25a0000000p-5, -0x1.93209a0000000p-7, 0x1.e82b560000000p-7, 0x1.7ecf340000000p-8, -0x1.0bd6300000000p-4, 0x1.dfd7ac0000000p-5, -0x1.1023160000000p-6, 0x1.0693500000000p-5, -0x1.a0b2460000000p-5, -0x1.9636dc0000000p-4, -0x1.6ce5540000000p-4, 0x1.de43e60000000p-5, -0x1.438cd00000000p-3, 0x1.cf14320000000p-4}
;

const float dense_6_kernel[FC_UNITS][INPUT_SAMPLES] = {{-0x1.9c18f80000000p-5, 0x1.a5a5de0000000p-4, 0x1.36b5320000000p-3, -0x1.50daca0000000p-4, 0x1.7897920000000p-7, 0x1.f6cac20000000p-5, 0x1.9dd6320000000p-4, 0x1.e6c1800000000p-7, -0x1.ba9fbe0000000p-4, 0x1.0d6d220000000p-3, 0x1.501ea80000000p-5, 0x1.0669ba0000000p-7, 0x1.c0d9720000000p-7, -0x1.a5de760000000p-13, 0x1.ec65ac0000000p-4, -0x1.fa72aa0000000p-10, 0x1.b299c80000000p-4, -0x1.47ba700000000p-4, 0x1.448d0e0000000p-4, -0x1.4f2a8e0000000p-3, -0x1.9a94000000000p-5, 0x1.592da40000000p-5, -0x1.f2c1d40000000p-5, -0x1.ae23a40000000p-8, -0x1.3b17920000000p-3, -0x1.1c5aca0000000p-6, -0x1.92f9f80000000p-3, -0x1.c6107a0000000p-5, -0x1.1f43060000000p-3, -0x1.2e97760000000p-4, 0x1.eca1f80000000p-4, 0x1.91345a0000000p-4, -0x1.8e7a3c0000000p-3, 0x1.bd36c20000000p-5, 0x1.5c0ada0000000p-9, 0x1.c731ca0000000p-8, -0x1.8936aa0000000p-5, -0x1.22a11e0000000p-5, 0x1.ea93860000000p-6, 0x1.c499080000000p-5, 0x1.3eea380000000p-5, -0x1.bb99100000000p-3, -0x1.d7e7c00000000p-5, -0x1.ba054e0000000p-3, -0x1.b1516a0000000p-4, -0x1.2d518e0000000p-5, -0x1.2655a60000000p-6, 0x1.b80ae80000000p-5, -0x1.6e5b5a0000000p-5, -0x1.7c1a240000000p-4, -0x1.0c95680000000p-4, -0x1.363f7a0000000p-3, -0x1.feca5a0000000p-4, -0x1.995f9a0000000p-5, -0x1.011c0a0000000p-3, 0x1.2f92d40000000p-4, -0x1.67a8340000000p-6, -0x1.4d256a0000000p-6, -0x1.19e4820000000p-2, -0x1.7d551a0000000p-5, 0x1.930f840000000p-5, 0x1.65568a0000000p-6, 0x1.9b8b1a0000000p-3, -0x1.a9ee6c0000000p-8, 0x1.f8683e0000000p-5, 0x1.8c54840000000p-5, -0x1.5b71800000000p-2, 0x1.e82ef00000000p-3, 0x1.6edad20000000p-4, -0x1.beb7e00000000p-6, 0x1.ecb8260000000p-4, 0x1.886d6c0000000p-7, -0x1.dbd5680000000p-7, 0x1.f5f1e80000000p-5, 0x1.5f534e0000000p-9, 0x1.704b700000000p-5, -0x1.4680540000000p-5, -0x1.1bbc060000000p-4, 0x1.3df3360000000p-4, -0x1.9008820000000p-6, 0x1.2c4c3e0000000p-4, -0x1.5d62f00000000p-4, 0x1.b1f58a0000000p-6, 0x1.ce753c0000000p-5, 0x1.2b7d740000000p-3, 0x1.16e0e20000000p-5, -0x1.5f25a60000000p-4, -0x1.2ed8020000000p-5, -0x1.fd68fc0000000p-13, -0x1.5281aa0000000p-4, -0x1.e3cb8e0000000p-5, 0x1.c0a6860000000p-4, -0x1.0fca440000000p-3, 0x1.fbaf360000000p-6, -0x1.710f8c0000000p-5, -0x1.588ae00000000p-5, -0x1.12afb40000000p-5, 0x1.d2eba00000000p-4, -0x1.cce0940000000p-5, 0x1.efb7a20000000p-4, -0x1.ce32c40000000p-10, 0x1.2722400000000p-4, 0x1.44104c0000000p-4, 0x1.441b860000000p-3, -0x1.6a947a0000000p-4, 0x1.1d12c80000000p-3, -0x1.7008e40000000p-5, 0x1.1f56080000000p-3, 0x1.1173bc0000000p-4, -0x1.5489b80000000p-7, -0x1.1b22e60000000p-3, 0x1.cf93700000000p-6, 0x1.81e4360000000p-10, 0x1.f300aa0000000p-4, 0x1.6c72fe0000000p-4, -0x1.1276080000000p-5, -0x1.2bdf2e0000000p-3, -0x1.17207c0000000p-5, -0x1.3efb7e0000000p-9, -0x1.fada6a0000000p-6, 0x1.3d157c0000000p-9, -0x1.2df9c60000000p-5, -0x1.3ec3800000000p-7, -0x1.3680160000000p-5, -0x1.acc2320000000p-4, -0x1.133c300000000p-5, -0x1.87d0440000000p-3, -0x1.9eed380000000p-11, 0x1.43df4e0000000p-6, -0x1.d989640000000p-6, -0x1.18fcd20000000p-5, -0x1.60a8020000000p-3, 0x1.125de80000000p-2, 0x1.2d33ee0000000p-3, 0x1.3a84ae0000000p-8, -0x1.225d700000000p-3, -0x1.7a0aa00000000p-5, -0x1.1b79aa0000000p-3, 0x1.f341120000000p-5, -0x1.2a06b00000000p-5, 0x1.addadc0000000p-4, 0x1.dccfe40000000p-5, 0x1.cecd400000000p-7, -0x1.60dea20000000p-5, 0x1.069b4c0000000p-4, 0x1.3b606e0000000p-4, 0x1.d092ee0000000p-12, -0x1.b856f40000000p-6, 0x1.2dfcd80000000p-3, 0x1.8586140000000p-5, 0x1.96fb4a0000000p-4, -0x1.78c13e0000000p-3, 0x1.dc3c420000000p-6, -0x1.5036900000000p-8, -0x1.387ce20000000p-2, 0x1.1345f60000000p-4, -0x1.fbe4680000000p-6, -0x1.865ff00000000p-2, 0x1.9f4d8c0000000p-4, 0x1.9dafc40000000p-11, 0x1.1a596e0000000p-5, 0x1.ec27420000000p-6, -0x1.34fe340000000p-5, -0x1.ff1a220000000p-4, 0x1.a5a44c0000000p-9, -0x1.2265240000000p-5, -0x1.2f7dae0000000p-5, -0x1.cf76ae0000000p-5, 0x1.5f83640000000p-4, 0x1.ce014e0000000p-6, -0x1.21e2ec0000000p-3, 0x1.6d14180000000p-6, -0x1.ecfd100000000p-6, -0x1.bab8d60000000p-3, 0x1.a391540000000p-4, -0x1.0122440000000p-3, -0x1.3a09c60000000p-3, 0x1.8fad960000000p-7, -0x1.0dd1c80000000p-3, -0x1.699f0e0000000p-2, 0x1.f733460000000p-4, 0x1.b9e2540000000p-5, -0x1.993d140000000p-4, -0x1.01d3be0000000p-3, -0x1.e404ca0000000p-6, -0x1.161bc40000000p-3, -0x1.f002e80000000p-6, -0x1.f073540000000p-4, 0x1.02b6b60000000p-5, -0x1.09e5ac0000000p-4, 0x1.53c10c0000000p-5, -0x1.6e0c600000000p-4, -0x1.4596bc0000000p-3, 0x1.5e0a580000000p-3, 0x1.9537620000000p-3, 0x1.395aca0000000p-5, -0x1.1fdc460000000p-9, -0x1.4b5ca00000000p-4, 0x1.42e88c0000000p-4, 0x1.b919140000000p-6, -0x1.6a20aa0000000p-6, 0x1.4d6a3a0000000p-4, -0x1.f9ff960000000p-4, -0x1.acab3c0000000p-3, -0x1.02cbf20000000p-9, -0x1.626fae0000000p-3, -0x1.4979f40000000p-3, -0x1.6d0d8e0000000p-4, -0x1.b0790a0000000p-8, 0x1.0c8a240000000p-6, 0x1.4575780000000p-5, 0x1.dcc35e0000000p-4, -0x1.b4e5380000000p-4, -0x1.dc33660000000p-9, 0x1.656f3e0000000p-4, 0x1.a9ba2a0000000p-8, -0x1.8e827c0000000p-5, 0x1.5a989e0000000p-4, -0x1.6884f40000000p-5, 0x1.9590780000000p-8, -0x1.0610f60000000p-6, -0x1.ce52020000000p-3, 0x1.a19b0c0000000p-7, -0x1.b361560000000p-7, 0x1.509f220000000p-4, 0x1.37e66e0000000p-3, 0x1.6c4af20000000p-3, -0x1.20d2e40000000p-6, -0x1.f413860000000p-3, 0x1.fdf66a0000000p-5, 0x1.353ad60000000p-5, -0x1.2a0f300000000p-3, -0x1.cd93060000000p-4, -0x1.e529ee0000000p-6, -0x1.25efac0000000p-5, 0x1.2a24300000000p-4, -0x1.a913660000000p-3, 0x1.3cb6460000000p-3, -0x1.d1a31e0000000p-6, -0x1.62c1580000000p-3, -0x1.1284c40000000p-3, 0x1.f1fb840000000p-5, -0x1.755c8a0000000p-6, -0x1.39430c0000000p-5, 0x1.b68a940000000p-6, 0x1.402b500000000p-3, -0x1.4024500000000p-6, -0x1.9f68d20000000p-4, -0x1.64b3040000000p-4, -0x1.3e80640000000p-4, 0x1.39f5b20000000p-3, 0x1.c48fde0000000p-5, -0x1.7611600000000p-3, 0x1.ee20a80000000p-5, -0x1.2d7cd20000000p-8, 0x1.860b4e0000000p-3, -0x1.01d56a0000000p-3, 0x1.1809620000000p-3, -0x1.5e66100000000p-3, 0x1.d25ebc0000000p-4, 0x1.cd52640000000p-5, 0x1.22df1a0000000p-3, -0x1.7894b60000000p-4, -0x1.dc08320000000p-2, -0x1.3a428a0000000p-3, -0x1.096a1c0000000p-4, -0x1.cbdf540000000p-4, -0x1.f0eae80000000p-4, -0x1.91fbe20000000p-4, 0x1.20d2740000000p-2, -0x1.b1608c0000000p-9, 0x1.1fd5240000000p-4, 0x1.70c6e40000000p-4, -0x1.678b1e0000000p-4, -0x1.7907bc0000000p-5, -0x1.12747a0000000p-5, -0x1.44f2e40000000p-6, 0x1.1c620a0000000p-4, -0x1.39e86c0000000p-4, -0x1.47f8d80000000p-6, 0x1.ba75400000000p-5, 0x1.dc24f00000000p-5, 0x1.3677f40000000p-3, 0x1.fa49ca0000000p-4, -0x1.4dfbce0000000p-4, 0x1.57864c0000000p-3, 0x1.91d2ea0000000p-5, 0x1.8539a80000000p-5, 0x1.6d296e0000000p-5, 0x1.0d59da0000000p-3, 0x1.23ec060000000p-3, 0x1.f4d9d80000000p-4, -0x1.2e31dc0000000p-3, 0x1.b9541a0000000p-8, -0x1.1ca2360000000p-3, -0x1.a6bece0000000p-6, -0x1.491cda0000000p-4, -0x1.246d840000000p-3, -0x1.7401240000000p-3, 0x1.c4537a0000000p-6, 0x1.04cc1a0000000p-4, -0x1.34a1560000000p-5, -0x1.52e5e60000000p-5, -0x1.6ab91c0000000p-3, -0x1.13a56e0000000p-3, -0x1.3a008e0000000p-5, 0x1.51a3760000000p-3, -0x1.4386120000000p-5, 0x1.46a2f00000000p-4, 0x1.ccf9ee0000000p-8, -0x1.5a44a80000000p-3, -0x1.26030c0000000p-2, -0x1.45f3a40000000p-4, 0x1.ea9bf60000000p-4, 0x1.c0503c0000000p-8, -0x1.c34c3c0000000p-4, -0x1.cee7040000000p-4, 0x1.90a7900000000p-3, -0x1.405e140000000p-5, -0x1.5c40960000000p-5, 0x1.d0057a0000000p-4, 0x1.b247ac0000000p-5, 0x1.5ec9580000000p-3, -0x1.4634f00000000p-5, -0x1.b16c0c0000000p-4, -0x1.536a100000000p-5, 0x1.15fe720000000p-3, 0x1.837ddc0000000p-3, 0x1.760dfa0000000p-5, 0x1.0ebeb20000000p-5, -0x1.6b64e20000000p-2, 0x1.83b8ae0000000p-4, 0x1.680f960000000p-3, -0x1.2127a80000000p-4, 0x1.eb90960000000p-8, 0x1.c6b9b60000000p-5, 0x1.3ba02a0000000p-2, -0x1.082a3c0000000p-4, -0x1.9e29780000000p-4, -0x1.62bf4a0000000p-3, -0x1.126d2c0000000p-2, 0x1.901f060000000p-4, -0x1.961cbc0000000p-3, 0x1.3890820000000p-3, 0x1.13d2860000000p-2, 0x1.825f1e0000000p-3, -0x1.fd704c0000000p-4, 0x1.2976f20000000p-4, -0x1.6bbb680000000p-3, 0x1.b830720000000p-6, -0x1.94a5340000000p-4, 0x1.b974f60000000p-8, 0x1.9fcfba0000000p-5, -0x1.4a34340000000p-7, 0x1.f300440000000p-5, 0x1.e27c5c0000000p-6, -0x1.ac722c0000000p-5, -0x1.b18c1e0000000p-4, -0x1.1bd5b60000000p-3, 0x1.18423a0000000p-3, 0x1.c845e20000000p-6, -0x1.422d320000000p-3, 0x1.f072b00000000p-5, -0x1.41878c0000000p-3, -0x1.bfc0180000000p-5, 0x1.2feacc0000000p-5, 0x1.b01f8c0000000p-4, -0x1.3843280000000p-3, 0x1.36ee4a0000000p-4, 0x1.47225e0000000p-5, -0x1.47be560000000p-3, 0x1.3a13e60000000p-3, -0x1.1bffbe0000000p-2, -0x1.3b4fc00000000p-4, -0x1.ae9c1e0000000p-3, 0x1.39c9b60000000p-5, 0x1.ba77740000000p-3, 0x1.0e88da0000000p-3, 0x1.c0863e0000000p-3, 0x1.3610e00000000p-7, -0x1.b3b7a00000000p-4, 0x1.0cdca80000000p-4, 0x1.56a1f40000000p-3, 0x1.d4da6c0000000p-5, 0x1.48caea0000000p-5, 0x1.7d0d660000000p-5, 0x1.082d1e0000000p-5, 0x1.b41e040000000p-4, -0x1.c7e2a20000000p-7, 0x1.1a2e080000000p-4, -0x1.b0da1a0000000p-4, -0x1.45c44e0000000p-3, -0x1.ff9aec0000000p-4, -0x1.861d9c0000000p-6, -0x1.399ef60000000p-7, -0x1.913b0c0000000p-4, 0x1.b22f8c0000000p-5, -0x1.860b880000000p-5, -0x1.73ba6e0000000p-2, 0x1.3ce9aa0000000p-4, -0x1.29c5d80000000p-3, -0x1.17b6000000000p-3, -0x1.26805e0000000p-2, -0x1.ca910a0000000p-3, -0x1.6f64120000000p-7, -0x1.d751a60000000p-3, -0x1.ab872c0000000p-6, -0x1.8b35660000000p-4, -0x1.c0069e0000000p-4, -0x1.75d4180000000p-5, -0x1.b70c180000000p-3, 0x1.0d03120000000p-4, 0x1.1301180000000p-4, -0x1.5690fa0000000p-5, 0x1.6c0e0c0000000p-6, 0x1.7260ac0000000p-3, -0x1.8b009a0000000p-4, -0x1.7960720000000p-5, -0x1.422f6e0000000p-2, -0x1.9155cc0000000p-3, -0x1.87b0ee0000000p-2, 0x1.33429c0000000p-4, -0x1.75174a0000000p-2, -0x1.bd50f80000000p-3, 0x1.30ba1e0000000p-3, -0x1.30330c0000000p-3, -0x1.d8af020000000p-4, 0x1.becb900000000p-3, -0x1.64caea0000000p-5, -0x1.abf43c0000000p-3, 0x1.1414140000000p-3, 0x1.1f7d9c0000000p-6, -0x1.8d08f60000000p-2, -0x1.537e6c0000000p-3, -0x1.2ac6e60000000p-4, -0x1.6790680000000p-2, -0x1.b6099e0000000p-5, -0x1.acd2780000000p-4, -0x1.38333c0000000p-2, 0x1.2919b00000000p-3, 0x1.49aaa20000000p-3, 0x1.4ec7500000000p-5, 0x1.7708120000000p-5, -0x1.ccc6a20000000p-6, 0x1.86909e0000000p-4, -0x1.8290820000000p-4, -0x1.b5480a0000000p-5, -0x1.24af700000000p-2, 0x1.1a96c00000000p-6, -0x1.8f3a420000000p-4, 0x1.b69ca80000000p-4, -0x1.daec980000000p-4, -0x1.28d97a0000000p-1, -0x1.7bd8720000000p-2, 0x1.944f540000000p-2, 0x1.40fe4c0000000p-4, 0x1.af44480000000p-6, -0x1.9671640000000p-3, -0x1.46edc60000000p-3, -0x1.0912ee0000000p-2, 0x1.52ecd60000000p-5, -0x1.73795c0000000p-7, 0x1.98eb2a0000000p-3, -0x1.6488b40000000p-4, -0x1.38f6d80000000p-3, 0x1.5bdc060000000p-5, -0x1.5f08460000000p-4, 0x1.fdb0ec0000000p-5, 0x1.7568aa0000000p-6, -0x1.dc48180000000p-4, 0x1.44d1ea0000000p-5, 0x1.ea00320000000p-4, -0x1.b4c1500000000p-4, -0x1.7ed2c40000000p-4, -0x1.3472a00000000p-4, -0x1.d217c20000000p-4, -0x1.01f0880000000p-3, -0x1.8a44900000000p-3, 0x1.4571400000000p-5, 0x1.8ee0840000000p-4, 0x1.1461380000000p-4, -0x1.9455e80000000p-4, 0x1.c6840e0000000p-4, -0x1.a053ba0000000p-4, -0x1.095c920000000p-4, -0x1.2418e20000000p-2, 0x1.258a960000000p-3, -0x1.8079a60000000p-2, -0x1.3957920000000p-3, 0x1.6a19ae0000000p-4, 0x1.cebb4c0000000p-7, -0x1.40758e0000000p-7, -0x1.287f560000000p-6, 0x1.62858c0000000p-4, 0x1.9081660000000p-3, -0x1.07c1ba0000000p-2, -0x1.e44ee80000000p-3, -0x1.7cf29a0000000p-2, -0x1.24803e0000000p-2, 0x1.1423ac0000000p-4, 0x1.349d280000000p-3, 0x1.0366e60000000p-2, -0x1.c1bc0e0000000p-3, -0x1.1c105e0000000p-2, 0x1.5038320000000p-3, 0x1.06cc5a0000000p-3, 0x1.1e42f80000000p-3, 0x1.32153e0000000p-4, -0x1.3eb4340000000p-5, -0x1.1597f80000000p-3, 0x1.ae0d040000000p-6, -0x1.295c680000000p-3}
, {-0x1.e5bf4c0000000p-3, -0x1.18e4d40000000p-4, 0x1.5863660000000p-5, -0x1.9a56fc0000000p-5, -0x1.07870e0000000p-3, 0x1.0970c20000000p-4, -0x1.efeca60000000p-4, -0x1.2fb2ba0000000p-2, -0x1.ba780a0000000p-2, 0x1.424eca0000000p-3, 0x1.f9f2e60000000p-5, 0x1.da066a0000000p-5, -0x1.b997c00000000p-5, 0x1.685e440000000p-3, 0x1.4556f40000000p-5, -0x1.0070860000000p-3, 0x1.265dcc0000000p-4, -0x1.092f720000000p-3, 0x1.776fb20000000p-6, -0x1.3ba6180000000p-5, -0x1.95acb20000000p-4, 0x1.3d651e0000000p-5, 0x1.c055480000000p-6, 0x1.53fd400000000p-4, -0x1.dbe01e0000000p-4, -0x1.c4c8640000000p-4, 0x1.34e3620000000p-4, -0x1.d84fe80000000p-3, -0x1.f0c3d80000000p-7, 0x1.fd18d40000000p-5, 0x1.2e7dd40000000p-6, -0x1.1154640000000p-4, -0x1.de91920000000p-4, 0x1.ad90080000000p-5, -0x1.c35df00000000p-10, -0x1.8570ac0000000p-3, -0x1.fe59140000000p-5, -0x1.e074f40000000p-4, -0x1.f252020000000p-4, 0x1.819a1a0000000p-3, 0x1.58f3720000000p-4, 0x1.cf3b600000000p-5, 0x1.19f5a80000000p-4, -0x1.e8106c0000000p-5, 0x1.f69df80000000p-4, -0x1.02e54c0000000p-3, 0x1.4dad100000000p-6, -0x1.dfd4a40000000p-3, -0x1.96c9780000000p-7, -0x1.d8841a0000000p-3, -0x1.b6a9e20000000p-3, -0x1.ddf1620000000p-4, -0x1.128c500000000p-1, -0x1.ff81aa0000000p-4, -0x1.b76e1c0000000p-3, -0x1.3e0c280000000p-8, 0x1.65145e0000000p-3, 0x1.5036980000000p-4, -0x1.8138920000000p-2, 0x1.2915b40000000p-3, -0x1.aa1b380000000p-2, 0x1.dee5aa0000000p-3, 0x1.01e77e0000000p-3, -0x1.3ab62e0000000p-6, -0x1.fad5e00000000p-4, -0x1.60b2f80000000p-4, 0x1.3926300000000p-4, 0x1.6658860000000p-2, -0x1.87fc020000000p-3, 0x1.3183140000000p-2, -0x1.67e6b20000000p-6, 0x1.67d3a00000000p-3, -0x1.20a8aa0000000p-5, 0x1.98f22a0000000p-4, -0x1.6d22220000000p-4, 0x1.b415e80000000p-7, -0x1.eb09700000000p-5, -0x1.01c3a60000000p-3, 0x1.c03fee0000000p-4, -0x1.68c9a80000000p-4, 0x1.e777f80000000p-8, 0x1.ba7c8a0000000p-5, 0x1.5251920000000p-3, -0x1.99625a0000000p-2, -0x1.5154ee0000000p-2, -0x1.5a94a20000000p-7, -0x1.aca1860000000p-3, 0x1.6ba52e0000000p-3, 0x1.4fd48c0000000p-3, 0x1.7fffca0000000p-6, -0x1.af8dbc0000000p-4, -0x1.5237100000000p-6, -0x1.1fe41a0000000p-4, -0x1.536eea0000000p-2, -0x1.fcee5c0000000p-3, -0x1.e8a9ac0000000p-4, -0x1.921a5a0000000p-4, -0x1.1251aa0000000p-7, 0x1.02e2420000000p-4, -0x1.1249bc0000000p-5, 0x1.d889c00000000p-4, 0x1.e4352a0000000p-4, 0x1.fcb7a80000000p-3, -0x1.31163e0000000p-4, -0x1.7b9b520000000p-3, -0x1.2da26c0000000p-2, 0x1.842f560000000p-5, -0x1.d6359e0000000p-4, 0x1.2b6c540000000p-2, -0x1.6499e00000000p-6, -0x1.e4c9260000000p-4, -0x1.cf03e60000000p-13, -0x1.14a8740000000p-2, 0x1.35fc340000000p-4, -0x1.6a61400000000p-3, -0x1.a792620000000p-6, -0x1.c153ac0000000p-5, -0x1.656e0e0000000p-4, -0x1.0b7d780000000p-3, 0x1.27b3f00000000p-3, 0x1.58ddb20000000p-10, -0x1.34d2120000000p-3, 0x1.3660620000000p-3, -0x1.5d13fe0000000p-3, -0x1.e514a20000000p-3, 0x1.150e760000000p-6, -0x1.cc6dd60000000p-2, -0x1.5f222e0000000p-4, 0x1.f7c1fa0000000p-5, 0x1.f17e260000000p-6, 0x1.1e45720000000p-8, -0x1.4b0cc40000000p-7, -0x1.94c3660000000p-8, 0x1.79ad820000000p-3, 0x1.0594340000000p-3, -0x1.4c68520000000p-3, -0x1.a39ca00000000p-5, 0x1.fa65560000000p-5, -0x1.3972200000000p-3, 0x1.3f757c0000000p-4, -0x1.712d8e0000000p-2, -0x1.663e280000000p-5, 0x1.d65cfc0000000p-3, 0x1.977e760000000p-4, 0x1.68c9ac0000000p-3, -0x1.9f960e0000000p-3, -0x1.3526200000000p-4, 0x1.856b120000000p-4, -0x1.cb536e0000000p-6, -0x1.20428c0000000p-5, -0x1.41625e0000000p-10, -0x1.2decde0000000p-3, 0x1.0545420000000p-5, -0x1.5e3f920000000p-3, 0x1.11345e0000000p-5, 0x1.2adaf00000000p-4, 0x1.cae1740000000p-4, 0x1.62a2940000000p-3, 0x1.7faa3a0000000p-3, -0x1.30abf00000000p-8, -0x1.a7d2060000000p-4, -0x1.74f8860000000p-4, 0x1.5ee5c00000000p-6, 0x1.201e640000000p-4, -0x1.0e30640000000p-5, -0x1.f6723a0000000p-6, -0x1.01a5400000000p-4, -0x1.1221760000000p-2, 0x1.9a94500000000p-3, -0x1.3e89800000000p-16, -0x1.599bf00000000p-4, 0x1.80c80e0000000p-5, -0x1.351e540000000p-4, -0x1.f3fcdc0000000p-4, -0x1.2cc7ae0000000p-4, -0x1.1bb67e0000000p-3, -0x1.00f6960000000p-4, -0x1.14b36c0000000p-3, -0x1.639e2c0000000p-3, -0x1.01a9440000000p-3, 0x1.1ad4a20000000p-4, 0x1.23f23e0000000p-3, -0x1.d076680000000p-4, 0x1.56b7c40000000p-6, 0x1.f05f980000000p-4, 0x1.6e62cc0000000p-4, 0x1.011bf60000000p-5, -0x1.4f5e020000000p-7, -0x1.0292b40000000p-4, 0x1.855dae0000000p-3, -0x1.dc06ca0000000p-4, -0x1.05d4e00000000p-5, -0x1.239f860000000p-3, -0x1.e5069e0000000p-3, 0x1.5541680000000p-3, 0x1.cfa5540000000p-10, 0x1.c58d440000000p-4, 0x1.bf16740000000p-5, 0x1.1458220000000p-3, 0x1.14db520000000p-4, -0x1.4cd7260000000p-3, -0x1.f3a0560000000p-5, -0x1.abc3240000000p-4, -0x1.b07c4c0000000p-2, 0x1.a1f69e0000000p-5, -0x1.1ce6f00000000p-6, -0x1.3d18180000000p-6, -0x1.a047460000000p-4, -0x1.9d88380000000p-4, -0x1.25961c0000000p-5, -0x1.0653300000000p-4, -0x1.aa166c0000000p-6, 0x1.f2404c0000000p-13, -0x1.77808c0000000p-3, 0x1.f10b8c0000000p-3, 0x1.7f57d40000000p-4, -0x1.eebfe00000000p-7, 0x1.8e82360000000p-5, -0x1.0bdf960000000p-6, -0x1.21d2760000000p-3, 0x1.2c73680000000p-2, 0x1.275f360000000p-3, -0x1.c3fb1c0000000p-4, -0x1.1992bc0000000p-2, 0x1.8c86bc0000000p-4, 0x1.a380b00000000p-4, -0x1.c1fdae0000000p-3, 0x1.0ea5480000000p-4, -0x1.b21ef00000000p-5, 0x1.d26b2e0000000p-7, -0x1.c40f1e0000000p-3, -0x1.9ff7480000000p-4, -0x1.9d66460000000p-4, -0x1.bcca2c0000000p-4, -0x1.7e5ed60000000p-3, -0x1.7db0c20000000p-5, 0x1.7adb8a0000000p-4, 0x1.1dcb560000000p-6, -0x1.ce1bdc0000000p-4, -0x1.c97cc40000000p-5, -0x1.49f1500000000p-4, -0x1.8baf100000000p-4, -0x1.21d20e0000000p-3, -0x1.3ce7700000000p-6, 0x1.6273560000000p-3, -0x1.29f6180000000p-5, -0x1.33127a0000000p-4, 0x1.1cb68e0000000p-5, 0x1.02fe020000000p-2, 0x1.62207c0000000p-4, 0x1.043bb60000000p-6, 0x1.49e5920000000p-5, -0x1.9763840000000p-3, -0x1.4efc7a0000000p-4, -0x1.e3afd40000000p-7, 0x1.9071980000000p-4, -0x1.46d6a40000000p-6, -0x1.9814da0000000p-4, -0x1.af69940000000p-4, -0x1.a202e60000000p-4, 0x1.da63700000000p-4, 0x1.9398960000000p-6, -0x1.2d27040000000p-4, 0x1.59db920000000p-7, -0x1.d00bc00000000p-5, -0x1.6d2c180000000p-5, -0x1.12ab760000000p-6, -0x1.9c40ce0000000p-3, -0x1.8a83800000000p-5, 0x1.fb09760000000p-7, 0x1.c8fdc20000000p-4, 0x1.470d0e0000000p-3, -0x1.d80f2c0000000p-8, 0x1.a8b7580000000p-3, 0x1.3e6bc60000000p-4, 0x1.0850140000000p-8, 0x1.045d1c0000000p-3, 0x1.6908400000000p-3, -0x1.ece9a80000000p-3, -0x1.a8a5f20000000p-6, 0x1.0fe9780000000p-8, -0x1.ea91800000000p-3, -0x1.0701a60000000p-4, -0x1.0cef600000000p-5, -0x1.3f7fb00000000p-3, 0x1.0280e80000000p-6, -0x1.d5dd620000000p-5, -0x1.14dcfe0000000p-2, -0x1.7509ba0000000p-9, 0x1.e4ba760000000p-4, 0x1.85a4740000000p-4, 0x1.bbd1200000000p-8, -0x1.349ac40000000p-3, -0x1.3c416a0000000p-2, -0x1.1385200000000p-2, 0x1.4da4200000000p-6, -0x1.4110900000000p-5, -0x1.7aae8a0000000p-4, -0x1.9c3c440000000p-3, 0x1.1387f80000000p-5, -0x1.b66e580000000p-3, -0x1.13f4940000000p-3, -0x1.e43cc80000000p-6, -0x1.cf36fa0000000p-4, -0x1.5f85ba0000000p-3, 0x1.517ce60000000p-5, -0x1.5faab00000000p-3, -0x1.52f71a0000000p-3, -0x1.da23d00000000p-3, 0x1.dd6f0e0000000p-4, 0x1.777b780000000p-7, -0x1.bca9340000000p-4, 0x1.90edea0000000p-8, 0x1.a07ef40000000p-3, -0x1.5c1f9a0000000p-5, -0x1.0a788c0000000p-3, 0x1.1182ae0000000p-5, -0x1.55da7c0000000p-3, 0x1.538d6c0000000p-4, -0x1.9279560000000p-6, -0x1.21cf280000000p-3, 0x1.186b500000000p-3, 0x1.8a2fa60000000p-4, 0x1.724f000000000p-5, -0x1.0cb15c0000000p-3, 0x1.0e138e0000000p-4, 0x1.e7e2700000000p-3, 0x1.061df80000000p-3, 0x1.8c902c0000000p-3, 0x1.acb68e0000000p-4, -0x1.d9d19a0000000p-4, 0x1.8598220000000p-6, 0x1.f9600e0000000p-5, -0x1.60a4520000000p-4, -0x1.89dea60000000p-3, 0x1.4f07ac0000000p-8, -0x1.d413740000000p-4, 0x1.68a97a0000000p-4, 0x1.0666ee0000000p-3, 0x1.2636300000000p-7, 0x1.13c8140000000p-4, -0x1.0b86c20000000p-2, -0x1.56fe5e0000000p-3, 0x1.a4f9ee0000000p-4, 0x1.6cdbf80000000p-4, 0x1.7d393c0000000p-3, -0x1.cc13460000000p-3, 0x1.be008e0000000p-5, -0x1.c20d760000000p-3, -0x1.37a5260000000p-5, -0x1.51013a0000000p-2, -0x1.2642aa0000000p-6, 0x1.a566800000000p-9, 0x1.ff71700000000p-4, 0x1.1e1f060000000p-3, -0x1.67e8420000000p-4, -0x1.8cf4080000000p-3, -0x1.fcab680000000p-4, -0x1.8f78c20000000p-5, 0x1.fe34aa0000000p-4, 0x1.c93bea0000000p-4, 0x1.47de560000000p-3, -0x1.62b21c0000000p-4, 0x1.934fb60000000p-7, -0x1.39ae620000000p-2, -0x1.c786960000000p-3, 0x1.64cfbc0000000p-4, -0x1.ec7b600000000p-5, -0x1.2bbbda0000000p-3, 0x1.39d1cc0000000p-4, -0x1.82b1300000000p-5, -0x1.14053e0000000p-3, -0x1.3b41f00000000p-9, 0x1.ea059e0000000p-6, -0x1.bebf860000000p-5, 0x1.bf6b880000000p-5, -0x1.16c10a0000000p-4, -0x1.4445140000000p-4, 0x1.4d42320000000p-4, -0x1.8ed2b60000000p-4, 0x1.3b14960000000p-4, 0x1.90b15e0000000p-4, 0x1.c2efc80000000p-8, 0x1.3984f20000000p-7, 0x1.23d2300000000p-5, 0x1.78b91a0000000p-7, -0x1.6db0d00000000p-7, -0x1.9db5520000000p-5, -0x1.1ad8280000000p-3, 0x1.038ca00000000p-6, -0x1.8e1b840000000p-4, -0x1.b4dd0e0000000p-5, 0x1.53b4e60000000p-4, -0x1.ce482c0000000p-5, 0x1.c2d4580000000p-4, 0x1.0412ba0000000p-4, -0x1.4c70780000000p-3, 0x1.05a5fc0000000p-5, 0x1.f9ecd60000000p-5, -0x1.b8b7a80000000p-4, 0x1.0faa4e0000000p-3, -0x1.58ea1c0000000p-2, 0x1.26435c0000000p-4, -0x1.02f1880000000p-2, -0x1.ad0cf80000000p-5, 0x1.2ff4f40000000p-3, 0x1.04bf000000000p-6, -0x1.bf62680000000p-5, -0x1.1bc6260000000p-5, -0x1.1ff0420000000p-3, -0x1.018b060000000p-3, -0x1.8a52a40000000p-3, -0x1.3fcc080000000p-7, 0x1.0ec67c0000000p-3, 0x1.2fd1860000000p-3, 0x1.80120e0000000p-4, 0x1.67b9720000000p-5, -0x1.10f2680000000p-2, 0x1.21089e0000000p-4, 0x1.98daea0000000p-4, -0x1.3b5b860000000p-3, -0x1.5e47800000000p-3, 0x1.c5d2820000000p-4, 0x1.8976fa0000000p-5, -0x1.e89bf80000000p-6, 0x1.11da3a0000000p-6, -0x1.a658540000000p-3, -0x1.6e19920000000p-7, 0x1.b1a3420000000p-4, -0x1.b1feb20000000p-5, -0x1.82e2c20000000p-3, -0x1.5a6d0a0000000p-4, -0x1.8da35c0000000p-3, -0x1.d53d9a0000000p-4, -0x1.1ad2ee0000000p-3, -0x1.fd46720000000p-5, 0x1.2f17b80000000p-12, 0x1.727f1a0000000p-4, -0x1.4565ac0000000p-3, 0x1.0dc59a0000000p-4, -0x1.5f5adc0000000p-4, 0x1.55fe4e0000000p-5, -0x1.d46edc0000000p-5, -0x1.84a59a0000000p-5, 0x1.75b4ba0000000p-4, -0x1.c4d3160000000p-8, 0x1.0afd2a0000000p-3, -0x1.2124460000000p-5, 0x1.e3d3a20000000p-5, -0x1.73bcc40000000p-4, 0x1.110e440000000p-6, -0x1.07870e0000000p-4, -0x1.4119880000000p-4, -0x1.3312c80000000p-3, -0x1.1ccbc80000000p-4, -0x1.019af00000000p-4, 0x1.443bac0000000p-3, -0x1.018f040000000p-2, 0x1.ba04780000000p-7, 0x1.3cb4820000000p-4, -0x1.8e83ea0000000p-4, -0x1.d0a4ee0000000p-7, 0x1.167c160000000p-11, -0x1.ade0b00000000p-5, 0x1.b2b8920000000p-4, -0x1.efb0820000000p-6, -0x1.e049280000000p-4, 0x1.13abf00000000p-7, -0x1.4b33760000000p-3, -0x1.712d660000000p-3, 0x1.59e2460000000p-4, -0x1.4a93de0000000p-4, 0x1.dad21c0000000p-4, -0x1.592e320000000p-4, -0x1.a628120000000p-5, 0x1.8369520000000p-5, -0x1.2b1e960000000p-3, -0x1.41c4800000000p-4, -0x1.9e6f1a0000000p-4, -0x1.617a820000000p-3, -0x1.0f17f00000000p-2, 0x1.1516200000000p-4, -0x1.f860020000000p-3, 0x1.5b1ce60000000p-5, -0x1.01b2840000000p-3, -0x1.7d130e0000000p-3, 0x1.a8715a0000000p-6, 0x1.024c120000000p-4, -0x1.3c832c0000000p-4, -0x1.11c0cc0000000p-4, -0x1.40bbb60000000p-3, -0x1.132eaa0000000p-4, -0x1.1bccfa0000000p-4, 0x1.f974520000000p-4, -0x1.0a1c7c0000000p-5, -0x1.e941ee0000000p-4, 0x1.10ba5a0000000p-4, 0x1.fc30f80000000p-4, -0x1.44fef20000000p-2, 0x1.061e520000000p-4, 0x1.92469e0000000p-4, 0x1.21c2700000000p-9, -0x1.bd4e4e0000000p-3, -0x1.53c4740000000p-3, -0x1.07fc620000000p-5, -0x1.88e2160000000p-4, -0x1.5ac3920000000p-7, 0x1.cbae680000000p-7, -0x1.2b4e740000000p-2, 0x1.d9fbb00000000p-4, 0x1.8e75e80000000p-3, -0x1.a250060000000p-8}
, {-0x1.c49cb20000000p-6, -0x1.0e635e0000000p-5, -0x1.6a4b520000000p-5, -0x1.c22dba0000000p-5, 0x1.afdafe0000000p-3, 0x1.919eb60000000p-3, 0x1.e315780000000p-3, 0x1.fc91740000000p-5, 0x1.00f5d20000000p-3, -0x1.67aaac0000000p-3, 0x1.62cb9c0000000p-4, -0x1.9c27580000000p-4, -0x1.cc70380000000p-6, -0x1.4edeb60000000p-4, 0x1.6243900000000p-4, -0x1.acab520000000p-5, 0x1.64810c0000000p-8, -0x1.2d8ff80000000p-5, -0x1.4ebd0a0000000p-3, -0x1.666a2c0000000p-7, -0x1.5761ce0000000p-3, 0x1.ef48f80000000p-4, 0x1.8782480000000p-3, -0x1.81c8be0000000p-4, 0x1.4a8e020000000p-3, 0x1.3af49a0000000p-8, -0x1.3014fe0000000p-3, -0x1.2412f40000000p-7, -0x1.ab47840000000p-3, -0x1.ec3b940000000p-4, 0x1.0d4b860000000p-4, 0x1.c2863a0000000p-3, -0x1.8fadd60000000p-4, -0x1.6e3e5c0000000p-7, -0x1.36859e0000000p-5, 0x1.29deca0000000p-3, 0x1.37cca60000000p-3, 0x1.4a9cf00000000p-5, -0x1.b0b8d40000000p-4, -0x1.39b9c40000000p-4, 0x1.0245b80000000p-4, 0x1.b78e3e0000000p-5, -0x1.3b37ae0000000p-4, 0x1.bccbaa0000000p-5, 0x1.a5a53e0000000p-3, -0x1.24a05e0000000p-3, 0x1.ba7c620000000p-6, 0x1.57f0520000000p-4, 0x1.04480c0000000p-4, 0x1.3d0bea0000000p-3, -0x1.cadb380000000p-5, -0x1.87e0d20000000p-5, 0x1.3876000000000p-2, 0x1.a062300000000p-4, 0x1.fae3260000000p-3, -0x1.73ee9c0000000p-4, 0x1.a51d500000000p-5, 0x1.0750ca0000000p-4, -0x1.66754a0000000p-8, -0x1.f29d8c0000000p-4, 0x1.bcb8fe0000000p-4, -0x1.5f7b3e0000000p-2, 0x1.f53a7a0000000p-5, -0x1.b5c98a0000000p-5, -0x1.565cbc0000000p-6, -0x1.ca870a0000000p-6, -0x1.448fae0000000p-4, -0x1.383e020000000p-3, -0x1.de026e0000000p-5, -0x1.34e6520000000p-4, -0x1.32e3300000000p-4, 0x1.0746780000000p-8, 0x1.4f4f960000000p-2, 0x1.fa36700000000p-5, -0x1.a4d11a0000000p-5, -0x1.305b440000000p-6, -0x1.fa86e20000000p-7, -0x1.3d21dc0000000p-5, -0x1.2274ce0000000p-4, 0x1.8a98a80000000p-7, 0x1.fb9e960000000p-4, -0x1.f03cf40000000p-7, 0x1.3114900000000p-5, -0x1.b84fa40000000p-6, -0x1.fb5eb80000000p-4, -0x1.76adcc0000000p-3, -0x1.d308a00000000p-3, -0x1.93dc700000000p-4, 0x1.dc09d00000000p-3, -0x1.bcc50a0000000p-4, 0x1.b3092c0000000p-4, -0x1.415f0e0000000p-4, 0x1.dcb74a0000000p-6, -0x1.0d2d9e0000000p-6, 0x1.6d387e0000000p-7, -0x1.ea10700000000p-3, 0x1.7920ae0000000p-3, -0x1.1507d00000000p-3, -0x1.43dd920000000p-5, 0x1.c13b760000000p-4, 0x1.92b4fe0000000p-3, 0x1.6509fc0000000p-4, 0x1.796f4e0000000p-4, -0x1.eb81560000000p-5, 0x1.a9416e0000000p-4, -0x1.e179900000000p-6, 0x1.7231820000000p-6, -0x1.cf1fd60000000p-3, 0x1.87741e0000000p-4, 0x1.74bfe40000000p-8, 0x1.0644220000000p-5, -0x1.b87c580000000p-4, -0x1.690c840000000p-7, 0x1.7f7c960000000p-5, 0x1.b591ca0000000p-4, -0x1.8a855a0000000p-6, -0x1.d0be920000000p-6, -0x1.3ae2960000000p-4, 0x1.2c8f000000000p-7, -0x1.bdc2a40000000p-10, -0x1.5fdf480000000p-3, 0x1.27a9140000000p-3, 0x1.186f060000000p-3, 0x1.f83a3e0000000p-5, 0x1.fffcdc0000000p-4, -0x1.d24be80000000p-5, 0x1.7161900000000p-4, -0x1.82cdb20000000p-5, 0x1.5568580000000p-4, -0x1.f669920000000p-4, 0x1.a1039e0000000p-4, 0x1.10a8880000000p-3, 0x1.f4ef6e0000000p-4, 0x1.78c0b00000000p-6, -0x1.0a4b900000000p-2, -0x1.017c060000000p-2, 0x1.9c0a920000000p-4, -0x1.6005960000000p-5, -0x1.2e36da0000000p-6, -0x1.d815b60000000p-5, 0x1.368cca0000000p-3, -0x1.5ca7700000000p-4, -0x1.49419a0000000p-3, -0x1.6395aa0000000p-3, 0x1.cc44680000000p-4, 0x1.70a7020000000p-4, 0x1.e9bf8c0000000p-4, -0x1.6295800000000p-4, -0x1.3ff4de0000000p-3, -0x1.ec2fb40000000p-3, -0x1.0110c20000000p-4, 0x1.3672160000000p-5, -0x1.1d762c0000000p-3, 0x1.0642ee0000000p-2, 0x1.4a04000000000p-2, -0x1.d6119e0000000p-4, -0x1.2635840000000p-3, 0x1.0c8f480000000p-2, 0x1.10754a0000000p-13, -0x1.2db3920000000p-7, 0x1.1ca14e0000000p-3, 0x1.b1dbb80000000p-3, -0x1.6bc8940000000p-6, 0x1.95c62e0000000p-5, -0x1.cd4f920000000p-7, 0x1.d34c100000000p-3, -0x1.502dec0000000p-3, 0x1.c308f80000000p-7, -0x1.2041260000000p-3, -0x1.b071b20000000p-3, 0x1.6e9dfc0000000p-4, -0x1.f783360000000p-5, 0x1.c2d5f60000000p-3, -0x1.095c660000000p-4, 0x1.523ab20000000p-2, 0x1.7071300000000p-5, -0x1.0804840000000p-3, -0x1.34c4c40000000p-10, 0x1.103f080000000p-3, 0x1.4a01780000000p-4, -0x1.adefea0000000p-3, -0x1.5007ae0000000p-5, -0x1.fb74e60000000p-3, -0x1.3fe4000000000p-4, 0x1.bd72600000000p-3, -0x1.a658a00000000p-6, -0x1.39034a0000000p-4, -0x1.1efff80000000p-4, -0x1.a83fb80000000p-4, -0x1.0afef40000000p-2, -0x1.08e5f80000000p-3, -0x1.e89bb00000000p-5, 0x1.0fa7d40000000p-4, 0x1.1c33440000000p-2, -0x1.54c35a0000000p-5, 0x1.0282340000000p-8, -0x1.c88a220000000p-3, -0x1.9d3d4e0000000p-4, 0x1.6cdd700000000p-4, 0x1.1004c20000000p-4, 0x1.299be00000000p-3, -0x1.0ea8200000000p-3, 0x1.d8b9660000000p-4, 0x1.35b4fc0000000p-2, -0x1.1605ea0000000p-2, -0x1.37d6ee0000000p-4, 0x1.2eb5380000000p-3, 0x1.b17c9e0000000p-3, 0x1.5d458e0000000p-4, -0x1.6b41420000000p-4, -0x1.bd93400000000p-3, -0x1.b71b5c0000000p-3, -0x1.a9a1780000000p-6, -0x1.0bfa160000000p-3, -0x1.c7eb960000000p-3, 0x1.0a164a0000000p-11, 0x1.c8f61e0000000p-6, -0x1.db865e0000000p-6, -0x1.020a840000000p-5, 0x1.71ec100000000p-3, 0x1.74a4f00000000p-5, 0x1.44b2860000000p-4, -0x1.2b78f00000000p-3, 0x1.a0ba4e0000000p-3, -0x1.af232c0000000p-7, -0x1.7342140000000p-4, 0x1.4503c00000000p-5, 0x1.2e9c600000000p-5, -0x1.2b058e0000000p-3, -0x1.1097fc0000000p-2, 0x1.9de4920000000p-4, 0x1.1dd5be0000000p-3, 0x1.7465880000000p-3, -0x1.7995b60000000p-3, 0x1.2ee3d00000000p-3, -0x1.e76f4e0000000p-3, -0x1.f77cb00000000p-4, -0x1.3014300000000p-3, -0x1.86ded40000000p-4, -0x1.64ec560000000p-3, -0x1.d5e47c0000000p-3, 0x1.89fba60000000p-4, -0x1.0967520000000p-7, 0x1.b3636e0000000p-4, -0x1.27d0700000000p-4, -0x1.9b26e60000000p-4, 0x1.1227240000000p-3, 0x1.446b260000000p-5, 0x1.fe1a280000000p-3, 0x1.cd95620000000p-4, -0x1.2aab040000000p-2, 0x1.4f68880000000p-9, -0x1.29c6520000000p-7, -0x1.0113d00000000p-3, 0x1.8947a20000000p-6, 0x1.04fd4a0000000p-3, -0x1.1131280000000p-3, 0x1.157bd00000000p-4, 0x1.2410080000000p-3, -0x1.15a8020000000p-4, 0x1.037ca40000000p-2, 0x1.e317040000000p-6, -0x1.2e25d20000000p-5, 0x1.a0a9bc0000000p-6, -0x1.0d3f400000000p-3, 0x1.539ab80000000p-8, -0x1.c1909a0000000p-5, 0x1.8578e60000000p-3, -0x1.c585b60000000p-10, -0x1.7c25f40000000p-10, 0x1.06640e0000000p-5, -0x1.d3333a0000000p-5, -0x1.0946820000000p-7, 0x1.92eb520000000p-6, 0x1.bdfe9a0000000p-6, -0x1.92a15e0000000p-3, 0x1.e04d480000000p-4, -0x1.36c1c20000000p-7, -0x1.a2084e0000000p-4, 0x1.490ec60000000p-5, -0x1.54089e0000000p-7, -0x1.865d480000000p-6, -0x1.e843e80000000p-4, -0x1.041a740000000p-2, 0x1.ea5b1c0000000p-5, 0x1.49e5d60000000p-3, 0x1.ba14340000000p-4, -0x1.65ec3a0000000p-3, 0x1.26d44c0000000p-4, -0x1.9332e20000000p-9, 0x1.345b6c0000000p-6, 0x1.4fbc760000000p-9, -0x1.60de820000000p-3, -0x1.0d20740000000p-3, -0x1.13f9f00000000p-3, 0x1.1cbc780000000p-4, 0x1.0120100000000p-2, -0x1.bab59a0000000p-3, -0x1.8e46640000000p-4, 0x1.812aaa0000000p-4, -0x1.a9dc460000000p-6, -0x1.83ccee0000000p-4, -0x1.32cd1a0000000p-2, -0x1.c57f680000000p-5, -0x1.b3eb020000000p-5, 0x1.4551280000000p-8, 0x1.5d4edc0000000p-4, -0x1.15ad9e0000000p-3, -0x1.bef0f40000000p-5, -0x1.9eee440000000p-6, 0x1.a7e7e80000000p-6, 0x1.9b919c0000000p-4, 0x1.9359220000000p-5, -0x1.a340300000000p-9, -0x1.953b1a0000000p-5, -0x1.d401740000000p-8, 0x1.169fca0000000p-4, 0x1.e78ee40000000p-5, 0x1.e981ba0000000p-4, 0x1.7d54440000000p-3, 0x1.10cce00000000p-4, 0x1.1afcbc0000000p-2, 0x1.73bb620000000p-3, -0x1.73998e0000000p-3, 0x1.13a41e0000000p-3, 0x1.1217940000000p-3, -0x1.02910a0000000p-3, 0x1.d189700000000p-5, 0x1.23bf8a0000000p-3, -0x1.438a8a0000000p-4, -0x1.034dbe0000000p-3, -0x1.e64dba0000000p-6, 0x1.1983360000000p-3, 0x1.7b35e80000000p-7, 0x1.27b6120000000p-3, -0x1.a76c100000000p-8, -0x1.1936400000000p-3, -0x1.252efa0000000p-5, 0x1.1e0b700000000p-7, 0x1.017eb80000000p-4, 0x1.a6c5160000000p-5, -0x1.6814f40000000p-4, 0x1.2958d60000000p-3, -0x1.d53ea20000000p-3, 0x1.d4a8ce0000000p-3, 0x1.3cfba20000000p-4, 0x1.e953ce0000000p-5, -0x1.f953620000000p-4, -0x1.00298e0000000p-3, 0x1.e88db60000000p-6, -0x1.29302c0000000p-3, -0x1.da90020000000p-5, -0x1.06dbd20000000p-2, 0x1.a5b4dc0000000p-3, -0x1.9a33f00000000p-3, 0x1.821d8a0000000p-3, -0x1.f6348e0000000p-9, 0x1.6447820000000p-6, -0x1.2036400000000p-5, 0x1.3843de0000000p-4, -0x1.1251aa0000000p-5, 0x1.ea1b0e0000000p-5, -0x1.65562e0000000p-3, -0x1.2704a60000000p-5, 0x1.1022c20000000p-4, 0x1.e6f57a0000000p-5, -0x1.6717120000000p-3, 0x1.21c2080000000p-3, -0x1.bda7860000000p-4, 0x1.ba13a60000000p-6, 0x1.4af93a0000000p-6, 0x1.63be940000000p-4, 0x1.d6411c0000000p-4, 0x1.ea535c0000000p-10, 0x1.f189ea0000000p-4, -0x1.7ed5c40000000p-9, -0x1.619b3e0000000p-10, 0x1.ba9e320000000p-7, -0x1.37f82a0000000p-3, 0x1.0705000000000p-5, 0x1.b7ecdc0000000p-4, 0x1.882dca0000000p-4, -0x1.4dc8940000000p-5, 0x1.75730e0000000p-6, -0x1.f7864a0000000p-4, -0x1.fbdaba0000000p-4, -0x1.d191ee0000000p-4, 0x1.08bca80000000p-3, -0x1.5420da0000000p-3, -0x1.5a0ba40000000p-3, -0x1.79e8960000000p-4, 0x1.4c56060000000p-5, 0x1.17920a0000000p-12, 0x1.02c6760000000p-2, 0x1.64460a0000000p-3, 0x1.dd649c0000000p-4, -0x1.76b7d60000000p-3, 0x1.942c800000000p-3, -0x1.3af6020000000p-5, 0x1.c53b0e0000000p-7, -0x1.1325620000000p-4, 0x1.4a5ca60000000p-3, -0x1.10632c0000000p-4, 0x1.0093740000000p-3, 0x1.60f3b80000000p-10, -0x1.0ab9e20000000p-3, -0x1.666e1c0000000p-4, -0x1.583b260000000p-4, 0x1.b1570c0000000p-4, -0x1.63af260000000p-6, -0x1.6335dc0000000p-2, 0x1.6eddc80000000p-8, -0x1.35dcbe0000000p-10, 0x1.0ae5480000000p-4, -0x1.4b02900000000p-3, -0x1.7dfbac0000000p-3, -0x1.d1349a0000000p-6, 0x1.4b91180000000p-2, -0x1.8738bc0000000p-4, 0x1.3567500000000p-4, 0x1.28d3920000000p-4, 0x1.f40b1c0000000p-7, 0x1.2a0f4a0000000p-5, 0x1.0caa800000000p-3, 0x1.6c794a0000000p-4, -0x1.42891e0000000p-3, -0x1.92947e0000000p-4, 0x1.64479e0000000p-5, -0x1.e876f80000000p-3, -0x1.915ae00000000p-5, -0x1.0ffec20000000p-2, -0x1.14f4360000000p-3, 0x1.a1004c0000000p-4, 0x1.8b4e820000000p-5, -0x1.216ba00000000p-3, -0x1.3815860000000p-5, 0x1.2af5220000000p-4, -0x1.8b22f00000000p-5, 0x1.07c3240000000p-3, -0x1.6f73d80000000p-3, -0x1.9a76b40000000p-4, -0x1.cbdfc40000000p-4, -0x1.baee620000000p-4, -0x1.0e16500000000p-5, 0x1.4e88240000000p-4, -0x1.48e0920000000p-3, -0x1.7cbd6e0000000p-5, -0x1.88617a0000000p-5, -0x1.2738580000000p-4, -0x1.17c6a80000000p-4, 0x1.4873960000000p-3, -0x1.740d220000000p-2, -0x1.40738a0000000p-6, -0x1.1ff3280000000p-6, -0x1.1e251a0000000p-6, 0x1.e68d3a0000000p-3, -0x1.12942c0000000p-2, 0x1.68dff00000000p-2, 0x1.7fac600000000p-5, -0x1.e49e180000000p-3, 0x1.ffc5fe0000000p-4, -0x1.4f0d860000000p-3, 0x1.546dee0000000p-6, -0x1.c56d000000000p-6, 0x1.87686a0000000p-7, 0x1.58c5340000000p-4, 0x1.4bd3a40000000p-4, -0x1.33735a0000000p-4, -0x1.8203a40000000p-4, 0x1.a89b600000000p-5, -0x1.059ad80000000p-3, 0x1.dc48640000000p-4, -0x1.e4d02e0000000p-3, -0x1.23a35c0000000p-5, -0x1.41e21e0000000p-5, 0x1.10bb720000000p-7, 0x1.24220a0000000p-5, 0x1.4c0c480000000p-2, 0x1.5bd5e00000000p-5, -0x1.c691200000000p-4, -0x1.fc87640000000p-3, -0x1.4f51980000000p-5, -0x1.36142c0000000p-3, -0x1.d6b4460000000p-6, -0x1.527c5a0000000p-6, -0x1.3c18c40000000p-4, -0x1.72bcf00000000p-2, 0x1.8c70ac0000000p-3, -0x1.2388260000000p-4, 0x1.eee12a0000000p-4, -0x1.97e0060000000p-3, -0x1.6df7600000000p-5, 0x1.bd2fb20000000p-4, 0x1.6c80b20000000p-5, -0x1.3060ce0000000p-6, 0x1.7884fc0000000p-5, 0x1.20cd180000000p-4, 0x1.d0fa1c0000000p-6, 0x1.ef03d80000000p-3, -0x1.dd29460000000p-3, 0x1.4b64e60000000p-5, 0x1.0db0d80000000p-8, 0x1.9a9ed80000000p-4, -0x1.41df9e0000000p-4, -0x1.74ce2a0000000p-3, -0x1.3e86dc0000000p-3, 0x1.21010c0000000p-4, -0x1.4df4020000000p-3, 0x1.74a14a0000000p-6, 0x1.7761bc0000000p-5, 0x1.596f920000000p-5, -0x1.d597960000000p-4}
, {0x1.b5aaa80000000p-7, -0x1.c678400000000p-3, 0x1.0b3e0c0000000p-4, -0x1.a586260000000p-3, -0x1.818d460000000p-3, -0x1.0d29720000000p-3, -0x1.8962460000000p-10, -0x1.0f8de40000000p-2, 0x1.9ddad20000000p-4, -0x1.66ae400000000p-4, -0x1.7f37100000000p-7, -0x1.eb97780000000p-6, -0x1.ca792c0000000p-6, 0x1.523a900000000p-4, 0x1.44f2620000000p-5, 0x1.56638e0000000p-3, -0x1.6abb500000000p-3, -0x1.accd5c0000000p-6, -0x1.60bb9c0000000p-2, -0x1.fd25c60000000p-8, 0x1.cbb1860000000p-4, -0x1.ba6bd40000000p-4, -0x1.534a700000000p-4, 0x1.bbfb720000000p-5, 0x1.48add00000000p-4, 0x1.0b39720000000p-3, -0x1.e3435e0000000p-3, 0x1.11ff000000000p-2, 0x1.b5dcf20000000p-4, 0x1.1be0100000000p-4, -0x1.10f78e0000000p-3, 0x1.d36b360000000p-6, -0x1.2ecb420000000p-4, -0x1.f9dc5a0000000p-7, 0x1.0b91ae0000000p-2, 0x1.1048b20000000p-4, 0x1.ad82b20000000p-3, -0x1.f4a36e0000000p-6, 0x1.84f1500000000p-5, -0x1.f82a320000000p-4, 0x1.ba243c0000000p-4, 0x1.83b5fc0000000p-4, -0x1.513d6e0000000p-4, 0x1.0fcef60000000p-2, -0x1.f5e8fc0000000p-3, 0x1.07d37a0000000p-4, -0x1.c5342c0000000p-5, -0x1.e068ae0000000p-5, -0x1.a0fabc0000000p-4, -0x1.300e860000000p-4, -0x1.910f320000000p-4, 0x1.6539020000000p-3, 0x1.5054be0000000p-3, 0x1.40dbec0000000p-2, 0x1.9239a40000000p-4, 0x1.7a75f40000000p-4, 0x1.7fb20c0000000p-4, -0x1.d652140000000p-3, 0x1.3d396a0000000p-3, 0x1.1b53ec0000000p-4, -0x1.09c83e0000000p-4, -0x1.19b2b00000000p-2, 0x1.148ef60000000p-4, -0x1.0474320000000p-4, -0x1.1623780000000p-2, -0x1.a92ffe0000000p-4, 0x1.503c660000000p-5, -0x1.0d55c20000000p-6, -0x1.2ad4c40000000p-4, -0x1.a0fb1a0000000p-4, 0x1.8b76e40000000p-4, -0x1.65feb80000000p-4, -0x1.9c2a9e0000000p-3, -0x1.0e937a0000000p-4, 0x1.7cd3500000000p-5, -0x1.60f2a60000000p-3, 0x1.662b500000000p-4, -0x1.49dcc40000000p-4, -0x1.44bbea0000000p-5, -0x1.77c2880000000p-4, 0x1.58db240000000p-4, -0x1.cc3edc0000000p-5, -0x1.3e00180000000p-4, -0x1.066f220000000p-12, -0x1.9228500000000p-6, 0x1.6265c00000000p-3, 0x1.80a87a0000000p-5, -0x1.25e5fc0000000p-5, -0x1.57ad980000000p-3, -0x1.754a580000000p-4, -0x1.26cdf80000000p-3, -0x1.a7ef9a0000000p-5, 0x1.a477040000000p-6, -0x1.6bfe640000000p-4, 0x1.aca1300000000p-3, -0x1.2f99400000000p-3, -0x1.0907840000000p-4, 0x1.0219a80000000p-3, -0x1.830d960000000p-3, 0x1.8b3e620000000p-3, 0x1.6146f40000000p-6, -0x1.f2eab60000000p-4, 0x1.107e8e0000000p-8, -0x1.a166dc0000000p-8, -0x1.bc37fe0000000p-5, 0x1.65160c0000000p-3, -0x1.014a600000000p-4, 0x1.6deb8a0000000p-4, 0x1.6498f20000000p-3, 0x1.14603e0000000p-3, 0x1.38f4520000000p-4, 0x1.c594940000000p-5, -0x1.911bb60000000p-5, 0x1.5668c60000000p-5, 0x1.2da5d80000000p-2, 0x1.8104940000000p-8, -0x1.a2bc6a0000000p-4, -0x1.8cf26a0000000p-5, 0x1.98796c0000000p-4, 0x1.c326040000000p-5, -0x1.089b980000000p-4, -0x1.2d92d80000000p-3, -0x1.e03b620000000p-4, 0x1.2126a60000000p-2, -0x1.18558e0000000p-2, 0x1.06a0000000000p-4, 0x1.6001940000000p-4, -0x1.4be31a0000000p-4, -0x1.d8f7d80000000p-7, -0x1.46acec0000000p-2, 0x1.4491a40000000p-5, -0x1.195f700000000p-5, 0x1.2970a40000000p-3, -0x1.d81e3a0000000p-5, 0x1.58180e0000000p-4, 0x1.237dca0000000p-4, -0x1.2d3b300000000p-2, -0x1.5fd30c0000000p-5, -0x1.1218640000000p-3, -0x1.8a7afa0000000p-4, -0x1.7e29ec0000000p-4, 0x1.ba455c0000000p-4, 0x1.559ba00000000p-4, 0x1.1fa0a00000000p-4, -0x1.aeca660000000p-3, -0x1.82d5dc0000000p-6, -0x1.8c1ce20000000p-7, 0x1.68c8f20000000p-3, 0x1.c4070a0000000p-6, -0x1.d1b4680000000p-8, -0x1.a774dc0000000p-5, 0x1.7ce1be0000000p-9, -0x1.a649ac0000000p-4, -0x1.df528c0000000p-3, -0x1.a032380000000p-3, -0x1.032c260000000p-4, 0x1.21dfa60000000p-3, -0x1.7df7fc0000000p-3, 0x1.1ec5ea0000000p-3, -0x1.b9211e0000000p-3, 0x1.748c260000000p-4, -0x1.7f305e0000000p-4, 0x1.5056a00000000p-5, -0x1.65c41a0000000p-3, -0x1.f0ff7a0000000p-5, -0x1.f548940000000p-3, -0x1.3172a00000000p-9, -0x1.399f2a0000000p-5, 0x1.7f01720000000p-4, -0x1.1755560000000p-4, 0x1.897f9e0000000p-5, -0x1.76359c0000000p-3, -0x1.0b70e20000000p-2, -0x1.57965e0000000p-4, -0x1.1d52460000000p-2, 0x1.a3dd100000000p-4, 0x1.0243980000000p-7, 0x1.2e1afa0000000p-3, 0x1.8158360000000p-5, 0x1.ab4afa0000000p-3, -0x1.1e3fe40000000p-6, -0x1.be2c4a0000000p-4, 0x1.f37cf80000000p-4, -0x1.51d3a80000000p-2, 0x1.aac1340000000p-5, -0x1.bb1f600000000p-6, -0x1.865a9a0000000p-3, -0x1.46a18c0000000p-2, 0x1.b3ada60000000p-6, 0x1.17d4860000000p-5, 0x1.4361640000000p-2, 0x1.4e8cda0000000p-4, -0x1.0159fc0000000p-3, 0x1.48fdac0000000p-3, 0x1.b050ea0000000p-3, 0x1.e829cc0000000p-5, -0x1.27db780000000p-4, -0x1.a4546e0000000p-4, 0x1.c075e80000000p-5, -0x1.a697ea0000000p-4, -0x1.8999e20000000p-5, -0x1.d8a9160000000p-6, -0x1.8d9fec0000000p-3, 0x1.96305e0000000p-6, 0x1.4dcda60000000p-3, 0x1.1797200000000p-5, -0x1.855d2a0000000p-3, 0x1.9669900000000p-9, 0x1.a523780000000p-4, -0x1.e03ac00000000p-6, -0x1.755cfc0000000p-5, 0x1.539a0a0000000p-4, -0x1.a17a8a0000000p-5, -0x1.1622700000000p-2, -0x1.07b1b60000000p-5, 0x1.fa23080000000p-6, 0x1.4d6c780000000p-4, -0x1.95811c0000000p-5, -0x1.d3ea5e0000000p-5, -0x1.5ea69a0000000p-4, -0x1.0b9fb20000000p-4, -0x1.171e760000000p-4, 0x1.8e461c0000000p-3, -0x1.e6e2740000000p-4, -0x1.19da320000000p-5, -0x1.a877e60000000p-4, -0x1.2e554a0000000p-3, -0x1.e88cf60000000p-5, -0x1.7fbef00000000p-5, 0x1.ae2a3c0000000p-5, -0x1.0ad1e80000000p-2, -0x1.7c54ba0000000p-5, 0x1.d52cd40000000p-4, 0x1.17c2e20000000p-5, -0x1.1897fe0000000p-2, 0x1.291c860000000p-3, 0x1.0ba8200000000p-4, 0x1.c0eefe0000000p-6, -0x1.b46d720000000p-4, 0x1.4cbc800000000p-3, -0x1.1a0e2c0000000p-3, 0x1.4a065a0000000p-3, -0x1.a2b7420000000p-5, -0x1.284abe0000000p-3, 0x1.a28f240000000p-4, 0x1.c38bbc0000000p-5, 0x1.656c300000000p-4, -0x1.75b0860000000p-7, -0x1.1a85fe0000000p-4, 0x1.eb56480000000p-5, -0x1.e18fa40000000p-9, -0x1.20526c0000000p-3, -0x1.0116b00000000p-6, -0x1.da37b20000000p-3, 0x1.2314f60000000p-3, -0x1.7f60680000000p-3, 0x1.7a816c0000000p-4, 0x1.6decc60000000p-4, -0x1.5024820000000p-4, -0x1.6964980000000p-5, 0x1.5dfdf40000000p-10, -0x1.a45f0a0000000p-4, -0x1.d78bdc0000000p-3, 0x1.6da56c0000000p-3, -0x1.f148780000000p-3, -0x1.a4adea0000000p-5, 0x1.6873360000000p-6, -0x1.9d023a0000000p-2, -0x1.3c513e0000000p-3, 0x1.3f13300000000p-4, -0x1.fe36ee0000000p-5, 0x1.0c28480000000p-4, -0x1.3ab56a0000000p-2, 0x1.5e34b40000000p-7, -0x1.ba592e0000000p-4, -0x1.bcbfd20000000p-3, -0x1.15e4680000000p-3, -0x1.a6de9e0000000p-4, -0x1.22fc080000000p-8, 0x1.1c88ec0000000p-3, 0x1.0518860000000p-4, -0x1.73b4040000000p-5, -0x1.5bf2740000000p-5, -0x1.8df4460000000p-4, 0x1.3054120000000p-3, -0x1.65c67e0000000p-2, 0x1.2fc84e0000000p-7, 0x1.1990cc0000000p-2, 0x1.1ef3100000000p-2, -0x1.e4fa4c0000000p-5, 0x1.717a180000000p-4, -0x1.1848340000000p-3, -0x1.96f4d80000000p-4, -0x1.95312a0000000p-3, 0x1.41c33e0000000p-3, 0x1.5f95560000000p-5, -0x1.8e57aa0000000p-3, -0x1.cfb93c0000000p-3, 0x1.b467ee0000000p-5, -0x1.c384b80000000p-4, 0x1.3bd69a0000000p-3, 0x1.b659fa0000000p-7, -0x1.fd46400000000p-9, 0x1.8b5e920000000p-6, 0x1.a134a20000000p-4, 0x1.6d44880000000p-4, -0x1.0020e40000000p-3, 0x1.46748c0000000p-4, 0x1.a5a35c0000000p-3, -0x1.7287e00000000p-6, 0x1.0184080000000p-5, -0x1.be9c940000000p-3, 0x1.1e17800000000p-4, -0x1.a915b00000000p-7, -0x1.07ca1e0000000p-1, -0x1.ea0b360000000p-8, -0x1.9649c40000000p-3, -0x1.c46aea0000000p-3, -0x1.ad58be0000000p-6, -0x1.020d8c0000000p-6, -0x1.85acbc0000000p-6, 0x1.e06d8c0000000p-4, 0x1.eb65660000000p-9, -0x1.ae191a0000000p-2, 0x1.d11d720000000p-4, -0x1.8e947a0000000p-4, 0x1.0509480000000p-3, 0x1.6a6d9a0000000p-3, 0x1.aa29ec0000000p-3, -0x1.cedfec0000000p-6, -0x1.5c79f60000000p-4, 0x1.9bfd640000000p-4, 0x1.2301660000000p-3, 0x1.5c55940000000p-4, -0x1.26bd580000000p-5, -0x1.0a394a0000000p-5, -0x1.15c9b40000000p-2, -0x1.11d0160000000p-4, 0x1.4f939e0000000p-4, -0x1.0abc4e0000000p-3, -0x1.6301300000000p-8, -0x1.7102b00000000p-2, -0x1.1a97e60000000p-4, -0x1.b2db1a0000000p-4, 0x1.5029c20000000p-4, 0x1.14a8d80000000p-5, 0x1.6fdc5a0000000p-4, 0x1.02e02c0000000p-5, -0x1.74e4ac0000000p-5, 0x1.dbd2120000000p-7, 0x1.286d940000000p-3, -0x1.fa08480000000p-3, -0x1.de93200000000p-3, -0x1.2215140000000p-10, -0x1.1a3b9a0000000p-2, -0x1.85995e0000000p-6, 0x1.93d1e80000000p-4, 0x1.793e660000000p-7, -0x1.7635840000000p-3, 0x1.0138260000000p-5, 0x1.80d8a80000000p-5, 0x1.2af2060000000p-3, -0x1.2d0be20000000p-3, -0x1.d510da0000000p-7, 0x1.6d95f20000000p-3, 0x1.e7fa220000000p-6, -0x1.11ee920000000p-4, 0x1.b272f40000000p-4, -0x1.37333c0000000p-3, 0x1.4fd70a0000000p-4, -0x1.4733c00000000p-5, 0x1.5a12520000000p-5, 0x1.d0d1d40000000p-4, 0x1.3efddc0000000p-4, -0x1.864af80000000p-5, -0x1.87d1460000000p-4, -0x1.5a57060000000p-8, 0x1.10beda0000000p-3, 0x1.8b0aec0000000p-4, -0x1.04cd900000000p-3, -0x1.2067e40000000p-6, -0x1.04c7e00000000p-4, -0x1.daba400000000p-5, -0x1.e115600000000p-4, 0x1.5abd460000000p-3, -0x1.148e1c0000000p-3, -0x1.062b840000000p-2, -0x1.aa05ac0000000p-3, -0x1.99a97c0000000p-4, 0x1.6801720000000p-3, -0x1.24273e0000000p-3, 0x1.7dfc900000000p-5, -0x1.4409b80000000p-5, -0x1.520ec20000000p-4, -0x1.af8c920000000p-4, -0x1.3624e80000000p-5, -0x1.37eefa0000000p-5, 0x1.7084a20000000p-6, 0x1.00f4f80000000p-8, 0x1.7df1ac0000000p-4, -0x1.0f29a60000000p-2, -0x1.fec6160000000p-5, -0x1.068fd00000000p-3, -0x1.77df340000000p-4, -0x1.369e600000000p-5, -0x1.876f6a0000000p-4, 0x1.ad50540000000p-3, 0x1.38ac680000000p-7, -0x1.fca27a0000000p-3, 0x1.6e15c60000000p-4, -0x1.db0c9a0000000p-4, -0x1.017e8a0000000p-3, -0x1.f926f60000000p-5, -0x1.059ebe0000000p-4, -0x1.14b2400000000p-3, 0x1.97bf920000000p-6, 0x1.fbb51c0000000p-5, -0x1.7a971a0000000p-7, -0x1.9afe740000000p-3, -0x1.46c64c0000000p-3, 0x1.4490740000000p-3, 0x1.68233c0000000p-3, -0x1.9c92420000000p-3, -0x1.0aae600000000p-2, -0x1.e89cc60000000p-5, -0x1.271eb80000000p-2, -0x1.b255660000000p-3, 0x1.957a5c0000000p-4, -0x1.74ce9a0000000p-4, -0x1.bc89e20000000p-5, -0x1.5141ee0000000p-5, 0x1.0a391c0000000p-5, -0x1.0e23900000000p-3, -0x1.cacf300000000p-3, -0x1.b570920000000p-6, 0x1.67c2bc0000000p-3, -0x1.2c747e0000000p-2, -0x1.1342ca0000000p-5, -0x1.037e420000000p-5, -0x1.9182b60000000p-6, -0x1.3f3f580000000p-4, 0x1.eb7e200000000p-4, 0x1.e571a60000000p-9, 0x1.ae18500000000p-5, -0x1.9c084c0000000p-3, -0x1.3985c60000000p-7, -0x1.7a239c0000000p-3, 0x1.77369e0000000p-8, -0x1.8da2940000000p-3, 0x1.387dfe0000000p-3, -0x1.93a3920000000p-3, 0x1.97afba0000000p-3, -0x1.6f51720000000p-3, 0x1.81330c0000000p-4, 0x1.227bd20000000p-5, -0x1.920ab20000000p-5, -0x1.869e400000000p-5, -0x1.73c3640000000p-3, 0x1.34e6ea0000000p-5, 0x1.8d34960000000p-2, -0x1.61b9ee0000000p-4, -0x1.e48f9c0000000p-5, -0x1.7b07e60000000p-5, -0x1.29e1340000000p-2, -0x1.76b9e60000000p-3, 0x1.6c14080000000p-5, 0x1.666cd20000000p-5, -0x1.b9ed380000000p-3, 0x1.79b3ac0000000p-9, -0x1.6ca7260000000p-7, -0x1.b59f200000000p-3, 0x1.ce1b5e0000000p-3, 0x1.8ea7ec0000000p-8, -0x1.4c0bf40000000p-3, 0x1.74f5ee0000000p-4, -0x1.858abe0000000p-4, 0x1.0ce8360000000p-3, 0x1.41283e0000000p-7, -0x1.c0e31a0000000p-4, 0x1.5123f20000000p-6, 0x1.00d47c0000000p-9, 0x1.7a044a0000000p-5, -0x1.96583a0000000p-4, 0x1.7b46860000000p-5, 0x1.04a2960000000p-3, -0x1.0575d60000000p-4, 0x1.91cf1a0000000p-3, -0x1.4f5b000000000p-9, 0x1.4dba1c0000000p-4, -0x1.501bce0000000p-4, 0x1.7e04220000000p-3, -0x1.bad7a20000000p-3, 0x1.d455e80000000p-5, -0x1.d85d100000000p-3, -0x1.405dce0000000p-6, 0x1.2e295e0000000p-5, 0x1.819aa00000000p-8, -0x1.461b580000000p-2, -0x1.1968640000000p-2, -0x1.5fc2bc0000000p-4, -0x1.a347e00000000p-2, -0x1.d34c800000000p-3, -0x1.eb57ea0000000p-3, -0x1.dce24c0000000p-5, -0x1.44a0740000000p-5, 0x1.5bd4900000000p-4, -0x1.49907c0000000p-3, -0x1.e41e500000000p-3, -0x1.8b075c0000000p-5, -0x1.779e040000000p-3, -0x1.5ae6a80000000p-2, -0x1.bd74f20000000p-3}
, {-0x1.7e85c80000000p-3, -0x1.1c2fa80000000p-2, -0x1.6e27880000000p-3, 0x1.0b68040000000p-3, -0x1.3491c00000000p-5, -0x1.e821aa0000000p-6, 0x1.8a14220000000p-5, 0x1.6230de0000000p-5, 0x1.ff8fe80000000p-5, 0x1.a7b9120000000p-4, -0x1.e228160000000p-3, -0x1.aef8400000000p-4, -0x1.dee2840000000p-4, 0x1.32c1720000000p-3, 0x1.3405580000000p-4, 0x1.512b9c0000000p-7, 0x1.163a9c0000000p-5, -0x1.f66a0a0000000p-6, -0x1.1aba4c0000000p-8, -0x1.6b294c0000000p-3, -0x1.40fd2c0000000p-5, 0x1.e49cb20000000p-6, 0x1.ddbef80000000p-3, -0x1.56028a0000000p-5, -0x1.046d420000000p-3, -0x1.aa9a640000000p-4, -0x1.5d3be60000000p-4, -0x1.5363300000000p-5, 0x1.d7a7a80000000p-5, -0x1.4d640e0000000p-9, 0x1.101c0e0000000p-4, -0x1.4a5f140000000p-5, -0x1.02e9200000000p-4, 0x1.1ccc7a0000000p-4, -0x1.d30ce20000000p-4, -0x1.33207a0000000p-3, 0x1.6a78520000000p-5, 0x1.a44b3c0000000p-5, 0x1.c9f4340000000p-5, 0x1.cfc47c0000000p-5, -0x1.ba2f840000000p-5, -0x1.70ea6c0000000p-6, 0x1.8ccc020000000p-3, -0x1.612f580000000p-4, 0x1.3c83ca0000000p-4, 0x1.66b3bc0000000p-5, -0x1.bea0660000000p-4, -0x1.3388c60000000p-5, -0x1.2c0af80000000p-4, -0x1.9311a20000000p-4, -0x1.330bde0000000p-6, -0x1.b77fd40000000p-5, 0x1.09851e0000000p-5, -0x1.304c7c0000000p-5, -0x1.68797c0000000p-4, -0x1.0223400000000p-2, 0x1.746c360000000p-4, 0x1.1cfc8e0000000p-4, -0x1.8738ac0000000p-4, 0x1.2739fa0000000p-5, -0x1.3867e20000000p-3, -0x1.2338900000000p-3, -0x1.34ae100000000p-3, 0x1.3a78bc0000000p-4, -0x1.df1a040000000p-3, 0x1.afc2740000000p-6, 0x1.e5aabc0000000p-8, -0x1.5c253a0000000p-5, 0x1.c0a26e0000000p-6, 0x1.3b4a560000000p-3, 0x1.3433020000000p-3, 0x1.0dc3800000000p-3, -0x1.9e33360000000p-4, 0x1.533ed20000000p-4, 0x1.0dd0320000000p-4, -0x1.4ad7880000000p-4, 0x1.5d9b680000000p-3, 0x1.3a166c0000000p-7, -0x1.1c5f400000000p-3, -0x1.1f46a40000000p-4, -0x1.b42ad80000000p-6, 0x1.fbfc040000000p-5, 0x1.f121020000000p-5, 0x1.8c60f60000000p-7, -0x1.3db1860000000p-4, -0x1.2f06520000000p-2, 0x1.5107b60000000p-8, 0x1.528aac0000000p-4, -0x1.2e1a940000000p-5, 0x1.490e7c0000000p-6, 0x1.f4da8a0000000p-6, 0x1.a66ebc0000000p-8, -0x1.9df7420000000p-5, -0x1.8684c40000000p-5, 0x1.16358e0000000p-4, 0x1.0c3bc60000000p-7, -0x1.6d7ac80000000p-3, -0x1.39fee20000000p-7, 0x1.24f28c0000000p-5, -0x1.e5616a0000000p-3, -0x1.139ce00000000p-4, -0x1.c5c28e0000000p-5, 0x1.43b7c60000000p-5, 0x1.2a68f60000000p-4, -0x1.a0d2140000000p-4, -0x1.3463820000000p-3, 0x1.ced7720000000p-8, -0x1.fe42120000000p-4, 0x1.84f8100000000p-7, -0x1.f0aad00000000p-6, -0x1.4c52020000000p-5, 0x1.93b6880000000p-4, 0x1.0ffa580000000p-4, -0x1.5f4ecc0000000p-5, 0x1.0183d00000000p-5, -0x1.1dd0d60000000p-3, -0x1.0c15200000000p-6, -0x1.3488c40000000p-4, 0x1.ac286a0000000p-4, 0x1.9744c00000000p-4, 0x1.0ce8b60000000p-4, -0x1.2078180000000p-9, 0x1.f2a62a0000000p-5, -0x1.be56000000000p-3, -0x1.ca54aa0000000p-3, -0x1.746ec00000000p-14, -0x1.aba44e0000000p-5, 0x1.47e55c0000000p-4, 0x1.9e2a420000000p-5, 0x1.d362280000000p-6, 0x1.8d519c0000000p-3, -0x1.dcee720000000p-7, -0x1.9bc7140000000p-3, -0x1.6cf5aa0000000p-2, -0x1.66de8a0000000p-12, 0x1.48914c0000000p-3, 0x1.49538c0000000p-4, 0x1.501bac0000000p-7, -0x1.428f2c0000000p-4, -0x1.c8d2a80000000p-4, -0x1.2869280000000p-2, -0x1.643e820000000p-5, -0x1.32db5c0000000p-4, 0x1.08055c0000000p-8, -0x1.05f0360000000p-4, 0x1.1b20620000000p-3, -0x1.4415840000000p-2, 0x1.13aeae0000000p-6, 0x1.a0f8ce0000000p-6, -0x1.08af740000000p-3, -0x1.bb18800000000p-4, -0x1.2013200000000p-10, 0x1.9cca460000000p-9, -0x1.c7a8ac0000000p-4, -0x1.21c7640000000p-4, -0x1.663bca0000000p-3, 0x1.5ab1980000000p-5, 0x1.e6c57e0000000p-8, -0x1.9816d00000000p-4, 0x1.4c04b60000000p-5, -0x1.4123980000000p-4, -0x1.2df1320000000p-5, -0x1.0a3bb40000000p-4, 0x1.499dc00000000p-3, 0x1.0ae2fa0000000p-2, 0x1.42f2be0000000p-5, 0x1.889bba0000000p-4, 0x1.43f89a0000000p-3, -0x1.7420fe0000000p-4, 0x1.dafd180000000p-6, 0x1.6d93320000000p-4, -0x1.2b56fc0000000p-7, -0x1.46fcd80000000p-2, 0x1.30586c0000000p-3, -0x1.5194b20000000p-3, 0x1.06fd220000000p-4, 0x1.970a1c0000000p-5, 0x1.52adaa0000000p-4, 0x1.6f33ba0000000p-3, -0x1.445ffe0000000p-4, 0x1.61fbb40000000p-4, -0x1.17d83a0000000p-4, 0x1.0642d40000000p-4, 0x1.8b4a2e0000000p-5, -0x1.2b4a9a0000000p-7, 0x1.0cd0900000000p-5, 0x1.6112cc0000000p-5, 0x1.15efbc0000000p-4, -0x1.9552f80000000p-4, -0x1.a8c88e0000000p-4, -0x1.236a080000000p-7, 0x1.77bd500000000p-5, -0x1.5141040000000p-2, -0x1.2f0bee0000000p-2, -0x1.f99eaa0000000p-5, -0x1.1ee32e0000000p-3, -0x1.e421420000000p-4, -0x1.3f5f860000000p-3, 0x1.a1fb500000000p-3, -0x1.c1f7e80000000p-4, -0x1.cc1b140000000p-2, -0x1.21ba820000000p-3, 0x1.9c6ec40000000p-4, 0x1.8343a80000000p-6, 0x1.909a2a0000000p-3, -0x1.a645520000000p-3, 0x1.b788600000000p-6, -0x1.6709e20000000p-4, -0x1.01325a0000000p-8, 0x1.06bd5a0000000p-4, -0x1.55eb1e0000000p-4, -0x1.e29a080000000p-4, -0x1.bd7aee0000000p-4, 0x1.3baf4e0000000p-3, 0x1.cd392e0000000p-4, 0x1.06c4b20000000p-3, -0x1.3176340000000p-2, -0x1.dbca060000000p-3, -0x1.1740fe0000000p-5, -0x1.b0304c0000000p-3, 0x1.54efa60000000p-3, 0x1.1c5fde0000000p-3, 0x1.8d9e9c0000000p-4, -0x1.5adbca0000000p-2, -0x1.67162e0000000p-2, 0x1.74f0860000000p-4, -0x1.50a6040000000p-2, -0x1.b0bc320000000p-4, 0x1.9c79ba0000000p-11, 0x1.d335c80000000p-4, -0x1.bc5de80000000p-2, -0x1.56cd840000000p-4, -0x1.e5699e0000000p-9, -0x1.d7fe100000000p-6, -0x1.1b32360000000p-2, -0x1.054b960000000p-3, 0x1.374a040000000p-7, 0x1.79c8a80000000p-8, -0x1.2d47180000000p-5, 0x1.50a39e0000000p-3, -0x1.883ac60000000p-4, -0x1.3c37580000000p-3, -0x1.28b1b00000000p-4, 0x1.0d52b40000000p-5, -0x1.059d9c0000000p-4, 0x1.6278e60000000p-6, 0x1.9fd6d60000000p-7, -0x1.2c524e0000000p-3, -0x1.344d860000000p-3, 0x1.59dff80000000p-4, 0x1.73926c0000000p-10, -0x1.8517e40000000p-3, 0x1.2c43be0000000p-5, -0x1.9017500000000p-3, -0x1.2f65900000000p-4, -0x1.2680a00000000p-3, -0x1.24bd140000000p-3, 0x1.3fe4f00000000p-4, 0x1.c0137c0000000p-3, -0x1.9f95620000000p-2, -0x1.84f7940000000p-5, 0x1.24c0820000000p-5, 0x1.d272bc0000000p-4, 0x1.1856180000000p-5, 0x1.be93120000000p-5, -0x1.3d499e0000000p-2, -0x1.fb11420000000p-4, 0x1.83ff660000000p-3, 0x1.a50e100000000p-4, -0x1.98a8a20000000p-3, -0x1.9f4cd40000000p-4, 0x1.8152b40000000p-6, -0x1.4d59f80000000p-3, 0x1.10b4cc0000000p-4, 0x1.1f57620000000p-7, -0x1.0ba8f40000000p-3, 0x1.27c1360000000p-6, -0x1.5125340000000p-3, -0x1.480de20000000p-2, 0x1.daa9fe0000000p-6, -0x1.a38e2e0000000p-6, -0x1.0284ca0000000p-7, -0x1.02b7840000000p-5, 0x1.1eddba0000000p-4, -0x1.161e8a0000000p-3, -0x1.e7c7c20000000p-6, -0x1.eb831a0000000p-5, -0x1.1fba4e0000000p-4, -0x1.4a7f4e0000000p-2, -0x1.3a896a0000000p-3, -0x1.6f87a80000000p-3, -0x1.b682840000000p-3, 0x1.b692f60000000p-6, -0x1.8234540000000p-4, 0x1.688be20000000p-4, -0x1.34ccfc0000000p-3, 0x1.3a4c280000000p-3, 0x1.3702760000000p-8, 0x1.d508640000000p-7, -0x1.f3b2400000000p-6, -0x1.dbef740000000p-8, -0x1.b193bc0000000p-5, 0x1.8407340000000p-3, 0x1.34e1a60000000p-3, -0x1.bbc8c00000000p-7, 0x1.68cf000000000p-5, -0x1.0e355e0000000p-4, -0x1.a9749c0000000p-4, -0x1.572e020000000p-3, -0x1.51ce8a0000000p-8, 0x1.ad469e0000000p-6, 0x1.ccee680000000p-4, 0x1.ce44e60000000p-5, 0x1.075ef40000000p-4, 0x1.c3d22c0000000p-4, 0x1.431c020000000p-3, 0x1.345b3e0000000p-4, -0x1.2f50e40000000p-5, -0x1.3c19bc0000000p-3, -0x1.5db1c00000000p-2, -0x1.96768c0000000p-4, 0x1.804fac0000000p-9, 0x1.34387e0000000p-5, 0x1.19ebec0000000p-2, -0x1.6beb3c0000000p-3, 0x1.46c1580000000p-5, -0x1.e95a9e0000000p-5, -0x1.d6aa8a0000000p-2, -0x1.20498a0000000p-4, -0x1.7eaa080000000p-4, 0x1.8622980000000p-3, 0x1.cc18e80000000p-5, 0x1.17d7a40000000p-3, 0x1.ca9e020000000p-3, -0x1.47d08e0000000p-5, -0x1.4eefaa0000000p-2, 0x1.429ef40000000p-4, 0x1.9f8afc0000000p-8, -0x1.52f2720000000p-2, -0x1.024afa0000000p-6, -0x1.1a100a0000000p-4, 0x1.a216c00000000p-4, 0x1.d6d61c0000000p-5, -0x1.819e520000000p-3, -0x1.2ec74c0000000p-11, 0x1.0b31920000000p-4, -0x1.8859ec0000000p-3, 0x1.4850440000000p-4, 0x1.d2edd20000000p-6, -0x1.f56b960000000p-6, -0x1.04f66a0000000p-2, -0x1.8b47860000000p-3, -0x1.8ffc1a0000000p-3, -0x1.6a03300000000p-3, 0x1.0eae0c0000000p-2, 0x1.881d000000000p-5, -0x1.88c9ba0000000p-5, -0x1.f260a40000000p-9, -0x1.19b40c0000000p-5, -0x1.18f7fa0000000p-3, -0x1.6b206e0000000p-3, -0x1.68f3640000000p-6, -0x1.7970f40000000p-3, -0x1.229d6a0000000p-6, -0x1.793d5e0000000p-3, 0x1.8b5f1a0000000p-5, 0x1.2c62340000000p-3, -0x1.8a0e5a0000000p-3, -0x1.f4a7f20000000p-4, -0x1.39c3f20000000p-3, -0x1.2302300000000p-6, -0x1.98b91c0000000p-4, 0x1.62ebbc0000000p-5, -0x1.8a5d3a0000000p-5, -0x1.5a18840000000p-3, -0x1.e576060000000p-5, -0x1.5934fa0000000p-3, -0x1.8507960000000p-3, -0x1.3e5a480000000p-4, -0x1.3de60e0000000p-4, -0x1.39d7ee0000000p-4, 0x1.1ab7dc0000000p-2, -0x1.77f9b60000000p-2, -0x1.79bf180000000p-2, -0x1.8991620000000p-2, 0x1.9b262c0000000p-5, 0x1.c9ace40000000p-3, 0x1.3200840000000p-2, 0x1.f57de60000000p-6, -0x1.b361760000000p-4, 0x1.2d8c2e0000000p-4, 0x1.42493a0000000p-7, 0x1.adbd140000000p-4, -0x1.77b14c0000000p-7, -0x1.413acc0000000p-3, 0x1.7f28b80000000p-4, 0x1.0ec4960000000p-4, 0x1.ba97740000000p-4, -0x1.fafd140000000p-4, 0x1.86e98c0000000p-6, 0x1.07961c0000000p-2, -0x1.90a5220000000p-5, -0x1.5936a60000000p-7, -0x1.dd986a0000000p-7, -0x1.29dd4c0000000p-4, 0x1.7ead700000000p-11, -0x1.3de8900000000p-3, 0x1.2760f60000000p-4, -0x1.04ac800000000p-4, -0x1.3d4f860000000p-3, 0x1.a168360000000p-5, -0x1.baa33e0000000p-3, -0x1.6a32580000000p-4, 0x1.93b45c0000000p-4, 0x1.8146f20000000p-5, 0x1.70ee8e0000000p-7, 0x1.3894760000000p-5, 0x1.4ccc7a0000000p-4, 0x1.2b19fa0000000p-6, 0x1.27de000000000p-4, -0x1.d771c40000000p-4, 0x1.b9cda40000000p-4, -0x1.dbdb220000000p-3, 0x1.9386d20000000p-5, 0x1.02d4ca0000000p-3, 0x1.292b920000000p-3, -0x1.3e7a8e0000000p-7, 0x1.3c12500000000p-5, 0x1.4e9db60000000p-6, -0x1.27ea840000000p-5, 0x1.77e3760000000p-6, -0x1.e4413e0000000p-3, -0x1.3f03420000000p-4, -0x1.19643a0000000p-4, -0x1.39cf8e0000000p-3, -0x1.ba9ab60000000p-3, 0x1.199b540000000p-4, 0x1.2776460000000p-3, 0x1.924d440000000p-5, 0x1.93a1a40000000p-4, 0x1.7b23900000000p-4, 0x1.2f07160000000p-5, 0x1.6646120000000p-6, -0x1.2af9060000000p-4, 0x1.87ef760000000p-4, 0x1.b3e4ea0000000p-4, -0x1.f4058e0000000p-6, 0x1.74b1aa0000000p-4, -0x1.46fb560000000p-9, 0x1.8937240000000p-5, -0x1.1f602e0000000p-3, 0x1.26fc0c0000000p-2, -0x1.967b060000000p-4, -0x1.fcea900000000p-9, -0x1.5528e00000000p-2, -0x1.13b2260000000p-5, 0x1.4fd5660000000p-5, 0x1.9d46ba0000000p-3, 0x1.93a4080000000p-4, 0x1.3137ce0000000p-4, 0x1.5bb2f80000000p-5, -0x1.096c9c0000000p-5, -0x1.2afc620000000p-4, 0x1.f954f80000000p-5, 0x1.8a57ea0000000p-3, -0x1.75187e0000000p-10, -0x1.1fd44c0000000p-3, 0x1.ca7e3a0000000p-4, -0x1.e66f580000000p-5, -0x1.29ab160000000p-5, 0x1.e6be4c0000000p-5, -0x1.4e058a0000000p-3, 0x1.e30afe0000000p-4, 0x1.035a7c0000000p-2, -0x1.dbd45a0000000p-2, 0x1.c4b4ac0000000p-3, -0x1.c5cfea0000000p-4, 0x1.baf7640000000p-4, -0x1.542c120000000p-7, -0x1.004ee20000000p-10, 0x1.e5b9de0000000p-6, 0x1.7c43120000000p-4, 0x1.4023120000000p-3, -0x1.eab8180000000p-6, -0x1.380f660000000p-2, 0x1.5c44360000000p-3, 0x1.bf922a0000000p-3, 0x1.7aac380000000p-7, -0x1.1749a00000000p-2, -0x1.16e5aa0000000p-3, -0x1.4a47a40000000p-3, -0x1.a0a9f00000000p-3, -0x1.05e4560000000p-4, -0x1.df2f020000000p-7, -0x1.02b41a0000000p-2, 0x1.acac920000000p-8, 0x1.7214b40000000p-3, 0x1.6032780000000p-2, 0x1.3c477c0000000p-4, -0x1.cc72040000000p-3, -0x1.294f060000000p-2, 0x1.952a9c0000000p-6, -0x1.1288840000000p-6, -0x1.6b49ee0000000p-5, 0x1.b7eaa40000000p-3, -0x1.9fab780000000p-3, 0x1.075fbc0000000p-4, 0x1.688cd00000000p-3, -0x1.008de60000000p-3, 0x1.89c3d40000000p-6, -0x1.40a9000000000p-4, 0x1.89bda80000000p-5}
, {0x1.26d2500000000p-6, -0x1.bad8940000000p-3, -0x1.3eb49a0000000p-5, -0x1.380acc0000000p-5, -0x1.a863240000000p-3, 0x1.fed8d80000000p-3, -0x1.f5f5060000000p-6, 0x1.52229a0000000p-3, -0x1.8b8ee40000000p-3, -0x1.1c156c0000000p-4, -0x1.4c22560000000p-2, -0x1.1cfd660000000p-7, -0x1.13f2560000000p-4, 0x1.2653500000000p-6, -0x1.85cb9e0000000p-3, -0x1.0e1dba0000000p-3, -0x1.1cd0520000000p-2, 0x1.c708e40000000p-9, 0x1.054b400000000p-6, 0x1.a9c8f00000000p-4, -0x1.b822820000000p-3, -0x1.21281e0000000p-2, -0x1.a6674e0000000p-5, -0x1.63ffe40000000p-3, -0x1.91cf7c0000000p-4, 0x1.04d11c0000000p-4, -0x1.d5e4340000000p-5, -0x1.20c0300000000p-4, -0x1.eb47de0000000p-5, -0x1.21c26e0000000p-6, -0x1.d648f40000000p-4, -0x1.2782b80000000p-3, -0x1.821b580000000p-4, 0x1.26cf0a0000000p-3, -0x1.1af0a60000000p-4, -0x1.1de7d00000000p-2, -0x1.20d18c0000000p-6, -0x1.ae16220000000p-5, -0x1.d005da0000000p-5, -0x1.49fcce0000000p-4, -0x1.54ccc80000000p-5, 0x1.665eb60000000p-5, 0x1.bc11400000000p-4, -0x1.39879e0000000p-2, -0x1.6d3f380000000p-4, 0x1.1db8100000000p-4, -0x1.dc1eaa0000000p-7, 0x1.bcdae00000000p-4, -0x1.9783aa0000000p-5, -0x1.a841f40000000p-3, -0x1.b8bc3e0000000p-7, 0x1.b099520000000p-5, -0x1.af971a0000000p-3, -0x1.cedfba0000000p-4, -0x1.0933f80000000p-3, -0x1.192ae20000000p-3, 0x1.b5bb5e0000000p-4, 0x1.4f24f20000000p-5, -0x1.6ee6840000000p-4, 0x1.ae2e480000000p-9, -0x1.91dcda0000000p-3, -0x1.7dbe520000000p-4, -0x1.80260c0000000p-4, -0x1.3aaccc0000000p-11, -0x1.bf90e40000000p-4, -0x1.6c98640000000p-8, -0x1.8c88f00000000p-4, 0x1.779eae0000000p-5, -0x1.167cc80000000p-7, 0x1.7dde980000000p-6, 0x1.0eda3e0000000p-3, -0x1.f83fbc0000000p-4, -0x1.5d0db40000000p-3, -0x1.07f1380000000p-7, -0x1.a088860000000p-4, -0x1.bef01a0000000p-5, 0x1.a32b320000000p-3, 0x1.202c100000000p-5, -0x1.19afec0000000p-2, -0x1.1fe73e0000000p-5, -0x1.512d300000000p-5, -0x1.ca3b580000000p-4, 0x1.3a74600000000p-4, -0x1.65b5ca0000000p-9, -0x1.5f446c0000000p-4, -0x1.1c2a6a0000000p-3, 0x1.8843280000000p-6, 0x1.c676560000000p-3, -0x1.27637c0000000p-3, 0x1.7467880000000p-8, -0x1.e969200000000p-5, 0x1.e4d1ba0000000p-6, 0x1.5a0e360000000p-4, -0x1.857c940000000p-5, 0x1.fe1d2c0000000p-4, 0x1.77341e0000000p-8, -0x1.594b380000000p-3, -0x1.3719ba0000000p-5, -0x1.1b79340000000p-8, -0x1.2568460000000p-2, -0x1.e0e67e0000000p-6, 0x1.2926cc0000000p-6, 0x1.8131c20000000p-4, 0x1.15d9240000000p-4, -0x1.1325dc0000000p-5, -0x1.f09b280000000p-5, 0x1.af05ca0000000p-4, -0x1.84c36e0000000p-3, -0x1.2d1ddc0000000p-4, -0x1.809c740000000p-3, 0x1.b834f00000000p-3, 0x1.0f2d700000000p-4, -0x1.78e6400000000p-8, -0x1.2af3a60000000p-7, 0x1.0536aa0000000p-5, -0x1.29b4200000000p-3, 0x1.3d33f60000000p-5, 0x1.c106fc0000000p-3, 0x1.2529aa0000000p-5, 0x1.688dea0000000p-5, -0x1.0f28460000000p-4, -0x1.ede70a0000000p-3, 0x1.d6d6200000000p-5, -0x1.9480520000000p-4, -0x1.bc84460000000p-4, -0x1.8f39bc0000000p-3, -0x1.0c5a980000000p-2, -0x1.da5f4e0000000p-4, -0x1.35d1f60000000p-3, 0x1.95459e0000000p-4, 0x1.1bced80000000p-2, 0x1.181cda0000000p-3, -0x1.9726aa0000000p-8, -0x1.3af6e00000000p-3, -0x1.788f760000000p-7, 0x1.5edb2a0000000p-4, 0x1.9f80da0000000p-4, 0x1.4163160000000p-5, -0x1.15e6a00000000p-3, 0x1.5a04540000000p-4, -0x1.5479e60000000p-4, 0x1.b4e5f60000000p-4, 0x1.0112180000000p-5, -0x1.6eb62c0000000p-3, 0x1.3c66a20000000p-4, 0x1.d1feb20000000p-5, -0x1.760f060000000p-3, -0x1.2c604a0000000p-3, -0x1.d3eb420000000p-3, -0x1.1e22c80000000p-4, -0x1.f5b4560000000p-3, 0x1.21f8fa0000000p-5, -0x1.6343a00000000p-4, -0x1.14b99c0000000p-2, -0x1.43a6220000000p-4, -0x1.2d08e40000000p-4, 0x1.ca110c0000000p-4, -0x1.09d7340000000p-4, -0x1.4cc2d20000000p-4, -0x1.ac8eb40000000p-6, -0x1.413b520000000p-3, -0x1.3102f00000000p-3, 0x1.e543120000000p-3, 0x1.71b1820000000p-4, 0x1.0772b00000000p-2, 0x1.c6de560000000p-3, -0x1.a6a0a40000000p-7, -0x1.6fe7620000000p-3, 0x1.5913580000000p-6, 0x1.2479aa0000000p-4, 0x1.644f440000000p-8, -0x1.2fea620000000p-5, 0x1.3e0c840000000p-6, 0x1.4dd6700000000p-3, -0x1.70a1460000000p-3, 0x1.c5d77a0000000p-3, 0x1.c11df40000000p-4, 0x1.0361340000000p-4, 0x1.1259ec0000000p-2, 0x1.59f1320000000p-4, -0x1.b2a3460000000p-4, -0x1.fc3c860000000p-6, 0x1.6dbbe20000000p-3, 0x1.72f9560000000p-4, 0x1.4e20100000000p-8, 0x1.ae77b80000000p-4, -0x1.195c7c0000000p-4, 0x1.592c1c0000000p-3, -0x1.72eec80000000p-4, 0x1.7252780000000p-3, -0x1.cae8be0000000p-5, -0x1.2ba7780000000p-3, -0x1.a015640000000p-3, -0x1.18e9da0000000p-4, -0x1.5cfe480000000p-3, -0x1.1287ea0000000p-2, -0x1.ab5a420000000p-3, -0x1.8a1ce20000000p-3, 0x1.3d3de80000000p-3, 0x1.69cf080000000p-4, 0x1.063bb80000000p-9, 0x1.522e740000000p-3, 0x1.4164a80000000p-4, 0x1.ae063a0000000p-3, -0x1.0140520000000p-3, -0x1.ce586a0000000p-4, 0x1.9196b60000000p-6, 0x1.e5f2dc0000000p-3, -0x1.7586120000000p-7, 0x1.44ab0c0000000p-6, -0x1.deee7e0000000p-4, -0x1.1304540000000p-4, -0x1.13b8040000000p-2, 0x1.1b11580000000p-3, -0x1.ecf41a0000000p-4, 0x1.7398a00000000p-4, 0x1.a5e7a00000000p-3, -0x1.bad1f00000000p-3, -0x1.03871a0000000p-5, 0x1.339a080000000p-4, 0x1.9f189c0000000p-3, 0x1.6a67b40000000p-6, -0x1.6a0bac0000000p-6, -0x1.5759d20000000p-3, -0x1.0e46640000000p-3, 0x1.2e075e0000000p-4, -0x1.250cc60000000p-2, 0x1.7dea040000000p-3, 0x1.48cef80000000p-4, -0x1.5e34340000000p-4, -0x1.912e440000000p-3, 0x1.5d5aee0000000p-4, -0x1.56c5f00000000p-4, -0x1.49f8560000000p-4, -0x1.3f67ac0000000p-2, -0x1.3a14640000000p-3, -0x1.c2bf520000000p-5, 0x1.2e86b80000000p-4, 0x1.c0dbc20000000p-6, 0x1.285f9e0000000p-5, 0x1.283ca20000000p-4, 0x1.51054e0000000p-7, 0x1.4c97e40000000p-4, -0x1.78ae760000000p-8, 0x1.258fc20000000p-4, 0x1.08750e0000000p-4, -0x1.51118a0000000p-3, -0x1.0480de0000000p-3, 0x1.2df25e0000000p-10, 0x1.7c11ee0000000p-3, -0x1.a172660000000p-7, -0x1.99f2820000000p-6, 0x1.5e8e5e0000000p-2, -0x1.05e4d00000000p-4, -0x1.0703e60000000p-6, 0x1.5315720000000p-4, -0x1.0fd6380000000p-3, 0x1.cc55e20000000p-3, 0x1.8a2f560000000p-3, 0x1.058c3e0000000p-6, 0x1.6f85b40000000p-7, 0x1.c3b8f20000000p-4, 0x1.4ea66a0000000p-7, -0x1.ef09b80000000p-7, -0x1.d1f10a0000000p-6, -0x1.20b5a80000000p-4, -0x1.4944fa0000000p-3, 0x1.7ceb780000000p-3, 0x1.15b4700000000p-4, -0x1.50c5cc0000000p-2, -0x1.05f5fe0000000p-3, -0x1.6249ec0000000p-3, -0x1.a14ed40000000p-4, 0x1.0dd5c00000000p-3, 0x1.1233bc0000000p-4, -0x1.51e3fe0000000p-3, -0x1.fd8ebc0000000p-5, -0x1.1fbb200000000p-2, -0x1.af496c0000000p-3, 0x1.f46a040000000p-7, -0x1.9f873a0000000p-3, 0x1.ac29d20000000p-3, 0x1.8147fc0000000p-5, -0x1.0f2b540000000p-4, -0x1.3868320000000p-3, 0x1.fc9c740000000p-5, -0x1.1547480000000p-4, 0x1.49394e0000000p-6, -0x1.ac0e160000000p-3, -0x1.322e460000000p-3, -0x1.1ff2d40000000p-3, -0x1.c201200000000p-6, -0x1.a275c40000000p-3, -0x1.6a6f420000000p-4, 0x1.47f68e0000000p-4, -0x1.8faf000000000p-5, 0x1.1cd3520000000p-2, -0x1.1c86220000000p-4, 0x1.8378680000000p-5, -0x1.1e528e0000000p-4, -0x1.1df9fc0000000p-4, -0x1.2d88f80000000p-3, 0x1.3822d80000000p-5, -0x1.f0621a0000000p-6, 0x1.02378a0000000p-2, 0x1.aac3660000000p-4, 0x1.00aafe0000000p-9, 0x1.548c780000000p-5, 0x1.b823ea0000000p-5, -0x1.7da7a40000000p-6, 0x1.d4a69e0000000p-4, 0x1.cb11180000000p-3, 0x1.b8a4760000000p-3, 0x1.ddd2c20000000p-6, -0x1.26e2000000000p-3, 0x1.4f66820000000p-3, 0x1.f53eac0000000p-4, 0x1.7b19500000000p-5, -0x1.e8f1760000000p-3, -0x1.60fe100000000p-5, 0x1.4dfbe40000000p-5, 0x1.e358900000000p-4, -0x1.5cfc5c0000000p-4, 0x1.dbf23c0000000p-4, -0x1.ca142e0000000p-9, -0x1.ba6b5a0000000p-4, -0x1.3880800000000p-4, -0x1.78df9e0000000p-2, -0x1.da6bda0000000p-5, -0x1.bd454e0000000p-4, 0x1.1f37040000000p-3, 0x1.b6234a0000000p-3, -0x1.791fca0000000p-3, 0x1.26eed40000000p-3, -0x1.d2622c0000000p-6, -0x1.270f240000000p-3, -0x1.1153b20000000p-6, -0x1.c90dd60000000p-9, -0x1.5e747c0000000p-5, -0x1.2705540000000p-4, -0x1.54c5380000000p-4, 0x1.6f32e60000000p-8, 0x1.5a76460000000p-6, -0x1.bac6ac0000000p-3, 0x1.0b912e0000000p-4, 0x1.e24eec0000000p-12, 0x1.62e8de0000000p-5, -0x1.6deda80000000p-4, 0x1.ef45f60000000p-4, -0x1.4801480000000p-5, 0x1.8581760000000p-9, 0x1.b1ebd80000000p-6, -0x1.8fbe2a0000000p-9, -0x1.3079aa0000000p-2, 0x1.ad60fc0000000p-5, -0x1.1c44280000000p-3, 0x1.71cf6e0000000p-3, -0x1.65d08a0000000p-5, 0x1.8b84060000000p-5, -0x1.b0c7540000000p-4, -0x1.0002f40000000p-4, -0x1.0f790a0000000p-4, 0x1.01d99a0000000p-6, -0x1.6cfd900000000p-4, -0x1.68eb580000000p-9, -0x1.cea1e20000000p-4, 0x1.c707ee0000000p-4, -0x1.8cd2a00000000p-4, -0x1.db064c0000000p-4, -0x1.0fc53c0000000p-2, -0x1.42544e0000000p-4, -0x1.15d9380000000p-6, -0x1.79c9720000000p-3, -0x1.0b51180000000p-4, -0x1.06af420000000p-5, 0x1.6a84660000000p-3, -0x1.00b0420000000p-4, 0x1.5d5db60000000p-5, -0x1.6aeee80000000p-8, 0x1.3fe78a0000000p-4, -0x1.6deda60000000p-5, 0x1.b47f480000000p-4, -0x1.0ecf840000000p-5, -0x1.7c099a0000000p-2, -0x1.735fb00000000p-3, 0x1.a939ae0000000p-5, -0x1.075bc20000000p-3, 0x1.ae42520000000p-4, 0x1.09ced40000000p-2, 0x1.7bae160000000p-3, 0x1.09c8f20000000p-3, -0x1.1fd90c0000000p-5, -0x1.a4b1c60000000p-5, -0x1.8e7f220000000p-5, 0x1.7260000000000p-5, 0x1.d154200000000p-3, 0x1.036ab20000000p-3, 0x1.265fa20000000p-4, -0x1.879f1c0000000p-8, -0x1.bb8f460000000p-5, 0x1.7ea9160000000p-5, -0x1.2fa4920000000p-3, -0x1.166b520000000p-3, -0x1.0b49e00000000p-4, -0x1.a8ef200000000p-4, 0x1.c235dc0000000p-5, -0x1.f5bd200000000p-4, 0x1.ade9280000000p-4, 0x1.0b1ce40000000p-2, -0x1.6c36040000000p-5, 0x1.9bc3a80000000p-5, -0x1.6b3a1a0000000p-5, -0x1.ea8efc0000000p-4, 0x1.3bbc0e0000000p-3, -0x1.2af2b60000000p-6, 0x1.aeaf760000000p-8, -0x1.d7ac240000000p-4, -0x1.9bd5040000000p-6, 0x1.430fe40000000p-5, 0x1.1ced720000000p-4, -0x1.72b2aa0000000p-3, -0x1.6354d80000000p-3, -0x1.6bae6c0000000p-5, 0x1.df9d640000000p-3, 0x1.9654980000000p-3, 0x1.abf7d00000000p-3, -0x1.261ffc0000000p-4, 0x1.212c740000000p-7, 0x1.0114f40000000p-4, 0x1.f945140000000p-5, -0x1.bf81400000000p-5, -0x1.44c6020000000p-4, -0x1.6aa5fc0000000p-4, 0x1.3a445e0000000p-3, -0x1.1dd0540000000p-5, 0x1.bf9e2e0000000p-6, -0x1.e235960000000p-5, -0x1.37def40000000p-4, 0x1.294d980000000p-3, 0x1.52857a0000000p-4, 0x1.dd74880000000p-3, 0x1.037a9a0000000p-3, -0x1.f171fe0000000p-6, 0x1.07f0fa0000000p-3, -0x1.7a78540000000p-6, 0x1.f2e4840000000p-3, 0x1.fe8b160000000p-6, -0x1.aa5eb00000000p-3, 0x1.4c3b2c0000000p-3, 0x1.48c7220000000p-4, -0x1.f3c8ae0000000p-4, 0x1.cbe5bc0000000p-5, 0x1.69610a0000000p-4, 0x1.b84d0c0000000p-3, -0x1.bb84f60000000p-4, -0x1.75c6000000000p-5, 0x1.14c0f80000000p-3, 0x1.72cf7e0000000p-6, 0x1.2d63860000000p-3, 0x1.19d5c60000000p-3, 0x1.35e5c00000000p-2, -0x1.a914700000000p-8, -0x1.1e84b40000000p-2, 0x1.5d6d8c0000000p-4, 0x1.7c84120000000p-3, 0x1.639e3c0000000p-5, -0x1.3e70c60000000p-3, 0x1.1a8c8e0000000p-3, -0x1.4938cc0000000p-2, 0x1.46e4e20000000p-5, 0x1.b638380000000p-4, -0x1.39dfb80000000p-2, 0x1.9d15d40000000p-3, 0x1.da59b60000000p-3, -0x1.9adc0a0000000p-3, 0x1.acd6d60000000p-5, 0x1.a3884a0000000p-4, -0x1.118c660000000p-7, 0x1.fb3c7c0000000p-4, 0x1.1bc99e0000000p-4, 0x1.de64020000000p-4, 0x1.50f2980000000p-2, -0x1.6a5e120000000p-5, 0x1.50f4d80000000p-4, 0x1.2183420000000p-5, 0x1.257a3a0000000p-3, 0x1.a765fe0000000p-3, -0x1.3d709e0000000p-4, -0x1.9073560000000p-6, -0x1.370bee0000000p-2, 0x1.1495560000000p-4, -0x1.4971640000000p-3, -0x1.84fd220000000p-2, 0x1.e47e1e0000000p-5, -0x1.8343a20000000p-2, 0x1.181c500000000p-4, -0x1.87dab80000000p-3, 0x1.14451e0000000p-5, -0x1.51c0660000000p-3, -0x1.67c60e0000000p-6, -0x1.4453600000000p-3, -0x1.7beb820000000p-6, 0x1.027f1e0000000p-4, -0x1.8204b40000000p-6, 0x1.549c080000000p-3, -0x1.4b7fda0000000p-3, -0x1.4b02bc0000000p-5, 0x1.0ca3300000000p-4, -0x1.2a17340000000p-3, -0x1.f36f560000000p-4, 0x1.a759ee0000000p-5, 0x1.b8662a0000000p-3}
, {0x1.cbd0760000000p-4, -0x1.48f26e0000000p-3, -0x1.5327ac0000000p-3, 0x1.6c60960000000p-3, -0x1.2ab3fe0000000p-6, 0x1.46c9760000000p-3, 0x1.2db1700000000p-4, 0x1.9d4e7a0000000p-5, -0x1.5597260000000p-6, 0x1.3ebeb60000000p-6, -0x1.1c19e00000000p-6, 0x1.e387aa0000000p-5, 0x1.f40a540000000p-5, 0x1.b29ab00000000p-5, 0x1.a2c5f60000000p-3, 0x1.2dfd340000000p-3, 0x1.e40ddc0000000p-6, 0x1.ba3f2c0000000p-3, 0x1.6a8be40000000p-4, 0x1.ad1c860000000p-5, -0x1.9427300000000p-4, 0x1.05feee0000000p-3, -0x1.e509080000000p-6, -0x1.18d3d20000000p-4, -0x1.b950820000000p-3, -0x1.5f15ce0000000p-6, -0x1.71f3140000000p-5, 0x1.c865180000000p-5, 0x1.1c5a700000000p-6, -0x1.4db3ba0000000p-4, 0x1.c0f7b00000000p-4, -0x1.60afe00000000p-3, -0x1.ff3eea0000000p-8, -0x1.75a4c00000000p-7, 0x1.b3db620000000p-6, 0x1.0abaac0000000p-5, -0x1.f7e81a0000000p-7, -0x1.3a75420000000p-4, 0x1.2197ee0000000p-3, -0x1.1c867a0000000p-5, -0x1.3c04580000000p-4, 0x1.0aedec0000000p-3, 0x1.9a6fca0000000p-6, 0x1.e58cc40000000p-7, -0x1.361d3c0000000p-3, 0x1.666b740000000p-4, -0x1.177f8e0000000p-4, -0x1.2047940000000p-4, 0x1.2d40b00000000p-5, -0x1.c4d5c20000000p-4, -0x1.c59a380000000p-5, -0x1.28ffba0000000p-4, -0x1.aae8000000000p-4, 0x1.0a9cf20000000p-3, -0x1.7a97ce0000000p-3, -0x1.33d6a00000000p-3, -0x1.3fba440000000p-4, -0x1.fe09360000000p-5, 0x1.b2326c0000000p-9, -0x1.78a4fa0000000p-5, -0x1.5daba00000000p-6, 0x1.b4e5b40000000p-3, 0x1.b675e20000000p-6, 0x1.cedc4e0000000p-4, -0x1.c2369a0000000p-4, -0x1.91406a0000000p-4, -0x1.f481660000000p-5, 0x1.9e30080000000p-9, 0x1.552eb20000000p-3, 0x1.0f7e680000000p-3, 0x1.848c700000000p-4, 0x1.bfe76c0000000p-7, 0x1.31be420000000p-4, 0x1.3eff500000000p-6, -0x1.4dafea0000000p-4, 0x1.6a542c0000000p-5, 0x1.a5a16a0000000p-4, -0x1.9f53a20000000p-4, -0x1.1fd76a0000000p-3, 0x1.eb83c00000000p-4, -0x1.f46e400000000p-4, 0x1.86013c0000000p-8, 0x1.e9433c0000000p-4, 0x1.53911c0000000p-6, -0x1.9c3df20000000p-5, -0x1.57b06a0000000p-3, -0x1.93ddec0000000p-4, -0x1.8c0a140000000p-4, -0x1.073ca20000000p-5, 0x1.50b8420000000p-4, 0x1.73fb5e0000000p-4, -0x1.60bef60000000p-13, -0x1.53fa040000000p-4, -0x1.305b100000000p-4, 0x1.a1bedc0000000p-5, -0x1.11c9980000000p-3, -0x1.8fa54c0000000p-4, -0x1.14b82a0000000p-5, -0x1.4f6cf40000000p-6, 0x1.c1897e0000000p-6, -0x1.526edc0000000p-4, 0x1.f9ee8e0000000p-3, 0x1.460a5c0000000p-4, 0x1.21f6be0000000p-10, 0x1.3cf6ac0000000p-6, 0x1.509bca0000000p-12, 0x1.4670560000000p-9, 0x1.9c6e480000000p-3, 0x1.14869a0000000p-4, 0x1.84377c0000000p-4, 0x1.99aba40000000p-4, 0x1.16f7f20000000p-3, 0x1.1d49e20000000p-3, 0x1.24b0ee0000000p-4, 0x1.3910ba0000000p-3, -0x1.feb7c20000000p-7, -0x1.0d91260000000p-3, 0x1.cbd1ea0000000p-4, -0x1.d3be5c0000000p-5, 0x1.81a0c60000000p-5, -0x1.b362220000000p-4, 0x1.4b08a60000000p-6, 0x1.d084ee0000000p-4, 0x1.02f3b20000000p-3, -0x1.3bd1300000000p-3, 0x1.7adf9c0000000p-6, 0x1.70ab060000000p-4, 0x1.237e4e0000000p-5, -0x1.2216440000000p-8, -0x1.df7e620000000p-4, -0x1.c201100000000p-4, -0x1.518cd60000000p-3, -0x1.bdb0d60000000p-7, 0x1.828f280000000p-7, -0x1.e84d860000000p-7, 0x1.1a9a720000000p-3, 0x1.d3d1c20000000p-6, 0x1.63ecb80000000p-5, -0x1.590efe0000000p-4, -0x1.f32de60000000p-5, 0x1.4bd48e0000000p-5, 0x1.4bfbc60000000p-4, -0x1.960c960000000p-4, 0x1.7009000000000p-4, -0x1.5909d80000000p-3, 0x1.87e6720000000p-4, -0x1.030c6e0000000p-3, -0x1.cd60b20000000p-5, 0x1.2dc7b00000000p-5, 0x1.ad7d260000000p-4, 0x1.52077c0000000p-2, -0x1.b458260000000p-6, -0x1.3c68cc0000000p-3, -0x1.25e63c0000000p-3, -0x1.4178e60000000p-3, 0x1.4955900000000p-6, -0x1.3044d20000000p-3, -0x1.f90b8e0000000p-5, 0x1.1e62d40000000p-5, -0x1.474d660000000p-3, 0x1.b263400000000p-4, -0x1.0f061e0000000p-6, -0x1.846a460000000p-3, -0x1.01ff3e0000000p-3, 0x1.3afad60000000p-3, 0x1.9ee1c80000000p-4, -0x1.d4c8860000000p-7, -0x1.0a075e0000000p-9, 0x1.0e2ac40000000p-4, -0x1.c606ac0000000p-8, -0x1.0e68500000000p-4, -0x1.9694ba0000000p-5, -0x1.aa75620000000p-4, 0x1.63bff40000000p-4, 0x1.e68d480000000p-3, -0x1.55b8e80000000p-4, 0x1.7d471a0000000p-4, -0x1.4e6a140000000p-4, 0x1.063bd40000000p-4, 0x1.16c0f80000000p-12, 0x1.7323a80000000p-5, -0x1.ce47220000000p-7, 0x1.89b1860000000p-3, 0x1.4d17cc0000000p-5, 0x1.f0807a0000000p-7, 0x1.9f186c0000000p-9, -0x1.b20ff00000000p-4, -0x1.a4d2240000000p-4, -0x1.2934c00000000p-5, -0x1.4cd0b80000000p-3, 0x1.36e8be0000000p-4, 0x1.0f0adc0000000p-3, -0x1.9b8be00000000p-3, 0x1.d6656a0000000p-3, 0x1.ff36b00000000p-5, -0x1.55b3640000000p-4, -0x1.8998d20000000p-5, 0x1.a7b6da0000000p-4, 0x1.4979040000000p-3, 0x1.76dcf60000000p-3, -0x1.f6be300000000p-3, 0x1.2155100000000p-2, 0x1.68e4660000000p-4, 0x1.30a8420000000p-4, 0x1.5d958a0000000p-4, -0x1.08e7bc0000000p-7, 0x1.1752e80000000p-4, -0x1.263ab60000000p-4, -0x1.a430c40000000p-3, 0x1.50f6280000000p-4, 0x1.56145c0000000p-3, 0x1.3a42260000000p-3, -0x1.86f9700000000p-4, -0x1.ecbaf20000000p-4, 0x1.3928340000000p-5, 0x1.06a7a20000000p-4, -0x1.4666fe0000000p-4, -0x1.f639000000000p-3, -0x1.dd682c0000000p-8, -0x1.92535e0000000p-5, -0x1.eae8220000000p-4, -0x1.a23a0a0000000p-4, 0x1.11e91a0000000p-7, 0x1.46930a0000000p-4, -0x1.f08a700000000p-3, 0x1.4fb3540000000p-9, -0x1.629d6c0000000p-5, 0x1.e385a80000000p-4, -0x1.84f7160000000p-5, 0x1.cd81e40000000p-4, 0x1.6f92fa0000000p-2, -0x1.ef9fbc0000000p-4, 0x1.7906580000000p-3, -0x1.9865ce0000000p-3, 0x1.6d251a0000000p-5, -0x1.bfb1440000000p-7, 0x1.53dd700000000p-4, 0x1.2f4d9c0000000p-9, -0x1.7d83540000000p-4, 0x1.210efc0000000p-3, 0x1.1d612c0000000p-4, -0x1.7470540000000p-3, 0x1.2495480000000p-3, -0x1.1c89ec0000000p-4, 0x1.52d7600000000p-3, -0x1.0197580000000p-3, 0x1.c57b120000000p-5, -0x1.4fccb40000000p-6, -0x1.0043ba0000000p-3, 0x1.4441240000000p-3, 0x1.e5720e0000000p-6, -0x1.6f177c0000000p-5, 0x1.c6a05a0000000p-4, 0x1.6ba2de0000000p-6, -0x1.afbd280000000p-4, -0x1.aa660a0000000p-3, 0x1.91cc840000000p-3, -0x1.5bc82e0000000p-4, -0x1.a314a40000000p-6, 0x1.02144a0000000p-5, -0x1.7763f40000000p-2, 0x1.47b9b20000000p-2, -0x1.25cc280000000p-3, -0x1.5db1c80000000p-3, 0x1.5badde0000000p-4, -0x1.dd13b80000000p-3, -0x1.a686520000000p-3, 0x1.4b56b20000000p-7, 0x1.9ad6720000000p-3, 0x1.5caa840000000p-5, 0x1.25ce320000000p-8, 0x1.a4f8920000000p-3, -0x1.fa14f20000000p-3, 0x1.eabad20000000p-6, -0x1.c4c98c0000000p-3, -0x1.17458e0000000p-3, 0x1.6141c40000000p-3, -0x1.d2b3700000000p-5, 0x1.33cd9a0000000p-7, 0x1.25feac0000000p-4, 0x1.2683d00000000p-2, 0x1.0f13560000000p-3, 0x1.df71640000000p-5, 0x1.a6d3dc0000000p-5, 0x1.0e48020000000p-4, 0x1.a552360000000p-4, -0x1.3d1e760000000p-3, -0x1.4835d40000000p-5, -0x1.934bd00000000p-3, 0x1.63a65e0000000p-3, 0x1.66a1320000000p-5, -0x1.ebed540000000p-6, -0x1.c983580000000p-3, 0x1.a626160000000p-4, -0x1.a48ce60000000p-6, -0x1.0f71420000000p-2, 0x1.101a720000000p-2, -0x1.6e76600000000p-4, -0x1.f9326a0000000p-6, 0x1.d2a9de0000000p-3, -0x1.79fd540000000p-5, 0x1.3f07500000000p-4, -0x1.4e0cb20000000p-5, 0x1.7311c60000000p-3, 0x1.3155680000000p-3, -0x1.8d5e4e0000000p-3, -0x1.6a70c40000000p-4, 0x1.71a0420000000p-6, -0x1.dea8920000000p-4, 0x1.87e5d20000000p-10, -0x1.2b97460000000p-8, 0x1.3c83c80000000p-2, -0x1.14dbb20000000p-3, -0x1.e214500000000p-4, 0x1.6cfbf40000000p-2, 0x1.ace6080000000p-3, 0x1.4d67e00000000p-2, -0x1.d2bd540000000p-5, -0x1.8598ba0000000p-4, -0x1.5886740000000p-4, -0x1.0682940000000p-3, -0x1.d3bc560000000p-5, 0x1.8077180000000p-3, 0x1.b24c120000000p-3, -0x1.18a9de0000000p-3, 0x1.71d4b60000000p-3, -0x1.21b38a0000000p-3, -0x1.a603e80000000p-5, -0x1.4fdc9e0000000p-2, 0x1.39a7b20000000p-8, 0x1.5c325e0000000p-3, 0x1.1e73480000000p-2, 0x1.3653ca0000000p-2, -0x1.30a3780000000p-5, 0x1.0dbc480000000p-4, -0x1.b783500000000p-3, 0x1.5eb3c20000000p-3, 0x1.03ef6e0000000p-4, -0x1.9a3e2a0000000p-3, 0x1.80b13a0000000p-3, -0x1.74c91e0000000p-4, -0x1.abdedc0000000p-6, 0x1.784c5c0000000p-3, -0x1.430e900000000p-8, -0x1.0781c60000000p-2, -0x1.0765da0000000p-3, -0x1.5a46300000000p-4, 0x1.0ac5ae0000000p-4, 0x1.5c04300000000p-2, -0x1.1856900000000p-4, 0x1.06f48a0000000p-5, -0x1.341a2e0000000p-6, 0x1.1286a00000000p-2, -0x1.baf1ea0000000p-4, 0x1.2bdbd80000000p-3, -0x1.3d1f100000000p-7, 0x1.2670300000000p-5, 0x1.3d3e0a0000000p-4, -0x1.5f1a440000000p-4, 0x1.5c74200000000p-8, -0x1.4f12c00000000p-4, 0x1.52384c0000000p-5, 0x1.51f1bc0000000p-3, -0x1.36c5b40000000p-2, -0x1.746d380000000p-5, -0x1.ce28460000000p-4, 0x1.a0787e0000000p-3, -0x1.fe0d0a0000000p-5, -0x1.0314e80000000p-6, -0x1.bef9b60000000p-3, 0x1.0def2e0000000p-3, 0x1.62b8b80000000p-2, -0x1.0d82660000000p-5, -0x1.a7d2ae0000000p-3, -0x1.3df0fe0000000p-4, 0x1.5cdede0000000p-6, 0x1.d0d4f40000000p-6, 0x1.de4c5e0000000p-5, 0x1.a798740000000p-4, 0x1.1b84c80000000p-3, -0x1.e4be720000000p-3, 0x1.abb2280000000p-5, -0x1.bee4160000000p-7, -0x1.78a2360000000p-4, 0x1.502ca00000000p-4, 0x1.6cd65c0000000p-3, 0x1.2ca5080000000p-2, 0x1.c378c60000000p-4, -0x1.b286d00000000p-3, 0x1.4d7dbc0000000p-4, 0x1.96d0be0000000p-5, -0x1.86c5480000000p-4, -0x1.29cf4e0000000p-3, 0x1.9cd2480000000p-5, -0x1.1c72d60000000p-4, -0x1.e0be380000000p-5, -0x1.c57a300000000p-3, 0x1.8f3c060000000p-7, -0x1.4bf3000000000p-3, 0x1.839ef60000000p-11, 0x1.d220540000000p-4, -0x1.efc0a80000000p-4, -0x1.8aac4e0000000p-6, -0x1.8287180000000p-3, 0x1.1663780000000p-5, -0x1.6aa2960000000p-3, -0x1.3e46be0000000p-3, -0x1.12bce40000000p-3, -0x1.1da80a0000000p-4, -0x1.d387600000000p-4, -0x1.aec4a40000000p-4, 0x1.0530dc0000000p-6, 0x1.0c529a0000000p-3, 0x1.251d400000000p-3, -0x1.ef15220000000p-11, 0x1.fd6f940000000p-3, 0x1.3ff5420000000p-5, -0x1.eb62ca0000000p-6, -0x1.10b48a0000000p-6, 0x1.a33a200000000p-6, -0x1.6dc8000000000p-4, -0x1.0f26d80000000p-2, -0x1.ab52200000000p-3, -0x1.df10500000000p-4, 0x1.2b66320000000p-3, -0x1.095e440000000p-5, -0x1.71e2120000000p-3, 0x1.3b6fe20000000p-3, 0x1.dc5b6a0000000p-5, -0x1.c97ad40000000p-4, -0x1.fdb66c0000000p-3, -0x1.157b3c0000000p-4, -0x1.f4de4a0000000p-4, -0x1.ce0a000000000p-4, -0x1.8751cc0000000p-3, -0x1.8275d40000000p-3, 0x1.bfb9be0000000p-4, -0x1.92a8720000000p-10, -0x1.72e9a00000000p-2, 0x1.9cee520000000p-7, 0x1.515c060000000p-3, 0x1.2700b20000000p-5, 0x1.7ff0020000000p-4, -0x1.80c1ac0000000p-6, 0x1.44da760000000p-3, 0x1.2f5fc80000000p-3, 0x1.e73f240000000p-5, -0x1.a1ed520000000p-4, 0x1.f639780000000p-4, -0x1.b552840000000p-3, 0x1.e929820000000p-3, -0x1.5edd660000000p-7, -0x1.7534ee0000000p-4, 0x1.59b22e0000000p-3, 0x1.59f43a0000000p-4, 0x1.dd095a0000000p-3, -0x1.7390900000000p-6, 0x1.1c749e0000000p-4, -0x1.858b960000000p-4, -0x1.7ada8e0000000p-2, 0x1.a38a1c0000000p-3, -0x1.46b22e0000000p-3, 0x1.63e3b80000000p-3, -0x1.b482160000000p-5, 0x1.5d4b820000000p-6, -0x1.6c94d20000000p-4, 0x1.a7f73e0000000p-6, 0x1.7428b60000000p-3, 0x1.0d14ae0000000p-5, 0x1.2884680000000p-2, 0x1.36add00000000p-3, 0x1.1a99e40000000p-3, 0x1.9230bc0000000p-4, -0x1.c483360000000p-5, 0x1.58921a0000000p-4, -0x1.fbe1360000000p-4, -0x1.9d73560000000p-3, 0x1.0b51f40000000p-3, 0x1.ac43c80000000p-4, 0x1.80d3b80000000p-3, 0x1.e1b1960000000p-7, -0x1.72b7220000000p-3, -0x1.da64740000000p-4, 0x1.3390b60000000p-3, -0x1.5ff1100000000p-5, -0x1.86e2820000000p-4, -0x1.6c53d00000000p-3, -0x1.7fbf360000000p-4, -0x1.7e5f660000000p-5, 0x1.a5bf8e0000000p-6, -0x1.9d393c0000000p-5, -0x1.bc66040000000p-4, -0x1.398e5c0000000p-5, 0x1.7a57380000000p-3, 0x1.8169c80000000p-5, -0x1.2482460000000p-3, 0x1.596c880000000p-4, -0x1.dabf800000000p-3, -0x1.4555380000000p-3, -0x1.8aabde0000000p-3, 0x1.3e3bac0000000p-3, 0x1.bacf040000000p-3, -0x1.03ebf60000000p-2, -0x1.57181c0000000p-6, -0x1.ec07e80000000p-4, -0x1.d0e9e80000000p-4, 0x1.d7142c0000000p-6, 0x1.a64d560000000p-3, -0x1.48e5e80000000p-2, -0x1.bc9b1c0000000p-5, 0x1.1333d40000000p-8, -0x1.1adb9a0000000p-5}
, {0x1.7a82fa0000000p-5, -0x1.dccba20000000p-3, -0x1.cd67880000000p-4, 0x1.7145160000000p-3, 0x1.1f26120000000p-3, -0x1.5264fc0000000p-4, 0x1.7706f60000000p-5, -0x1.518c500000000p-6, -0x1.40fd420000000p-2, 0x1.1829360000000p-5, 0x1.4314540000000p-3, -0x1.8dfcce0000000p-4, -0x1.7635dc0000000p-5, -0x1.5929a60000000p-4, 0x1.fd92d20000000p-3, 0x1.642f6a0000000p-3, 0x1.df4b9c0000000p-7, -0x1.ad7d260000000p-3, -0x1.58bb9a0000000p-7, -0x1.5f11a00000000p-4, 0x1.21f3e00000000p-3, -0x1.8137340000000p-5, 0x1.e3c1740000000p-4, -0x1.17f7640000000p-2, -0x1.74e2480000000p-3, -0x1.4adf160000000p-3, 0x1.7cc7b20000000p-5, -0x1.62486a0000000p-4, -0x1.0bd4260000000p-4, 0x1.6084b40000000p-6, 0x1.26e4960000000p-6, 0x1.c828a80000000p-4, -0x1.d52df80000000p-6, 0x1.c5a1800000000p-4, -0x1.c7e76c0000000p-4, -0x1.093f4e0000000p-3, -0x1.159ab40000000p-4, -0x1.fe3fae0000000p-5, -0x1.2c20b60000000p-6, 0x1.7e59520000000p-8, -0x1.bb6c820000000p-5, 0x1.b227cc0000000p-7, -0x1.f1f9c60000000p-3, 0x1.25c5040000000p-4, -0x1.68a1680000000p-8, 0x1.04964c0000000p-3, -0x1.f18b6e0000000p-5, 0x1.80211c0000000p-5, 0x1.69205a0000000p-4, -0x1.5fdcdc0000000p-3, -0x1.26efc00000000p-3, -0x1.e651400000000p-5, -0x1.6405d00000000p-3, -0x1.3f58160000000p-3, -0x1.85a9280000000p-4, -0x1.71f6880000000p-2, -0x1.64d4ae0000000p-5, 0x1.9881000000000p-4, -0x1.10369c0000000p-3, 0x1.b7f7e20000000p-4, -0x1.9e3c7e0000000p-3, 0x1.079a500000000p-5, 0x1.5b96a20000000p-4, 0x1.4465400000000p-6, -0x1.5718120000000p-3, 0x1.2905000000000p-4, -0x1.e804b20000000p-5, 0x1.1edef80000000p-7, -0x1.1bfe0c0000000p-3, 0x1.5727700000000p-3, 0x1.0ed9d20000000p-3, 0x1.7c60da0000000p-3, -0x1.3036f20000000p-4, 0x1.f0512a0000000p-4, -0x1.93b01e0000000p-4, 0x1.c626a40000000p-4, -0x1.a4c07a0000000p-4, -0x1.d19bd40000000p-5, -0x1.cfb5a00000000p-3, 0x1.4e945c0000000p-6, -0x1.5d07060000000p-3, 0x1.475d800000000p-7, 0x1.6309060000000p-4, -0x1.607d7a0000000p-3, -0x1.4065400000000p-5, 0x1.23903a0000000p-4, -0x1.3966920000000p-2, 0x1.69965c0000000p-3, -0x1.9763380000000p-7, -0x1.d693cc0000000p-8, 0x1.80ec320000000p-4, -0x1.88b55e0000000p-3, -0x1.3999ee0000000p-6, -0x1.0d7ad00000000p-4, 0x1.b4421e0000000p-4, -0x1.1651b60000000p-4, 0x1.4bcbd60000000p-4, 0x1.0270b40000000p-4, 0x1.bc8afe0000000p-5, -0x1.855da40000000p-4, -0x1.766d2c0000000p-6, 0x1.98e0c20000000p-5, -0x1.6decb80000000p-3, 0x1.35ee8a0000000p-6, -0x1.91e1160000000p-3, 0x1.ba5da40000000p-9, 0x1.03e95a0000000p-3, -0x1.5b89de0000000p-7, 0x1.ea8cec0000000p-4, 0x1.dd97880000000p-5, 0x1.e63bde0000000p-4, 0x1.d2e5d60000000p-4, -0x1.de4afc0000000p-4, 0x1.1b88fc0000000p-4, -0x1.5fe7ec0000000p-3, -0x1.9296060000000p-4, -0x1.c731d20000000p-4, -0x1.6d0b300000000p-6, -0x1.1688d60000000p-5, 0x1.345e140000000p-2, 0x1.12fb2a0000000p-5, -0x1.eadbde0000000p-5, -0x1.7e363a0000000p-6, 0x1.ea41c40000000p-7, -0x1.043d060000000p-3, 0x1.a3513e0000000p-5, 0x1.3b22980000000p-4, 0x1.6bb8b80000000p-4, -0x1.0c70fa0000000p-7, -0x1.8bf05c0000000p-2, -0x1.045ed00000000p-5, 0x1.0294c00000000p-4, -0x1.998f0e0000000p-3, 0x1.d582280000000p-6, 0x1.3319620000000p-9, 0x1.e38e340000000p-4, 0x1.02acca0000000p-4, 0x1.6d38860000000p-4, -0x1.a3c73a0000000p-4, -0x1.dc61560000000p-5, 0x1.ed80c20000000p-4, -0x1.7793400000000p-3, -0x1.7587280000000p-4, -0x1.be25d60000000p-5, -0x1.25b82a0000000p-4, -0x1.a849440000000p-6, -0x1.70b4220000000p-5, -0x1.7f1c3a0000000p-4, 0x1.7eed700000000p-7, -0x1.98abfe0000000p-4, 0x1.806c380000000p-4, -0x1.3f08560000000p-2, -0x1.1b8dcc0000000p-2, 0x1.4968320000000p-3, -0x1.aa45060000000p-8, -0x1.be64be0000000p-6, -0x1.216bf40000000p-5, -0x1.144ada0000000p-5, 0x1.c4fe820000000p-5, -0x1.331d0c0000000p-5, 0x1.e6217c0000000p-5, -0x1.586d2a0000000p-4, -0x1.27739a0000000p-3, -0x1.94035c0000000p-4, -0x1.3902f40000000p-5, -0x1.ef547c0000000p-5, -0x1.2343f80000000p-4, 0x1.b43a2c0000000p-4, 0x1.dadfda0000000p-6, -0x1.a033680000000p-3, -0x1.3d1ae80000000p-5, 0x1.57426e0000000p-6, -0x1.42a7160000000p-4, -0x1.5b756c0000000p-3, 0x1.152f0c0000000p-3, -0x1.d52df80000000p-2, -0x1.809fcc0000000p-3, -0x1.dfd0c60000000p-4, -0x1.1cfa900000000p-4, -0x1.530ee00000000p-3, -0x1.0a1aa80000000p-2, 0x1.062ae00000000p-7, -0x1.37ffe40000000p-3, -0x1.17ea280000000p-3, 0x1.6b5ff40000000p-4, 0x1.8721fc0000000p-3, -0x1.33c5da0000000p-4, -0x1.c20ae20000000p-4, -0x1.8f7ff80000000p-6, -0x1.9e9c5c0000000p-3, -0x1.80593e0000000p-4, 0x1.8df7140000000p-3, -0x1.75eff40000000p-2, 0x1.9c9af60000000p-3, 0x1.17cc540000000p-3, 0x1.3072b80000000p-3, 0x1.de977e0000000p-4, -0x1.1db0e40000000p-4, -0x1.64c5240000000p-4, 0x1.23a1e20000000p-8, -0x1.3a52440000000p-4, 0x1.3378a80000000p-4, -0x1.2eaeec0000000p-3, 0x1.9664f00000000p-5, -0x1.1ca8540000000p-4, -0x1.528b7c0000000p-3, -0x1.09090e0000000p-2, 0x1.8d8f480000000p-4, -0x1.3706560000000p-7, 0x1.59af3a0000000p-4, 0x1.e070240000000p-5, -0x1.a699920000000p-8, -0x1.b2e0400000000p-3, -0x1.8089540000000p-2, -0x1.7f7fec0000000p-4, 0x1.e44c440000000p-7, -0x1.2822c60000000p-3, 0x1.1095600000000p-4, -0x1.c1da7a0000000p-4, 0x1.1fdf380000000p-3, -0x1.eef9640000000p-4, -0x1.2173e40000000p-3, -0x1.6b76d20000000p-3, 0x1.500cb00000000p-3, 0x1.08675e0000000p-4, -0x1.efc50a0000000p-5, 0x1.5cdbe40000000p-3, -0x1.bd8e360000000p-4, -0x1.4815d20000000p-2, 0x1.19bf6c0000000p-6, 0x1.9dced00000000p-2, -0x1.385a280000000p-3, 0x1.a9a6600000000p-5, -0x1.751ff20000000p-4, 0x1.c9c0700000000p-6, -0x1.51da040000000p-5, -0x1.db8af20000000p-3, -0x1.a1b2d40000000p-3, 0x1.71c2580000000p-4, -0x1.8c64f80000000p-3, -0x1.b198dc0000000p-5, 0x1.a70fc00000000p-4, -0x1.c2d95a0000000p-7, -0x1.09aefc0000000p-4, -0x1.6b98980000000p-3, -0x1.55727a0000000p-4, -0x1.7e18740000000p-3, -0x1.1722f00000000p-6, -0x1.213b180000000p-8, -0x1.21d5b80000000p-4, -0x1.c4a1540000000p-9, -0x1.7263aa0000000p-3, -0x1.e5dd500000000p-3, -0x1.e1cdbe0000000p-4, -0x1.1a4db60000000p-4, -0x1.2d34400000000p-4, 0x1.32ad560000000p-2, -0x1.06f23c0000000p-3, 0x1.cfd4ca0000000p-3, 0x1.0808ac0000000p-5, -0x1.a1e0c20000000p-6, -0x1.1a87c60000000p-3, -0x1.45e54a0000000p-2, -0x1.6568120000000p-5, -0x1.61516c0000000p-4, -0x1.6741ec0000000p-4, 0x1.162b520000000p-4, -0x1.4f50f80000000p-4, 0x1.dfb1e00000000p-7, 0x1.4226520000000p-5, 0x1.69dc460000000p-3, 0x1.6751c60000000p-4, 0x1.f44d100000000p-7, 0x1.00c2d00000000p-5, -0x1.1b737a0000000p-4, 0x1.1f43620000000p-2, 0x1.4ee7720000000p-3, 0x1.ae974e0000000p-3, -0x1.d95c020000000p-4, -0x1.96ed3e0000000p-5, 0x1.df2a6e0000000p-4, -0x1.ec4dea0000000p-6, 0x1.a446900000000p-5, 0x1.0623600000000p-9, 0x1.1789160000000p-4, 0x1.b829f80000000p-3, 0x1.4b62e80000000p-3, 0x1.d65a7e0000000p-6, -0x1.2866880000000p-4, 0x1.1ce1480000000p-8, 0x1.64c2e60000000p-4, -0x1.b71e4e0000000p-7, -0x1.c215b20000000p-4, 0x1.410d0c0000000p-5, -0x1.08a56a0000000p-3, 0x1.80c7740000000p-6, 0x1.72abd80000000p-3, -0x1.247c6a0000000p-5, -0x1.5c17f60000000p-2, 0x1.30f9ec0000000p-3, -0x1.310acc0000000p-3, 0x1.4db9cc0000000p-5, 0x1.38f6fe0000000p-2, 0x1.5d45bc0000000p-3, -0x1.1c5bae0000000p-7, -0x1.847ef00000000p-6, -0x1.77df840000000p-2, -0x1.1ae06e0000000p-3, -0x1.7218400000000p-2, 0x1.1d7e0c0000000p-4, -0x1.7d98960000000p-2, -0x1.6872260000000p-2, -0x1.e83ee60000000p-6, 0x1.8dcdc20000000p-9, -0x1.f204da0000000p-8, -0x1.e56cf40000000p-3, -0x1.7fc3020000000p-6, -0x1.17f7080000000p-3, 0x1.012da60000000p-4, 0x1.3faba00000000p-4, -0x1.c1d55e0000000p-3, -0x1.2368800000000p-3, 0x1.dfd0ba0000000p-4, 0x1.7aad300000000p-4, -0x1.618cc40000000p-4, 0x1.cbc6c20000000p-4, 0x1.a293ba0000000p-4, 0x1.d00e620000000p-4, -0x1.2c466c0000000p-4, 0x1.3220760000000p-5, -0x1.2770880000000p-2, -0x1.3f70e00000000p-3, 0x1.6c3f900000000p-3, -0x1.249fd20000000p-3, 0x1.2ba16e0000000p-4, -0x1.044db40000000p-5, 0x1.c5aab00000000p-5, 0x1.a9117e0000000p-5, -0x1.39b7b60000000p-4, 0x1.3c3cb20000000p-4, -0x1.08e15a0000000p-4, -0x1.5f87300000000p-3, -0x1.bfb5640000000p-6, 0x1.1c1f160000000p-2, -0x1.9ac7960000000p-3, 0x1.58ba200000000p-3, 0x1.8c778a0000000p-4, -0x1.d513c20000000p-5, -0x1.a119620000000p-5, -0x1.63ccae0000000p-3, -0x1.88f7600000000p-4, -0x1.425d620000000p-7, 0x1.572eb00000000p-4, -0x1.ec448c0000000p-5, 0x1.86a5da0000000p-4, -0x1.ccc4580000000p-9, -0x1.ddff5c0000000p-3, -0x1.64625c0000000p-7, 0x1.6677640000000p-6, 0x1.8b81a20000000p-4, -0x1.f942680000000p-12, 0x1.96f3fe0000000p-6, 0x1.3a8cee0000000p-3, 0x1.c0e6b80000000p-8, 0x1.3835320000000p-3, -0x1.6d6b460000000p-5, 0x1.2257d20000000p-2, -0x1.797e8e0000000p-4, 0x1.4d27720000000p-8, -0x1.6d61b20000000p-3, -0x1.86ea440000000p-5, -0x1.3868940000000p-3, -0x1.a9ad120000000p-4, 0x1.fca32e0000000p-6, -0x1.4a89ce0000000p-4, 0x1.a298b00000000p-4, 0x1.96f2b80000000p-4, -0x1.6f5a480000000p-5, 0x1.344ec20000000p-3, 0x1.2d2db00000000p-2, -0x1.91a7220000000p-3, 0x1.3b00a60000000p-3, -0x1.a5f50c0000000p-5, 0x1.2b3ce20000000p-4, 0x1.0754f20000000p-7, 0x1.7daba20000000p-5, 0x1.64a6540000000p-4, 0x1.035c7a0000000p-2, -0x1.e12fe80000000p-4, -0x1.b157e20000000p-5, -0x1.6e67080000000p-8, -0x1.2e9ee60000000p-7, 0x1.70af160000000p-3, 0x1.3c7edc0000000p-3, 0x1.6d9eda0000000p-4, -0x1.c4b6ce0000000p-4, -0x1.616bb00000000p-5, -0x1.a049c80000000p-3, -0x1.2be4640000000p-3, -0x1.9fa32a0000000p-3, -0x1.1fdb440000000p-3, 0x1.4cf6920000000p-4, -0x1.11051e0000000p-3, -0x1.4f04840000000p-4, -0x1.d205f40000000p-5, -0x1.34d7560000000p-2, -0x1.7dcae80000000p-3, 0x1.0b4e9c0000000p-6, -0x1.4815a20000000p-6, -0x1.7979520000000p-5, -0x1.382c820000000p-2, -0x1.1706a40000000p-5, -0x1.715e260000000p-6, -0x1.cfefb60000000p-3, 0x1.6806660000000p-3, -0x1.1451a40000000p-4, -0x1.b663ae0000000p-5, -0x1.88dc400000000p-5, 0x1.f7d9660000000p-10, 0x1.b53d300000000p-8, -0x1.7ad21c0000000p-3, -0x1.c268f00000000p-5, -0x1.d535ba0000000p-4, -0x1.1016300000000p-2, -0x1.89b7920000000p-6, -0x1.73c6e00000000p-4, 0x1.a806b20000000p-5, -0x1.b357620000000p-6, -0x1.acb7600000000p-7, -0x1.c6e94e0000000p-6, 0x1.9c25360000000p-7, -0x1.35a6120000000p-5, -0x1.9bc1cc0000000p-4, -0x1.09f02e0000000p-4, -0x1.a278660000000p-4, -0x1.11cf480000000p-3, -0x1.638f480000000p-5, -0x1.45cf3a0000000p-2, 0x1.ab1c9e0000000p-10, 0x1.d780ee0000000p-4, 0x1.9c75660000000p-5, -0x1.1295fa0000000p-3, 0x1.dfd86a0000000p-5, 0x1.35c57c0000000p-4, 0x1.c510fe0000000p-3, -0x1.4ee70c0000000p-4, 0x1.d1046e0000000p-4, -0x1.d6035c0000000p-3, 0x1.21503a0000000p-6, -0x1.3df19e0000000p-3, 0x1.9e36260000000p-3, -0x1.8c87fc0000000p-2, -0x1.3c4a9e0000000p-3, -0x1.1345380000000p-2, 0x1.1a022c0000000p-3, 0x1.036cea0000000p-3, 0x1.1716c40000000p-5, 0x1.6aa8f40000000p-4, 0x1.d2429c0000000p-5, -0x1.43bb400000000p-2, 0x1.a36c760000000p-7, -0x1.3a3b2a0000000p-3, 0x1.e8b0840000000p-7, -0x1.48b3520000000p-5, -0x1.4768840000000p-3, -0x1.29412a0000000p-4, -0x1.11f9280000000p-4, -0x1.c9d7100000000p-3, -0x1.89a0fc0000000p-8, -0x1.810eb40000000p-4, 0x1.f315040000000p-3, 0x1.7b53a80000000p-4, -0x1.6301320000000p-3, -0x1.7d6ab40000000p-5, -0x1.05943c0000000p-3, -0x1.1ff0440000000p-2, -0x1.1fc9380000000p-4, -0x1.01d64c0000000p-4, -0x1.16a6d80000000p-9, -0x1.aaba5c0000000p-5, 0x1.fdc1700000000p-5, -0x1.4aa1260000000p-3, -0x1.5a8ca80000000p-3, 0x1.55db4a0000000p-6, -0x1.6033480000000p-8, -0x1.b48e860000000p-3, -0x1.ad07c40000000p-4, -0x1.a031480000000p-4, -0x1.4f4a160000000p-3, 0x1.6952d00000000p-3, -0x1.51e3ba0000000p-6, -0x1.e6a9ec0000000p-12, 0x1.c4b1540000000p-3, 0x1.6746400000000p-4, -0x1.6229ee0000000p-7, -0x1.3176de0000000p-4, -0x1.d0ad2a0000000p-7, -0x1.b4bdc20000000p-4, 0x1.bda2040000000p-5, 0x1.0c724e0000000p-4, 0x1.1c963c0000000p-3, 0x1.3b977a0000000p-2, 0x1.b852040000000p-3, -0x1.5e265a0000000p-4, -0x1.f8aca40000000p-3, 0x1.7c87ea0000000p-4, -0x1.2ea14a0000000p-5, 0x1.f28df60000000p-5, -0x1.d35d1c0000000p-5, -0x1.4180c00000000p-3, 0x1.c052540000000p-5, -0x1.2d912c0000000p-4}
