/**
  ******************************************************************************
  * @file    weights/fc.cc
  * @author  Pierre-Emmanuel Novac <penovac@unice.fr>, LEAT, CNRS, Université Côte d'Azur, France
  * @version 1.0.0
  * @date    24 march 2020
  * @brief   Template generating plain C code for the implementation of Convolutional Neural Networks on MCU
  */

#include <stdint.h>

#define INPUT_SAMPLES 400
#define FC_UNITS 100


const float dense_2_bias[FC_UNITS] = {0x1.9876fe0000000p-6, 0x1.cb34140000000p-4, 0x1.590dc60000000p-5, -0x1.02fcd20000000p-4, 0x1.921dcc0000000p-5, -0x1.5c2d920000000p-6, -0x1.32ddb20000000p-6, 0x1.213ed40000000p-5, 0x1.a552980000000p-7, -0x1.4549d60000000p-6, -0x1.69d78c0000000p-6, -0x1.76285a0000000p-6, -0x1.411fe20000000p-6, 0x1.43fef80000000p-4, -0x1.42721a0000000p-4, 0x1.c79a4c0000000p-5, 0x1.ece12e0000000p-5, 0x1.76e0080000000p-5, -0x1.dc0a540000000p-6, 0x1.1e0bfe0000000p-4, 0x1.7ee47c0000000p-5, 0x1.8c0b600000000p-7, 0x1.11aade0000000p-3, 0x1.0b11380000000p-3, 0x1.601e260000000p-5, -0x1.053e640000000p-5, 0x1.8c34420000000p-6, 0x1.10030a0000000p-8, 0x1.25306a0000000p-4, 0x1.105a3a0000000p-4, 0x1.7df6760000000p-4, 0x1.9e30c20000000p-6, 0x1.a844d40000000p-8, 0x1.e8aabc0000000p-5, 0x1.c2f7200000000p-6, -0x1.585c440000000p-6, 0x1.54804e0000000p-10, 0x1.a6f75a0000000p-6, 0x1.1d95e80000000p-5, 0x1.57ee0a0000000p-5, 0x1.a6cbf20000000p-7, 0x1.a59a8c0000000p-5, 0x1.22c9640000000p-5, 0x1.774f9a0000000p-4, 0x1.3653740000000p-4, 0x1.2afa220000000p-5, -0x1.9b94900000000p-7, -0x1.90a9a80000000p-5, 0x1.00330e0000000p-3, 0x1.223cc60000000p-5, 0x1.9bf2240000000p-5, 0x1.5913000000000p-7, 0x1.7296960000000p-5, -0x1.8fcdc80000000p-5, 0x1.6777f20000000p-5, -0x1.4765780000000p-7, 0x1.a89ec60000000p-7, 0x1.aab0140000000p-5, 0x1.e367420000000p-7, 0x1.12774c0000000p-3, 0x1.83100e0000000p-4, -0x1.44b6240000000p-5, 0x1.7556360000000p-4, 0x1.902f0c0000000p-5, 0x1.bdfd6e0000000p-8, 0x1.fb3b840000000p-6, 0x1.3851a60000000p-5, 0x1.32030e0000000p-4, 0x1.7a054c0000000p-4, 0x1.2075bc0000000p-3, -0x1.064b920000000p-8, 0x1.5db50a0000000p-7, 0x1.83fe080000000p-5, -0x1.5816760000000p-8, 0x1.c63eda0000000p-5, 0x1.78b18e0000000p-4, 0x1.fb78940000000p-5, 0x1.d9d79c0000000p-5, 0x1.1b83280000000p-5, 0x1.8cba000000000p-6, -0x1.9f6c880000000p-8, 0x1.9eb0dc0000000p-4, 0x1.3765b20000000p-4, 0x1.51696c0000000p-6, 0x1.567b520000000p-6, 0x1.6f7c3e0000000p-4, 0x1.70cd720000000p-9, 0x1.3d24100000000p-4, 0x1.252bc20000000p-5, 0x1.38b20a0000000p-8, 0x1.25e7be0000000p-5, 0x1.c3e2a20000000p-6, 0x1.0236020000000p-5, 0x1.4c57e60000000p-5, -0x1.3bc75a0000000p-8, 0x1.ccb63e0000000p-5, 0x1.73a3240000000p-4, -0x1.38d8800000000p-6, -0x1.ce64820000000p-7, -0x1.cbe22e0000000p-5}
;

const float dense_2_kernel[FC_UNITS][INPUT_SAMPLES] = {{-0x1.5901700000000p-5, -0x1.c671960000000p-4, 0x1.4d7d6c0000000p-5, -0x1.7d671c0000000p-6, -0x1.1a5a740000000p-4, 0x1.a95ea00000000p-8, 0x1.4efbac0000000p-4, 0x1.8459a00000000p-4, 0x1.80cf300000000p-7, 0x1.3c85de0000000p-4, -0x1.3494220000000p-6, -0x1.7e5a440000000p-5, -0x1.4b83500000000p-4, 0x1.8872080000000p-9, -0x1.41d5cc0000000p-13, 0x1.72e3fc0000000p-6, -0x1.cdbe1e0000000p-5, -0x1.5e5fe00000000p-3, 0x1.c46e920000000p-4, -0x1.7aa1b00000000p-4, -0x1.f65f540000000p-4, -0x1.4432f40000000p-4, 0x1.33c83a0000000p-8, 0x1.5a17f60000000p-6, 0x1.feeb680000000p-4, 0x1.651ba80000000p-5, 0x1.cb4b940000000p-4, -0x1.855a740000000p-7, 0x1.ddee9e0000000p-5, -0x1.1b38260000000p-4, -0x1.9e189a0000000p-4, -0x1.1282340000000p-5, -0x1.53fb8e0000000p-5, -0x1.ec781e0000000p-5, 0x1.d3cdbe0000000p-4, -0x1.e109460000000p-5, -0x1.980af60000000p-4, -0x1.f29e540000000p-7, 0x1.3d26cc0000000p-4, 0x1.397f760000000p-5, 0x1.0839fe0000000p-5, -0x1.f9365a0000000p-5, -0x1.0af8640000000p-5, 0x1.15af0e0000000p-6, -0x1.f0e3900000000p-7, -0x1.e56ae80000000p-4, -0x1.4efbee0000000p-10, -0x1.093f260000000p-3, 0x1.8131f60000000p-5, -0x1.10fbce0000000p-4, 0x1.3d29b20000000p-3, 0x1.6ac0560000000p-6, -0x1.dd41c20000000p-7, -0x1.07c3ae0000000p-8, 0x1.1828260000000p-4, -0x1.85d9e60000000p-8, 0x1.f2a3400000000p-6, -0x1.13d1c80000000p-5, -0x1.62cc9c0000000p-4, 0x1.510e380000000p-4, 0x1.c99d660000000p-7, -0x1.3134e20000000p-3, 0x1.0d45280000000p-5, 0x1.4a854c0000000p-8, -0x1.1d26fa0000000p-6, 0x1.9ad6380000000p-4, 0x1.498f0c0000000p-5, -0x1.e1309e0000000p-5, 0x1.aa63660000000p-6, 0x1.0aa2d40000000p-3, 0x1.a35ff20000000p-4, 0x1.3102720000000p-8, 0x1.e279200000000p-5, 0x1.fbd97a0000000p-6, -0x1.3ef90a0000000p-6, 0x1.26296c0000000p-6, 0x1.23ed4a0000000p-3, -0x1.bed8d60000000p-5, -0x1.9434780000000p-5, 0x1.0e41940000000p-8, 0x1.71fd940000000p-5, -0x1.77cfcc0000000p-4, -0x1.44e4fe0000000p-5, -0x1.7e5c0c0000000p-4, 0x1.43c7600000000p-5, 0x1.20a1a00000000p-4, -0x1.1d136e0000000p-4, -0x1.365f300000000p-6, 0x1.1d66780000000p-4, 0x1.581ee60000000p-4, 0x1.545ca20000000p-4, -0x1.bc53d00000000p-4, 0x1.83073e0000000p-4, -0x1.c915020000000p-4, 0x1.2b007a0000000p-5, 0x1.5d127c0000000p-5, 0x1.d850760000000p-7, -0x1.c7d4620000000p-4, 0x1.5d8f1e0000000p-4, -0x1.27899e0000000p-5, -0x1.0400c80000000p-3, 0x1.1e79200000000p-4, -0x1.8cbb960000000p-5, 0x1.2e59b60000000p-4, 0x1.de5b180000000p-4, -0x1.5f23460000000p-6, -0x1.7ef6400000000p-6, 0x1.6b26cc0000000p-3, -0x1.9792960000000p-7, -0x1.5582dc0000000p-4, -0x1.347f480000000p-4, -0x1.2ba5c20000000p-8, 0x1.24ec060000000p-5, -0x1.440be80000000p-4, 0x1.131e1a0000000p-4, -0x1.dabc880000000p-9, -0x1.d642540000000p-7, -0x1.5773520000000p-6, 0x1.b621500000000p-4, 0x1.688f040000000p-4, -0x1.3c85a80000000p-4, 0x1.28ff420000000p-6, -0x1.9326140000000p-4, 0x1.13682c0000000p-5, -0x1.6425720000000p-5, -0x1.4824ce0000000p-4, 0x1.5c93160000000p-4, -0x1.c3ec0a0000000p-4, -0x1.820b260000000p-4, -0x1.b192ce0000000p-4, 0x1.e778000000000p-4, -0x1.f02fb00000000p-4, -0x1.2f4d300000000p-8, -0x1.9d289e0000000p-5, -0x1.ea8d460000000p-5, 0x1.0d52b00000000p-3, 0x1.86fc900000000p-6, 0x1.8fbf7c0000000p-5, -0x1.a136ca0000000p-6, 0x1.c316140000000p-4, -0x1.ae47060000000p-6, 0x1.9cd9f00000000p-6, 0x1.6c40460000000p-6, -0x1.8889a60000000p-4, 0x1.240e1a0000000p-4, 0x1.7cfb740000000p-6, -0x1.2edd580000000p-4, 0x1.11c8500000000p-4, -0x1.4a288a0000000p-4, 0x1.70b5f00000000p-4, -0x1.61b1d20000000p-7, 0x1.5b77fc0000000p-5, 0x1.3996f80000000p-5, 0x1.28bf720000000p-4, -0x1.03adaa0000000p-6, -0x1.48a0fa0000000p-5, -0x1.7a12960000000p-5, -0x1.407cb80000000p-5, -0x1.6fc6ac0000000p-4, 0x1.117dc20000000p-5, 0x1.1b1fc80000000p-4, -0x1.1ccfd60000000p-5, 0x1.2bc4580000000p-5, -0x1.bad4a40000000p-7, -0x1.d094ba0000000p-6, -0x1.8296d60000000p-5, 0x1.4769a60000000p-6, 0x1.9b97600000000p-5, 0x1.00affc0000000p-3, 0x1.27e86a0000000p-8, -0x1.cca98c0000000p-5, -0x1.21252c0000000p-3, 0x1.d7322a0000000p-4, -0x1.191d920000000p-7, 0x1.8e37ac0000000p-5, -0x1.09b3f60000000p-3, 0x1.5a1f4c0000000p-4, -0x1.93d03c0000000p-3, 0x1.09a62e0000000p-4, -0x1.f6303a0000000p-4, -0x1.c054ce0000000p-5, -0x1.79f5a40000000p-7, 0x1.d98d600000000p-6, 0x1.b82b240000000p-4, 0x1.c23c200000000p-4, -0x1.828a920000000p-5, -0x1.7707e80000000p-3, -0x1.1e21360000000p-4, 0x1.47beda0000000p-8, -0x1.ea02620000000p-6, 0x1.ba92500000000p-8, -0x1.e9ecfc0000000p-4, -0x1.66f1040000000p-5, -0x1.109c660000000p-4, -0x1.2cdbae0000000p-8, -0x1.2209d80000000p-4, -0x1.0eb9220000000p-4, -0x1.d72b780000000p-4, -0x1.1d51140000000p-3, 0x1.ee2ca00000000p-5, -0x1.3fc31e0000000p-5, 0x1.3cbd320000000p-5, -0x1.71c56a0000000p-5, 0x1.3da4e60000000p-4, 0x1.9517c00000000p-4, -0x1.6eb23c0000000p-5, 0x1.284bf60000000p-7, 0x1.1432580000000p-7, 0x1.899f860000000p-6, 0x1.60c8b60000000p-5, -0x1.a16ff20000000p-5, 0x1.4056820000000p-6, -0x1.a72f580000000p-5, -0x1.41d1160000000p-7, 0x1.5111a00000000p-17, 0x1.0634480000000p-4, 0x1.d552c00000000p-6, 0x1.907ba80000000p-4, -0x1.f0c8aa0000000p-6, 0x1.78db200000000p-7, -0x1.1e81ba0000000p-7, 0x1.af01960000000p-6, 0x1.7de3040000000p-4, 0x1.91d51a0000000p-4, -0x1.418af00000000p-9, 0x1.7b9f1e0000000p-5, -0x1.b931980000000p-14, 0x1.aea3bc0000000p-5, -0x1.4517f80000000p-4, -0x1.3260380000000p-5, 0x1.8bf5bc0000000p-6, 0x1.0042360000000p-4, 0x1.16da2c0000000p-4, 0x1.0a75f60000000p-6, -0x1.1e55100000000p-5, 0x1.6dbd720000000p-4, 0x1.909dee0000000p-4, 0x1.89585a0000000p-3, 0x1.a933c40000000p-6, 0x1.b0908c0000000p-7, -0x1.ed6e8e0000000p-7, -0x1.dfdf700000000p-5, -0x1.6410cc0000000p-4, 0x1.fb61d40000000p-6, -0x1.a5575c0000000p-4, -0x1.17df040000000p-6, -0x1.f54e380000000p-6, 0x1.2ce8840000000p-4, 0x1.9080e80000000p-4, 0x1.1fd7ee0000000p-5, -0x1.bf75e80000000p-6, -0x1.50b1b60000000p-5, 0x1.71050c0000000p-4, -0x1.6986060000000p-7, 0x1.0471920000000p-4, -0x1.9ff5500000000p-5, 0x1.8999960000000p-5, 0x1.409bf60000000p-5, -0x1.3194e60000000p-4, -0x1.107bf40000000p-7, -0x1.9b6a180000000p-5, -0x1.cf31ce0000000p-4, -0x1.d720620000000p-5, 0x1.32e9d80000000p-5, 0x1.afc0b00000000p-6, -0x1.55c0ac0000000p-4, -0x1.25b1040000000p-4, -0x1.abc6800000000p-5, 0x1.7019f80000000p-5, -0x1.7a6cc40000000p-6, -0x1.7ad9900000000p-4, -0x1.b128ac0000000p-9, 0x1.2d4bdc0000000p-4, 0x1.e774ae0000000p-8, -0x1.65865a0000000p-6, 0x1.11ebba0000000p-3, 0x1.4484c60000000p-4, 0x1.6901c00000000p-5, -0x1.74ba000000000p-7, -0x1.28fb120000000p-4, -0x1.4fef740000000p-4, 0x1.87bfea0000000p-9, 0x1.c3d5d60000000p-4, 0x1.96416e0000000p-8, -0x1.74afbc0000000p-5, -0x1.8892980000000p-5, -0x1.59430c0000000p-6, -0x1.82964a0000000p-6, 0x1.97272a0000000p-7, -0x1.40016c0000000p-5, -0x1.1feb680000000p-3, 0x1.4af2100000000p-5, 0x1.e1b1800000000p-5, -0x1.4d4a100000000p-5, 0x1.0bb1e20000000p-5, -0x1.3506f20000000p-7, -0x1.e7723a0000000p-6, -0x1.e52a1e0000000p-13, 0x1.5071b40000000p-5, -0x1.4181580000000p-3, 0x1.bebcf20000000p-5, 0x1.11a6de0000000p-4, 0x1.ddb0d60000000p-6, -0x1.3af2480000000p-5, 0x1.6856180000000p-5, 0x1.1db3760000000p-4, -0x1.e3ddb60000000p-5, 0x1.84bac40000000p-6, -0x1.9941040000000p-4, 0x1.14609c0000000p-3, -0x1.042ae20000000p-6, 0x1.2e11520000000p-5, -0x1.c59bf20000000p-9, -0x1.cedcee0000000p-5, 0x1.169e0a0000000p-5, 0x1.6e7c780000000p-6, 0x1.20aec20000000p-4, 0x1.1e77de0000000p-4, 0x1.90598c0000000p-4, 0x1.90916c0000000p-7, -0x1.b3b79e0000000p-4, -0x1.8434a00000000p-5, -0x1.bd893c0000000p-4, -0x1.cb52380000000p-5, -0x1.41b3fa0000000p-4, -0x1.bfcd2c0000000p-8, -0x1.3cd5c20000000p-4, 0x1.07eb100000000p-5, 0x1.01dce80000000p-3, 0x1.99e1220000000p-4, 0x1.d4732a0000000p-5, 0x1.a281f20000000p-5, -0x1.6b1c500000000p-6, -0x1.9ede180000000p-8, -0x1.ba22f60000000p-4, -0x1.410dec0000000p-7, 0x1.87efd20000000p-7, -0x1.4d50240000000p-4, -0x1.f77a180000000p-5, -0x1.162de80000000p-5, -0x1.f40c480000000p-6, -0x1.11b14c0000000p-4, -0x1.a3809e0000000p-4, -0x1.0a62640000000p-4, 0x1.32cece0000000p-3, -0x1.f82e100000000p-5, -0x1.058aaa0000000p-4, 0x1.46ff6c0000000p-5, 0x1.bd09960000000p-4, -0x1.4da0f40000000p-5, 0x1.06cf0e0000000p-5, -0x1.183d580000000p-16, 0x1.37ca060000000p-4, 0x1.3351a20000000p-5, 0x1.7115b40000000p-8, 0x1.77d2da0000000p-5, 0x1.04cf9a0000000p-4, -0x1.5b12560000000p-4, -0x1.13ad120000000p-3, 0x1.e90c160000000p-7, 0x1.1097900000000p-3, 0x1.8b90240000000p-7, 0x1.c691960000000p-6, 0x1.e372840000000p-7, -0x1.9f0b3e0000000p-4, 0x1.8256e60000000p-5, -0x1.4ff7120000000p-5, 0x1.0beab80000000p-6, 0x1.67c2ac0000000p-5, -0x1.7647140000000p-5, 0x1.09c5ca0000000p-4, -0x1.6f80f20000000p-5, -0x1.17e6cc0000000p-7, -0x1.2077340000000p-4, 0x1.071d5e0000000p-4, -0x1.efd52a0000000p-5, 0x1.2253420000000p-7, 0x1.b009200000000p-5, -0x1.87964c0000000p-4, -0x1.25a0b00000000p-4, 0x1.373f2a0000000p-4, -0x1.197a9a0000000p-5, 0x1.58573e0000000p-4, 0x1.0e40980000000p-5, -0x1.f57f5a0000000p-4, -0x1.53e4680000000p-5, -0x1.802a320000000p-7, 0x1.220ccc0000000p-9, -0x1.2ddbe80000000p-5, -0x1.a5e8460000000p-5, 0x1.72be060000000p-4, -0x1.56fd600000000p-5, 0x1.17f1580000000p-5, -0x1.9ca6420000000p-4, 0x1.aba4ea0000000p-5, -0x1.ad77200000000p-7, 0x1.840ea20000000p-4, 0x1.18afb60000000p-7, -0x1.932d5a0000000p-9, 0x1.c3d30c0000000p-8}
, {-0x1.420a3e0000000p-4, -0x1.5debca0000000p-3, 0x1.2e3cc60000000p-4, -0x1.9e223a0000000p-4, -0x1.a4d1220000000p-4, 0x1.2730a40000000p-6, 0x1.bb66100000000p-7, 0x1.b984780000000p-6, -0x1.1ddaa40000000p-4, 0x1.94ba2e0000000p-4, -0x1.eb1f020000000p-4, -0x1.651fd40000000p-4, -0x1.7b29500000000p-4, -0x1.2f81180000000p-8, -0x1.08f8280000000p-7, -0x1.8cc8720000000p-6, -0x1.6bdda40000000p-4, -0x1.3b3b0c0000000p-3, 0x1.71e3d80000000p-4, -0x1.bf3db80000000p-5, 0x1.4e47520000000p-4, -0x1.36f1320000000p-8, 0x1.6ca32e0000000p-5, -0x1.5471bc0000000p-5, -0x1.c3b7340000000p-8, -0x1.a870b40000000p-5, -0x1.211ca20000000p-5, -0x1.3dbdb00000000p-7, -0x1.d6f4340000000p-4, -0x1.401fda0000000p-4, 0x1.47f6360000000p-6, -0x1.c976760000000p-4, -0x1.5da2260000000p-5, -0x1.1c07140000000p-3, 0x1.3e1d840000000p-7, -0x1.d11f840000000p-6, -0x1.0c23820000000p-4, 0x1.662b3e0000000p-5, 0x1.49700a0000000p-11, -0x1.240c4c0000000p-5, -0x1.deab880000000p-15, -0x1.72d3e80000000p-6, -0x1.4c14960000000p-5, -0x1.c245640000000p-7, 0x1.603dac0000000p-5, -0x1.311c5c0000000p-6, 0x1.b36a4a0000000p-5, -0x1.44b3ee0000000p-5, -0x1.07768a0000000p-5, -0x1.22f5ce0000000p-5, 0x1.7b56120000000p-3, -0x1.78c36a0000000p-6, 0x1.427ba60000000p-5, 0x1.8d42b80000000p-5, 0x1.709d400000000p-5, 0x1.9b81480000000p-10, -0x1.8a57fa0000000p-6, 0x1.15f00a0000000p-4, -0x1.eb98d20000000p-5, 0x1.50f3300000000p-4, 0x1.bee48c0000000p-4, 0x1.1c9bd00000000p-4, 0x1.406f4a0000000p-4, 0x1.0434a60000000p-6, 0x1.a441ca0000000p-5, 0x1.590ed40000000p-3, -0x1.81d6540000000p-4, 0x1.3240920000000p-4, -0x1.fbc0b80000000p-7, 0x1.6c0eb60000000p-4, 0x1.3f32240000000p-5, 0x1.1e78fe0000000p-3, -0x1.e049e80000000p-4, 0x1.23ead80000000p-7, -0x1.b559300000000p-6, 0x1.8587020000000p-8, 0x1.adb02a0000000p-6, -0x1.cb46b60000000p-6, 0x1.91d2240000000p-3, 0x1.98465a0000000p-4, -0x1.76ab620000000p-4, -0x1.bbf1600000000p-5, 0x1.ce11740000000p-4, 0x1.2427000000000p-5, 0x1.ed06c80000000p-10, -0x1.6b6d8e0000000p-5, -0x1.ef20380000000p-5, 0x1.67818a0000000p-4, 0x1.e21bd60000000p-4, -0x1.4a57d60000000p-7, -0x1.2781960000000p-4, 0x1.2e1c9a0000000p-12, 0x1.00b18a0000000p-6, 0x1.2318600000000p-7, -0x1.719d260000000p-4, -0x1.54e6560000000p-4, -0x1.493f7a0000000p-8, -0x1.dd99ee0000000p-4, -0x1.0a05e20000000p-4, -0x1.2470c40000000p-4, -0x1.ed7e860000000p-4, -0x1.443dc60000000p-3, -0x1.0659d00000000p-7, 0x1.e5b88a0000000p-5, 0x1.671cd60000000p-6, -0x1.1da5e80000000p-9, 0x1.24b4f20000000p-7, 0x1.2394700000000p-7, 0x1.3e9b160000000p-6, -0x1.ab96860000000p-7, -0x1.ce2b8a0000000p-4, -0x1.8508c40000000p-3, -0x1.710bb80000000p-5, -0x1.930c340000000p-5, -0x1.84f4660000000p-6, 0x1.b5fe280000000p-6, -0x1.300b440000000p-5, -0x1.071d460000000p-3, -0x1.cb56680000000p-5, -0x1.629a3e0000000p-5, 0x1.17f2d20000000p-3, 0x1.10ea620000000p-4, -0x1.07a43c0000000p-4, 0x1.5e0d440000000p-5, -0x1.7adcf80000000p-5, 0x1.01dc240000000p-6, 0x1.1815400000000p-6, -0x1.9d20f00000000p-5, -0x1.acb0580000000p-6, 0x1.f191100000000p-5, 0x1.724c6a0000000p-5, -0x1.5c3d500000000p-5, 0x1.adbee40000000p-6, -0x1.51ca340000000p-8, 0x1.2c089e0000000p-4, -0x1.dd01300000000p-5, -0x1.0da1300000000p-4, 0x1.2ce1ae0000000p-6, 0x1.0d13c20000000p-4, -0x1.19defe0000000p-3, -0x1.6b99e20000000p-6, 0x1.185b640000000p-6, 0x1.93bfb60000000p-4, 0x1.e2ad820000000p-6, -0x1.f1faf60000000p-6, 0x1.72b52e0000000p-4, 0x1.5b04100000000p-5, 0x1.9efac40000000p-4, 0x1.cccec80000000p-5, 0x1.aa21460000000p-4, 0x1.ad13920000000p-4, -0x1.fa6db80000000p-4, -0x1.f428840000000p-5, -0x1.f71c480000000p-5, 0x1.8730f40000000p-4, -0x1.4b74180000000p-6, -0x1.70bb320000000p-8, -0x1.e3610e0000000p-7, 0x1.450ed40000000p-6, 0x1.f0551a0000000p-5, -0x1.d36b860000000p-7, -0x1.38f3980000000p-4, 0x1.40a3d60000000p-4, -0x1.6ea4d00000000p-7, -0x1.0840700000000p-4, -0x1.fa3f980000000p-5, -0x1.c6aa100000000p-4, 0x1.62f40e0000000p-5, -0x1.e33c0e0000000p-6, 0x1.79c3ea0000000p-5, -0x1.528a8c0000000p-5, -0x1.0bc4b40000000p-5, 0x1.efd9780000000p-5, -0x1.b5d84a0000000p-7, -0x1.9954c20000000p-5, -0x1.fee43e0000000p-8, -0x1.9e222c0000000p-5, 0x1.2f14200000000p-7, -0x1.e482a60000000p-6, 0x1.d880140000000p-8, -0x1.5a66fc0000000p-6, -0x1.e514e40000000p-4, -0x1.aa45c80000000p-5, -0x1.1aa6360000000p-5, 0x1.83755a0000000p-4, 0x1.413af60000000p-5, 0x1.6558e40000000p-4, 0x1.3b253a0000000p-5, -0x1.dc75500000000p-5, -0x1.95629c0000000p-6, -0x1.1503980000000p-5, 0x1.ad4ba00000000p-7, 0x1.acf5e00000000p-5, -0x1.60dff00000000p-4, -0x1.37b57a0000000p-3, 0x1.b8d22e0000000p-6, -0x1.3828340000000p-6, -0x1.600d140000000p-4, 0x1.9533940000000p-6, 0x1.15ea440000000p-5, 0x1.3899d60000000p-4, -0x1.ed92400000000p-5, 0x1.126fbe0000000p-3, 0x1.85de020000000p-8, -0x1.b987580000000p-5, 0x1.d08df20000000p-7, 0x1.5e00440000000p-5, -0x1.ee36720000000p-5, -0x1.3561d00000000p-6, 0x1.2cf37e0000000p-6, -0x1.76951c0000000p-5, 0x1.275c9c0000000p-3, 0x1.18b3dc0000000p-3, -0x1.115a3a0000000p-4, 0x1.48ac620000000p-6, -0x1.74efa20000000p-6, -0x1.7303ec0000000p-6, 0x1.5badc00000000p-9, 0x1.1cd1920000000p-5, 0x1.52ab680000000p-5, -0x1.e7b1a20000000p-5, 0x1.aba21c0000000p-8, -0x1.15c76c0000000p-3, -0x1.c8b8880000000p-9, -0x1.6cc24c0000000p-4, 0x1.3807120000000p-3, -0x1.94256e0000000p-4, -0x1.e518140000000p-5, 0x1.35792a0000000p-3, 0x1.b644bc0000000p-4, 0x1.cca80e0000000p-4, -0x1.eeaac60000000p-6, -0x1.41862c0000000p-4, 0x1.53d18e0000000p-5, -0x1.74f9e80000000p-9, -0x1.1ff3a80000000p-3, -0x1.08e6140000000p-4, 0x1.0654140000000p-8, -0x1.06fb6e0000000p-3, 0x1.3f15dc0000000p-4, 0x1.ee5d7a0000000p-6, 0x1.fd75680000000p-4, 0x1.67c1280000000p-6, -0x1.664a040000000p-5, -0x1.3be6ee0000000p-5, 0x1.ff32b80000000p-4, 0x1.81608a0000000p-6, 0x1.374f6a0000000p-4, -0x1.59c3ba0000000p-6, -0x1.268c020000000p-6, 0x1.289f440000000p-4, 0x1.bfc88a0000000p-5, -0x1.a1aa8c0000000p-6, 0x1.dda1aa0000000p-6, 0x1.2c4f020000000p-4, 0x1.6519860000000p-7, 0x1.402c840000000p-4, -0x1.2df2b00000000p-5, 0x1.5f59ac0000000p-6, 0x1.fc53b00000000p-6, -0x1.1c11360000000p-3, -0x1.34e6a60000000p-6, -0x1.15c8060000000p-5, 0x1.12f2ec0000000p-4, -0x1.ce78ba0000000p-5, -0x1.5fecc60000000p-4, -0x1.47a6500000000p-4, -0x1.079ec20000000p-4, 0x1.e2d42c0000000p-4, 0x1.3b4ca60000000p-4, -0x1.e8c0380000000p-7, -0x1.3d72ac0000000p-4, 0x1.0eb7500000000p-4, -0x1.e3fb2e0000000p-6, 0x1.8a9bfe0000000p-4, 0x1.f31c6c0000000p-5, -0x1.84cc200000000p-4, -0x1.8061f40000000p-5, -0x1.9836900000000p-6, 0x1.56a6b20000000p-5, 0x1.e188a40000000p-6, -0x1.3ceb3c0000000p-4, 0x1.1410ce0000000p-5, -0x1.a5f8440000000p-5, 0x1.a225ca0000000p-4, -0x1.dcd1540000000p-5, -0x1.2439ec0000000p-4, -0x1.20dd2c0000000p-7, 0x1.92e14a0000000p-5, -0x1.93c00a0000000p-7, -0x1.e55c220000000p-5, 0x1.0da3a40000000p-3, -0x1.019bc20000000p-4, -0x1.0d13720000000p-7, -0x1.6121f40000000p-4, 0x1.d3366a0000000p-6, 0x1.7dfb4c0000000p-6, 0x1.0188560000000p-4, 0x1.f502940000000p-5, 0x1.3631720000000p-4, -0x1.9d00ec0000000p-4, 0x1.e86c980000000p-7, -0x1.77876a0000000p-5, 0x1.0018f20000000p-5, 0x1.3212cc0000000p-5, -0x1.d48e620000000p-4, 0x1.66ece00000000p-8, -0x1.7825ec0000000p-4, -0x1.4ac8340000000p-5, -0x1.c9bb740000000p-6, 0x1.5f57c40000000p-4, -0x1.94eaa00000000p-5, -0x1.fbb9580000000p-7, 0x1.2e20b60000000p-12, 0x1.f43a040000000p-6, 0x1.26ff7a0000000p-7, -0x1.4721a40000000p-3, -0x1.2b9a7c0000000p-5, -0x1.32b5360000000p-3, -0x1.bd532e0000000p-8, -0x1.1b52580000000p-5, -0x1.4aebb00000000p-5, 0x1.65ee9a0000000p-6, 0x1.69870e0000000p-5, 0x1.869b720000000p-5, -0x1.0842cc0000000p-3, -0x1.577f4e0000000p-4, -0x1.508d580000000p-5, 0x1.2eab000000000p-8, -0x1.a402480000000p-5, -0x1.df64900000000p-5, -0x1.6222a20000000p-4, 0x1.a170be0000000p-5, -0x1.bf510c0000000p-4, 0x1.02927e0000000p-6, 0x1.4215b00000000p-4, 0x1.792f160000000p-8, -0x1.ea8f720000000p-5, 0x1.a5fecc0000000p-5, 0x1.2568500000000p-5, -0x1.d7cf7a0000000p-9, -0x1.705cba0000000p-4, -0x1.d33fd60000000p-4, -0x1.a7aad20000000p-7, -0x1.71bf9a0000000p-8, 0x1.dcdd060000000p-9, 0x1.30db480000000p-5, 0x1.658bba0000000p-5, 0x1.608b8a0000000p-4, 0x1.6587300000000p-5, 0x1.488d6a0000000p-4, 0x1.0abae40000000p-6, 0x1.81342c0000000p-4, -0x1.38bfe20000000p-6, -0x1.b160940000000p-5, 0x1.af8a220000000p-8, -0x1.0cd8800000000p-4, -0x1.ed49a80000000p-4, -0x1.82abf40000000p-5, -0x1.0ec7ca0000000p-4, 0x1.bd2f380000000p-4, -0x1.17644e0000000p-4, 0x1.d59cac0000000p-4, 0x1.fc41e20000000p-4, -0x1.39683e0000000p-7, 0x1.52c1ea0000000p-4, 0x1.5902620000000p-4, -0x1.6af0dc0000000p-7, 0x1.1f7fbc0000000p-9, 0x1.c2c0ba0000000p-10, 0x1.49abd60000000p-5, -0x1.0fc89a0000000p-6, -0x1.ce71fc0000000p-13, 0x1.f075180000000p-5, 0x1.876db80000000p-4, 0x1.851dc60000000p-4, 0x1.09b8a60000000p-6, -0x1.9378200000000p-4, -0x1.4733300000000p-5, 0x1.29c44e0000000p-5, 0x1.015e340000000p-4, 0x1.eafe740000000p-7, -0x1.b93abc0000000p-5, -0x1.379f380000000p-4, -0x1.8e3d4c0000000p-7, 0x1.c62a3c0000000p-13, 0x1.fc80000000000p-6, 0x1.a7809c0000000p-5, -0x1.8d55200000000p-4, 0x1.8531340000000p-5, 0x1.2a7a200000000p-4, 0x1.cbe7fa0000000p-4, -0x1.191c8e0000000p-6, -0x1.a98c3a0000000p-4, -0x1.3a74b00000000p-5, -0x1.c0b1120000000p-5, -0x1.e4f9a40000000p-5, -0x1.3a33ae0000000p-6, 0x1.54cc3c0000000p-7, -0x1.1001000000000p-3}
, {-0x1.03054a0000000p-5, 0x1.50e3100000000p-4, 0x1.258ca80000000p-4, 0x1.2982440000000p-5, 0x1.8652460000000p-5, -0x1.a21d9e0000000p-6, 0x1.6672f40000000p-5, -0x1.9c8ffe0000000p-4, -0x1.907be40000000p-4, 0x1.24a4ba0000000p-4, 0x1.bc34840000000p-5, -0x1.dc59480000000p-7, -0x1.57eb2a0000000p-6, -0x1.9372ec0000000p-4, 0x1.d80b900000000p-6, 0x1.99a6820000000p-4, 0x1.ea8f740000000p-7, -0x1.a21d120000000p-4, 0x1.3c04f60000000p-4, -0x1.016d7a0000000p-4, -0x1.8485140000000p-6, -0x1.10127a0000000p-4, 0x1.78d3780000000p-4, -0x1.f1d0a20000000p-6, -0x1.d64b320000000p-5, -0x1.4d900c0000000p-7, -0x1.76f17e0000000p-5, 0x1.222dca0000000p-4, -0x1.013a120000000p-4, 0x1.bae7620000000p-5, 0x1.d9efb00000000p-7, 0x1.d4077c0000000p-5, -0x1.b851660000000p-5, -0x1.20a6a00000000p-4, 0x1.04dfa80000000p-4, 0x1.21bd500000000p-5, -0x1.6ea4b20000000p-6, -0x1.3d253a0000000p-5, -0x1.feb9c20000000p-8, 0x1.6c37580000000p-4, -0x1.8883920000000p-5, 0x1.2172f20000000p-5, 0x1.1f7e560000000p-4, 0x1.980d3c0000000p-4, -0x1.effbea0000000p-4, -0x1.abfd2c0000000p-5, -0x1.5669040000000p-5, 0x1.122d8e0000000p-5, 0x1.7b8f500000000p-7, 0x1.c0180c0000000p-6, 0x1.add75e0000000p-4, -0x1.8d2d9c0000000p-6, -0x1.4431740000000p-5, 0x1.b0b0c80000000p-10, 0x1.32c78a0000000p-4, -0x1.4cbf7e0000000p-10, 0x1.03db0a0000000p-6, -0x1.2aa6920000000p-5, -0x1.ef01720000000p-8, -0x1.436c060000000p-6, 0x1.1fed3c0000000p-6, -0x1.1e40cc0000000p-4, 0x1.7fa4280000000p-6, 0x1.66dc280000000p-5, -0x1.8aa3da0000000p-9, 0x1.eca3d20000000p-11, 0x1.5583b80000000p-4, -0x1.cd378a0000000p-5, 0x1.8db4100000000p-5, 0x1.76168e0000000p-4, 0x1.1c0b000000000p-4, -0x1.6eb7640000000p-5, 0x1.9e21560000000p-5, 0x1.d202ec0000000p-5, -0x1.3990b00000000p-7, -0x1.1256620000000p-6, 0x1.26c1300000000p-4, -0x1.1745580000000p-4, 0x1.e774a20000000p-4, 0x1.ab24440000000p-7, 0x1.82183a0000000p-6, 0x1.1999440000000p-4, 0x1.1647580000000p-4, 0x1.eea8f60000000p-4, -0x1.48c03a0000000p-6, 0x1.e735cc0000000p-6, 0x1.fb2fe20000000p-4, -0x1.891b4a0000000p-4, 0x1.01ba3e0000000p-3, 0x1.9448640000000p-4, 0x1.95c8240000000p-5, 0x1.fc66880000000p-4, -0x1.3865560000000p-3, -0x1.2b22c00000000p-4, -0x1.3393100000000p-5, 0x1.4b253a0000000p-4, -0x1.0f9c980000000p-5, -0x1.19c3c40000000p-9, -0x1.3af8da0000000p-4, 0x1.3552280000000p-5, 0x1.4a8a460000000p-4, -0x1.b2e0100000000p-5, 0x1.624d220000000p-4, -0x1.32e0160000000p-5, 0x1.81779c0000000p-5, 0x1.4acac20000000p-4, -0x1.9e77740000000p-6, 0x1.b3db7e0000000p-4, 0x1.8845320000000p-5, 0x1.126ea40000000p-4, -0x1.a313140000000p-10, -0x1.0771080000000p-5, -0x1.ca859a0000000p-5, 0x1.50c91a0000000p-4, -0x1.71b0520000000p-8, -0x1.f174fe0000000p-7, -0x1.61bcde0000000p-5, 0x1.659dce0000000p-5, 0x1.2648f20000000p-4, 0x1.95f9840000000p-7, -0x1.982af00000000p-5, -0x1.5b99080000000p-5, 0x1.f86f140000000p-5, 0x1.077e9a0000000p-3, -0x1.c1a16c0000000p-5, -0x1.ef722a0000000p-5, 0x1.2b07980000000p-6, -0x1.4689360000000p-5, -0x1.30374e0000000p-5, 0x1.cb01e00000000p-5, 0x1.f7bee00000000p-4, 0x1.36a5fa0000000p-7, 0x1.4ea1980000000p-5, 0x1.04360a0000000p-5, 0x1.d69cfa0000000p-5, 0x1.34b3220000000p-5, -0x1.bd1d100000000p-6, 0x1.f9211c0000000p-5, -0x1.bacd900000000p-4, 0x1.741ad20000000p-5, 0x1.5906dc0000000p-4, 0x1.a140220000000p-7, -0x1.43f0680000000p-7, 0x1.1266b60000000p-5, 0x1.5430d80000000p-5, 0x1.1fb3ba0000000p-6, 0x1.232a160000000p-4, -0x1.f7cf080000000p-6, 0x1.74edfc0000000p-4, -0x1.4c61a20000000p-5, 0x1.252e4a0000000p-4, 0x1.0ac4500000000p-4, -0x1.88bdb00000000p-4, 0x1.3cdb2e0000000p-4, 0x1.0640600000000p-5, 0x1.a64c6e0000000p-5, 0x1.5ec0900000000p-6, 0x1.e1754e0000000p-7, 0x1.c8c5420000000p-4, -0x1.1ae1e80000000p-4, 0x1.af74160000000p-5, -0x1.963e120000000p-6, -0x1.cd49000000000p-6, 0x1.e8279e0000000p-9, 0x1.6538c00000000p-5, 0x1.a167a20000000p-6, 0x1.0d91960000000p-3, -0x1.b728a40000000p-6, 0x1.cdfa1e0000000p-7, -0x1.1f36ce0000000p-6, 0x1.760d7c0000000p-5, -0x1.a6c4180000000p-5, -0x1.ca40400000000p-6, -0x1.241bb60000000p-6, -0x1.275b780000000p-4, -0x1.a2b3580000000p-5, 0x1.8c014c0000000p-5, 0x1.759c560000000p-5, -0x1.bdb1d60000000p-7, 0x1.4984ac0000000p-7, 0x1.27c2160000000p-3, -0x1.30dcba0000000p-7, 0x1.8ebd220000000p-4, 0x1.ffc9e00000000p-12, 0x1.b449900000000p-7, -0x1.2991dc0000000p-4, -0x1.d8f3c00000000p-6, 0x1.067b100000000p-4, -0x1.52bdb40000000p-6, 0x1.15bce00000000p-5, -0x1.7b0a2e0000000p-7, 0x1.20f0180000000p-4, -0x1.5eb4240000000p-7, 0x1.1a52d40000000p-4, 0x1.12b91c0000000p-4, -0x1.efb2560000000p-6, 0x1.3be82a0000000p-4, -0x1.f198bc0000000p-7, 0x1.7bcb840000000p-5, -0x1.d8303a0000000p-5, -0x1.c3b4ea0000000p-5, 0x1.91f4bc0000000p-7, -0x1.b60d520000000p-4, 0x1.5c97e60000000p-4, -0x1.0414180000000p-4, -0x1.c4030a0000000p-4, -0x1.d81ba00000000p-4, 0x1.e51f600000000p-7, 0x1.55a3200000000p-5, -0x1.fb19620000000p-4, -0x1.23e31a0000000p-7, -0x1.5cf5c80000000p-5, -0x1.5bb8f40000000p-7, -0x1.b2b5540000000p-4, -0x1.1df4e80000000p-6, 0x1.ddde800000000p-6, 0x1.9dbfb80000000p-5, -0x1.6840c40000000p-4, 0x1.7284f00000000p-5, 0x1.57ab820000000p-5, 0x1.8f841c0000000p-5, -0x1.3bbd5e0000000p-5, 0x1.e1d51a0000000p-5, -0x1.d25e360000000p-6, 0x1.c118da0000000p-5, -0x1.f75a740000000p-9, -0x1.0414440000000p-4, 0x1.860e6e0000000p-5, -0x1.edba920000000p-6, -0x1.d7fd2e0000000p-4, -0x1.75de280000000p-7, 0x1.b5683c0000000p-7, -0x1.8913580000000p-7, 0x1.30505a0000000p-14, 0x1.37c0940000000p-4, 0x1.42a8840000000p-8, -0x1.e0f5ce0000000p-5, 0x1.3436280000000p-7, 0x1.a01a4a0000000p-7, 0x1.18ed560000000p-7, -0x1.d012840000000p-6, 0x1.7562c40000000p-4, 0x1.b851c40000000p-4, -0x1.8fd3da0000000p-9, -0x1.51956e0000000p-9, -0x1.80e3be0000000p-6, 0x1.57cfca0000000p-7, -0x1.64b55e0000000p-5, -0x1.71ce160000000p-4, -0x1.7002d20000000p-5, -0x1.36a7a60000000p-4, 0x1.8d80020000000p-8, 0x1.9a7dd80000000p-6, -0x1.03fc4e0000000p-4, -0x1.a9cbd40000000p-5, 0x1.06848a0000000p-5, -0x1.86c20e0000000p-5, 0x1.32759c0000000p-4, 0x1.1772660000000p-4, 0x1.c624d20000000p-4, 0x1.28f6440000000p-6, 0x1.16d0ca0000000p-6, 0x1.0c7be20000000p-4, 0x1.e571c40000000p-5, -0x1.e872540000000p-4, -0x1.68baaa0000000p-4, -0x1.64f2b40000000p-6, -0x1.5a37e40000000p-6, 0x1.d1420e0000000p-7, -0x1.a568720000000p-5, 0x1.336b3e0000000p-6, 0x1.639c3a0000000p-6, -0x1.4f985c0000000p-7, -0x1.7ae41c0000000p-5, 0x1.694e440000000p-4, -0x1.06f1be0000000p-4, 0x1.3ea5720000000p-3, 0x1.32781a0000000p-6, 0x1.4bc25c0000000p-5, -0x1.59869e0000000p-6, -0x1.70ba700000000p-7, 0x1.da2e740000000p-4, -0x1.e11e180000000p-4, -0x1.5c72fc0000000p-5, 0x1.269a4e0000000p-5, -0x1.fdf9200000000p-5, -0x1.a2820e0000000p-5, -0x1.dc5d620000000p-5, 0x1.05c07c0000000p-6, 0x1.3874900000000p-5, -0x1.c14cee0000000p-6, -0x1.f6a4880000000p-6, 0x1.bdb1b00000000p-5, -0x1.282ecc0000000p-6, -0x1.0634500000000p-4, -0x1.6a0b040000000p-4, -0x1.086f140000000p-4, -0x1.5891880000000p-4, 0x1.e852aa0000000p-5, 0x1.27fe0e0000000p-7, 0x1.e38d7c0000000p-4, 0x1.0841040000000p-4, 0x1.395b240000000p-13, -0x1.f373b60000000p-5, -0x1.ea0af20000000p-5, 0x1.a15cbc0000000p-6, -0x1.3d30680000000p-6, 0x1.3ad3260000000p-4, 0x1.8292d40000000p-8, 0x1.dd60a80000000p-6, -0x1.37ccb60000000p-8, -0x1.5684c60000000p-4, -0x1.62d6680000000p-5, -0x1.a34c620000000p-4, -0x1.13ab880000000p-5, 0x1.9239f00000000p-7, 0x1.cf9d0c0000000p-4, -0x1.5314900000000p-5, -0x1.c776160000000p-5, 0x1.d844bc0000000p-4, -0x1.5e4c080000000p-4, -0x1.22ba7e0000000p-3, 0x1.4f0eaa0000000p-5, -0x1.bcbb3e0000000p-5, -0x1.3c0d140000000p-3, 0x1.004f6a0000000p-4, 0x1.23abca0000000p-4, 0x1.837ff00000000p-4, -0x1.6fe2a20000000p-3, 0x1.def3ac0000000p-4, -0x1.2a18be0000000p-3, -0x1.bf68f40000000p-5, 0x1.3b752a0000000p-3, 0x1.6abe320000000p-6, -0x1.1fa5580000000p-4, -0x1.c32be40000000p-5, -0x1.d643960000000p-5, -0x1.2e5bf20000000p-3, 0x1.329c3e0000000p-3, -0x1.8b37b60000000p-3, -0x1.4a0d4a0000000p-3, -0x1.82805c0000000p-6, 0x1.7e2ec40000000p-4, 0x1.e651c20000000p-5, -0x1.400a2a0000000p-3, 0x1.d9371a0000000p-6, -0x1.9eea7a0000000p-4, -0x1.6573040000000p-4, -0x1.db19f80000000p-5, -0x1.e3e0360000000p-4, -0x1.c141e00000000p-4, 0x1.221d8e0000000p-7, -0x1.3d3a1e0000000p-4, -0x1.4bac0e0000000p-3, 0x1.2387f00000000p-3, -0x1.3cf4540000000p-4, -0x1.556f120000000p-3, -0x1.26b1440000000p-3, -0x1.abdbd00000000p-7, -0x1.cf33020000000p-7, -0x1.22d0f80000000p-5, -0x1.f373180000000p-8, -0x1.2596ba0000000p-3, 0x1.dc27460000000p-6, -0x1.1f8eea0000000p-5, -0x1.0f5f000000000p-4, -0x1.0964380000000p-5, -0x1.02df080000000p-4, -0x1.9a1c220000000p-5, -0x1.fd9f700000000p-4, 0x1.63bed00000000p-4, 0x1.2063c00000000p-4, 0x1.18df120000000p-8, -0x1.181d2e0000000p-3, 0x1.f5e0340000000p-5, -0x1.e48b920000000p-5, 0x1.6668600000000p-4, -0x1.0b7f2e0000000p-5, -0x1.8b1e820000000p-5, 0x1.31bca40000000p-4, 0x1.cd4b540000000p-6, -0x1.1414da0000000p-4, -0x1.534f140000000p-4, -0x1.dc5f9e0000000p-5, -0x1.8c56be0000000p-5, 0x1.eb178e0000000p-10, 0x1.98679c0000000p-8, 0x1.05a0440000000p-6, -0x1.55d6040000000p-4, 0x1.1662060000000p-4, -0x1.cea0a60000000p-4, -0x1.c05e840000000p-4, -0x1.30661e0000000p-3, 0x1.c139b60000000p-5, -0x1.63e7400000000p-5, -0x1.ff20b00000000p-7, -0x1.f841500000000p-6, -0x1.5e8ed80000000p-3, -0x1.dae4180000000p-7, -0x1.5445b40000000p-8}
, {0x1.fff4e60000000p-5, 0x1.0fc5fa0000000p-4, -0x1.3913760000000p-4, 0x1.41ba9c0000000p-4, 0x1.e210540000000p-5, -0x1.6f0f8c0000000p-4, 0x1.feaf680000000p-4, 0x1.4b44f80000000p-3, 0x1.e5c3c60000000p-7, -0x1.679cec0000000p-4, 0x1.504b0e0000000p-5, -0x1.2e59f80000000p-5, 0x1.7913a60000000p-4, -0x1.66beca0000000p-8, 0x1.b6fd5e0000000p-5, 0x1.04d47e0000000p-3, 0x1.be0e9a0000000p-5, -0x1.46dd680000000p-4, 0x1.475cec0000000p-4, -0x1.06acec0000000p-7, -0x1.7ac3fc0000000p-5, -0x1.66bb640000000p-5, -0x1.138b7c0000000p-4, 0x1.be3eea0000000p-5, -0x1.1de7280000000p-5, -0x1.5a49100000000p-6, 0x1.17460a0000000p-5, 0x1.5c0f8a0000000p-5, 0x1.4680820000000p-3, 0x1.1e65320000000p-5, -0x1.3fa4bc0000000p-4, -0x1.f11d480000000p-5, 0x1.50b8520000000p-6, 0x1.2514a00000000p-4, 0x1.3d993a0000000p-4, 0x1.4c36800000000p-7, -0x1.5ad3100000000p-8, -0x1.89738e0000000p-6, 0x1.487b0c0000000p-5, -0x1.1330c60000000p-6, 0x1.ee25fe0000000p-5, -0x1.2e79640000000p-3, -0x1.9fc9660000000p-4, -0x1.1ed2720000000p-5, 0x1.51002c0000000p-4, -0x1.6dd4c80000000p-5, -0x1.4468040000000p-4, -0x1.6515dc0000000p-8, -0x1.4edda80000000p-4, 0x1.5682e40000000p-8, 0x1.41c1b80000000p-5, 0x1.44ff320000000p-4, 0x1.bab17a0000000p-6, 0x1.fb1ace0000000p-6, -0x1.b3b6140000000p-4, -0x1.137b6a0000000p-6, -0x1.1ca7d80000000p-5, -0x1.03a2520000000p-4, -0x1.070d460000000p-3, -0x1.ddd74a0000000p-8, 0x1.66c2740000000p-4, -0x1.20ae7a0000000p-9, -0x1.51c9de0000000p-5, -0x1.acd0ca0000000p-4, -0x1.baf0d00000000p-5, -0x1.48e6480000000p-4, 0x1.adf8620000000p-4, 0x1.0703020000000p-4, -0x1.73ca4c0000000p-6, 0x1.bfcb0c0000000p-6, -0x1.0dc9c00000000p-6, 0x1.14f2360000000p-4, 0x1.908dd80000000p-4, -0x1.8e76b60000000p-4, -0x1.5bcfb20000000p-5, -0x1.0ae1b80000000p-4, 0x1.52ae6a0000000p-5, 0x1.e8fe420000000p-5, 0x1.236d1a0000000p-4, -0x1.0a00d60000000p-5, -0x1.55faf20000000p-6, -0x1.c0a0600000000p-6, -0x1.18f2a80000000p-7, 0x1.cfcb7a0000000p-4, -0x1.8333760000000p-4, -0x1.73af8e0000000p-4, -0x1.53bc420000000p-4, 0x1.2230ee0000000p-3, 0x1.a9465a0000000p-4, 0x1.c90d560000000p-5, -0x1.8204dc0000000p-9, -0x1.7426880000000p-5, 0x1.258f020000000p-4, 0x1.1430d60000000p-4, 0x1.8670d20000000p-5, 0x1.ed08880000000p-5, -0x1.a2f03a0000000p-5, -0x1.8c850a0000000p-4, 0x1.3791e00000000p-4, -0x1.f961060000000p-4, -0x1.f98b960000000p-4, -0x1.9413500000000p-6, -0x1.42d6160000000p-6, -0x1.16b2f60000000p-5, -0x1.745d080000000p-6, -0x1.1d4e760000000p-8, -0x1.99c1520000000p-4, 0x1.3108da0000000p-7, -0x1.1b6b5c0000000p-4, 0x1.15b5a20000000p-4, 0x1.e471840000000p-6, -0x1.3ceaf20000000p-4, -0x1.3e9d7c0000000p-6, -0x1.4e7b9c0000000p-3, -0x1.3ef9060000000p-8, -0x1.992a460000000p-5, -0x1.9942e20000000p-4, -0x1.cf9f540000000p-7, 0x1.eb1bbc0000000p-6, 0x1.d45ee60000000p-6, -0x1.1f8e080000000p-3, 0x1.cd67e20000000p-6, -0x1.5c7d9e0000000p-7, 0x1.709e920000000p-4, 0x1.a68fac0000000p-6, -0x1.cf79dc0000000p-6, -0x1.c6b73a0000000p-5, -0x1.47bec00000000p-4, -0x1.98a7c20000000p-5, 0x1.aec2c60000000p-6, -0x1.e1a7b60000000p-8, -0x1.ce859a0000000p-6, 0x1.221b080000000p-7, 0x1.3694240000000p-4, 0x1.1ef0020000000p-5, 0x1.16a3020000000p-4, -0x1.59de340000000p-3, 0x1.bc0e3a0000000p-9, 0x1.2d7f0e0000000p-6, 0x1.01be760000000p-6, -0x1.ffb5360000000p-13, -0x1.7e516e0000000p-6, -0x1.511bea0000000p-6, -0x1.7ee6700000000p-6, 0x1.0ac58a0000000p-6, -0x1.af48180000000p-5, 0x1.41a2c80000000p-4, -0x1.6fbc580000000p-4, 0x1.ccd0060000000p-4, 0x1.f0b4f40000000p-4, -0x1.a6c76e0000000p-7, -0x1.04d9160000000p-3, -0x1.46ba2a0000000p-7, 0x1.f10f300000000p-4, -0x1.24b4d60000000p-6, -0x1.19abc00000000p-3, -0x1.bbf2700000000p-5, -0x1.5050da0000000p-5, -0x1.3257a60000000p-9, 0x1.0bb7c60000000p-4, 0x1.11e23a0000000p-5, -0x1.430de80000000p-4, 0x1.1b79680000000p-5, 0x1.dd35ae0000000p-7, -0x1.f828b20000000p-4, -0x1.d5172c0000000p-4, -0x1.e3ddde0000000p-5, -0x1.807bd00000000p-8, 0x1.fead960000000p-5, -0x1.8519dc0000000p-4, 0x1.04a8d60000000p-3, -0x1.5cdefe0000000p-8, 0x1.086cea0000000p-4, -0x1.0a77e80000000p-4, -0x1.fe5c560000000p-6, 0x1.3db00e0000000p-7, 0x1.ee547a0000000p-5, -0x1.c4a5e60000000p-4, 0x1.5c14d20000000p-4, 0x1.5badce0000000p-8, -0x1.db04360000000p-4, 0x1.74677c0000000p-5, 0x1.0785360000000p-10, 0x1.9322ba0000000p-5, -0x1.374ef80000000p-8, 0x1.5ec0a40000000p-9, -0x1.1b2da00000000p-4, 0x1.85b7ee0000000p-4, 0x1.1b1dc40000000p-4, -0x1.737d0c0000000p-4, 0x1.e85a5e0000000p-6, -0x1.0f6d640000000p-5, -0x1.95d16e0000000p-4, 0x1.14ae7c0000000p-8, 0x1.1485e20000000p-9, -0x1.12cce60000000p-5, 0x1.2382d20000000p-5, -0x1.1ea83c0000000p-6, 0x1.d69d540000000p-5, -0x1.9ff36e0000000p-5, 0x1.71466c0000000p-8, -0x1.521bce0000000p-4, -0x1.054d6c0000000p-4, 0x1.34e8300000000p-4, 0x1.952d4e0000000p-5, 0x1.8a5bc40000000p-10, 0x1.bed2c40000000p-4, -0x1.e827d80000000p-6, -0x1.3302880000000p-6, 0x1.5b74a40000000p-4, 0x1.6efe3e0000000p-7, -0x1.db07a20000000p-7, 0x1.a966280000000p-4, -0x1.d1e8a20000000p-5, 0x1.ceb71c0000000p-6, -0x1.883caa0000000p-4, 0x1.d86a7a0000000p-6, 0x1.438df60000000p-5, 0x1.0631020000000p-3, -0x1.3c37380000000p-4, 0x1.b29b920000000p-4, 0x1.56a5fe0000000p-4, 0x1.37f0460000000p-4, 0x1.888fa60000000p-5, -0x1.faa6e20000000p-8, -0x1.d019600000000p-8, -0x1.4a3fd60000000p-4, 0x1.54abcc0000000p-12, 0x1.6a68540000000p-4, -0x1.10729c0000000p-14, -0x1.6429460000000p-5, 0x1.c950e00000000p-6, -0x1.9ffc200000000p-6, -0x1.9392da0000000p-5, -0x1.7134da0000000p-5, -0x1.16072c0000000p-5, -0x1.27af160000000p-4, 0x1.213ca00000000p-4, -0x1.cf88b20000000p-6, 0x1.4cf0e60000000p-6, 0x1.37372e0000000p-4, 0x1.672ae60000000p-5, 0x1.4f52240000000p-8, 0x1.d09d0a0000000p-6, -0x1.15eb820000000p-3, -0x1.5711240000000p-4, -0x1.5a77900000000p-4, -0x1.3cbeec0000000p-7, 0x1.6b803e0000000p-6, 0x1.34b8f40000000p-5, 0x1.82e85a0000000p-7, -0x1.3edd4e0000000p-3, 0x1.7cc9040000000p-4, 0x1.44010c0000000p-4, -0x1.db25540000000p-9, 0x1.376c860000000p-5, 0x1.e130a00000000p-7, -0x1.256f560000000p-4, -0x1.ebbdf20000000p-7, 0x1.c8323c0000000p-5, -0x1.88b9d80000000p-4, -0x1.ad7e780000000p-4, 0x1.9b8b5a0000000p-6, 0x1.76061a0000000p-5, 0x1.3b65320000000p-5, -0x1.8615960000000p-4, -0x1.9cca1a0000000p-4, 0x1.7a3e0c0000000p-6, -0x1.6f8a000000000p-4, 0x1.4446780000000p-5, 0x1.ad36c80000000p-6, -0x1.483f0c0000000p-4, 0x1.d6eb480000000p-6, -0x1.a8ced40000000p-4, -0x1.7ae0560000000p-5, 0x1.f578cc0000000p-12, -0x1.c205ca0000000p-9, -0x1.0e26660000000p-4, -0x1.764ca80000000p-4, 0x1.4978ee0000000p-6, 0x1.3a4e420000000p-5, -0x1.0111ac0000000p-3, -0x1.7eee460000000p-4, -0x1.974e5e0000000p-6, 0x1.e3790e0000000p-4, -0x1.63c0860000000p-5, 0x1.3791fc0000000p-6, -0x1.2bfd6e0000000p-4, 0x1.21f15e0000000p-4, -0x1.0e8bf20000000p-4, 0x1.68ef140000000p-7, 0x1.49c0d00000000p-4, -0x1.149dd80000000p-6, -0x1.da44e40000000p-6, 0x1.48e4380000000p-7, -0x1.c08ba40000000p-5, -0x1.cb15440000000p-5, -0x1.e0aa640000000p-7, 0x1.a139260000000p-4, -0x1.8a7d800000000p-6, -0x1.8f9a7c0000000p-5, 0x1.9262380000000p-5, -0x1.1e55000000000p-4, -0x1.7384520000000p-6, 0x1.f193740000000p-5, 0x1.1b232e0000000p-4, 0x1.e46b360000000p-5, 0x1.7b8e000000000p-5, -0x1.05fd420000000p-5, 0x1.4b27760000000p-8, -0x1.a82fb80000000p-5, 0x1.78832c0000000p-5, -0x1.56eb100000000p-8, -0x1.80d4e20000000p-9, -0x1.c5e0d80000000p-5, 0x1.c765e80000000p-4, 0x1.64672a0000000p-9, 0x1.142bb40000000p-5, -0x1.36d3300000000p-4, -0x1.1430320000000p-5, -0x1.44a3ee0000000p-5, 0x1.e1a84a0000000p-4, -0x1.2a99460000000p-6, 0x1.9a434c0000000p-5, -0x1.3f62140000000p-4, -0x1.2590d40000000p-5, -0x1.84f7160000000p-5, -0x1.0055bc0000000p-4, 0x1.4728960000000p-4, 0x1.76a6a40000000p-5, -0x1.a92d5c0000000p-5, 0x1.8fb45a0000000p-4, -0x1.05ef020000000p-4, 0x1.88115a0000000p-8, -0x1.01591e0000000p-5, 0x1.b6b2300000000p-4, -0x1.63fb3a0000000p-7, 0x1.7074420000000p-4, -0x1.4c9b4e0000000p-5, -0x1.6c00f60000000p-7, -0x1.78528e0000000p-6, -0x1.f261400000000p-5, -0x1.6003420000000p-3, -0x1.5cdf5c0000000p-5, 0x1.5eab220000000p-6, -0x1.61c59c0000000p-4, -0x1.733bdc0000000p-5, 0x1.6126ac0000000p-5, -0x1.a94c240000000p-5, 0x1.84e3b60000000p-5, 0x1.3cd1760000000p-4, -0x1.42376a0000000p-4, 0x1.7844fc0000000p-5, -0x1.4ed94a0000000p-6, -0x1.05618c0000000p-3, 0x1.5d10f60000000p-7, -0x1.005b760000000p-5, -0x1.02cfe40000000p-4, -0x1.39204c0000000p-6, -0x1.84ff380000000p-4, 0x1.e7a2de0000000p-6, -0x1.ddc3980000000p-4, 0x1.ea541c0000000p-5, 0x1.dd78ae0000000p-7, 0x1.0251f00000000p-9, -0x1.1573d20000000p-7, -0x1.9cf2e20000000p-6, 0x1.bbad560000000p-6, 0x1.104df60000000p-5, -0x1.ef003a0000000p-7, -0x1.8c4a6e0000000p-4, 0x1.437e400000000p-4, -0x1.67873a0000000p-7, 0x1.e995a20000000p-5, 0x1.7f65e40000000p-5, 0x1.08a4cc0000000p-5, -0x1.41139c0000000p-5, -0x1.803ae20000000p-5, 0x1.4564300000000p-5, -0x1.daf6680000000p-6, 0x1.67bd7c0000000p-7, -0x1.aa4b920000000p-5, -0x1.b7fff20000000p-7, 0x1.eac3620000000p-5, 0x1.3492fe0000000p-4, 0x1.1732ae0000000p-5, -0x1.67713a0000000p-8, 0x1.14ac0c0000000p-4, -0x1.d0abc60000000p-5, 0x1.828ff80000000p-5, 0x1.614f740000000p-4, -0x1.06ce620000000p-4, -0x1.d1b1920000000p-9, 0x1.09dc2a0000000p-6, -0x1.b9fef80000000p-5, -0x1.4abca40000000p-4, 0x1.c39ff80000000p-5, -0x1.2268ea0000000p-5, 0x1.2e41340000000p-5, 0x1.c9bf720000000p-5}
, {-0x1.93159a0000000p-4, -0x1.603fbe0000000p-4, -0x1.20ae220000000p-10, -0x1.6770ca0000000p-6, -0x1.09f6ba0000000p-4, 0x1.3921980000000p-4, -0x1.2488de0000000p-4, 0x1.c854e20000000p-5, -0x1.bfb4aa0000000p-5, 0x1.868a800000000p-4, -0x1.8d30480000000p-6, -0x1.c2acaa0000000p-5, -0x1.09b83e0000000p-3, 0x1.7bf9940000000p-7, -0x1.f893e60000000p-5, -0x1.2276d60000000p-7, 0x1.5a035c0000000p-4, -0x1.148dfe0000000p-3, 0x1.bc3a9c0000000p-4, -0x1.a689f20000000p-5, 0x1.c3d99c0000000p-6, -0x1.d251060000000p-6, -0x1.2ea0240000000p-6, -0x1.634f280000000p-12, -0x1.036e8c0000000p-5, 0x1.28fe840000000p-5, 0x1.3107ae0000000p-6, 0x1.d63fd40000000p-7, -0x1.2ab9fe0000000p-5, -0x1.a293d00000000p-4, -0x1.6278da0000000p-4, 0x1.0913d60000000p-7, 0x1.16530a0000000p-4, -0x1.1c93f00000000p-4, 0x1.516d380000000p-5, -0x1.bdbe900000000p-5, -0x1.5eca620000000p-7, 0x1.3be0800000000p-4, 0x1.0a6ada0000000p-6, -0x1.c843e20000000p-9, -0x1.2bba2e0000000p-7, 0x1.ef1af60000000p-4, 0x1.ee32500000000p-5, 0x1.34469c0000000p-4, -0x1.754d320000000p-6, -0x1.26dd960000000p-7, -0x1.06fc300000000p-4, 0x1.d53b700000000p-5, -0x1.8b86600000000p-5, 0x1.18bb800000000p-4, -0x1.df34680000000p-5, -0x1.137d0e0000000p-7, -0x1.7603540000000p-6, -0x1.5dd02e0000000p-6, -0x1.bee2c80000000p-6, -0x1.45544e0000000p-5, -0x1.547df80000000p-9, -0x1.912ad40000000p-5, 0x1.9846300000000p-4, 0x1.c430120000000p-4, -0x1.f7e6ce0000000p-5, 0x1.dd22560000000p-7, -0x1.4fcd660000000p-5, 0x1.fb49640000000p-4, -0x1.9a333a0000000p-5, 0x1.bdeaa00000000p-6, 0x1.bba5800000000p-4, -0x1.bf37160000000p-5, 0x1.2f7b720000000p-9, 0x1.1a7f080000000p-5, 0x1.af0b5a0000000p-4, -0x1.b4cefe0000000p-5, -0x1.5aa2d60000000p-4, -0x1.a9bc720000000p-7, -0x1.7f130a0000000p-5, -0x1.ab2d860000000p-7, 0x1.20097e0000000p-5, 0x1.6b7afc0000000p-5, 0x1.21668c0000000p-3, -0x1.9142860000000p-5, 0x1.68dca20000000p-5, -0x1.4961400000000p-3, 0x1.207b780000000p-8, 0x1.f3cf340000000p-7, -0x1.4d17a00000000p-4, -0x1.0deddc0000000p-4, -0x1.82c6340000000p-5, 0x1.71c9f60000000p-5, 0x1.bb101c0000000p-5, 0x1.a730460000000p-4, -0x1.ebdf440000000p-4, 0x1.4e11d20000000p-5, 0x1.f3af700000000p-5, 0x1.61e7820000000p-6, -0x1.d0a65a0000000p-4, -0x1.a1b38a0000000p-6, -0x1.0f97540000000p-5, -0x1.771ff60000000p-5, 0x1.570a500000000p-7, -0x1.fb9d320000000p-5, 0x1.e5e8a60000000p-5, -0x1.0db5fa0000000p-7, -0x1.16ec440000000p-7, -0x1.070fd00000000p-7, 0x1.178b6c0000000p-4, 0x1.ec59620000000p-8, 0x1.09511e0000000p-4, 0x1.9138980000000p-4, 0x1.1c0d0e0000000p-6, 0x1.0b93d20000000p-4, 0x1.01771c0000000p-6, -0x1.2b38140000000p-3, 0x1.4483980000000p-4, -0x1.407f3a0000000p-6, 0x1.853e8e0000000p-6, 0x1.0e7a900000000p-4, 0x1.4235920000000p-5, -0x1.9b56900000000p-6, -0x1.ecaf460000000p-6, -0x1.f6c7660000000p-6, 0x1.932cf20000000p-11, -0x1.0556e80000000p-5, -0x1.f4367a0000000p-8, 0x1.05ddb40000000p-6, -0x1.bc68ae0000000p-6, -0x1.42fe160000000p-6, -0x1.176cf60000000p-3, -0x1.578bd40000000p-7, 0x1.63b6100000000p-4, -0x1.39ad660000000p-4, 0x1.a6bdd60000000p-7, -0x1.7859340000000p-6, 0x1.a4e1d80000000p-6, -0x1.3d7eec0000000p-4, 0x1.79c8180000000p-5, -0x1.9009c00000000p-3, -0x1.7b82c60000000p-4, -0x1.3606b80000000p-5, 0x1.7566120000000p-6, -0x1.64c7fc0000000p-8, 0x1.1641dc0000000p-8, 0x1.4742ca0000000p-7, -0x1.3b8d780000000p-5, 0x1.1d76d60000000p-3, 0x1.beb1240000000p-5, 0x1.2ec3500000000p-6, -0x1.8b2ca80000000p-7, -0x1.771db60000000p-6, 0x1.cdcf2a0000000p-4, -0x1.92ca440000000p-6, 0x1.a008000000000p-4, -0x1.50607c0000000p-4, -0x1.2781540000000p-5, 0x1.96f7b20000000p-4, -0x1.5269c40000000p-10, -0x1.95c8a60000000p-7, -0x1.36bdb20000000p-4, -0x1.1d78540000000p-4, 0x1.29918a0000000p-4, 0x1.5652440000000p-12, 0x1.3324820000000p-4, 0x1.2b45420000000p-5, -0x1.bc75800000000p-4, -0x1.1edea40000000p-3, 0x1.3f865c0000000p-5, -0x1.6714a40000000p-5, -0x1.c357940000000p-5, -0x1.060dd00000000p-4, -0x1.8065fc0000000p-8, -0x1.3ed92e0000000p-6, 0x1.d8d13a0000000p-6, 0x1.ed4a380000000p-5, 0x1.42e0e00000000p-4, 0x1.762da80000000p-4, 0x1.8b1b300000000p-4, 0x1.8e3ce20000000p-7, 0x1.4ad4560000000p-7, -0x1.b225100000000p-5, -0x1.308e4c0000000p-5, 0x1.62198e0000000p-8, 0x1.8b4ec80000000p-8, -0x1.6f670e0000000p-3, -0x1.fe7d3c0000000p-4, 0x1.37116c0000000p-5, 0x1.52672a0000000p-4, 0x1.f606ba0000000p-6, 0x1.6b59d20000000p-5, 0x1.cb843e0000000p-5, 0x1.361b020000000p-4, 0x1.4669ca0000000p-8, 0x1.6c32600000000p-5, 0x1.f39aba0000000p-4, -0x1.27bd4e0000000p-8, 0x1.5670700000000p-4, 0x1.5e6d520000000p-4, 0x1.974f600000000p-4, -0x1.3d44a00000000p-4, -0x1.bc03920000000p-5, -0x1.e1b49a0000000p-4, -0x1.decca60000000p-6, 0x1.a87ae60000000p-6, 0x1.49778c0000000p-4, -0x1.5cf4960000000p-5, -0x1.a9b32a0000000p-8, -0x1.821e860000000p-4, 0x1.bfc8d40000000p-5, -0x1.8d9b1a0000000p-4, 0x1.459aec0000000p-4, 0x1.b308120000000p-6, -0x1.27c0880000000p-4, -0x1.a1daea0000000p-5, 0x1.46e2c00000000p-4, -0x1.280e500000000p-3, -0x1.fab7ca0000000p-5, 0x1.96d1080000000p-5, -0x1.47c8100000000p-6, 0x1.719ffe0000000p-5, 0x1.ec5fda0000000p-5, 0x1.8c04580000000p-6, -0x1.10aa460000000p-5, -0x1.138afe0000000p-3, -0x1.0f61c00000000p-3, -0x1.6641980000000p-3, -0x1.0b93a60000000p-4, -0x1.8bab520000000p-6, -0x1.1375ba0000000p-8, -0x1.1be6680000000p-3, -0x1.541a560000000p-5, -0x1.8c9b560000000p-5, -0x1.3162580000000p-9, -0x1.dda4220000000p-7, -0x1.b0fc9c0000000p-6, -0x1.aca6200000000p-5, -0x1.c271540000000p-8, 0x1.f88cf80000000p-5, -0x1.00d9820000000p-4, -0x1.4448740000000p-4, 0x1.4724d40000000p-7, -0x1.a5ae680000000p-4, 0x1.b9a9720000000p-5, -0x1.402fd80000000p-4, 0x1.0c0fd80000000p-5, -0x1.f2d1d40000000p-4, 0x1.32d4ac0000000p-5, 0x1.7d22740000000p-4, 0x1.5f885c0000000p-5, -0x1.0d05940000000p-8, 0x1.ce40720000000p-6, 0x1.2334dc0000000p-4, -0x1.b9ef220000000p-4, -0x1.97afd40000000p-6, -0x1.b855960000000p-5, -0x1.494bbc0000000p-4, -0x1.bd847c0000000p-6, 0x1.ec041a0000000p-6, 0x1.9acb100000000p-4, 0x1.a602660000000p-8, 0x1.1d350e0000000p-5, -0x1.1b26960000000p-3, 0x1.d1e8fc0000000p-5, 0x1.9da2d00000000p-4, -0x1.0af1fe0000000p-4, 0x1.7a084a0000000p-4, -0x1.4085800000000p-7, 0x1.23a4bc0000000p-10, 0x1.0407fc0000000p-3, 0x1.61cc140000000p-4, 0x1.e142080000000p-4, -0x1.4354860000000p-3, -0x1.0ae9960000000p-5, 0x1.a6fa380000000p-7, 0x1.f66ab00000000p-6, -0x1.0c43280000000p-4, 0x1.0eeb7c0000000p-4, 0x1.c5557a0000000p-7, 0x1.4be5860000000p-4, 0x1.9df2980000000p-4, -0x1.1c4bc40000000p-4, 0x1.30c5040000000p-5, 0x1.28de280000000p-6, -0x1.f1fa3c0000000p-6, -0x1.1b23820000000p-9, 0x1.2e4ffc0000000p-3, -0x1.2725340000000p-4, -0x1.e4d7160000000p-3, -0x1.88c2960000000p-8, -0x1.e7a9e20000000p-5, 0x1.b01ba60000000p-4, -0x1.bb155c0000000p-4, -0x1.2084260000000p-3, -0x1.9afbae0000000p-4, -0x1.623d780000000p-4, -0x1.feae4a0000000p-5, -0x1.7f013a0000000p-6, 0x1.7cf8d80000000p-4, -0x1.69239c0000000p-4, -0x1.4b1f680000000p-6, 0x1.1afc960000000p-3, 0x1.974aee0000000p-6, 0x1.1ebc1a0000000p-4, -0x1.802fa00000000p-5, -0x1.a18a4e0000000p-4, -0x1.0c5e720000000p-6, 0x1.483ab00000000p-5, -0x1.fc4abc0000000p-4, -0x1.cdf83e0000000p-4, -0x1.8c44e80000000p-4, -0x1.1413a80000000p-4, -0x1.07230a0000000p-3, -0x1.97d24e0000000p-5, 0x1.4cca9e0000000p-5, -0x1.695b6c0000000p-6, -0x1.2d516c0000000p-4, -0x1.68a2ec0000000p-4, 0x1.1ce61e0000000p-8, 0x1.a72f7c0000000p-5, -0x1.7088e60000000p-7, 0x1.d03e340000000p-7, 0x1.bae1b20000000p-6, -0x1.7d270a0000000p-4, -0x1.0b96ca0000000p-6, 0x1.68668e0000000p-6, 0x1.5164ec0000000p-4, 0x1.4524ec0000000p-6, 0x1.5f337a0000000p-4, -0x1.5753d40000000p-5, 0x1.e853100000000p-5, 0x1.349c420000000p-5, -0x1.8ea03a0000000p-5, -0x1.a94aa40000000p-6, -0x1.d693d60000000p-8, 0x1.3b291a0000000p-5, -0x1.e001440000000p-5, 0x1.057f900000000p-4, -0x1.24a93a0000000p-4, 0x1.1146ae0000000p-4, 0x1.4cdb680000000p-9, 0x1.e1c61a0000000p-5, 0x1.e458c00000000p-5, 0x1.49a8420000000p-4, 0x1.6f6ad60000000p-4, 0x1.94feda0000000p-7, 0x1.f63e0c0000000p-7, -0x1.7c778c0000000p-4, -0x1.7389880000000p-6, 0x1.6631a20000000p-8, 0x1.6ccb180000000p-4, -0x1.50ec060000000p-4, -0x1.1691380000000p-4, 0x1.282c2c0000000p-6, -0x1.97baca0000000p-6, -0x1.36351c0000000p-4, -0x1.0667a00000000p-5, -0x1.a6ca300000000p-7, 0x1.ae29540000000p-10, -0x1.b07a760000000p-6, 0x1.a8e9020000000p-4, 0x1.de3e1c0000000p-4, 0x1.e6c0200000000p-5, 0x1.c93f540000000p-5, -0x1.f3d4c60000000p-5, 0x1.5c8e2c0000000p-4, 0x1.cdc4760000000p-7, 0x1.89ab760000000p-5, -0x1.96d3f40000000p-4, 0x1.796d020000000p-4, 0x1.0ae1900000000p-9, -0x1.77ae3a0000000p-5, -0x1.f26f0c0000000p-5, -0x1.2f1efe0000000p-4, -0x1.2c41c20000000p-5, 0x1.ed3e220000000p-9, 0x1.28ac920000000p-6, -0x1.3819320000000p-4, 0x1.534ad00000000p-4, 0x1.2fa67c0000000p-5, 0x1.78f20a0000000p-4, 0x1.0b58100000000p-5, -0x1.084ac60000000p-4, 0x1.3c07d00000000p-4, -0x1.4643100000000p-4, -0x1.b1e02a0000000p-5, 0x1.1bf98c0000000p-5, 0x1.4bb1240000000p-5, -0x1.78c7da0000000p-6, -0x1.03825e0000000p-4, -0x1.7391720000000p-8, -0x1.7404900000000p-5, 0x1.26ae240000000p-6, -0x1.9c94980000000p-8, -0x1.f56ce20000000p-5, -0x1.2315f00000000p-5, -0x1.49be0a0000000p-5, 0x1.1e58840000000p-4, 0x1.1035e40000000p-6, -0x1.66cc800000000p-5, 0x1.b9f60a0000000p-4, -0x1.05a11c0000000p-3, 0x1.8720320000000p-6, 0x1.7cef4a0000000p-5}
, {0x1.cfc7ba0000000p-4, 0x1.8defe20000000p-5, -0x1.21f1500000000p-3, -0x1.487d1a0000000p-5, -0x1.ce503e0000000p-5, 0x1.b2e6160000000p-4, 0x1.40bcb00000000p-12, 0x1.24f6e20000000p-4, 0x1.ad03400000000p-5, -0x1.1f1c720000000p-4, 0x1.980d240000000p-4, -0x1.8a7dc60000000p-5, -0x1.13a2820000000p-5, -0x1.a801d40000000p-5, -0x1.31fa8c0000000p-5, 0x1.caad040000000p-8, -0x1.19982e0000000p-4, -0x1.f527f00000000p-4, -0x1.ac600e0000000p-4, -0x1.9dc3540000000p-7, -0x1.e368880000000p-5, 0x1.ae27680000000p-10, -0x1.63b24c0000000p-5, 0x1.4f6a560000000p-4, 0x1.d155c80000000p-6, 0x1.c2cb5e0000000p-5, 0x1.2c98400000000p-7, 0x1.7471740000000p-11, 0x1.e84ffc0000000p-6, -0x1.9261880000000p-5, -0x1.d1cbc20000000p-7, -0x1.fe5a9a0000000p-5, 0x1.d90d9e0000000p-6, -0x1.26a55c0000000p-5, -0x1.e7bd8e0000000p-4, 0x1.8f6f720000000p-6, 0x1.1a5a580000000p-5, -0x1.0cba4e0000000p-8, -0x1.6397e40000000p-4, 0x1.6a12700000000p-5, -0x1.4839f60000000p-7, 0x1.753dba0000000p-7, 0x1.6eb1a00000000p-5, 0x1.d41ab60000000p-7, -0x1.0794480000000p-8, 0x1.5c06500000000p-5, -0x1.9cc0200000000p-6, -0x1.ad36180000000p-4, 0x1.87b3fe0000000p-5, 0x1.226cc20000000p-8, -0x1.8e26580000000p-4, 0x1.4aa16c0000000p-5, -0x1.73c4c40000000p-10, 0x1.25bfa40000000p-4, 0x1.458b980000000p-6, 0x1.cd5a880000000p-4, -0x1.8376c80000000p-5, -0x1.f225040000000p-8, 0x1.d2e7500000000p-4, -0x1.355cca0000000p-5, -0x1.6ac0040000000p-6, 0x1.4815620000000p-5, -0x1.7f0cb60000000p-4, 0x1.aac5620000000p-5, -0x1.4920000000000p-6, -0x1.4384ac0000000p-4, 0x1.836ab40000000p-5, -0x1.362e500000000p-5, -0x1.423d3e0000000p-6, -0x1.830cdc0000000p-4, 0x1.13c1800000000p-5, -0x1.bffbb20000000p-5, -0x1.402a580000000p-5, 0x1.3849ea0000000p-5, 0x1.cfec200000000p-6, -0x1.fff6120000000p-5, 0x1.5e997e0000000p-6, 0x1.3084cc0000000p-5, -0x1.a929fe0000000p-4, 0x1.eecb240000000p-6, -0x1.c996ce0000000p-6, -0x1.9552cc0000000p-4, 0x1.a22ce20000000p-6, 0x1.e07e380000000p-10, 0x1.1d90600000000p-6, 0x1.231b140000000p-5, 0x1.1f9ac40000000p-4, 0x1.78025c0000000p-8, 0x1.058ad60000000p-5, 0x1.0e23fe0000000p-4, -0x1.5788fe0000000p-4, -0x1.265c040000000p-7, 0x1.85d52a0000000p-6, 0x1.8dc2780000000p-6, -0x1.d5cbaa0000000p-7, -0x1.7789e20000000p-6, 0x1.1df8100000000p-6, -0x1.45fd580000000p-8, 0x1.2b46260000000p-6, -0x1.52927e0000000p-6, -0x1.c1d4560000000p-6, 0x1.17af5e0000000p-4, -0x1.917b520000000p-4, -0x1.9a49560000000p-5, -0x1.3cfe900000000p-4, -0x1.48560a0000000p-3, -0x1.3f0c480000000p-5, 0x1.a964180000000p-5, 0x1.1217b20000000p-5, 0x1.11cbc20000000p-5, 0x1.438a340000000p-4, 0x1.e80ad60000000p-5, -0x1.a554ea0000000p-4, 0x1.5333940000000p-8, -0x1.04fc300000000p-3, -0x1.cbce1c0000000p-7, -0x1.52f5540000000p-4, 0x1.f112900000000p-5, -0x1.2b3f340000000p-5, -0x1.5829880000000p-4, 0x1.42dfd20000000p-3, -0x1.f967f80000000p-4, 0x1.ecb4b80000000p-5, -0x1.00b3d80000000p-3, 0x1.576abc0000000p-7, -0x1.b385b40000000p-10, 0x1.974d400000000p-6, 0x1.135bc80000000p-7, -0x1.4bb9160000000p-5, -0x1.864d880000000p-4, -0x1.7cbdd80000000p-5, -0x1.6481e80000000p-5, -0x1.e202a60000000p-4, -0x1.5dd3be0000000p-5, -0x1.f2634a0000000p-4, 0x1.47051a0000000p-6, 0x1.0169ba0000000p-3, -0x1.5343320000000p-4, -0x1.258f160000000p-6, 0x1.8412200000000p-8, -0x1.c065c60000000p-12, -0x1.27e69e0000000p-5, 0x1.206bb80000000p-5, -0x1.5a622a0000000p-3, 0x1.a4a6380000000p-5, -0x1.91b4680000000p-4, -0x1.d6b2f40000000p-6, 0x1.e5e0cc0000000p-7, -0x1.6c0d8c0000000p-5, -0x1.648a840000000p-7, -0x1.bb4e4c0000000p-5, 0x1.4c26080000000p-3, 0x1.6d9eb60000000p-5, -0x1.f0311e0000000p-4, 0x1.b8eb1a0000000p-5, 0x1.2b0f660000000p-4, 0x1.20dd9c0000000p-5, 0x1.11166c0000000p-3, -0x1.ed131e0000000p-5, -0x1.4f22f20000000p-3, 0x1.6406ee0000000p-8, -0x1.108ff80000000p-4, -0x1.bf7ade0000000p-4, 0x1.2ae3780000000p-4, -0x1.1021400000000p-3, -0x1.359e1e0000000p-5, 0x1.fb29100000000p-9, -0x1.d57db40000000p-5, -0x1.f954740000000p-6, -0x1.4c09080000000p-5, 0x1.1236480000000p-3, 0x1.8dbc740000000p-5, -0x1.7e34640000000p-7, -0x1.5edc480000000p-5, -0x1.87a5aa0000000p-4, -0x1.45aa020000000p-6, 0x1.b586420000000p-4, 0x1.99169c0000000p-5, 0x1.1924e60000000p-5, 0x1.a930760000000p-5, -0x1.ab35d20000000p-4, -0x1.cc4eb60000000p-5, -0x1.517fa00000000p-4, 0x1.dc937c0000000p-8, -0x1.2672140000000p-4, 0x1.3dcd480000000p-4, 0x1.308d160000000p-4, 0x1.994cca0000000p-5, 0x1.9165cc0000000p-4, 0x1.7b67420000000p-8, -0x1.3944280000000p-4, -0x1.60b79c0000000p-4, 0x1.00e9f40000000p-3, 0x1.be98080000000p-14, -0x1.747ef60000000p-5, 0x1.17f9680000000p-5, -0x1.0502520000000p-3, 0x1.c91b0c0000000p-7, -0x1.f408fc0000000p-4, -0x1.600ba80000000p-10, -0x1.6c71920000000p-5, -0x1.79fa2c0000000p-3, -0x1.7bc0740000000p-5, 0x1.3611b80000000p-10, 0x1.7496880000000p-5, 0x1.8ef6b20000000p-4, -0x1.265d0e0000000p-4, -0x1.6ddfb40000000p-3, -0x1.c0330a0000000p-7, -0x1.4994460000000p-4, 0x1.127b6e0000000p-4, -0x1.017ed20000000p-7, -0x1.51e6640000000p-3, 0x1.bab4ec0000000p-6, -0x1.eb383c0000000p-4, -0x1.18591e0000000p-6, 0x1.1af6320000000p-4, -0x1.08ad2c0000000p-6, 0x1.745df00000000p-5, 0x1.29ba980000000p-4, 0x1.5d91de0000000p-5, 0x1.f869040000000p-4, -0x1.8359600000000p-7, -0x1.0789c60000000p-5, -0x1.fefb160000000p-4, 0x1.4fa3260000000p-6, 0x1.c3ef100000000p-5, -0x1.a939800000000p-4, -0x1.0026360000000p-6, -0x1.d7f7620000000p-7, -0x1.135c8a0000000p-3, -0x1.16ebe20000000p-5, 0x1.4ffe000000000p-4, -0x1.2e5ba80000000p-3, -0x1.7084ce0000000p-4, 0x1.6d066a0000000p-6, 0x1.c941ca0000000p-5, -0x1.3f47ae0000000p-4, 0x1.8be5cc0000000p-4, -0x1.5c94940000000p-7, -0x1.b19c0a0000000p-4, -0x1.bf957c0000000p-4, -0x1.d22e560000000p-4, -0x1.207aea0000000p-9, -0x1.261bb00000000p-3, -0x1.ba01f60000000p-6, 0x1.a3421e0000000p-5, 0x1.a665040000000p-5, 0x1.5f46b20000000p-4, 0x1.3a5a5a0000000p-5, 0x1.f259ae0000000p-4, -0x1.6eb3520000000p-4, 0x1.88fcee0000000p-5, 0x1.0869d20000000p-4, -0x1.83fa520000000p-5, -0x1.8c2b3a0000000p-5, -0x1.3dbd4c0000000p-6, 0x1.a91c080000000p-5, -0x1.51c4340000000p-5, 0x1.9fdd4a0000000p-5, -0x1.4a5aae0000000p-4, -0x1.4840260000000p-4, -0x1.76021a0000000p-4, 0x1.2b74d80000000p-4, -0x1.adc4b60000000p-6, 0x1.21fc960000000p-4, -0x1.a3d3c00000000p-7, 0x1.6c36ba0000000p-4, -0x1.de54000000000p-5, -0x1.e45f660000000p-4, -0x1.a4fc540000000p-4, -0x1.b653b60000000p-5, 0x1.7127ac0000000p-4, -0x1.3d14280000000p-8, 0x1.7ec7300000000p-7, 0x1.bb7acc0000000p-6, -0x1.2e9ab80000000p-3, 0x1.7c18e40000000p-5, 0x1.fe6d0c0000000p-9, 0x1.3778c00000000p-5, -0x1.b415520000000p-6, -0x1.04a2860000000p-4, 0x1.84e6920000000p-4, 0x1.cfb7fa0000000p-5, 0x1.4988c00000000p-6, 0x1.eebb000000000p-5, -0x1.2846360000000p-3, -0x1.9467040000000p-5, -0x1.30d1200000000p-4, -0x1.9be1de0000000p-4, 0x1.d23f820000000p-6, 0x1.61070a0000000p-4, -0x1.3244b40000000p-5, -0x1.53a4d00000000p-6, -0x1.c5e5560000000p-7, 0x1.a8d1f80000000p-6, 0x1.c9866a0000000p-5, -0x1.69215a0000000p-5, -0x1.6d54100000000p-5, -0x1.9281e40000000p-5, 0x1.7ac5c80000000p-5, -0x1.e9fc7e0000000p-4, -0x1.04d52a0000000p-5, 0x1.2b5e9c0000000p-4, 0x1.934d000000000p-5, -0x1.c9f4ee0000000p-4, -0x1.cc70a80000000p-4, -0x1.c9e8600000000p-10, -0x1.7afa900000000p-7, -0x1.0c0ff80000000p-5, 0x1.42b32e0000000p-7, 0x1.088cc80000000p-7, -0x1.a7bbd00000000p-6, -0x1.1decc20000000p-4, -0x1.4d3aa00000000p-4, -0x1.0ebf720000000p-6, -0x1.b3db8a0000000p-5, -0x1.0ae7bc0000000p-5, -0x1.184f620000000p-2, -0x1.62dfc20000000p-7, 0x1.d7211e0000000p-4, -0x1.3198920000000p-4, -0x1.eb8a4a0000000p-4, -0x1.7ef3b20000000p-7, -0x1.48b39e0000000p-4, -0x1.54a2d80000000p-3, -0x1.0b9f7e0000000p-5, 0x1.3c4d760000000p-4, 0x1.cf8a6c0000000p-10, -0x1.5386080000000p-5, -0x1.a8466c0000000p-4, -0x1.3ffecc0000000p-5, -0x1.932a5c0000000p-4, 0x1.d327220000000p-4, 0x1.25bde40000000p-4, -0x1.6405fc0000000p-5, 0x1.f36ece0000000p-5, -0x1.3b8ae20000000p-5, 0x1.b888400000000p-7, -0x1.249ba00000000p-4, -0x1.f7b6f40000000p-5, -0x1.1131ca0000000p-3, 0x1.107ea00000000p-4, 0x1.929f6a0000000p-11, -0x1.f033f20000000p-6, -0x1.0117a20000000p-7, -0x1.c85fe80000000p-6, -0x1.d01d3a0000000p-8, -0x1.0e68320000000p-4, 0x1.5ad4ae0000000p-4, -0x1.d01c1e0000000p-9, -0x1.2540540000000p-7, -0x1.835f8c0000000p-5, -0x1.00aeb20000000p-3, 0x1.a28bd80000000p-8, 0x1.aa67d00000000p-5, -0x1.55104a0000000p-5, -0x1.c67d040000000p-5, 0x1.5679700000000p-5, 0x1.15e4d60000000p-4, 0x1.2a2d400000000p-5, 0x1.8e3cb60000000p-4, 0x1.24112a0000000p-7, -0x1.9be85e0000000p-8, 0x1.6771da0000000p-8, 0x1.bed8740000000p-4, 0x1.a411700000000p-4, -0x1.856d680000000p-6, -0x1.2bc3b40000000p-6, 0x1.13fece0000000p-6, -0x1.6d78580000000p-6, -0x1.d681b60000000p-4, 0x1.6e74ba0000000p-6, 0x1.a3dd7c0000000p-5, -0x1.1e32960000000p-8, 0x1.d571fa0000000p-4, -0x1.032e9a0000000p-5, -0x1.18ba1c0000000p-5, -0x1.d34abc0000000p-6, -0x1.2abc160000000p-5, -0x1.337db20000000p-5, 0x1.83610a0000000p-5, -0x1.6820c40000000p-9, -0x1.96aea60000000p-4, 0x1.b001400000000p-7, -0x1.4fb1360000000p-3, 0x1.44d3500000000p-5, -0x1.1b1e300000000p-6, -0x1.90bb2e0000000p-3, -0x1.58874a0000000p-7, -0x1.d66a720000000p-5, 0x1.c95ea60000000p-4, -0x1.ec4c120000000p-5, -0x1.ff42c40000000p-5, -0x1.f741d80000000p-4, -0x1.098b8c0000000p-6, 0x1.05c4640000000p-3, 0x1.1ce6340000000p-4, 0x1.1ce3d80000000p-4, -0x1.64faba0000000p-5}
, {-0x1.c35de60000000p-5, 0x1.1eb86c0000000p-3, 0x1.20deba0000000p-5, 0x1.6756200000000p-4, -0x1.b837c40000000p-7, 0x1.6c69480000000p-5, -0x1.d2e09e0000000p-4, 0x1.e546440000000p-4, -0x1.bebc6a0000000p-5, -0x1.ee92d00000000p-8, 0x1.51ab6a0000000p-4, -0x1.9639c40000000p-8, -0x1.1da31c0000000p-4, -0x1.1b73e80000000p-7, 0x1.87c6620000000p-8, 0x1.3bbab20000000p-4, 0x1.f166c80000000p-6, 0x1.a8e20e0000000p-7, -0x1.d94f000000000p-13, 0x1.c07aae0000000p-4, 0x1.3bb8a40000000p-4, -0x1.b1540a0000000p-5, 0x1.c819c60000000p-5, -0x1.4f6a880000000p-5, 0x1.7535560000000p-4, -0x1.8439360000000p-6, 0x1.b8253e0000000p-5, 0x1.6860b20000000p-6, 0x1.2c2cd80000000p-4, 0x1.1e7fce0000000p-4, 0x1.7b65960000000p-4, 0x1.d835bc0000000p-5, -0x1.4a1a4e0000000p-10, -0x1.c1cbfc0000000p-6, 0x1.8215d80000000p-5, 0x1.133fc60000000p-3, 0x1.90026e0000000p-5, -0x1.c530f20000000p-7, -0x1.62ed280000000p-4, 0x1.49ccfe0000000p-4, 0x1.d7b8a60000000p-6, -0x1.93ad000000000p-7, -0x1.b760700000000p-4, 0x1.42a2340000000p-8, 0x1.c4747e0000000p-10, 0x1.06b7f00000000p-5, 0x1.e16bb20000000p-5, 0x1.15d32e0000000p-5, -0x1.4e8eb60000000p-5, -0x1.071a9a0000000p-6, 0x1.af8c120000000p-6, 0x1.b297240000000p-4, 0x1.6baa6c0000000p-7, -0x1.4130c00000000p-4, 0x1.7dd78a0000000p-5, 0x1.5ac4440000000p-5, 0x1.17dec40000000p-3, 0x1.5be3c20000000p-6, 0x1.6124400000000p-4, -0x1.6b91c20000000p-7, 0x1.8550bc0000000p-4, 0x1.1831ee0000000p-6, 0x1.799ec40000000p-4, -0x1.9191360000000p-4, -0x1.e9cd880000000p-8, -0x1.e18fbe0000000p-8, 0x1.12580e0000000p-8, -0x1.d3b54a0000000p-7, -0x1.c1edf80000000p-4, -0x1.6035d40000000p-4, -0x1.8692f00000000p-4, -0x1.c525fe0000000p-8, 0x1.4beb820000000p-5, -0x1.d4759a0000000p-5, -0x1.73231c0000000p-9, 0x1.2a482c0000000p-4, 0x1.19d7f40000000p-3, 0x1.45ed000000000p-4, 0x1.58b9500000000p-4, -0x1.437f760000000p-4, 0x1.06cc620000000p-4, -0x1.323a240000000p-6, -0x1.bd36380000000p-5, 0x1.51a1fe0000000p-6, -0x1.5874b60000000p-7, -0x1.8e43f80000000p-6, -0x1.24a3580000000p-9, -0x1.fe1f400000000p-6, -0x1.287e260000000p-3, -0x1.9d17860000000p-4, -0x1.b93fec0000000p-4, -0x1.1d71240000000p-6, 0x1.3f7e7c0000000p-6, -0x1.4f0c360000000p-5, -0x1.4b3d780000000p-5, -0x1.379cd80000000p-4, 0x1.56cb3a0000000p-10, 0x1.3807680000000p-6, 0x1.675c6a0000000p-5, -0x1.2953380000000p-4, -0x1.3799f40000000p-5, 0x1.011d380000000p-9, -0x1.484a7e0000000p-4, -0x1.cec5800000000p-5, -0x1.2d07dc0000000p-3, -0x1.6f3cbe0000000p-4, -0x1.7f69900000000p-5, -0x1.f6b02a0000000p-6, 0x1.b6c8140000000p-5, -0x1.b08de80000000p-4, -0x1.353bd60000000p-4, -0x1.941cda0000000p-6, -0x1.315fd40000000p-3, -0x1.b3b2800000000p-8, 0x1.0fd5520000000p-4, -0x1.6601580000000p-6, 0x1.6fd57c0000000p-6, 0x1.1846620000000p-4, -0x1.316e2e0000000p-4, 0x1.0834ae0000000p-5, 0x1.136e460000000p-6, 0x1.6c56180000000p-5, -0x1.1717060000000p-3, 0x1.cc294e0000000p-6, -0x1.ba22e80000000p-4, 0x1.ea58cc0000000p-6, -0x1.f853b80000000p-5, -0x1.c0e11a0000000p-6, -0x1.bda16e0000000p-4, 0x1.a124a00000000p-4, 0x1.b540f20000000p-4, -0x1.24ede60000000p-5, -0x1.028e800000000p-4, -0x1.7b492e0000000p-6, -0x1.1b086e0000000p-5, -0x1.f8bb400000000p-5, -0x1.043e260000000p-5, -0x1.854b980000000p-5, -0x1.1b48880000000p-3, 0x1.525bf60000000p-6, -0x1.28cf4e0000000p-3, -0x1.cea68a0000000p-6, -0x1.20c0120000000p-4, 0x1.c607280000000p-5, 0x1.06a3bc0000000p-4, 0x1.296a9e0000000p-4, 0x1.b974080000000p-5, -0x1.f280f40000000p-5, -0x1.ae285c0000000p-6, -0x1.95fb600000000p-5, 0x1.9314520000000p-6, -0x1.fc0a020000000p-4, -0x1.b49fa40000000p-8, 0x1.dbdd5a0000000p-4, -0x1.aea3a80000000p-4, -0x1.40c5660000000p-6, -0x1.f5f9280000000p-5, -0x1.3250060000000p-5, -0x1.f485960000000p-6, 0x1.3c724c0000000p-5, 0x1.94a91c0000000p-6, -0x1.5ae26e0000000p-4, 0x1.9fb7c00000000p-6, -0x1.dcb9620000000p-4, -0x1.cadb3c0000000p-5, 0x1.0952f20000000p-3, 0x1.597e700000000p-4, 0x1.ce67dc0000000p-4, -0x1.7b1f240000000p-3, -0x1.2558a40000000p-5, 0x1.45c7ec0000000p-5, 0x1.9a63bc0000000p-6, 0x1.a8676a0000000p-4, -0x1.6b06980000000p-4, -0x1.0acd3a0000000p-4, 0x1.8ff0c60000000p-5, -0x1.c33f440000000p-4, -0x1.3e8d420000000p-4, 0x1.6a6c5a0000000p-4, -0x1.9535b80000000p-5, 0x1.05571c0000000p-5, -0x1.72b2680000000p-6, 0x1.333a500000000p-4, 0x1.e148c00000000p-9, -0x1.da58780000000p-4, 0x1.1a47540000000p-5, -0x1.55ccc00000000p-7, 0x1.d5d6f80000000p-7, 0x1.1143c00000000p-5, 0x1.a0cd300000000p-10, 0x1.441e620000000p-10, 0x1.203e020000000p-6, -0x1.cecd4a0000000p-6, -0x1.4520b00000000p-5, 0x1.d446360000000p-5, -0x1.0e97600000000p-4, -0x1.b144c00000000p-6, -0x1.54b8060000000p-5, 0x1.51e8880000000p-5, 0x1.80b4e00000000p-7, -0x1.541eb60000000p-3, 0x1.1fd2fc0000000p-6, 0x1.0032220000000p-4, 0x1.6a41820000000p-7, 0x1.0ba6560000000p-6, 0x1.2fd4400000000p-4, 0x1.78c50c0000000p-6, 0x1.42e7d80000000p-5, -0x1.26a10a0000000p-5, -0x1.9d4b340000000p-5, -0x1.815fa20000000p-5, -0x1.3ad8ec0000000p-4, 0x1.2d23300000000p-4, -0x1.fbd1ce0000000p-4, 0x1.40c1ae0000000p-7, 0x1.af0cb00000000p-4, -0x1.131a300000000p-6, 0x1.5bea600000000p-3, 0x1.3ce3900000000p-4, -0x1.4b0aea0000000p-5, -0x1.1cc0a40000000p-4, 0x1.193f6e0000000p-5, -0x1.e526700000000p-6, 0x1.50fda80000000p-4, 0x1.92d7fc0000000p-4, -0x1.1d35460000000p-3, -0x1.af947c0000000p-6, -0x1.92a9a60000000p-6, 0x1.82e2140000000p-4, -0x1.87359c0000000p-4, -0x1.8d321e0000000p-6, 0x1.0e443e0000000p-7, 0x1.5461700000000p-5, 0x1.a3d1ca0000000p-6, 0x1.5126d60000000p-5, 0x1.d738560000000p-6, -0x1.38b0500000000p-3, 0x1.619f340000000p-4, 0x1.ccfd000000000p-7, -0x1.37b22e0000000p-10, 0x1.7e6da20000000p-5, -0x1.1deeca0000000p-5, 0x1.945d060000000p-5, -0x1.6cb9b20000000p-4, -0x1.eced820000000p-5, 0x1.183b160000000p-7, 0x1.68806e0000000p-5, 0x1.bbe1720000000p-6, 0x1.657ed40000000p-4, 0x1.5ea4760000000p-4, -0x1.15b4e00000000p-3, -0x1.2a7ce20000000p-3, -0x1.5c89820000000p-9, 0x1.4c7ccc0000000p-5, -0x1.2370b60000000p-6, 0x1.0ac3f80000000p-6, 0x1.89f5580000000p-5, -0x1.14300a0000000p-7, -0x1.5eefbc0000000p-4, -0x1.af0e680000000p-15, 0x1.4bdec20000000p-5, -0x1.57afc20000000p-4, -0x1.3b7e860000000p-3, 0x1.49c2cc0000000p-4, 0x1.0677120000000p-3, -0x1.13d1360000000p-5, -0x1.340c900000000p-4, -0x1.1c477a0000000p-4, 0x1.811fa60000000p-4, -0x1.1d71f80000000p-5, 0x1.65a16c0000000p-4, -0x1.0e94e40000000p-3, 0x1.32da0a0000000p-4, -0x1.4a265c0000000p-6, -0x1.5dd8180000000p-5, 0x1.0289f60000000p-5, 0x1.6e2ac60000000p-4, -0x1.4d2c2a0000000p-4, -0x1.5a06160000000p-3, 0x1.24596e0000000p-4, -0x1.8f4e1c0000000p-8, -0x1.1ccc480000000p-3, 0x1.2875740000000p-4, -0x1.0e122a0000000p-5, 0x1.2a38f20000000p-5, 0x1.e955060000000p-6, -0x1.009a360000000p-5, 0x1.5d24be0000000p-5, 0x1.10c73a0000000p-3, 0x1.a7b4700000000p-6, -0x1.54536a0000000p-4, 0x1.56d3700000000p-5, 0x1.ab3da20000000p-4, 0x1.10a4f40000000p-6, -0x1.00db320000000p-3, -0x1.34b8900000000p-6, 0x1.d20b360000000p-4, -0x1.cf1c780000000p-7, 0x1.1c01fc0000000p-5, 0x1.6d73800000000p-6, 0x1.0f05f00000000p-7, 0x1.f630920000000p-7, -0x1.38d1e00000000p-5, 0x1.f267500000000p-6, 0x1.3d85420000000p-4, 0x1.c4367c0000000p-4, 0x1.56c5860000000p-4, 0x1.aea0500000000p-6, 0x1.20792e0000000p-3, -0x1.45b8720000000p-4, -0x1.526de40000000p-5, 0x1.45de000000000p-4, 0x1.6fb1780000000p-6, 0x1.5a3a480000000p-5, -0x1.f1e3c20000000p-6, 0x1.bdd95c0000000p-7, 0x1.4641120000000p-5, -0x1.84083e0000000p-5, -0x1.0d3f8c0000000p-4, 0x1.6f29e80000000p-4, 0x1.28a46e0000000p-4, 0x1.35ba7a0000000p-4, 0x1.36cb860000000p-6, 0x1.0ad8180000000p-5, -0x1.40bb100000000p-5, -0x1.7e1ec20000000p-4, -0x1.dcb1de0000000p-4, 0x1.970fea0000000p-5, -0x1.01ebfc0000000p-4, -0x1.3730800000000p-7, -0x1.2a2fce0000000p-6, 0x1.778e420000000p-4, 0x1.5299cc0000000p-4, 0x1.0767460000000p-5, -0x1.97663a0000000p-6, 0x1.724ec20000000p-5, -0x1.3b276e0000000p-5, 0x1.2d6e9e0000000p-4, 0x1.61ada60000000p-6, 0x1.eb80580000000p-6, -0x1.21f59c0000000p-3, -0x1.1078720000000p-5, -0x1.ae01480000000p-4, 0x1.e195dc0000000p-6, 0x1.8a83ec0000000p-6, -0x1.ccf91c0000000p-4, 0x1.9b978a0000000p-4, 0x1.8cfce80000000p-5, 0x1.f710e00000000p-6, -0x1.ccf5220000000p-5, -0x1.5284fe0000000p-4, 0x1.184e400000000p-4, -0x1.64e80c0000000p-8, -0x1.4686760000000p-6, 0x1.6243aa0000000p-6, 0x1.02872c0000000p-4, -0x1.ceb3620000000p-9, -0x1.8be6cc0000000p-6, -0x1.40d3c60000000p-3, 0x1.b3c29e0000000p-5, -0x1.cab04c0000000p-8, -0x1.3145500000000p-3, -0x1.e250da0000000p-7, -0x1.27b5980000000p-4, 0x1.dce11a0000000p-6, -0x1.54dad80000000p-5, -0x1.0563860000000p-6, -0x1.dc543a0000000p-8, -0x1.d9eda40000000p-7, 0x1.83263e0000000p-9, 0x1.2c76a80000000p-5, 0x1.0db4720000000p-3, -0x1.b77ffe0000000p-5, 0x1.03b11c0000000p-4, -0x1.2dc2380000000p-3, -0x1.f475520000000p-5, -0x1.f401ee0000000p-5, 0x1.3f14b80000000p-7, -0x1.1053160000000p-6, -0x1.0347320000000p-7, 0x1.5e2bd60000000p-4, -0x1.22e4340000000p-4, 0x1.2893700000000p-7, 0x1.a58cd80000000p-4, 0x1.9394680000000p-6, 0x1.501cae0000000p-4, 0x1.2768100000000p-4, 0x1.14f2240000000p-3, 0x1.d8219e0000000p-4, 0x1.cdcf4c0000000p-4, -0x1.96a88e0000000p-4, -0x1.85c5fe0000000p-4, -0x1.0a2b760000000p-6, 0x1.7d31440000000p-8, -0x1.4dc8760000000p-6, 0x1.19d1460000000p-4, -0x1.f47fac0000000p-6, -0x1.60da9c0000000p-5, -0x1.8e65440000000p-6, -0x1.5743420000000p-5}
, {-0x1.6edc160000000p-4, -0x1.ed582e0000000p-5, -0x1.18b10a0000000p-6, -0x1.4cfec00000000p-5, -0x1.3f51820000000p-4, 0x1.32ce880000000p-8, 0x1.93e6240000000p-4, 0x1.e128bc0000000p-5, 0x1.2ba70c0000000p-6, -0x1.d55b7c0000000p-5, -0x1.5f0cf40000000p-11, -0x1.4f53920000000p-5, -0x1.23e4860000000p-5, -0x1.011f920000000p-5, -0x1.81c7180000000p-5, -0x1.2336860000000p-5, -0x1.8620380000000p-4, -0x1.3f64a00000000p-5, 0x1.164d980000000p-5, -0x1.4029000000000p-4, -0x1.bf3ba00000000p-6, -0x1.054c1e0000000p-5, -0x1.badc860000000p-5, 0x1.0ba1940000000p-4, -0x1.a134b40000000p-3, 0x1.75521c0000000p-4, -0x1.c59f3c0000000p-5, -0x1.f669de0000000p-6, -0x1.1ab58e0000000p-7, -0x1.bdd7280000000p-5, 0x1.06107c0000000p-4, 0x1.d49bc20000000p-7, 0x1.f38d9e0000000p-6, 0x1.8c6c160000000p-5, -0x1.df5ad20000000p-4, -0x1.272bbe0000000p-8, 0x1.11f53a0000000p-7, 0x1.4c8bfe0000000p-5, -0x1.5aeed00000000p-8, 0x1.f39c1a0000000p-7, -0x1.0d9aa00000000p-8, 0x1.c3d9500000000p-5, 0x1.21b5120000000p-6, -0x1.3040aa0000000p-6, 0x1.5fe0000000000p-4, -0x1.d54e5e0000000p-9, 0x1.a2f92e0000000p-7, 0x1.41e5b40000000p-3, -0x1.dd6bfa0000000p-5, -0x1.1379420000000p-5, -0x1.515a420000000p-5, 0x1.e9c9080000000p-5, 0x1.275b220000000p-5, 0x1.9d521c0000000p-8, 0x1.53f72a0000000p-5, 0x1.126fba0000000p-3, -0x1.31b79c0000000p-4, -0x1.8f05b40000000p-5, 0x1.3f61900000000p-4, -0x1.93c02e0000000p-5, 0x1.49a7aa0000000p-6, -0x1.a656900000000p-5, 0x1.7f927c0000000p-5, 0x1.d4d5520000000p-4, -0x1.791abc0000000p-4, -0x1.5a87fe0000000p-3, 0x1.c8a0e80000000p-6, -0x1.01ca560000000p-4, 0x1.935f8a0000000p-7, 0x1.a070600000000p-5, -0x1.6523c40000000p-6, -0x1.0349c20000000p-4, -0x1.4ddc640000000p-5, -0x1.b8d41a0000000p-9, 0x1.4457920000000p-5, 0x1.040f4a0000000p-6, -0x1.7816940000000p-7, -0x1.5e7c4a0000000p-4, -0x1.6944b80000000p-6, 0x1.6edc2c0000000p-4, 0x1.8ba3900000000p-4, -0x1.7b892c0000000p-6, 0x1.10065a0000000p-5, 0x1.526f7a0000000p-5, -0x1.61ae700000000p-5, 0x1.7cee1e0000000p-4, 0x1.c303220000000p-6, -0x1.292ba20000000p-6, 0x1.da2e940000000p-4, 0x1.edf75a0000000p-5, 0x1.35cb780000000p-5, 0x1.5567c80000000p-5, -0x1.607ede0000000p-6, 0x1.03e1600000000p-3, -0x1.d2ec0c0000000p-5, 0x1.191c800000000p-6, 0x1.d0288e0000000p-4, -0x1.1d81040000000p-6, -0x1.121d660000000p-4, -0x1.024d1e0000000p-4, 0x1.85f7d40000000p-5, -0x1.1590660000000p-6, 0x1.674c320000000p-6, 0x1.d30df60000000p-4, 0x1.4487600000000p-4, 0x1.f37a900000000p-7, 0x1.1427260000000p-3, -0x1.11dc280000000p-4, -0x1.e4d7500000000p-6, -0x1.ec4a220000000p-9, 0x1.3f4f320000000p-4, 0x1.9f649e0000000p-4, 0x1.3939480000000p-3, -0x1.8fba720000000p-5, -0x1.683de60000000p-7, 0x1.36c7fc0000000p-4, 0x1.325e2a0000000p-5, -0x1.d34f120000000p-5, -0x1.2143800000000p-8, 0x1.bf09080000000p-4, -0x1.4787fa0000000p-6, 0x1.abe5720000000p-6, 0x1.96a3c00000000p-4, 0x1.9698800000000p-6, 0x1.4f7de00000000p-8, 0x1.5fb70c0000000p-4, -0x1.bb1e3c0000000p-7, 0x1.3fdbc00000000p-6, 0x1.a5fff60000000p-4, 0x1.99ac000000000p-5, -0x1.208de40000000p-10, 0x1.1a7b260000000p-4, 0x1.734b960000000p-7, -0x1.b97ba20000000p-7, -0x1.c585700000000p-7, 0x1.5188800000000p-3, 0x1.0cf0940000000p-4, -0x1.3bf23e0000000p-4, 0x1.273bfa0000000p-6, 0x1.e9f8c80000000p-4, 0x1.e502ba0000000p-6, 0x1.68c4ec0000000p-7, 0x1.04a1dc0000000p-4, 0x1.458a7a0000000p-7, 0x1.9206e60000000p-8, -0x1.1247440000000p-3, 0x1.4251a80000000p-5, 0x1.b5abac0000000p-7, -0x1.3b8ad80000000p-4, 0x1.ecb1c40000000p-7, 0x1.1f6ada0000000p-5, 0x1.bab73c0000000p-5, 0x1.dbafec0000000p-4, -0x1.3696300000000p-5, -0x1.ce22400000000p-7, 0x1.4aab720000000p-5, -0x1.1126a00000000p-5, 0x1.63efd00000000p-5, -0x1.7160ea0000000p-4, -0x1.a2e8ee0000000p-6, 0x1.aa799e0000000p-9, -0x1.08a4a20000000p-3, -0x1.06cdd80000000p-6, 0x1.4fca5a0000000p-5, -0x1.5b6c980000000p-4, 0x1.c72eac0000000p-7, -0x1.b461260000000p-4, 0x1.64fe100000000p-4, 0x1.5a9d900000000p-3, -0x1.dc3bcc0000000p-5, -0x1.6e40340000000p-6, -0x1.28b4820000000p-4, 0x1.686a1e0000000p-4, 0x1.49407a0000000p-3, -0x1.969fae0000000p-4, -0x1.ffb5dc0000000p-5, 0x1.3cb77e0000000p-8, -0x1.32ac9c0000000p-5, -0x1.1a51380000000p-3, 0x1.5555fe0000000p-3, -0x1.ce0afc0000000p-6, -0x1.ab8b3c0000000p-4, 0x1.f5305c0000000p-6, -0x1.07a94c0000000p-7, 0x1.8753340000000p-4, -0x1.337a360000000p-4, 0x1.2278b40000000p-5, 0x1.ae49560000000p-4, -0x1.a7fadc0000000p-5, 0x1.f7b0460000000p-4, -0x1.f3a5340000000p-6, -0x1.33e38c0000000p-5, 0x1.0bcc4a0000000p-4, 0x1.d1df4a0000000p-4, -0x1.0d78da0000000p-5, 0x1.ae86040000000p-4, -0x1.ab784c0000000p-4, -0x1.9971160000000p-6, -0x1.7e693a0000000p-4, -0x1.3dad540000000p-10, 0x1.62ca0a0000000p-4, 0x1.c541460000000p-9, 0x1.532d920000000p-5, 0x1.b6e77c0000000p-7, -0x1.62536e0000000p-5, -0x1.f177620000000p-6, -0x1.81d8240000000p-4, -0x1.55cfbc0000000p-6, 0x1.8bbbb20000000p-6, -0x1.b0f5220000000p-5, 0x1.2e4d5c0000000p-8, 0x1.d37ddc0000000p-5, -0x1.13004a0000000p-3, 0x1.7f7ddc0000000p-5, -0x1.21f8e80000000p-3, 0x1.beda300000000p-4, 0x1.3faa7e0000000p-5, -0x1.f440120000000p-4, 0x1.551c220000000p-8, 0x1.1dd7f60000000p-4, 0x1.1a31e60000000p-3, 0x1.dd2fe80000000p-4, 0x1.e7d30a0000000p-4, -0x1.60dc120000000p-8, -0x1.1b866e0000000p-4, 0x1.626f220000000p-4, 0x1.2f0c720000000p-4, 0x1.e966780000000p-6, -0x1.7064ba0000000p-4, -0x1.06e4f40000000p-7, -0x1.7a6f8a0000000p-5, -0x1.2036e00000000p-7, 0x1.0df2e00000000p-4, 0x1.d984480000000p-6, 0x1.30ac960000000p-4, 0x1.46b1b80000000p-5, 0x1.366e380000000p-3, 0x1.d2086e0000000p-4, 0x1.1d3bb40000000p-6, 0x1.42e4be0000000p-5, 0x1.8ca56c0000000p-7, -0x1.ea7ca00000000p-6, 0x1.fc6c4a0000000p-5, 0x1.3147b20000000p-4, -0x1.ccba280000000p-3, 0x1.791fb20000000p-7, -0x1.43088a0000000p-6, 0x1.ba0f0a0000000p-8, 0x1.8dea1a0000000p-4, -0x1.78378e0000000p-4, -0x1.3adcbc0000000p-5, -0x1.0677280000000p-4, 0x1.7d1f3a0000000p-6, -0x1.145ee20000000p-4, 0x1.6f289c0000000p-9, -0x1.6f3f120000000p-6, -0x1.224b540000000p-4, 0x1.8f851c0000000p-4, -0x1.8967920000000p-4, 0x1.82b39a0000000p-4, -0x1.92a77c0000000p-8, 0x1.34ba3e0000000p-9, -0x1.2c59cc0000000p-4, 0x1.f0c3540000000p-5, 0x1.b0fb520000000p-4, -0x1.9e00f80000000p-4, 0x1.4e1c1e0000000p-5, 0x1.3b75d20000000p-6, 0x1.56e0180000000p-4, 0x1.100e760000000p-3, 0x1.e6deee0000000p-6, 0x1.e2fc2e0000000p-10, 0x1.fbcc520000000p-8, 0x1.20efee0000000p-5, 0x1.d6f5820000000p-4, 0x1.260ca40000000p-4, 0x1.0a45520000000p-8, 0x1.0cbc840000000p-6, -0x1.94ca980000000p-6, -0x1.3e52b40000000p-6, 0x1.4f40160000000p-5, 0x1.66f7800000000p-6, 0x1.c8eccc0000000p-6, -0x1.87aa660000000p-4, 0x1.9f0ee20000000p-4, 0x1.22c9360000000p-4, 0x1.fe76c80000000p-6, 0x1.7c845a0000000p-9, 0x1.5ac65e0000000p-4, -0x1.72ca820000000p-7, 0x1.9241360000000p-6, -0x1.89e7420000000p-6, -0x1.feea2a0000000p-5, 0x1.046f160000000p-4, -0x1.049fe60000000p-3, 0x1.f428500000000p-8, 0x1.1789fe0000000p-4, -0x1.f277fa0000000p-5, -0x1.bba1560000000p-5, -0x1.0ca6200000000p-3, 0x1.b20cbe0000000p-7, 0x1.8637740000000p-5, 0x1.41c0420000000p-6, 0x1.7c69080000000p-4, -0x1.6731800000000p-5, 0x1.1570820000000p-4, 0x1.35babc0000000p-4, 0x1.8ef7400000000p-11, -0x1.8d8dac0000000p-13, 0x1.037bae0000000p-5, 0x1.4bf4060000000p-5, -0x1.32229e0000000p-5, -0x1.a791fa0000000p-6, 0x1.55e0fe0000000p-6, 0x1.5996f60000000p-4, -0x1.a731760000000p-6, -0x1.820c260000000p-5, -0x1.0d26b00000000p-4, -0x1.f236300000000p-5, 0x1.6784360000000p-4, -0x1.771bd80000000p-5, 0x1.d7bcac0000000p-5, 0x1.b34fe20000000p-6, -0x1.a2884c0000000p-4, -0x1.f7ff120000000p-4, -0x1.c811dc0000000p-5, 0x1.2916540000000p-7, -0x1.36912c0000000p-6, 0x1.3cc56e0000000p-4, -0x1.94ef900000000p-6, -0x1.8123420000000p-4, -0x1.39bdbc0000000p-3, -0x1.6067be0000000p-6, 0x1.114eda0000000p-8, -0x1.e004860000000p-6, -0x1.bb28de0000000p-4, 0x1.969f1a0000000p-7, -0x1.f84f7c0000000p-8, 0x1.90822c0000000p-6, -0x1.3730e20000000p-6, -0x1.9988c20000000p-5, -0x1.9ff5ce0000000p-5, -0x1.64e2620000000p-3, 0x1.29baba0000000p-3, 0x1.e67a740000000p-7, -0x1.09a29e0000000p-4, -0x1.c8f96a0000000p-7, -0x1.1424620000000p-3, -0x1.1468c80000000p-5, -0x1.43f08a0000000p-5, -0x1.651fc40000000p-5, -0x1.5cb9160000000p-4, 0x1.019bcc0000000p-4, -0x1.7e268c0000000p-4, 0x1.e45e520000000p-5, -0x1.0d9f2c0000000p-5, -0x1.9b07760000000p-6, -0x1.17cf080000000p-4, -0x1.dd53560000000p-5, 0x1.fb27380000000p-5, 0x1.00ca020000000p-4, -0x1.0f6c7a0000000p-5, -0x1.ebb4960000000p-6, 0x1.2b0fac0000000p-8, -0x1.fee9020000000p-5, -0x1.326b5a0000000p-4, -0x1.99b71e0000000p-5, -0x1.590fe00000000p-4, 0x1.b374c00000000p-5, -0x1.000e920000000p-3, 0x1.dce4fe0000000p-4, 0x1.7e79540000000p-5, -0x1.6c81e20000000p-4, -0x1.ce1b4a0000000p-4, -0x1.f10a6e0000000p-5, 0x1.502fb60000000p-5, -0x1.5a2d500000000p-5, 0x1.dba7e80000000p-5, -0x1.b47f0e0000000p-5, 0x1.c6fa4e0000000p-6, -0x1.8adaac0000000p-6, -0x1.6fb5600000000p-4, 0x1.c725e60000000p-5, 0x1.8d2e980000000p-5, -0x1.cf99c80000000p-14, -0x1.16859c0000000p-7, 0x1.db5d440000000p-6, 0x1.9c3a4e0000000p-6, -0x1.32edb40000000p-5, 0x1.8e0e320000000p-6, -0x1.cdd14a0000000p-8, -0x1.5f84020000000p-4, -0x1.7ec3a00000000p-8, -0x1.5942e60000000p-4, -0x1.69dffc0000000p-4, 0x1.67dbc60000000p-5, 0x1.af2b540000000p-5, 0x1.f591ae0000000p-7, -0x1.6a02160000000p-4, -0x1.b749ee0000000p-4}
, {0x1.0bcc200000000p-5, -0x1.8f98da0000000p-5, 0x1.9fa1a00000000p-5, 0x1.250d580000000p-5, 0x1.4d5b6a0000000p-4, 0x1.d222c00000000p-4, -0x1.136fc40000000p-5, 0x1.e0d7440000000p-8, 0x1.2111140000000p-6, 0x1.1af29a0000000p-4, 0x1.06b4e60000000p-4, -0x1.7376560000000p-5, 0x1.17026c0000000p-6, -0x1.3970720000000p-5, -0x1.5e83900000000p-6, -0x1.8d260e0000000p-4, -0x1.2c0ac40000000p-4, 0x1.ac2f0a0000000p-5, 0x1.0155140000000p-5, 0x1.9d414c0000000p-5, 0x1.79216e0000000p-6, 0x1.3488580000000p-6, 0x1.847c680000000p-5, -0x1.883ef00000000p-4, -0x1.000a920000000p-5, -0x1.77918a0000000p-4, 0x1.74ff7e0000000p-6, -0x1.0862a60000000p-3, -0x1.2fc7940000000p-5, -0x1.7e17c80000000p-5, 0x1.2bc96a0000000p-5, -0x1.f46b8e0000000p-4, 0x1.29fb360000000p-5, 0x1.898f6e0000000p-4, 0x1.e6ef020000000p-5, -0x1.9ff9700000000p-7, 0x1.dec4500000000p-6, -0x1.a714ce0000000p-7, -0x1.4f7ef80000000p-6, -0x1.79fa200000000p-4, 0x1.b72c9e0000000p-4, -0x1.2846de0000000p-5, 0x1.5af7780000000p-5, -0x1.3988200000000p-5, -0x1.869adc0000000p-5, 0x1.1cd06a0000000p-4, -0x1.3877c60000000p-4, 0x1.34b9440000000p-6, 0x1.6dacae0000000p-5, -0x1.1d73a00000000p-4, 0x1.442aee0000000p-4, 0x1.27afda0000000p-6, 0x1.3a0d560000000p-6, -0x1.c9d58c0000000p-7, 0x1.773be00000000p-5, 0x1.cb4fe00000000p-5, 0x1.819b400000000p-4, -0x1.7446d00000000p-5, -0x1.0f59cc0000000p-4, 0x1.53c9440000000p-4, 0x1.6a67800000000p-20, 0x1.2f58000000000p-7, -0x1.7dcfae0000000p-5, -0x1.114f220000000p-4, 0x1.5cfe880000000p-7, -0x1.03e2880000000p-3, -0x1.608de60000000p-6, -0x1.95c4ec0000000p-6, -0x1.6792ee0000000p-4, 0x1.d099700000000p-8, -0x1.88fce60000000p-4, 0x1.706eb80000000p-5, -0x1.3c110e0000000p-4, -0x1.d916920000000p-5, -0x1.46859c0000000p-6, 0x1.4a50060000000p-9, -0x1.de97b20000000p-5, -0x1.41b9cc0000000p-7, -0x1.30a1120000000p-3, -0x1.883e6e0000000p-6, 0x1.dbdb200000000p-4, 0x1.c5c65e0000000p-7, 0x1.c105720000000p-6, -0x1.c620f80000000p-5, -0x1.4e6b5e0000000p-5, -0x1.2b11e20000000p-4, 0x1.3b6d0a0000000p-4, 0x1.3a3af00000000p-5, -0x1.c6a2a00000000p-6, -0x1.a56f100000000p-5, -0x1.5213d20000000p-4, -0x1.0b51400000000p-4, 0x1.882b6e0000000p-4, 0x1.c5aa580000000p-8, 0x1.d0825a0000000p-7, -0x1.ed35280000000p-7, 0x1.521d580000000p-6, -0x1.47a1d40000000p-5, -0x1.5e2f320000000p-4, 0x1.1c8f060000000p-6, 0x1.386e180000000p-5, 0x1.231c5e0000000p-4, -0x1.f5ed260000000p-7, -0x1.09495c0000000p-8, -0x1.69dcb40000000p-4, 0x1.95611a0000000p-7, -0x1.c039fa0000000p-4, -0x1.0000e40000000p-5, 0x1.35de140000000p-6, -0x1.de893e0000000p-5, 0x1.b5897c0000000p-5, 0x1.99875e0000000p-10, -0x1.1a32680000000p-9, 0x1.55c4780000000p-5, -0x1.d7fdc80000000p-10, 0x1.3b54240000000p-5, -0x1.3566400000000p-5, 0x1.247ade0000000p-4, 0x1.2ba5fa0000000p-5, 0x1.18cddc0000000p-6, 0x1.950b460000000p-4, -0x1.af2c4e0000000p-4, -0x1.1b49620000000p-4, -0x1.168a100000000p-4, 0x1.4b6f920000000p-6, -0x1.6fc3b40000000p-6, 0x1.b8774e0000000p-5, 0x1.ba2ab80000000p-5, 0x1.458ebc0000000p-4, -0x1.7b1e400000000p-4, -0x1.4af6ca0000000p-4, -0x1.c8824e0000000p-6, -0x1.9e8e860000000p-6, 0x1.33997c0000000p-4, 0x1.7e3e380000000p-5, -0x1.ead5800000000p-8, 0x1.eb3f100000000p-5, -0x1.25c9440000000p-4, -0x1.680bc20000000p-4, 0x1.0253040000000p-3, -0x1.acbe440000000p-5, 0x1.bf88680000000p-5, -0x1.959db00000000p-4, -0x1.be3dec0000000p-4, 0x1.1b0e660000000p-4, -0x1.b18c400000000p-4, 0x1.710c760000000p-6, -0x1.19cfda0000000p-6, -0x1.3ecd400000000p-5, -0x1.3bf8b80000000p-3, -0x1.529b7a0000000p-4, 0x1.fd43680000000p-8, -0x1.a152d40000000p-5, -0x1.7e92120000000p-5, -0x1.d6963c0000000p-6, 0x1.09e2420000000p-8, 0x1.f6885a0000000p-4, -0x1.8dfb360000000p-5, -0x1.baa8400000000p-3, -0x1.3221760000000p-3, 0x1.ec65340000000p-8, -0x1.ed9c4c0000000p-4, 0x1.5e91ce0000000p-8, -0x1.1117320000000p-5, 0x1.b16d280000000p-5, -0x1.4286b80000000p-3, 0x1.107c9a0000000p-4, -0x1.747ae20000000p-4, 0x1.2cfa3a0000000p-9, 0x1.43fcd60000000p-4, 0x1.ead2a60000000p-6, 0x1.f873e40000000p-5, -0x1.ebb0ba0000000p-12, 0x1.8957440000000p-5, -0x1.4ab1360000000p-3, -0x1.5c64a80000000p-7, -0x1.de68ec0000000p-6, 0x1.57d6ce0000000p-7, 0x1.135fc00000000p-3, -0x1.5fc1e40000000p-7, -0x1.c32f600000000p-6, -0x1.04b0ee0000000p-5, -0x1.7c0bf00000000p-4, -0x1.4b2e120000000p-3, -0x1.c92b980000000p-4, -0x1.c2817c0000000p-8, 0x1.86fdee0000000p-9, 0x1.3a14320000000p-4, -0x1.2a566a0000000p-5, 0x1.6968f60000000p-7, 0x1.a4cc360000000p-5, 0x1.1734620000000p-3, 0x1.fc16b20000000p-5, 0x1.9c3a9c0000000p-4, -0x1.3d6e000000000p-3, 0x1.10e2600000000p-4, 0x1.8cf2760000000p-5, -0x1.1169980000000p-5, 0x1.8c75760000000p-6, -0x1.004aa80000000p-4, 0x1.2939800000000p-3, -0x1.5f798e0000000p-3, 0x1.2a94c40000000p-6, -0x1.10c2760000000p-3, 0x1.b4557c0000000p-5, -0x1.ee76020000000p-8, 0x1.e3924e0000000p-4, -0x1.4625a80000000p-4, 0x1.7fc4520000000p-5, -0x1.c8adbc0000000p-6, 0x1.3d4e7e0000000p-5, 0x1.6569d00000000p-7, -0x1.7c11160000000p-4, -0x1.614dc20000000p-6, -0x1.19e0940000000p-4, -0x1.9e7ad20000000p-5, 0x1.270ddc0000000p-5, 0x1.39b64e0000000p-8, -0x1.51971a0000000p-4, -0x1.61f8300000000p-6, 0x1.bf7bfc0000000p-4, 0x1.5c98ee0000000p-5, 0x1.6dc9660000000p-4, -0x1.7701b20000000p-5, 0x1.4a125a0000000p-7, -0x1.15bdb40000000p-5, 0x1.8de6420000000p-6, -0x1.bf0f1e0000000p-5, -0x1.3bbc640000000p-3, 0x1.0b34e00000000p-6, -0x1.4908b20000000p-4, -0x1.3b13920000000p-5, -0x1.30dfc80000000p-6, -0x1.304b760000000p-5, -0x1.6b50900000000p-4, 0x1.16d3b00000000p-4, 0x1.934f080000000p-6, -0x1.f8a0200000000p-7, -0x1.1071540000000p-4, -0x1.804caa0000000p-6, 0x1.5213360000000p-6, -0x1.8d61860000000p-4, -0x1.5d2dba0000000p-4, 0x1.0654400000000p-5, -0x1.3510fe0000000p-6, 0x1.afba580000000p-6, 0x1.349ea40000000p-4, -0x1.1026480000000p-4, -0x1.8720ce0000000p-6, -0x1.d1c57a0000000p-5, 0x1.2057f00000000p-4, 0x1.df5c380000000p-4, -0x1.508a400000000p-5, -0x1.f974520000000p-7, -0x1.a650c80000000p-5, -0x1.4c0d7c0000000p-5, -0x1.49b0700000000p-5, -0x1.852fd40000000p-10, -0x1.6abbc20000000p-3, 0x1.8adb040000000p-5, -0x1.63196c0000000p-5, -0x1.993efe0000000p-6, -0x1.fbc72a0000000p-7, -0x1.09eb160000000p-3, -0x1.d81cd40000000p-5, -0x1.32328a0000000p-6, 0x1.0ab57e0000000p-4, 0x1.8dbed00000000p-6, -0x1.9a2db00000000p-3, 0x1.29d12c0000000p-7, -0x1.1023b60000000p-4, 0x1.37f1a40000000p-4, -0x1.d984c60000000p-4, 0x1.6df76a0000000p-4, -0x1.76408e0000000p-4, -0x1.ce209e0000000p-5, -0x1.b2a7140000000p-4, 0x1.45e9dc0000000p-6, -0x1.b351660000000p-8, -0x1.0768660000000p-5, -0x1.0bd9c80000000p-7, 0x1.7fcc3c0000000p-6, 0x1.00e5260000000p-4, -0x1.9faa9e0000000p-5, -0x1.71340e0000000p-3, -0x1.e081400000000p-7, -0x1.d4da580000000p-4, 0x1.954c580000000p-5, -0x1.eb01320000000p-5, -0x1.ba557e0000000p-5, 0x1.b37c7e0000000p-7, 0x1.6577e80000000p-6, 0x1.7726cc0000000p-5, -0x1.0b42f20000000p-5, -0x1.eedbac0000000p-7, -0x1.a93fb80000000p-6, -0x1.357ffa0000000p-7, -0x1.af928e0000000p-5, 0x1.7c157e0000000p-5, 0x1.27f07c0000000p-7, -0x1.34019e0000000p-6, 0x1.6a19440000000p-5, -0x1.1024940000000p-5, -0x1.0fdf520000000p-5, 0x1.9a4ce80000000p-5, -0x1.4b10d60000000p-3, 0x1.b6c8300000000p-8, 0x1.27b2840000000p-9, 0x1.68ec120000000p-6, 0x1.785bfe0000000p-10, 0x1.cffe6a0000000p-5, -0x1.41e3a20000000p-5, -0x1.9a6cf00000000p-4, -0x1.2678980000000p-5, -0x1.5187e40000000p-4, 0x1.55a1b80000000p-7, -0x1.f65cec0000000p-5, 0x1.0437fe0000000p-4, -0x1.9647e00000000p-5, -0x1.4400d00000000p-4, -0x1.5a32e20000000p-7, -0x1.f20e9a0000000p-5, 0x1.c011a40000000p-4, -0x1.1482f80000000p-6, 0x1.50a1ba0000000p-3, 0x1.971bb80000000p-11, 0x1.cff0e60000000p-5, 0x1.d9610e0000000p-4, 0x1.9a721e0000000p-4, 0x1.3919660000000p-5, 0x1.4973240000000p-4, -0x1.39ffd40000000p-9, 0x1.7458e80000000p-4, 0x1.438eba0000000p-3, -0x1.3ccd7c0000000p-6, 0x1.6af6f20000000p-6, -0x1.d101820000000p-7, -0x1.f3b09e0000000p-5, -0x1.a3b5600000000p-5, 0x1.1c12140000000p-6, 0x1.e98c900000000p-8, -0x1.6d709c0000000p-6, 0x1.d462d00000000p-4, 0x1.33fde00000000p-5, -0x1.e3d9d80000000p-8, 0x1.5308700000000p-5, 0x1.f9b0ee0000000p-5, 0x1.05b8f20000000p-3, 0x1.57bafe0000000p-6, 0x1.c215080000000p-4, -0x1.2b69d60000000p-6, 0x1.e66e060000000p-7, 0x1.3f8b6c0000000p-4, 0x1.b9e0420000000p-5, 0x1.cc18360000000p-9, -0x1.0a9dca0000000p-3, -0x1.33f7a80000000p-7, -0x1.eac0e80000000p-7, 0x1.da44bc0000000p-4, -0x1.65bea60000000p-8, 0x1.7ecca80000000p-8, 0x1.4b2ed40000000p-4, 0x1.cb154c0000000p-8, 0x1.6ca4ba0000000p-4, -0x1.4197de0000000p-5, -0x1.317d580000000p-5, 0x1.f6fb460000000p-6, -0x1.f3c4640000000p-6, -0x1.8f78440000000p-4, -0x1.6d01f60000000p-4, -0x1.3ed5360000000p-5, -0x1.323bde0000000p-4, -0x1.42eb4c0000000p-7, 0x1.6f16bc0000000p-5, 0x1.5ede2e0000000p-4, 0x1.8a98de0000000p-5, 0x1.c56ae20000000p-5, -0x1.9326e00000000p-6, 0x1.14c5700000000p-5, -0x1.c42c1e0000000p-5, 0x1.6bf49e0000000p-12, 0x1.6111c80000000p-5, 0x1.04384e0000000p-7, -0x1.21291c0000000p-5, -0x1.89b1c80000000p-6, -0x1.c796540000000p-5, 0x1.299b3c0000000p-6, -0x1.a09d480000000p-5, 0x1.4cd3ac0000000p-5, 0x1.20e0420000000p-4, 0x1.251dfc0000000p-4, 0x1.18f89c0000000p-6, -0x1.7855a40000000p-5, -0x1.228d240000000p-4, -0x1.cbdd0c0000000p-4, -0x1.d9fdfc0000000p-4, 0x1.0981b80000000p-6, -0x1.8144380000000p-4, -0x1.0ad2200000000p-4, 0x1.3dc1d00000000p-5}
, {0x1.180c6c0000000p-4, -0x1.7949d40000000p-6, 0x1.f2c3d60000000p-4, -0x1.169c340000000p-5, -0x1.a5cfb80000000p-4, 0x1.4f4d940000000p-7, -0x1.a755b60000000p-4, -0x1.5bce720000000p-5, -0x1.35fd1a0000000p-7, 0x1.a64d040000000p-6, 0x1.cea9e20000000p-5, 0x1.36faa60000000p-7, -0x1.ea5eb80000000p-6, 0x1.1964680000000p-4, -0x1.c5eb7a0000000p-6, 0x1.8fe9ee0000000p-5, 0x1.2ffc7e0000000p-5, 0x1.f595220000000p-6, 0x1.86450c0000000p-4, 0x1.06d1720000000p-3, 0x1.1c6e620000000p-4, 0x1.13a6ec0000000p-4, 0x1.2f32da0000000p-6, 0x1.40c1120000000p-4, 0x1.51cea00000000p-3, -0x1.11cb3e0000000p-4, 0x1.322c960000000p-3, 0x1.00c37a0000000p-3, 0x1.46d70a0000000p-4, 0x1.a4e4440000000p-6, 0x1.181d520000000p-5, 0x1.17e2140000000p-4, 0x1.0696040000000p-3, 0x1.012f1e0000000p-4, 0x1.cb67100000000p-6, 0x1.e671c00000000p-5, 0x1.6bcf180000000p-4, -0x1.3e1ea80000000p-4, 0x1.2848e40000000p-6, 0x1.bf24400000000p-5, 0x1.2e732e0000000p-8, -0x1.953edc0000000p-5, 0x1.b87d140000000p-7, 0x1.f552960000000p-4, -0x1.a4400a0000000p-5, -0x1.c449080000000p-8, 0x1.13c6d20000000p-12, 0x1.53345c0000000p-4, -0x1.8bd75a0000000p-5, -0x1.a6bde60000000p-5, 0x1.14fce40000000p-3, 0x1.0c6b7e0000000p-6, 0x1.9c3a220000000p-5, -0x1.c944080000000p-4, 0x1.09cdce0000000p-5, -0x1.e852340000000p-6, 0x1.2de4c00000000p-4, -0x1.c0ddba0000000p-5, -0x1.1a60d80000000p-4, -0x1.9206ce0000000p-5, 0x1.e5f4880000000p-5, -0x1.a66c9e0000000p-4, 0x1.1415aa0000000p-6, -0x1.b2fc860000000p-6, -0x1.08d9ec0000000p-4, -0x1.3cd2de0000000p-6, 0x1.7cc8560000000p-5, 0x1.f40ca40000000p-5, -0x1.b737080000000p-4, 0x1.1508c00000000p-3, -0x1.c543dc0000000p-5, 0x1.48f0820000000p-5, 0x1.e81dde0000000p-5, -0x1.eaebd00000000p-5, -0x1.28b6ce0000000p-5, 0x1.cae1020000000p-7, 0x1.2a106a0000000p-6, -0x1.33f4800000000p-5, 0x1.6a8cd20000000p-3, 0x1.e150ce0000000p-5, 0x1.9499ce0000000p-5, 0x1.b8f2640000000p-5, 0x1.fee4500000000p-6, -0x1.ceff380000000p-6, 0x1.aabbd00000000p-7, -0x1.2944560000000p-8, -0x1.270f0c0000000p-5, -0x1.a8aa4c0000000p-4, -0x1.3f52120000000p-6, -0x1.5f6f360000000p-4, 0x1.92dd7e0000000p-11, 0x1.dab3f00000000p-5, -0x1.fe723e0000000p-7, -0x1.d98b7c0000000p-5, 0x1.77c33c0000000p-5, -0x1.951f540000000p-5, 0x1.9ef15a0000000p-5, 0x1.37561a0000000p-4, -0x1.a986120000000p-6, 0x1.a489700000000p-5, -0x1.a3dbbe0000000p-6, 0x1.ddb3d00000000p-6, 0x1.4f183e0000000p-4, -0x1.8d84580000000p-6, -0x1.61cdf00000000p-5, -0x1.f517380000000p-7, 0x1.18c59c0000000p-5, -0x1.26266e0000000p-4, 0x1.043e820000000p-3, -0x1.f473b80000000p-5, -0x1.127cdc0000000p-5, -0x1.a0bf200000000p-7, -0x1.1260260000000p-5, 0x1.5462c00000000p-4, 0x1.7d61180000000p-6, 0x1.da84860000000p-5, -0x1.cf16a60000000p-5, -0x1.698fa60000000p-4, -0x1.5763240000000p-5, -0x1.4cff660000000p-5, -0x1.5d19200000000p-5, -0x1.d7e8240000000p-5, -0x1.b3db720000000p-6, 0x1.cef3220000000p-6, 0x1.5751e20000000p-6, 0x1.a773860000000p-7, 0x1.3918e00000000p-6, 0x1.3597400000000p-4, -0x1.11f8e80000000p-5, -0x1.2ad12a0000000p-4, 0x1.fe61860000000p-5, -0x1.216fb40000000p-4, 0x1.ddbd580000000p-8, -0x1.99eecc0000000p-7, 0x1.57541c0000000p-5, 0x1.5b4c120000000p-5, 0x1.c2052a0000000p-5, 0x1.4fe69c0000000p-4, -0x1.586a220000000p-4, 0x1.e76c180000000p-4, 0x1.7f4c2c0000000p-6, -0x1.8d6cc00000000p-5, 0x1.3d92ba0000000p-5, -0x1.868fb80000000p-4, -0x1.ce8dea0000000p-5, 0x1.d07e900000000p-5, 0x1.a16a8e0000000p-4, 0x1.18787e0000000p-5, -0x1.875e8e0000000p-5, -0x1.172c140000000p-7, 0x1.05cbb20000000p-4, 0x1.72fdec0000000p-4, -0x1.2794660000000p-3, -0x1.12e13a0000000p-5, -0x1.464ef60000000p-4, 0x1.d141660000000p-6, 0x1.d2f6b20000000p-4, 0x1.d38c6c0000000p-5, 0x1.5d69400000000p-4, -0x1.23e49e0000000p-4, 0x1.254a380000000p-6, 0x1.eb56240000000p-6, -0x1.40b0180000000p-6, -0x1.28b4f00000000p-5, -0x1.0aca0e0000000p-5, -0x1.6eb4220000000p-6, 0x1.25510c0000000p-5, -0x1.ec4cac0000000p-4, -0x1.0ca79e0000000p-3, 0x1.9c39bc0000000p-5, -0x1.75f3600000000p-4, -0x1.8653780000000p-5, -0x1.3ab9f00000000p-5, -0x1.b074f40000000p-5, 0x1.8aaa220000000p-5, -0x1.3bcf740000000p-6, -0x1.163cae0000000p-3, 0x1.045bb40000000p-4, -0x1.c518260000000p-8, -0x1.214a9e0000000p-4, 0x1.16f63c0000000p-4, 0x1.3005b00000000p-4, 0x1.3d8da00000000p-4, -0x1.4d5abe0000000p-4, -0x1.dd73900000000p-5, 0x1.547c240000000p-8, -0x1.79fb380000000p-4, -0x1.c2dbc00000000p-4, -0x1.2b68b40000000p-4, 0x1.ec0ee00000000p-6, 0x1.b15ee80000000p-6, 0x1.0051480000000p-4, -0x1.9789c20000000p-4, -0x1.3569220000000p-3, 0x1.79f8240000000p-3, -0x1.8ba1300000000p-4, -0x1.30fde40000000p-4, 0x1.8fbb6c0000000p-5, 0x1.da51b40000000p-4, 0x1.bda3840000000p-5, -0x1.0c2b500000000p-3, 0x1.076e7a0000000p-5, -0x1.acc8f40000000p-3, 0x1.8e1a860000000p-5, 0x1.f1291e0000000p-7, -0x1.460f2e0000000p-4, -0x1.598eea0000000p-7, -0x1.e37e8e0000000p-5, -0x1.473c620000000p-5, -0x1.1e64560000000p-4, -0x1.4a5c720000000p-4, -0x1.e55e460000000p-4, -0x1.97f8580000000p-6, 0x1.928d900000000p-7, -0x1.9b80100000000p-5, 0x1.ef054c0000000p-5, -0x1.d8345a0000000p-5, 0x1.a68c4a0000000p-5, -0x1.600cf40000000p-4, -0x1.5f54600000000p-5, 0x1.61a5f00000000p-5, -0x1.4812580000000p-5, 0x1.84dc7e0000000p-4, -0x1.5bc2640000000p-3, 0x1.060bcc0000000p-5, 0x1.ec25120000000p-5, -0x1.386e580000000p-6, 0x1.d02a8e0000000p-5, 0x1.d679c60000000p-4, 0x1.7b7cfe0000000p-6, -0x1.e90ad40000000p-4, -0x1.cc35840000000p-6, 0x1.4f4a080000000p-5, -0x1.dd661a0000000p-7, 0x1.41b9a80000000p-4, -0x1.187d860000000p-6, -0x1.630aba0000000p-7, 0x1.28120c0000000p-6, -0x1.b0f0fe0000000p-10, 0x1.76eb000000000p-8, -0x1.5a106c0000000p-5, 0x1.33ae0c0000000p-8, -0x1.c7bf3c0000000p-6, -0x1.a4ab4a0000000p-4, -0x1.4472d20000000p-10, -0x1.12cce00000000p-7, 0x1.969f8c0000000p-6, -0x1.b69de00000000p-7, -0x1.95208a0000000p-4, -0x1.a2bf120000000p-4, 0x1.d340800000000p-7, -0x1.08cc760000000p-4, 0x1.8499be0000000p-6, -0x1.3620980000000p-4, 0x1.a740e60000000p-4, 0x1.6f71020000000p-5, -0x1.7811d20000000p-5, 0x1.0e7d780000000p-5, -0x1.99598e0000000p-6, 0x1.80887a0000000p-7, 0x1.f357520000000p-4, 0x1.91c8460000000p-4, 0x1.bd2f1a0000000p-4, 0x1.7d1cf00000000p-9, -0x1.eb57e80000000p-11, 0x1.9ce04c0000000p-6, -0x1.7e14460000000p-7, -0x1.ce100e0000000p-7, -0x1.b97f500000000p-6, -0x1.e023640000000p-5, 0x1.3d7a200000000p-6, -0x1.832c1e0000000p-7, -0x1.5f97000000000p-9, -0x1.c15e2c0000000p-5, 0x1.63c9b40000000p-5, -0x1.ed05140000000p-4, 0x1.4149de0000000p-4, 0x1.33b4780000000p-4, 0x1.abbdb20000000p-4, 0x1.a3f0180000000p-4, 0x1.d62ce60000000p-6, 0x1.76cc720000000p-5, -0x1.0e70b40000000p-4, -0x1.d0a8360000000p-5, 0x1.5d14080000000p-4, 0x1.3a54660000000p-5, -0x1.3e7e8c0000000p-5, -0x1.3e81e00000000p-7, 0x1.899e620000000p-8, 0x1.8a74460000000p-4, 0x1.6e41a40000000p-5, 0x1.6f88120000000p-4, 0x1.7d95e40000000p-5, 0x1.9edb0c0000000p-10, -0x1.e3977e0000000p-4, -0x1.e736500000000p-5, -0x1.2dc8520000000p-7, 0x1.7e2d2e0000000p-7, 0x1.9ec26a0000000p-7, -0x1.67ff820000000p-5, 0x1.030ff80000000p-4, 0x1.3e55ac0000000p-5, 0x1.9c67960000000p-5, -0x1.c0dff00000000p-5, 0x1.fd44240000000p-5, 0x1.389b920000000p-3, -0x1.d08fca0000000p-7, 0x1.5a78f40000000p-5, 0x1.85b3b20000000p-6, 0x1.ad45c80000000p-4, 0x1.0177520000000p-11, -0x1.c89d400000000p-5, 0x1.f9c3100000000p-5, -0x1.19bad00000000p-4, 0x1.0e32bc0000000p-4, 0x1.c06a9e0000000p-8, -0x1.89634a0000000p-9, 0x1.b9c3c20000000p-9, 0x1.110d7e0000000p-3, 0x1.0b0d7c0000000p-3, -0x1.3371d00000000p-6, 0x1.05699c0000000p-5, -0x1.4d991c0000000p-5, -0x1.ff0a100000000p-4, -0x1.6e08460000000p-4, 0x1.5187ca0000000p-6, 0x1.c6342a0000000p-10, 0x1.b5424c0000000p-4, -0x1.a83d040000000p-4, 0x1.8605180000000p-5, 0x1.83089a0000000p-6, 0x1.6dd7080000000p-4, 0x1.91c50e0000000p-6, -0x1.303a7e0000000p-5, -0x1.11b4100000000p-4, 0x1.540b200000000p-6, -0x1.e053500000000p-6, -0x1.14ddd20000000p-4, -0x1.01a0c40000000p-6, -0x1.5161c00000000p-4, 0x1.a598d60000000p-7, 0x1.9de4200000000p-5, -0x1.08c8f80000000p-4, 0x1.c2d6720000000p-10, 0x1.217c540000000p-5, -0x1.7bb0180000000p-4, 0x1.07507c0000000p-7, -0x1.cfdb980000000p-6, 0x1.944e1a0000000p-4, -0x1.98bbda0000000p-5, -0x1.6826c00000000p-5, -0x1.b12f200000000p-5, -0x1.06aec00000000p-6, -0x1.4d461a0000000p-6, 0x1.d10b400000000p-6, -0x1.04f0180000000p-5, -0x1.1cd1560000000p-4, -0x1.56b05e0000000p-5, -0x1.7a81500000000p-5, -0x1.500ae00000000p-10, 0x1.c40eaa0000000p-6, -0x1.2d37ac0000000p-3, -0x1.04d1100000000p-7, -0x1.7900c40000000p-4, 0x1.a7e3bc0000000p-4, 0x1.2a833c0000000p-4, -0x1.fb37b80000000p-5, -0x1.fd582e0000000p-5, -0x1.e205be0000000p-5, -0x1.09b9b80000000p-4, 0x1.546c1e0000000p-4, 0x1.12b0b40000000p-3, -0x1.e7fc5e0000000p-5, 0x1.0d4ddc0000000p-6, -0x1.9db37a0000000p-3, -0x1.7dd4da0000000p-5, 0x1.881c180000000p-5, -0x1.6804600000000p-8, -0x1.0c78e00000000p-4, 0x1.4104500000000p-4, -0x1.61c38a0000000p-5, -0x1.e35bb40000000p-4, -0x1.98d62a0000000p-6, 0x1.f818b80000000p-5, -0x1.24d3da0000000p-4, 0x1.01090e0000000p-3, 0x1.6eab9a0000000p-7, 0x1.729df20000000p-5, 0x1.1a42c60000000p-3, 0x1.01a8b60000000p-3, 0x1.be63740000000p-4, -0x1.1fc6ac0000000p-3, -0x1.4f826c0000000p-5, 0x1.d5a68c0000000p-6, -0x1.078f760000000p-5, -0x1.34568a0000000p-3, 0x1.d0b3a60000000p-6, -0x1.d8335e0000000p-4, -0x1.e581ec0000000p-5, 0x1.80d5740000000p-7}
