#define SINGLE_FILE
/**
  ******************************************************************************
  * @file    defines.hh
  * @author  Pierre-Emmanuel Novac <penovac@unice.fr>, Université Côte d'Azur, LEAT, France
  * @version 2.1.0
  * @date    10 january 2024
  * @brief   Global C pre-processor definitions to use to build all source files (incl. CMSIS-NN)
  */

/* CMSIS-NN round mode definition */
#if defined(WITH_CMSIS_NN) || defined(WITH_NMSIS_NN)



#error "Unrecognized round mode, only floor and nearest are supported by CMSIS-NN"

#endif // defined(WITH_CMSIS_NN) || defined(WITH_NMSIS_NN)
/**
  ******************************************************************************
  * @file    number.hh
  * @author  Pierre-Emmanuel Novac <penovac@unice.fr>, LEAT, CNRS, Université Côte d'Azur, France
  * @version 1.0.0
  * @date    2 february 2021
  * @brief   Template generating plain C code for the implementation of Convolutional Neural Networks on MCU
  */

#ifdef __cplusplus
extern "C" {
#endif

#ifndef __NUMBER_H__
#define __NUMBER_H__

#include <stdint.h>
#include <stddef.h>
#include <math.h>

#ifdef TRAPV_SHIFT
#include <limits.h>
#include <stdio.h>
#include <assert.h>
#endif

#ifdef WITH_CMSIS_NN
#include "arm_nnfunctions.h"
#endif

#define _clamp_to(type, number) clamp_to_number_t_ ## type (number)
#define clamp_to(type, number) _clamp_to(type, number)
#define _scale(type, number, scale_factor, round_mode) scale_number_t_ ## type (number, scale_factor, round_mode)
#define scale(type, number, scale_factor, round_mode) _scale(type, number, scale_factor, round_mode)
#define _scale_and_clamp_to(type, number, scale_factor, round_mode) scale_and_clamp_to_number_t_ ## type (number, scale_factor, round_mode)
#define scale_and_clamp_to(type, number, scale_factor, round_mode) _scale_and_clamp_to(type, number, scale_factor, round_mode)

typedef enum {
  ROUND_MODE_NONE,
  ROUND_MODE_FLOOR,
  ROUND_MODE_NEAREST,
} round_mode_t;

// Idea 1: Write the smallest min max interval of the net, could be an issue for hybrid int type network
// Idea 2: listing any interval and add type in name in a switch case like <- better but painfull
// #define NUMBER_MIN		// Max value for this numeric type
// #define NUMBER_MAX		// Min value for this numeric type

// // Idea 1: List of all types and write any corresponding function 
// typedef  number_t;		// Standard size numeric type used for weights and activations
// typedef  long_number_t;	// Long numeric type used for intermediate results

#define NUMBER_MIN_FLOAT -2147483648
#define NUMBER_MAX_FLOAT 2147483647

static inline float min_float(
    float a,
    float b) {
	if (a <= b)
		return a;
	return b;
}

static inline float max_float(
    float a,
    float b) {
	if (a >= b)
		return a;
	return b;
}

static inline float scale_number_t_float(
  float number, int scale_factor, round_mode_t round_mode) {
	return number;
}
static inline float clamp_to_number_t_float(
  float number) {
	return (float) number;
}
static inline float scale_and_clamp_to_number_t_float(
  float number, int scale_factor, round_mode_t round_mode) {
	return (float) number;
}


#define NUMBER_MIN_INT32_T -2147483648
#define NUMBER_MAX_INT32_T 2147483647

static inline int64_t min_int32_t(
    int64_t a,
    int64_t b) {
	if (a <= b)
		return a;
	return b;
}

static inline int64_t max_int32_t(
    int64_t a,
    int64_t b) {
	if (a >= b)
		return a;
	return b;
}

static inline int64_t scale_number_t_int32_t(
  int64_t number, int scale_factor, round_mode_t round_mode) {


  if (scale_factor <= 0) {
#ifdef TRAPV_SHIFT
    // Check for possible overflow of left shift
    if (number > INT64_MAX >> -scale_factor) {
      fprintf(stderr,
              "Error: scale() overflow, number=%ld, scale_factor=%d, limit=%d\n",
              number,
              scale_factor,
              INT16_MAX >> -scale_factor);
      assert(number <= INT64_MAX >> -scale_factor);
    }
#endif
    // No rounding to apply when shifting left
    return number << - scale_factor;
  } else {
    if (round_mode == ROUND_MODE_NEAREST) {
      number += (1 << (scale_factor - 1)); // +0.5 in fixed-point
    }
    return number >> scale_factor;
  }
}
static inline int32_t clamp_to_number_t_int32_t(
  int64_t number) {
	return (int32_t) max_int32_t(
      NUMBER_MIN_INT32_T,
      min_int32_t(
        NUMBER_MAX_INT32_T, number));
}
static inline int32_t scale_and_clamp_to_number_t_int32_t(
  int64_t number, int scale_factor, round_mode_t round_mode) {
#ifdef WITH_CMSIS_NN
  // Not really CMSIS-NN but use SSAT anyway
  if (scale_factor <= 0) {
    // No rounding to apply when shifting left
    return __SSAT(number << - scale_factor, sizeof(int32_t) * 8);
  } else {
    if (round_mode == ROUND_MODE_NEAREST) {
      number += (1 << (scale_factor - 1)); // +0.5 in fixed-point
    }
    return __SSAT(number >> scale_factor, sizeof(int32_t) * 8);
  }
#else
  number = scale_number_t_int32_t(number, scale_factor, round_mode);
  return clamp_to_number_t_int32_t(number);
#endif
}




static inline void int64_t_to_float(int64_t * tabint, float * tabfloat, long tabdim, int scale_factor){
  for (int i=0; i<tabdim; i++){
    tabfloat[i] = (float)tabint[i] / (1<<scale_factor);
  }
}

static inline void int32_t_to_float(int32_t * tabint, float * tabfloat, long tabdim, int scale_factor){
  for (int i=0; i<tabdim; i++){
    tabfloat[i] = (float)tabint[i] / (1<<scale_factor);
  }
}

static inline void int16_t_to_float(int16_t * tabint, float * tabfloat, long tabdim, int scale_factor){
  for (int i=0; i<tabdim; i++){
    tabfloat[i] = ((float)tabint[i]) / (1<<scale_factor);
  }
}

static inline void int8_t_to_float(int8_t * tabint, float * tabfloat, long tabdim, int scale_factor){
  for (int i=0; i<tabdim; i++){
    tabfloat[i] = ((float)tabint[i]) / (1<<scale_factor);
  }
}
#endif //__NUMBER_H__

#ifdef __cplusplus
} // extern "C"
#endif
/**
  ******************************************************************************
  * @file    conv2d.hh
  * @author  Pierre-Emmanuel Novac <penovac@unice.fr>, LEAT, CNRS, Université Côte d'Azur, France
  * @version V2.0
  * @date    14 december 2022
  * @brief   Template generating plain C code for the implementation of Convolutional Neural Networks on MCU
  */

#ifndef _CONV2D_H_
#define _CONV2D_H_

#ifndef SINGLE_FILE
#include "number.h"
#endif

#define INPUT_CHANNELS      1
#define INPUT_HEIGHT        28
#define INPUT_WIDTH         28
#define CONV_FILTERS        16
#define CONV_KERNEL_SIZE_Y  3
#define CONV_KERNEL_SIZE_X  3
#define CONV_STRIDE_Y       2
#define CONV_STRIDE_X       2

#define ZEROPADDING_TOP    0
#define ZEROPADDING_BOTTOM 0
#define ZEROPADDING_LEFT   0
#define ZEROPADDING_RIGHT  0

#define CONV_OUTHEIGHT     ( ( (INPUT_HEIGHT - CONV_KERNEL_SIZE_Y + ZEROPADDING_TOP + ZEROPADDING_BOTTOM) / CONV_STRIDE_Y ) + 1 )
#define CONV_OUTWIDTH      ( ( (INPUT_WIDTH - CONV_KERNEL_SIZE_X + ZEROPADDING_LEFT + ZEROPADDING_RIGHT) / CONV_STRIDE_X ) + 1 )


typedef float conv2d_output_type[CONV_OUTHEIGHT][CONV_OUTWIDTH][CONV_FILTERS];

#if 0
void conv2d(
  const number_t input[INPUT_HEIGHT][INPUT_WIDTH][INPUT_CHANNELS],               // IN
  const number_t kernel[CONV_FILTERS][CONV_KERNEL_SIZE_X][CONV_KERNEL_SIZE_Y][INPUT_CHANNELS], // IN

  const number_t bias[CONV_FILTERS],						                // IN

  number_t output[CONV_OUTHEIGHT][CONV_OUTWIDTH][CONV_FILTERS]);               // OUT
#endif

#undef INPUT_CHANNELS
#undef INPUT_WIDTH
#undef INPUT_HEIGHT
#undef CONV_FILTERS
#undef CONV_KERNEL_SIZE_X
#undef CONV_KERNEL_SIZE_Y
#undef CONV_STRIDE_X
#undef CONV_STRIDE_Y
#undef ZEROPADDING_TOP
#undef ZEROPADDING_BOTTOM
#undef ZEROPADDING_LEFT
#undef ZEROPADDING_RIGHT
#undef CONV_OUTWIDTH
#undef CONV_OUTHEIGHT

#endif//_CONV2D_H_
/**
  ******************************************************************************
  * @file    conv2d.cc
  * @author  Pierre-Emmanuel Novac <penovac@unice.fr>, LEAT, CNRS, Université Côte d'Azur, France
  * @version V2.0
  * @date    24 november 2021
  * @brief   Template generating plain C code for the implementation of Convolutional Neural Networks on MCU
  */

#ifndef SINGLE_FILE
#include "conv2d.h"
#include "number.h"
#endif

#ifdef WITH_CMSIS_NN
#include "arm_nnfunctions.h"
#elif defined(WITH_NMSIS_NN)
#include "riscv_nnfunctions.h"
#endif

#define INPUT_CHANNELS      1
#define INPUT_HEIGHT        28
#define INPUT_WIDTH         28
#define CONV_FILTERS        16
#define CONV_KERNEL_SIZE_Y  3
#define CONV_KERNEL_SIZE_X  3
#define CONV_STRIDE_Y       2
#define CONV_STRIDE_X       2
#define CONV_GROUPS         1
#define CHANNELS_PER_GROUP  (INPUT_CHANNELS / CONV_GROUPS)
#define FILTERS_PER_GROUP   (CONV_FILTERS / CONV_GROUPS)

#define ZEROPADDING_TOP    0
#define ZEROPADDING_BOTTOM 0
#define ZEROPADDING_LEFT   0
#define ZEROPADDING_RIGHT  0

#define CONV_OUTHEIGHT     ( ( (INPUT_HEIGHT - CONV_KERNEL_SIZE_Y + ZEROPADDING_TOP + ZEROPADDING_BOTTOM) / CONV_STRIDE_Y ) + 1 )
#define CONV_OUTWIDTH      ( ( (INPUT_WIDTH - CONV_KERNEL_SIZE_X + ZEROPADDING_LEFT + ZEROPADDING_RIGHT) / CONV_STRIDE_X ) + 1 )

#define ACTIVATION_RELU

// For fixed point quantization
#define WEIGHTS_SCALE_FACTOR 0
#define BIASES_SCALE_FACTOR 0
#define TMP_SCALE_FACTOR 0
#define INPUT_SCALE_FACTOR 0
#define OUTPUT_SCALE_FACTOR 0
#define OUTPUT_ROUND_MODE ROUND_MODE_NONE
#define NUMBER_T float
#define LONG_NUMBER_T float


static inline void conv2d(
  const NUMBER_T input[INPUT_HEIGHT][INPUT_WIDTH][INPUT_CHANNELS],               // IN
  const NUMBER_T kernel[CONV_FILTERS][CONV_KERNEL_SIZE_X][CONV_KERNEL_SIZE_Y][INPUT_CHANNELS / CONV_GROUPS], // IN

  const NUMBER_T bias[CONV_FILTERS],						                // IN

  NUMBER_T output[CONV_OUTHEIGHT][CONV_OUTWIDTH][CONV_FILTERS]) {               // OUT

#if !defined(WITH_CMSIS_NN) && !defined(WITH_NMSIS_NN)
  unsigned short pos_x, pos_y, z, k; 	// loop indexes for output volume
  unsigned short x, y;
  int input_x, input_y;
  LONG_NUMBER_T	kernel_mac;
  LONG_NUMBER_T tmp;
  static LONG_NUMBER_T	output_acc[CONV_OUTHEIGHT][CONV_OUTWIDTH];

  for (k = 0; k < CONV_FILTERS; k++) { 
    for (pos_y = 0; pos_y < CONV_OUTHEIGHT; pos_y++) { 
      for (pos_x = 0; pos_x < CONV_OUTWIDTH; pos_x++) { 
        output_acc[pos_y][pos_x] = 0;

        for (z = 0; z < INPUT_CHANNELS / CONV_GROUPS; z++) {
          kernel_mac = 0; 
            
          for (y = 0; y < CONV_KERNEL_SIZE_Y; y++) {
            input_y = pos_y * CONV_STRIDE_Y - ZEROPADDING_TOP + y;

            for (x = 0; x < CONV_KERNEL_SIZE_X; x++) {
              input_x = pos_x * CONV_STRIDE_X - ZEROPADDING_LEFT + x;

              if (input_x < 0 || input_x >= INPUT_WIDTH || input_y < 0 || input_y >= INPUT_HEIGHT) // ZeroPadding2D
                tmp = 0;
              else
                tmp = (LONG_NUMBER_T)input[input_y][input_x][z + (k / FILTERS_PER_GROUP) * CHANNELS_PER_GROUP] * (LONG_NUMBER_T)kernel[k][y][x][z];
              kernel_mac = kernel_mac + tmp;
            }
          }

          output_acc[pos_y][pos_x] = output_acc[pos_y][pos_x] + kernel_mac;

        }
      }
    }

    for (pos_y = 0; pos_y < CONV_OUTHEIGHT; pos_y++) { 
      for (pos_x = 0; pos_x < CONV_OUTWIDTH; pos_x++) { 
        // Scale for possible additional precision of bias
        output_acc[pos_y][pos_x] = scale(NUMBER_T, output_acc[pos_y][pos_x],  WEIGHTS_SCALE_FACTOR - TMP_SCALE_FACTOR, OUTPUT_ROUND_MODE);

        // Scale bias to match accumulator
        output_acc[pos_y][pos_x] += scale(NUMBER_T, (LONG_NUMBER_T)bias[k], BIASES_SCALE_FACTOR - TMP_SCALE_FACTOR - INPUT_SCALE_FACTOR, OUTPUT_ROUND_MODE);


#ifdef ACTIVATION_LINEAR
        output[pos_y][pos_x][k] = scale_and_clamp_to(NUMBER_T, output_acc[pos_y][pos_x], INPUT_SCALE_FACTOR + TMP_SCALE_FACTOR - OUTPUT_SCALE_FACTOR, OUTPUT_ROUND_MODE);
#elif defined(ACTIVATION_RELU) || defined(ACTIVATION_RELU6)
        // Activation function: ReLU
        if (output_acc[pos_y][pos_x] < 0) {
          output[pos_y][pos_x][k] = 0;
        } else {
#if defined(ACTIVATION_RELU6)
        if (output_acc[pos_y][pos_x] > scale(NUMBER_T, 6, -(INPUT_SCALE_FACTOR + TMP_SCALE_FACTOR), OUTPUT_ROUND_MODE)) {
          output_acc[pos_y][pos_x] = scale(NUMBER_T, 6, -(INPUT_SCALE_FACTOR + TMP_SCALE_FACTOR), OUTPUT_ROUND_MODE);
        }
#endif
          output[pos_y][pos_x][k] = scale_and_clamp_to(NUMBER_T, output_acc[pos_y][pos_x], INPUT_SCALE_FACTOR + TMP_SCALE_FACTOR - OUTPUT_SCALE_FACTOR, OUTPUT_ROUND_MODE);
        }
#else
#error "Unsupported activation function"
#endif
      }
    }
  }
#else

#if BIASES_SCALE_FACTOR > WEIGHTS_SCALE_FACTOR
#error "CMSIS-NN does not support BIASES_SCALE_FACTOR larger than WEIGHTS_SCALE_FACTOR"
#endif

#error "Data type unsupported by CMSIS-NN"

#endif
}

#undef INPUT_CHANNELS
#undef INPUT_WIDTH
#undef INPUT_HEIGHT
#undef CONV_FILTERS
#undef CONV_KERNEL_SIZE_X
#undef CONV_KERNEL_SIZE_Y
#undef CONV_STRIDE_X
#undef CONV_STRIDE_Y
#undef CONV_GROUPS
#undef CHANNELS_PER_GROUP
#undef FILTERS_PER_GROUP
#undef ZEROPADDING_TOP
#undef ZEROPADDING_BOTTOM
#undef ZEROPADDING_LEFT
#undef ZEROPADDING_RIGHT
#undef CONV_OUTWIDTH
#undef CONV_OUTHEIGHT
#undef ACTIVATION_RELU
#undef WEIGHTS_SCALE_FACTOR
#undef BIASES_SCALE_FACTOR
#undef TMP_SCALE_FACTOR
#undef INPUT_SCALE_FACTOR
#undef OUTPUT_SCALE_FACTOR
#undef NUMBER_T
#undef LONG_NUMBER_T
/**
  ******************************************************************************
  * @file    weights/conv2d.cc
  * @author  Pierre-Emmanuel Novac <penovac@unice.fr>, LEAT, CNRS, Université Côte d'Azur, France
  * @version V2.0
  * @date    24 march 2020
  * @brief   Template generating plain C code for the implementation of Convolutional Neural Networks on MCU
  */

#include <stdint.h>

#define INPUT_CHANNELS     1
#define CONV_FILTERS       16
#define CONV_KERNEL_SIZE_Y 3
#define CONV_KERNEL_SIZE_X 3
#define CONV_GROUPS        1


const float conv2d_bias[CONV_FILTERS] = {0x1.63566c0000000p-4, -0x1.f848de0000000p-8, -0x1.ba53580000000p-7, -0x1.a60bf40000000p-8, 0x1.745de60000000p-3, -0x1.6812ae0000000p-8, -0x1.d2840c0000000p-11, -0x1.55ee020000000p-6, -0x1.0fbf9c0000000p-7, 0x1.bdea7e0000000p-4, 0x1.5398960000000p-9, 0x1.62bb520000000p-6, -0x1.b7f3100000000p-8, 0x1.aa58e20000000p-8, -0x1.4136920000000p-6, -0x1.712d120000000p-7}
;


const float conv2d_kernel[CONV_FILTERS][CONV_KERNEL_SIZE_Y][CONV_KERNEL_SIZE_X][INPUT_CHANNELS / CONV_GROUPS] = {{{{0x1.0a74520000000p-2}
, {0x1.6020240000000p-2}
, {0x1.2771460000000p-2}
}
, {{0x1.0723760000000p-4}
, {-0x1.b562360000000p-4}
, {-0x1.866db20000000p-4}
}
, {{-0x1.b36b7a0000000p-2}
, {-0x1.2e4ae40000000p-2}
, {-0x1.d90f6e0000000p-2}
}
}
, {{{-0x1.50265c0000000p-4}
, {0x1.5e9b1c0000000p-2}
, {0x1.3c55d00000000p-2}
}
, {{0x1.3806760000000p-4}
, {0x1.0a35460000000p-2}
, {0x1.b7b9d80000000p-3}
}
, {{-0x1.34adea0000000p-5}
, {-0x1.08852c0000000p-3}
, {-0x1.3c8cbc0000000p-2}
}
}
, {{{-0x1.fd17c80000000p-7}
, {0x1.dcd88e0000000p-10}
, {-0x1.a0133e0000000p-10}
}
, {{0x1.8810900000000p-5}
, {0x1.c9c6be0000000p-3}
, {0x1.70adca0000000p-2}
}
, {{-0x1.b7c6e80000000p-4}
, {0x1.981cda0000000p-3}
, {-0x1.41348e0000000p-3}
}
}
, {{{0x1.68ee9c0000000p-4}
, {0x1.1fae500000000p-3}
, {-0x1.0c22180000000p-3}
}
, {{0x1.3cda0c0000000p-3}
, {0x1.8c5cb80000000p-3}
, {-0x1.1954ba0000000p-4}
}
, {{0x1.094c5e0000000p-3}
, {0x1.d68a200000000p-3}
, {-0x1.abf42a0000000p-4}
}
}
, {{{-0x1.2a31b20000000p-2}
, {0x1.5b77e80000000p-3}
, {0x1.1b7be80000000p-3}
}
, {{-0x1.58ed0a0000000p-2}
, {-0x1.24bd160000000p-1}
, {-0x1.23dbd20000000p-1}
}
, {{0x1.0dd5920000000p-1}
, {0x1.3c66ca0000000p-3}
, {-0x1.cd31440000000p-4}
}
}
, {{{-0x1.4793ac0000000p-2}
, {-0x1.527b200000000p-4}
, {-0x1.6edda20000000p-2}
}
, {{0x1.3b21100000000p-3}
, {0x1.bb8efe0000000p-3}
, {-0x1.6b13e80000000p-3}
}
, {{0x1.6d39ae0000000p-2}
, {0x1.8980f60000000p-2}
, {0x1.dc6d280000000p-3}
}
}
, {{{-0x1.11aaea0000000p-2}
, {0x1.67b2540000000p-3}
, {0x1.e6f0fc0000000p-4}
}
, {{-0x1.0960960000000p-8}
, {0x1.e51af00000000p-3}
, {0x1.36228a0000000p-2}
}
, {{-0x1.cde7e80000000p-6}
, {-0x1.6915ba0000000p-4}
, {0x1.4a0e120000000p-4}
}
}
, {{{-0x1.41463e0000000p-4}
, {-0x1.f933800000000p-6}
, {-0x1.f71a420000000p-4}
}
, {{0x1.11b9f60000000p-4}
, {0x1.bf0e300000000p-2}
, {0x1.28fafc0000000p-2}
}
, {{-0x1.34eed40000000p-2}
, {0x1.a35eea0000000p-3}
, {-0x1.0038240000000p-4}
}
}
, {{{0x1.3ff0f20000000p-4}
, {-0x1.54d9be0000000p-6}
, {-0x1.3c401c0000000p-3}
}
, {{0x1.fc1bce0000000p-3}
, {0x1.d85b420000000p-3}
, {-0x1.63f08a0000000p-2}
}
, {{0x1.4ace640000000p-2}
, {0x1.494eb80000000p-3}
, {-0x1.4df0dc0000000p-2}
}
}
, {{{0x1.10912a0000000p-4}
, {0x1.92a7da0000000p-4}
, {-0x1.ed21760000000p-2}
}
, {{0x1.7e3e740000000p-3}
, {0x1.e606d60000000p-5}
, {-0x1.8f16e40000000p-2}
}
, {{0x1.6d51c80000000p-2}
, {-0x1.76f3fc0000000p-4}
, {-0x1.fe04740000000p-2}
}
}
, {{{-0x1.e13b580000000p-3}
, {0x1.809a540000000p-3}
, {0x1.9d83020000000p-3}
}
, {{0x1.3127680000000p-3}
, {0x1.53f5120000000p-2}
, {0x1.a442540000000p-3}
}
, {{-0x1.3fe7440000000p-2}
, {-0x1.4e63fc0000000p-3}
, {0x1.339fe00000000p-3}
}
}
, {{{0x1.7dcdd40000000p-5}
, {0x1.6916640000000p-2}
, {0x1.3511f00000000p-2}
}
, {{-0x1.fdf8a60000000p-5}
, {0x1.843ba00000000p-3}
, {0x1.244bb00000000p-3}
}
, {{-0x1.66d8180000000p-2}
, {-0x1.1bdf4a0000000p-1}
, {-0x1.cc254c0000000p-2}
}
}
, {{{-0x1.2f77ca0000000p-3}
, {-0x1.0ca1c80000000p-3}
, {-0x1.e763d80000000p-5}
}
, {{0x1.0c90380000000p-3}
, {0x1.77a87c0000000p-4}
, {0x1.70a6040000000p-4}
}
, {{0x1.0bd9f00000000p-3}
, {0x1.d3742e0000000p-3}
, {0x1.9fa14e0000000p-3}
}
}
, {{{0x1.6c37660000000p-6}
, {0x1.6f16be0000000p-2}
, {0x1.6d37b60000000p-2}
}
, {{-0x1.b3055a0000000p-3}
, {-0x1.1cd6500000000p-8}
, {0x1.5581260000000p-2}
}
, {{-0x1.d37f520000000p-2}
, {-0x1.eb60160000000p-2}
, {-0x1.0935940000000p-3}
}
}
, {{{-0x1.e799ee0000000p-8}
, {0x1.b137d20000000p-4}
, {-0x1.502f9e0000000p-3}
}
, {{0x1.c72d160000000p-3}
, {0x1.2f90f60000000p-2}
, {0x1.1039c80000000p-2}
}
, {{-0x1.873b2a0000000p-9}
, {-0x1.4e11b60000000p-4}
, {-0x1.49d3c40000000p-7}
}
}
, {{{-0x1.4f416c0000000p-4}
, {-0x1.c71d7e0000000p-3}
, {-0x1.e7d7260000000p-3}
}
, {{-0x1.a878700000000p-4}
, {0x1.e0cb020000000p-2}
, {0x1.d90fac0000000p-3}
}
, {{0x1.b5399c0000000p-4}
, {0x1.0d768a0000000p-2}
, {0x1.c5880c0000000p-6}
}
}
}
;

#undef INPUT_CHANNELS
#undef CONV_FILTERS
#undef CONV_KERNEL_SIZE_X
#undef CONV_KERNEL_SIZE_Y
#undef CONV_GROUPS
/**
  ******************************************************************************
  * @file    conv2d.hh
  * @author  Pierre-Emmanuel Novac <penovac@unice.fr>, LEAT, CNRS, Université Côte d'Azur, France
  * @version V2.0
  * @date    14 december 2022
  * @brief   Template generating plain C code for the implementation of Convolutional Neural Networks on MCU
  */

#ifndef _CONV2D_1_H_
#define _CONV2D_1_H_

#ifndef SINGLE_FILE
#include "number.h"
#endif

#define INPUT_CHANNELS      16
#define INPUT_HEIGHT        13
#define INPUT_WIDTH         13
#define CONV_FILTERS        32
#define CONV_KERNEL_SIZE_Y  3
#define CONV_KERNEL_SIZE_X  3
#define CONV_STRIDE_Y       2
#define CONV_STRIDE_X       2

#define ZEROPADDING_TOP    0
#define ZEROPADDING_BOTTOM 0
#define ZEROPADDING_LEFT   0
#define ZEROPADDING_RIGHT  0

#define CONV_OUTHEIGHT     ( ( (INPUT_HEIGHT - CONV_KERNEL_SIZE_Y + ZEROPADDING_TOP + ZEROPADDING_BOTTOM) / CONV_STRIDE_Y ) + 1 )
#define CONV_OUTWIDTH      ( ( (INPUT_WIDTH - CONV_KERNEL_SIZE_X + ZEROPADDING_LEFT + ZEROPADDING_RIGHT) / CONV_STRIDE_X ) + 1 )


typedef float conv2d_1_output_type[CONV_OUTHEIGHT][CONV_OUTWIDTH][CONV_FILTERS];

#if 0
void conv2d_1(
  const number_t input[INPUT_HEIGHT][INPUT_WIDTH][INPUT_CHANNELS],               // IN
  const number_t kernel[CONV_FILTERS][CONV_KERNEL_SIZE_X][CONV_KERNEL_SIZE_Y][INPUT_CHANNELS], // IN

  const number_t bias[CONV_FILTERS],						                // IN

  number_t output[CONV_OUTHEIGHT][CONV_OUTWIDTH][CONV_FILTERS]);               // OUT
#endif

#undef INPUT_CHANNELS
#undef INPUT_WIDTH
#undef INPUT_HEIGHT
#undef CONV_FILTERS
#undef CONV_KERNEL_SIZE_X
#undef CONV_KERNEL_SIZE_Y
#undef CONV_STRIDE_X
#undef CONV_STRIDE_Y
#undef ZEROPADDING_TOP
#undef ZEROPADDING_BOTTOM
#undef ZEROPADDING_LEFT
#undef ZEROPADDING_RIGHT
#undef CONV_OUTWIDTH
#undef CONV_OUTHEIGHT

#endif//_CONV2D_1_H_
/**
  ******************************************************************************
  * @file    conv2d.cc
  * @author  Pierre-Emmanuel Novac <penovac@unice.fr>, LEAT, CNRS, Université Côte d'Azur, France
  * @version V2.0
  * @date    24 november 2021
  * @brief   Template generating plain C code for the implementation of Convolutional Neural Networks on MCU
  */

#ifndef SINGLE_FILE
#include "conv2d_1.h"
#include "number.h"
#endif

#ifdef WITH_CMSIS_NN
#include "arm_nnfunctions.h"
#elif defined(WITH_NMSIS_NN)
#include "riscv_nnfunctions.h"
#endif

#define INPUT_CHANNELS      16
#define INPUT_HEIGHT        13
#define INPUT_WIDTH         13
#define CONV_FILTERS        32
#define CONV_KERNEL_SIZE_Y  3
#define CONV_KERNEL_SIZE_X  3
#define CONV_STRIDE_Y       2
#define CONV_STRIDE_X       2
#define CONV_GROUPS         1
#define CHANNELS_PER_GROUP  (INPUT_CHANNELS / CONV_GROUPS)
#define FILTERS_PER_GROUP   (CONV_FILTERS / CONV_GROUPS)

#define ZEROPADDING_TOP    0
#define ZEROPADDING_BOTTOM 0
#define ZEROPADDING_LEFT   0
#define ZEROPADDING_RIGHT  0

#define CONV_OUTHEIGHT     ( ( (INPUT_HEIGHT - CONV_KERNEL_SIZE_Y + ZEROPADDING_TOP + ZEROPADDING_BOTTOM) / CONV_STRIDE_Y ) + 1 )
#define CONV_OUTWIDTH      ( ( (INPUT_WIDTH - CONV_KERNEL_SIZE_X + ZEROPADDING_LEFT + ZEROPADDING_RIGHT) / CONV_STRIDE_X ) + 1 )

#define ACTIVATION_RELU

// For fixed point quantization
#define WEIGHTS_SCALE_FACTOR 0
#define BIASES_SCALE_FACTOR 0
#define TMP_SCALE_FACTOR 0
#define INPUT_SCALE_FACTOR 0
#define OUTPUT_SCALE_FACTOR 0
#define OUTPUT_ROUND_MODE ROUND_MODE_NONE
#define NUMBER_T float
#define LONG_NUMBER_T float


static inline void conv2d_1(
  const NUMBER_T input[INPUT_HEIGHT][INPUT_WIDTH][INPUT_CHANNELS],               // IN
  const NUMBER_T kernel[CONV_FILTERS][CONV_KERNEL_SIZE_X][CONV_KERNEL_SIZE_Y][INPUT_CHANNELS / CONV_GROUPS], // IN

  const NUMBER_T bias[CONV_FILTERS],						                // IN

  NUMBER_T output[CONV_OUTHEIGHT][CONV_OUTWIDTH][CONV_FILTERS]) {               // OUT

#if !defined(WITH_CMSIS_NN) && !defined(WITH_NMSIS_NN)
  unsigned short pos_x, pos_y, z, k; 	// loop indexes for output volume
  unsigned short x, y;
  int input_x, input_y;
  LONG_NUMBER_T	kernel_mac;
  LONG_NUMBER_T tmp;
  static LONG_NUMBER_T	output_acc[CONV_OUTHEIGHT][CONV_OUTWIDTH];

  for (k = 0; k < CONV_FILTERS; k++) { 
    for (pos_y = 0; pos_y < CONV_OUTHEIGHT; pos_y++) { 
      for (pos_x = 0; pos_x < CONV_OUTWIDTH; pos_x++) { 
        output_acc[pos_y][pos_x] = 0;

        for (z = 0; z < INPUT_CHANNELS / CONV_GROUPS; z++) {
          kernel_mac = 0; 
            
          for (y = 0; y < CONV_KERNEL_SIZE_Y; y++) {
            input_y = pos_y * CONV_STRIDE_Y - ZEROPADDING_TOP + y;

            for (x = 0; x < CONV_KERNEL_SIZE_X; x++) {
              input_x = pos_x * CONV_STRIDE_X - ZEROPADDING_LEFT + x;

              if (input_x < 0 || input_x >= INPUT_WIDTH || input_y < 0 || input_y >= INPUT_HEIGHT) // ZeroPadding2D
                tmp = 0;
              else
                tmp = (LONG_NUMBER_T)input[input_y][input_x][z + (k / FILTERS_PER_GROUP) * CHANNELS_PER_GROUP] * (LONG_NUMBER_T)kernel[k][y][x][z];
              kernel_mac = kernel_mac + tmp;
            }
          }

          output_acc[pos_y][pos_x] = output_acc[pos_y][pos_x] + kernel_mac;

        }
      }
    }

    for (pos_y = 0; pos_y < CONV_OUTHEIGHT; pos_y++) { 
      for (pos_x = 0; pos_x < CONV_OUTWIDTH; pos_x++) { 
        // Scale for possible additional precision of bias
        output_acc[pos_y][pos_x] = scale(NUMBER_T, output_acc[pos_y][pos_x],  WEIGHTS_SCALE_FACTOR - TMP_SCALE_FACTOR, OUTPUT_ROUND_MODE);

        // Scale bias to match accumulator
        output_acc[pos_y][pos_x] += scale(NUMBER_T, (LONG_NUMBER_T)bias[k], BIASES_SCALE_FACTOR - TMP_SCALE_FACTOR - INPUT_SCALE_FACTOR, OUTPUT_ROUND_MODE);


#ifdef ACTIVATION_LINEAR
        output[pos_y][pos_x][k] = scale_and_clamp_to(NUMBER_T, output_acc[pos_y][pos_x], INPUT_SCALE_FACTOR + TMP_SCALE_FACTOR - OUTPUT_SCALE_FACTOR, OUTPUT_ROUND_MODE);
#elif defined(ACTIVATION_RELU) || defined(ACTIVATION_RELU6)
        // Activation function: ReLU
        if (output_acc[pos_y][pos_x] < 0) {
          output[pos_y][pos_x][k] = 0;
        } else {
#if defined(ACTIVATION_RELU6)
        if (output_acc[pos_y][pos_x] > scale(NUMBER_T, 6, -(INPUT_SCALE_FACTOR + TMP_SCALE_FACTOR), OUTPUT_ROUND_MODE)) {
          output_acc[pos_y][pos_x] = scale(NUMBER_T, 6, -(INPUT_SCALE_FACTOR + TMP_SCALE_FACTOR), OUTPUT_ROUND_MODE);
        }
#endif
          output[pos_y][pos_x][k] = scale_and_clamp_to(NUMBER_T, output_acc[pos_y][pos_x], INPUT_SCALE_FACTOR + TMP_SCALE_FACTOR - OUTPUT_SCALE_FACTOR, OUTPUT_ROUND_MODE);
        }
#else
#error "Unsupported activation function"
#endif
      }
    }
  }
#else

#if BIASES_SCALE_FACTOR > WEIGHTS_SCALE_FACTOR
#error "CMSIS-NN does not support BIASES_SCALE_FACTOR larger than WEIGHTS_SCALE_FACTOR"
#endif

#error "Data type unsupported by CMSIS-NN"

#endif
}

#undef INPUT_CHANNELS
#undef INPUT_WIDTH
#undef INPUT_HEIGHT
#undef CONV_FILTERS
#undef CONV_KERNEL_SIZE_X
#undef CONV_KERNEL_SIZE_Y
#undef CONV_STRIDE_X
#undef CONV_STRIDE_Y
#undef CONV_GROUPS
#undef CHANNELS_PER_GROUP
#undef FILTERS_PER_GROUP
#undef ZEROPADDING_TOP
#undef ZEROPADDING_BOTTOM
#undef ZEROPADDING_LEFT
#undef ZEROPADDING_RIGHT
#undef CONV_OUTWIDTH
#undef CONV_OUTHEIGHT
#undef ACTIVATION_RELU
#undef WEIGHTS_SCALE_FACTOR
#undef BIASES_SCALE_FACTOR
#undef TMP_SCALE_FACTOR
#undef INPUT_SCALE_FACTOR
#undef OUTPUT_SCALE_FACTOR
#undef NUMBER_T
#undef LONG_NUMBER_T
/**
  ******************************************************************************
  * @file    weights/conv2d.cc
  * @author  Pierre-Emmanuel Novac <penovac@unice.fr>, LEAT, CNRS, Université Côte d'Azur, France
  * @version V2.0
  * @date    24 march 2020
  * @brief   Template generating plain C code for the implementation of Convolutional Neural Networks on MCU
  */

#include <stdint.h>

#define INPUT_CHANNELS     16
#define CONV_FILTERS       32
#define CONV_KERNEL_SIZE_Y 3
#define CONV_KERNEL_SIZE_X 3
#define CONV_GROUPS        1


const float conv2d_1_bias[CONV_FILTERS] = {-0x1.4f5aec0000000p-5, 0x1.058c400000000p-4, 0x1.19ecec0000000p-3, -0x1.a77b8c0000000p-5, 0x1.7ed00a0000000p-6, -0x1.ae4dae0000000p-7, -0x1.2730620000000p-5, 0x1.1767780000000p-4, 0x1.524d0a0000000p-4, -0x1.5d539c0000000p-6, 0x1.1c320c0000000p-4, -0x1.77c8080000000p-6, -0x1.516f7a0000000p-6, 0x1.7a127c0000000p-4, -0x1.ae4d000000000p-5, -0x1.1676300000000p-5, -0x1.7f6d620000000p-5, 0x1.21c4100000000p-3, -0x1.c3cd700000000p-5, -0x1.661b900000000p-4, 0x1.c2beb00000000p-6, 0x1.97fc9c0000000p-5, 0x1.5336300000000p-4, -0x1.8ec7300000000p-4, 0x1.7071780000000p-5, -0x1.4535d20000000p-4, 0x1.06f74e0000000p-5, 0x1.b1552e0000000p-4, 0x1.2701880000000p-4, 0x1.30a7a00000000p-5, 0x1.6499ea0000000p-6, 0x1.2943ba0000000p-7}
;


const float conv2d_1_kernel[CONV_FILTERS][CONV_KERNEL_SIZE_Y][CONV_KERNEL_SIZE_X][INPUT_CHANNELS / CONV_GROUPS] = {{{{-0x1.6372a00000000p-6, -0x1.d021e20000000p-4, 0x1.d11b2c0000000p-6, 0x1.51f79a0000000p-3, -0x1.917ed40000000p-7, 0x1.5f080a0000000p-6, 0x1.b27fd00000000p-9, -0x1.0897020000000p-4, 0x1.c8fb300000000p-4, -0x1.bc19640000000p-4, 0x1.5e24740000000p-6, -0x1.0526f20000000p-2, -0x1.49c9300000000p-5, -0x1.ba34f00000000p-4, 0x1.a00a5a0000000p-4, 0x1.afdcb40000000p-4}
, {-0x1.4a9b660000000p-3, -0x1.36f86a0000000p-5, -0x1.da890e0000000p-7, 0x1.e332200000000p-5, -0x1.8131c20000000p-5, 0x1.e9fa1c0000000p-4, 0x1.cfb99a0000000p-11, -0x1.eb092a0000000p-6, 0x1.53a7de0000000p-5, -0x1.983da60000000p-4, 0x1.3dedc80000000p-4, -0x1.208de80000000p-6, 0x1.780ab60000000p-6, 0x1.8b8fa60000000p-6, 0x1.8a02da0000000p-4, 0x1.3cc0fc0000000p-5}
, {-0x1.e9eea80000000p-3, -0x1.a80dfa0000000p-4, 0x1.68ed1e0000000p-7, 0x1.0bf1940000000p-3, 0x1.b40a920000000p-3, 0x1.3ddaac0000000p-3, -0x1.6118b60000000p-6, 0x1.b42b880000000p-6, -0x1.13ceb00000000p-7, -0x1.fd94f80000000p-6, 0x1.3d9b7c0000000p-8, -0x1.1a1dae0000000p-3, 0x1.fb94020000000p-5, 0x1.4bacf60000000p-4, -0x1.cfcda80000000p-8, 0x1.1451cc0000000p-6}
}
, {{0x1.1f7b940000000p-4, 0x1.589dc20000000p-6, 0x1.ac311c0000000p-7, -0x1.877fce0000000p-6, -0x1.e1936e0000000p-6, -0x1.3f88f60000000p-3, 0x1.8d91f80000000p-5, 0x1.2fd6fa0000000p-4, 0x1.96fe5e0000000p-5, 0x1.bee4080000000p-14, 0x1.201b580000000p-4, 0x1.de864a0000000p-6, -0x1.5502e80000000p-5, 0x1.b35e900000000p-6, 0x1.30f3420000000p-5, 0x1.e7fc600000000p-7}
, {0x1.5383e20000000p-7, 0x1.00dc560000000p-5, 0x1.8c08e40000000p-9, 0x1.469a940000000p-8, 0x1.5df0ca0000000p-6, 0x1.bd1f300000000p-5, 0x1.2149a80000000p-4, -0x1.27d74e0000000p-6, -0x1.1ffd260000000p-4, -0x1.fcdb360000000p-3, 0x1.5918440000000p-10, -0x1.bf04e60000000p-6, 0x1.8b3d1e0000000p-4, 0x1.5c19160000000p-3, 0x1.eb1d100000000p-4, -0x1.6c34580000000p-8}
, {-0x1.f9778e0000000p-3, 0x1.7de8120000000p-5, 0x1.0f8f0e0000000p-3, 0x1.6ad97e0000000p-5, -0x1.d032740000000p-4, 0x1.3f44ae0000000p-8, 0x1.2de3fc0000000p-3, 0x1.34c2d40000000p-3, 0x1.961f6a0000000p-5, -0x1.67ce1c0000000p-3, 0x1.6a26480000000p-3, 0x1.15087c0000000p-6, 0x1.9309a40000000p-3, 0x1.10774c0000000p-2, 0x1.67b8ba0000000p-3, 0x1.5396240000000p-4}
}
, {{-0x1.5a10ae0000000p-5, -0x1.8519440000000p-6, -0x1.478d060000000p-3, -0x1.60ad8c0000000p-5, 0x1.3c5fbe0000000p-2, -0x1.26b9120000000p-3, -0x1.4c0e260000000p-3, -0x1.43ac320000000p-3, -0x1.9e42920000000p-6, 0x1.b47bd00000000p-6, -0x1.a8573e0000000p-4, 0x1.d4f3300000000p-5, -0x1.b977900000000p-4, 0x1.721cf00000000p-4, -0x1.d76fc20000000p-3, -0x1.2ec30a0000000p-3}
, {0x1.11acfe0000000p-3, 0x1.29527e0000000p-7, -0x1.c21f820000000p-3, -0x1.e3a1980000000p-4, 0x1.40f9ce0000000p-2, -0x1.42c4d20000000p-2, -0x1.65e4d60000000p-3, -0x1.ea752e0000000p-4, -0x1.5a917a0000000p-3, -0x1.ef92c40000000p-4, -0x1.21461c0000000p-4, 0x1.2e9fa00000000p-2, -0x1.5048760000000p-3, 0x1.5b0a4e0000000p-3, -0x1.a7e0400000000p-4, -0x1.1a236e0000000p-2}
, {0x1.6f69260000000p-3, 0x1.8988380000000p-5, -0x1.9eec820000000p-6, -0x1.20ea700000000p-4, -0x1.4db16c0000000p-4, -0x1.b991fe0000000p-3, 0x1.16c4640000000p-7, -0x1.7641a00000000p-4, -0x1.d7de840000000p-3, -0x1.bddd9e0000000p-3, 0x1.1ae56a0000000p-3, 0x1.d929e80000000p-3, -0x1.a471a00000000p-4, 0x1.52714e0000000p-2, -0x1.42291e0000000p-4, -0x1.0304400000000p-3}
}
}
, {{{0x1.f2cef20000000p-4, 0x1.70847e0000000p-3, 0x1.0f26640000000p-4, 0x1.d2f96a0000000p-3, -0x1.21fd760000000p-5, 0x1.2490360000000p-3, 0x1.b1d3840000000p-4, 0x1.9005320000000p-5, 0x1.8124fe0000000p-3, 0x1.a84c920000000p-8, 0x1.4276d80000000p-6, 0x1.5975980000000p-4, 0x1.b323140000000p-4, 0x1.9d7ada0000000p-8, 0x1.4adcb60000000p-3, 0x1.e69dc40000000p-4}
, {0x1.e2b07e0000000p-3, 0x1.8ba8e20000000p-4, 0x1.296b3c0000000p-5, 0x1.a4138e0000000p-8, -0x1.5613000000000p-6, -0x1.dd96280000000p-6, 0x1.b2aa5a0000000p-4, -0x1.02d4820000000p-4, 0x1.4e524e0000000p-5, -0x1.c33aa60000000p-5, 0x1.56887e0000000p-4, 0x1.2de4c60000000p-5, -0x1.335fec0000000p-6, 0x1.de91040000000p-4, 0x1.8daaae0000000p-5, -0x1.5ae66a0000000p-4}
, {0x1.b5c60a0000000p-3, 0x1.fc3b000000000p-3, -0x1.7252d20000000p-8, 0x1.f6ef2a0000000p-5, -0x1.d5a9260000000p-4, -0x1.83e1480000000p-5, 0x1.759aa60000000p-4, -0x1.a456de0000000p-6, -0x1.10eefe0000000p-4, -0x1.3b20200000000p-7, 0x1.3295980000000p-4, 0x1.8c772c0000000p-4, 0x1.3393200000000p-7, 0x1.3316860000000p-2, 0x1.6d6d320000000p-6, -0x1.0653760000000p-5}
}
, {{0x1.c758b80000000p-3, 0x1.9f9b620000000p-5, 0x1.1c9b420000000p-3, 0x1.ebe5b20000000p-8, 0x1.8367f20000000p-11, 0x1.46a53c0000000p-5, -0x1.b571c60000000p-8, 0x1.77204e0000000p-7, 0x1.8510a60000000p-4, -0x1.1113fa0000000p-5, 0x1.b4cc4c0000000p-4, 0x1.6bd9fc0000000p-3, 0x1.1b69020000000p-5, -0x1.0c7b9e0000000p-3, 0x1.4d20840000000p-3, 0x1.329c240000000p-5}
, {-0x1.32ad540000000p-9, -0x1.a11e2a0000000p-4, -0x1.a46ddc0000000p-3, -0x1.18818c0000000p-6, 0x1.213a100000000p-4, -0x1.0917080000000p-2, -0x1.0ead8e0000000p-3, -0x1.42128c0000000p-4, 0x1.fce29c0000000p-4, 0x1.24b61c0000000p-6, -0x1.e2cdea0000000p-6, -0x1.1af5a00000000p-6, -0x1.9c08a00000000p-3, -0x1.8e85de0000000p-4, 0x1.2fe34c0000000p-7, -0x1.bc236e0000000p-3}
, {0x1.35255a0000000p-5, -0x1.40605a0000000p-3, -0x1.9746ca0000000p-4, -0x1.3281020000000p-3, 0x1.57d3280000000p-4, -0x1.27e38a0000000p-2, -0x1.5cd88e0000000p-5, -0x1.6a0c660000000p-5, -0x1.4fa6720000000p-3, 0x1.71b2a60000000p-5, -0x1.18cb220000000p-3, -0x1.92be740000000p-4, -0x1.9dc6660000000p-7, -0x1.f7ff060000000p-4, -0x1.b8d47e0000000p-3, -0x1.3b659e0000000p-4}
}
, {{0x1.8405de0000000p-4, -0x1.bf66fc0000000p-4, -0x1.ba6efe0000000p-3, -0x1.1dfdb80000000p-6, 0x1.5cd7a00000000p-3, -0x1.56d5940000000p-3, -0x1.93c4dc0000000p-4, -0x1.00766e0000000p-3, -0x1.1a66080000000p-6, -0x1.ac7c120000000p-6, -0x1.888ec20000000p-3, 0x1.a45c700000000p-5, -0x1.cd5ae20000000p-4, -0x1.853da00000000p-4, -0x1.303d4e0000000p-5, -0x1.10fd6c0000000p-3}
, {0x1.8c39ac0000000p-8, -0x1.3bfcbc0000000p-2, -0x1.596d5c0000000p-2, -0x1.4a048c0000000p-3, -0x1.96e0bc0000000p-5, -0x1.55819c0000000p-2, -0x1.5d23260000000p-2, -0x1.1bedf40000000p-2, -0x1.1668d40000000p-2, 0x1.751b020000000p-4, -0x1.d998160000000p-3, -0x1.5224aa0000000p-5, -0x1.cbf2580000000p-2, -0x1.edaaae0000000p-3, -0x1.2fdf180000000p-2, -0x1.e19e120000000p-3}
, {-0x1.956d780000000p-4, -0x1.13074e0000000p-6, -0x1.7b2cb40000000p-6, -0x1.5309b00000000p-2, -0x1.ed4f180000000p-6, -0x1.d57b420000000p-3, 0x1.844ff40000000p-4, 0x1.1c3c940000000p-3, -0x1.8c2a260000000p-3, -0x1.b4b1ce0000000p-7, 0x1.48d2e40000000p-3, -0x1.a0c0aa0000000p-4, -0x1.908fd80000000p-5, 0x1.07a0240000000p-3, -0x1.197cc60000000p-4, -0x1.4ca8e80000000p-3}
}
}
, {{{0x1.d13f540000000p-5, -0x1.fba0500000000p-7, 0x1.caa6200000000p-5, 0x1.d209360000000p-4, 0x1.12ecb40000000p-4, 0x1.187c780000000p-4, -0x1.04aba00000000p-3, 0x1.5a4c440000000p-5, 0x1.061eee0000000p-3, 0x1.2f26ba0000000p-4, -0x1.1ca6120000000p-5, 0x1.b1b9980000000p-6, 0x1.0568240000000p-6, 0x1.c6547c0000000p-4, -0x1.49c22a0000000p-5, -0x1.827e2e0000000p-5}
, {0x1.21c0400000000p-3, 0x1.bccc740000000p-12, -0x1.ab34140000000p-6, 0x1.06290a0000000p-5, 0x1.cbbb760000000p-4, 0x1.4a1eb60000000p-5, 0x1.55fc1e0000000p-6, -0x1.a3fe9c0000000p-7, 0x1.81b7520000000p-6, 0x1.406fb60000000p-8, 0x1.c903d00000000p-4, 0x1.a22d2a0000000p-3, 0x1.8c84e80000000p-4, 0x1.f5fe860000000p-5, -0x1.04659e0000000p-4, 0x1.464a840000000p-5}
, {0x1.38b91a0000000p-3, 0x1.89eff60000000p-4, 0x1.8293d00000000p-5, 0x1.6b462e0000000p-8, -0x1.0354da0000000p-5, 0x1.1692880000000p-4, 0x1.581f7e0000000p-4, 0x1.5083460000000p-4, 0x1.0d734c0000000p-4, -0x1.c771920000000p-4, 0x1.47854a0000000p-5, 0x1.e10f320000000p-3, 0x1.31b3c00000000p-4, 0x1.2efcde0000000p-3, 0x1.b3d7d60000000p-5, 0x1.42183e0000000p-6}
}
, {{0x1.cbd05a0000000p-4, 0x1.3e60f80000000p-5, 0x1.f294bc0000000p-6, -0x1.7959540000000p-4, 0x1.fca9100000000p-4, -0x1.df94c00000000p-3, -0x1.7a1bb40000000p-6, 0x1.dee94c0000000p-5, -0x1.7e7f8c0000000p-3, -0x1.33558a0000000p-3, 0x1.8caab40000000p-5, 0x1.0a50de0000000p-3, -0x1.f73e2a0000000p-4, 0x1.80424c0000000p-3, -0x1.1de6cc0000000p-5, 0x1.ff315a0000000p-6}
, {0x1.bbdc900000000p-5, 0x1.16b6420000000p-3, 0x1.0395780000000p-4, 0x1.a7c7f00000000p-4, 0x1.3fe4fe0000000p-3, -0x1.1c4ec80000000p-3, 0x1.d561c40000000p-4, 0x1.2e97c00000000p-3, 0x1.4475440000000p-6, -0x1.fb943a0000000p-4, 0x1.c2f7300000000p-4, 0x1.b9d8da0000000p-5, -0x1.1e57b00000000p-6, 0x1.3bb6720000000p-3, 0x1.157b4e0000000p-4, 0x1.1e40fc0000000p-3}
, {0x1.79b9620000000p-3, 0x1.21d91e0000000p-3, 0x1.01c6d20000000p-5, 0x1.79b5c40000000p-4, 0x1.07fd9c0000000p-3, -0x1.01adee0000000p-5, -0x1.5a30c00000000p-4, 0x1.0a49400000000p-8, 0x1.dca4580000000p-3, 0x1.2e86bc0000000p-4, -0x1.0e5d260000000p-6, 0x1.9eb2800000000p-3, -0x1.30cea20000000p-3, -0x1.6f9e7a0000000p-6, -0x1.28ea140000000p-6, -0x1.b1403a0000000p-6}
}
, {{-0x1.50f5f80000000p-7, -0x1.3b8c5e0000000p-2, -0x1.73fcda0000000p-2, -0x1.2399ae0000000p-2, 0x1.97f28e0000000p-2, -0x1.a18c700000000p-4, -0x1.a63f380000000p-3, -0x1.8c6faa0000000p-2, -0x1.094fb20000000p-2, 0x1.9e2bca0000000p-6, -0x1.9f43b80000000p-3, 0x1.120c3a0000000p-2, -0x1.b7499e0000000p-3, 0x1.94eef40000000p-4, -0x1.8605c80000000p-2, -0x1.3791180000000p-2}
, {0x1.639a700000000p-3, -0x1.936d220000000p-3, -0x1.c7365c0000000p-2, -0x1.8954580000000p-3, 0x1.7fb9340000000p-3, -0x1.3fd3920000000p-2, -0x1.5d801e0000000p-2, -0x1.d6bff80000000p-2, -0x1.973a040000000p-2, 0x1.7dc6560000000p-5, -0x1.12253a0000000p-2, 0x1.4d6de60000000p-2, -0x1.09aa2e0000000p-1, 0x1.54e24e0000000p-3, -0x1.b522d00000000p-2, -0x1.c845020000000p-2}
, {0x1.53d96e0000000p-4, -0x1.24b7f20000000p-1, -0x1.d8dc280000000p-2, -0x1.224bd20000000p-2, 0x1.3161c80000000p-2, -0x1.6023660000000p-3, -0x1.89fddc0000000p-2, -0x1.949f980000000p-2, -0x1.e35b220000000p-2, 0x1.0ae4a40000000p-3, -0x1.fddec00000000p-2, -0x1.51bdf60000000p-5, -0x1.eb46dc0000000p-3, -0x1.b813880000000p-2, -0x1.68c4180000000p-2, -0x1.8582940000000p-2}
}
}
, {{{-0x1.9111200000000p-5, -0x1.92dd780000000p-4, -0x1.0dcf0e0000000p-4, 0x1.9974660000000p-7, -0x1.5e2e780000000p-7, 0x1.192f7c0000000p-5, -0x1.2f48120000000p-5, -0x1.9df5300000000p-8, 0x1.eae0260000000p-5, 0x1.8aedfa0000000p-4, -0x1.f85a9a0000000p-5, -0x1.1927f20000000p-6, 0x1.b93a620000000p-5, 0x1.07a3e40000000p-2, 0x1.260f2c0000000p-6, -0x1.1261fe0000000p-6}
, {-0x1.285a6a0000000p-5, -0x1.fcef860000000p-4, -0x1.8018b00000000p-6, -0x1.a9a27e0000000p-4, 0x1.14c25c0000000p-2, 0x1.d27cec0000000p-4, -0x1.4237860000000p-3, -0x1.d6bed60000000p-4, 0x1.37a8ea0000000p-5, 0x1.10390a0000000p-3, -0x1.88a9fe0000000p-6, 0x1.40280e0000000p-3, -0x1.7079f40000000p-4, 0x1.0aea6c0000000p-2, 0x1.1ecbe40000000p-6, 0x1.f10bdc0000000p-8}
, {-0x1.4b499a0000000p-3, -0x1.e122700000000p-4, -0x1.44d2ba0000000p-3, -0x1.e8ae500000000p-4, 0x1.181cf60000000p-2, -0x1.16c4fa0000000p-5, -0x1.ab440c0000000p-5, -0x1.dd03960000000p-4, -0x1.920f5c0000000p-4, 0x1.3165c40000000p-4, 0x1.2bcc680000000p-4, -0x1.6698900000000p-12, -0x1.b5aede0000000p-6, 0x1.98657a0000000p-7, -0x1.fbafbc0000000p-6, -0x1.b704200000000p-4}
}
, {{-0x1.23e02a0000000p-4, 0x1.74a58e0000000p-4, 0x1.29aea40000000p-4, -0x1.3043080000000p-7, -0x1.5f8b000000000p-3, 0x1.5a54240000000p-4, 0x1.3f70080000000p-4, 0x1.0101da0000000p-3, -0x1.448b120000000p-4, -0x1.96d4160000000p-4, 0x1.5920180000000p-4, 0x1.2c43c80000000p-4, -0x1.067c720000000p-6, 0x1.bcfb500000000p-5, 0x1.1fd0380000000p-4, 0x1.0383240000000p-3}
, {-0x1.52971a0000000p-2, 0x1.a99ed60000000p-5, 0x1.a919500000000p-4, 0x1.27cc6c0000000p-4, -0x1.0e02f20000000p-3, 0x1.29d6740000000p-3, -0x1.4947480000000p-6, 0x1.98841a0000000p-4, 0x1.e1fda20000000p-6, 0x1.57b9260000000p-8, 0x1.fbb0c40000000p-5, -0x1.26fcee0000000p-4, 0x1.b782fc0000000p-4, 0x1.2c11a60000000p-3, 0x1.5534ae0000000p-3, 0x1.1b70640000000p-3}
, {-0x1.2ab2880000000p-5, 0x1.2d11a60000000p-5, -0x1.8ad0300000000p-6, -0x1.99c4a80000000p-5, -0x1.63b2ec0000000p-8, 0x1.d6e3800000000p-4, -0x1.cf55820000000p-6, -0x1.e55bb20000000p-7, 0x1.8202860000000p-4, 0x1.4adb280000000p-4, 0x1.5317780000000p-6, 0x1.3119820000000p-7, 0x1.0e02800000000p-5, -0x1.d337ba0000000p-8, 0x1.00cbba0000000p-5, -0x1.573c640000000p-4}
}
, {{0x1.412e980000000p-5, 0x1.d885ca0000000p-5, 0x1.2e5cd20000000p-6, 0x1.876da60000000p-5, -0x1.6086740000000p-3, 0x1.4658600000000p-5, 0x1.fd4f540000000p-7, -0x1.4b92960000000p-6, -0x1.1399f20000000p-3, -0x1.73a7760000000p-5, -0x1.975b9e0000000p-8, -0x1.af54d40000000p-5, 0x1.e76b680000000p-6, -0x1.fa9b640000000p-4, -0x1.a8f86e0000000p-12, -0x1.55648e0000000p-9}
, {-0x1.16c3280000000p-4, 0x1.b621c20000000p-4, 0x1.8dc7480000000p-7, 0x1.1478ce0000000p-5, -0x1.43c4440000000p-2, -0x1.2405ac0000000p-5, 0x1.6df7f40000000p-4, 0x1.4464a60000000p-4, 0x1.9890800000000p-8, -0x1.ede61e0000000p-5, 0x1.2345b80000000p-4, -0x1.131b4e0000000p-5, -0x1.002c260000000p-8, -0x1.3564be0000000p-3, 0x1.82ee5c0000000p-8, -0x1.e9ac5c0000000p-5}
, {0x1.53e40c0000000p-7, -0x1.837ebe0000000p-5, -0x1.63f7fe0000000p-4, 0x1.f4f1840000000p-4, 0x1.7231f20000000p-5, 0x1.2395220000000p-9, -0x1.2b27980000000p-5, -0x1.84f08a0000000p-4, 0x1.0cc0c00000000p-7, -0x1.a54d7a0000000p-4, 0x1.0a287a0000000p-5, 0x1.804dc80000000p-6, -0x1.ab07160000000p-5, 0x1.6569ec0000000p-4, 0x1.7202f20000000p-7, -0x1.f358200000000p-5}
}
}
, {{{0x1.cb7b280000000p-6, 0x1.5f8c660000000p-7, -0x1.9206200000000p-5, 0x1.8d37620000000p-6, -0x1.98cab80000000p-4, -0x1.29455c0000000p-4, 0x1.e8252e0000000p-6, -0x1.f93bbc0000000p-9, -0x1.c2e91c0000000p-5, 0x1.4e11fe0000000p-5, -0x1.5cdfe00000000p-3, 0x1.777d4c0000000p-4, -0x1.0f86900000000p-5, -0x1.5856c40000000p-3, 0x1.8ea0720000000p-5, -0x1.1e138e0000000p-7}
, {0x1.7da6e40000000p-3, -0x1.faddd40000000p-5, -0x1.b50e120000000p-3, -0x1.54649a0000000p-4, 0x1.0b66340000000p-4, -0x1.c353ac0000000p-3, -0x1.cd0b400000000p-3, -0x1.0ccb020000000p-2, -0x1.c11bb00000000p-3, 0x1.430c980000000p-4, -0x1.4bc51c0000000p-3, 0x1.65458c0000000p-5, -0x1.6c93e80000000p-3, -0x1.9e80440000000p-5, -0x1.53ddb00000000p-3, -0x1.199acc0000000p-2}
, {0x1.0ee79e0000000p-6, -0x1.e9193a0000000p-4, -0x1.851fde0000000p-8, 0x1.57449a0000000p-7, 0x1.a3c9280000000p-4, -0x1.366f100000000p-4, -0x1.e1bf7e0000000p-4, -0x1.a0f84c0000000p-4, -0x1.7e85340000000p-3, -0x1.2317700000000p-3, -0x1.043e060000000p-4, -0x1.8bcf840000000p-5, -0x1.ae83800000000p-6, -0x1.07130e0000000p-3, -0x1.125eec0000000p-3, -0x1.0d37b00000000p-4}
}
, {{-0x1.b8e8140000000p-7, 0x1.1f908e0000000p-4, 0x1.6ba58c0000000p-4, 0x1.2fbd2a0000000p-8, 0x1.cb9c8c0000000p-5, -0x1.b70edc0000000p-8, 0x1.57561a0000000p-5, 0x1.78a3fa0000000p-7, -0x1.9544b40000000p-5, -0x1.eade7c0000000p-3, -0x1.34718c0000000p-4, -0x1.0aff100000000p-3, 0x1.d110cc0000000p-6, -0x1.646e900000000p-3, 0x1.53134e0000000p-5, -0x1.6ea6080000000p-7}
, {-0x1.3824ba0000000p-3, -0x1.50c85c0000000p-3, 0x1.0f25500000000p-4, 0x1.dce2860000000p-8, -0x1.1370980000000p-4, 0x1.899eac0000000p-4, 0x1.1a07a40000000p-4, 0x1.ffdaaa0000000p-5, -0x1.1bba040000000p-4, -0x1.e719260000000p-2, -0x1.630b220000000p-6, -0x1.36efc60000000p-3, 0x1.d846ec0000000p-5, -0x1.72aac00000000p-2, -0x1.6c7b300000000p-4, 0x1.597f180000000p-5}
, {0x1.34f42c0000000p-3, 0x1.23ed700000000p-3, 0x1.0ad8040000000p-3, 0x1.ea3d880000000p-5, -0x1.bc411e0000000p-3, 0x1.0f22500000000p-4, 0x1.eb61e60000000p-4, -0x1.b214b60000000p-8, 0x1.1a1d840000000p-5, 0x1.b09bf40000000p-9, -0x1.feed320000000p-7, 0x1.3f97860000000p-3, 0x1.b75dc00000000p-5, -0x1.9bb3880000000p-3, 0x1.2f2bb60000000p-4, 0x1.a8257e0000000p-4}
}
, {{0x1.b9eb220000000p-3, -0x1.c87abe0000000p-6, 0x1.19f4060000000p-4, 0x1.21f29c0000000p-5, -0x1.2595620000000p-5, 0x1.0e31f40000000p-4, 0x1.0d85200000000p-3, -0x1.0592660000000p-5, 0x1.11437c0000000p-3, -0x1.e3d98a0000000p-3, -0x1.e9b7f80000000p-6, 0x1.d2cf140000000p-5, 0x1.60501c0000000p-5, -0x1.483dd00000000p-5, 0x1.1f6b140000000p-4, 0x1.09b03a0000000p-3}
, {0x1.48ffcc0000000p-2, 0x1.56f8320000000p-3, 0x1.8dd73a0000000p-4, 0x1.2e1a640000000p-7, -0x1.dc14da0000000p-3, 0x1.e6141a0000000p-5, 0x1.675d780000000p-4, 0x1.6d89400000000p-4, -0x1.da56a20000000p-9, -0x1.4c45d80000000p-2, 0x1.dcdc200000000p-6, 0x1.df00ca0000000p-3, 0x1.5ced900000000p-3, -0x1.1484420000000p-5, 0x1.aee09e0000000p-4, 0x1.35f08c0000000p-3}
, {0x1.48c9c80000000p-3, 0x1.1f9c5e0000000p-3, 0x1.04c35a0000000p-4, 0x1.7150e20000000p-4, -0x1.be66660000000p-3, 0x1.9b3bce0000000p-7, -0x1.1bc8080000000p-5, -0x1.8aa3620000000p-4, 0x1.6242b20000000p-5, 0x1.00065c0000000p-7, 0x1.205fc20000000p-4, 0x1.10377a0000000p-2, -0x1.24e9b80000000p-7, 0x1.5eb3ba0000000p-3, 0x1.79671a0000000p-4, 0x1.752c540000000p-7}
}
}
, {{{-0x1.8b803a0000000p-5, 0x1.f21ec40000000p-4, -0x1.b76a0a0000000p-6, 0x1.4f69240000000p-6, -0x1.f67f940000000p-4, -0x1.8276dc0000000p-6, 0x1.880b0c0000000p-4, 0x1.9953b80000000p-5, 0x1.6507700000000p-5, -0x1.bb1cac0000000p-4, 0x1.a80c4e0000000p-4, 0x1.3c7a4a0000000p-4, 0x1.07d9c00000000p-4, 0x1.af8a300000000p-5, 0x1.1681780000000p-5, -0x1.9ee1cc0000000p-8}
, {0x1.b61d660000000p-7, 0x1.9c373e0000000p-6, 0x1.d8ac640000000p-5, 0x1.a747680000000p-4, 0x1.85d8640000000p-10, 0x1.0571cc0000000p-5, 0x1.7cdfec0000000p-5, -0x1.1c34160000000p-5, 0x1.d267200000000p-6, -0x1.17cb900000000p-3, 0x1.1560a00000000p-3, -0x1.417c080000000p-14, 0x1.25dcb20000000p-3, 0x1.a657760000000p-6, 0x1.c6befe0000000p-5, -0x1.0c9a3c0000000p-5}
, {-0x1.4add9e0000000p-6, 0x1.b421fc0000000p-4, 0x1.28a9a00000000p-3, -0x1.3066c20000000p-5, 0x1.19fade0000000p-4, 0x1.636e940000000p-6, 0x1.7333e00000000p-6, 0x1.d3cc140000000p-6, -0x1.7ef38a0000000p-6, -0x1.0c2a160000000p-3, 0x1.20dd520000000p-3, 0x1.7aae260000000p-3, 0x1.16d5a40000000p-4, -0x1.8fd9d00000000p-9, 0x1.3905680000000p-7, 0x1.a0dcd40000000p-4}
}
, {{0x1.2c19ea0000000p-5, 0x1.33cf9a0000000p-6, -0x1.0c3ad00000000p-5, 0x1.2d98fc0000000p-9, -0x1.8bb9620000000p-3, 0x1.3ab8340000000p-4, 0x1.9676420000000p-5, 0x1.38a6380000000p-4, 0x1.1107580000000p-3, 0x1.2357de0000000p-6, -0x1.d014c80000000p-6, 0x1.2d49440000000p-4, -0x1.265d340000000p-4, 0x1.5b081c0000000p-4, 0x1.7b5f9e0000000p-6, 0x1.d503c00000000p-4}
, {0x1.165fe40000000p-4, 0x1.0dff5a0000000p-3, 0x1.d348a80000000p-4, -0x1.5cd3e00000000p-5, -0x1.a21dd40000000p-4, 0x1.4264e00000000p-5, 0x1.0f21820000000p-4, 0x1.531bae0000000p-8, 0x1.f17a560000000p-6, -0x1.182c5c0000000p-3, 0x1.3fa68c0000000p-3, 0x1.17e9080000000p-2, 0x1.d3dd3c0000000p-8, 0x1.96c3fe0000000p-3, 0x1.8a73d40000000p-3, -0x1.850a780000000p-6}
, {0x1.1b9f760000000p-3, 0x1.a210ac0000000p-4, -0x1.7f16ce0000000p-5, 0x1.21e49e0000000p-5, -0x1.9137aa0000000p-6, 0x1.28fe680000000p-5, -0x1.4dd12a0000000p-5, 0x1.848e220000000p-8, -0x1.ee748a0000000p-4, 0x1.6ecf640000000p-9, -0x1.9e05da0000000p-6, 0x1.bceee00000000p-4, -0x1.a22b820000000p-6, 0x1.8b4a8a0000000p-3, -0x1.9277fe0000000p-5, -0x1.a4de600000000p-7}
}
, {{0x1.d84dca0000000p-4, 0x1.a1e8c80000000p-6, -0x1.2d5c120000000p-5, -0x1.1ee7520000000p-6, -0x1.0e10880000000p-8, -0x1.55bd1c0000000p-3, -0x1.a326c80000000p-6, -0x1.51a3da0000000p-5, -0x1.96781a0000000p-5, 0x1.22e5480000000p-5, 0x1.9926400000000p-6, 0x1.c4df320000000p-4, -0x1.0dc95e0000000p-4, 0x1.3c3c540000000p-4, -0x1.1506420000000p-3, -0x1.28ccfc0000000p-3}
, {0x1.510c860000000p-4, -0x1.1f9bba0000000p-4, -0x1.24e9ec0000000p-3, -0x1.e33a5e0000000p-3, 0x1.4578d80000000p-4, -0x1.de2e2a0000000p-3, -0x1.b4b4660000000p-5, -0x1.a4ceda0000000p-3, -0x1.c3e44c0000000p-3, -0x1.08ee420000000p-2, -0x1.a3b03a0000000p-4, 0x1.c4d5840000000p-3, -0x1.8246560000000p-3, 0x1.6db2240000000p-5, -0x1.c2520c0000000p-3, -0x1.d8a1920000000p-3}
, {0x1.37cae80000000p-4, -0x1.5130580000000p-5, -0x1.8b90560000000p-5, -0x1.3ac9640000000p-11, -0x1.413e540000000p-4, -0x1.1168d60000000p-3, -0x1.3950ea0000000p-4, -0x1.403f2e0000000p-4, -0x1.6e30d60000000p-7, 0x1.3fc7500000000p-4, -0x1.24703a0000000p-4, 0x1.0a978a0000000p-5, -0x1.776a840000000p-4, -0x1.affd680000000p-5, -0x1.01fa780000000p-9, -0x1.4fa1ce0000000p-9}
}
}
, {{{-0x1.6970400000000p-4, 0x1.66d67e0000000p-4, 0x1.86c8580000000p-6, -0x1.832c1a0000000p-7, -0x1.6699000000000p-4, -0x1.0ef2ee0000000p-3, 0x1.d1d4420000000p-9, 0x1.4a1f4c0000000p-6, 0x1.49effa0000000p-5, -0x1.5440ba0000000p-5, -0x1.6f64d20000000p-6, -0x1.5082e60000000p-5, -0x1.06f0be0000000p-7, 0x1.a65d060000000p-4, 0x1.d81f880000000p-5, -0x1.19d1520000000p-4}
, {-0x1.e5cb320000000p-3, -0x1.b663cc0000000p-5, 0x1.3138f60000000p-4, -0x1.6fc3480000000p-5, 0x1.c2baa80000000p-4, 0x1.225ab20000000p-4, -0x1.625b060000000p-5, 0x1.a9e18e0000000p-4, 0x1.5ffdb00000000p-4, -0x1.2684680000000p-3, -0x1.276a9a0000000p-10, 0x1.f8e55e0000000p-6, 0x1.ebb7320000000p-5, 0x1.3feca60000000p-6, 0x1.44c5260000000p-4, -0x1.f480ea0000000p-4}
, {-0x1.e920f20000000p-3, -0x1.78a1de0000000p-8, -0x1.37d9b20000000p-5, 0x1.1243e20000000p-5, -0x1.b528620000000p-5, 0x1.50f4d60000000p-4, -0x1.03d9660000000p-6, 0x1.1916920000000p-5, 0x1.75c7240000000p-4, 0x1.0694080000000p-3, -0x1.b5ea860000000p-4, -0x1.30fc440000000p-5, -0x1.4a9dde0000000p-5, 0x1.2e14de0000000p-5, 0x1.a190640000000p-4, 0x1.ae20aa0000000p-5}
}
, {{0x1.5eeb840000000p-4, -0x1.6a0d160000000p-5, -0x1.b7832a0000000p-4, -0x1.29a9960000000p-2, 0x1.911a800000000p-5, -0x1.f902780000000p-3, -0x1.83bf7e0000000p-4, -0x1.c0b2b80000000p-3, -0x1.8c5a340000000p-3, 0x1.9e3ef60000000p-4, 0x1.8340b20000000p-5, 0x1.2002ca0000000p-3, -0x1.1278100000000p-2, 0x1.16821e0000000p-4, -0x1.4949060000000p-4, -0x1.069b840000000p-3}
, {-0x1.cae8ec0000000p-4, 0x1.91af100000000p-4, 0x1.0df1500000000p-6, 0x1.4b4bf80000000p-4, -0x1.450ada0000000p-4, -0x1.429fdc0000000p-6, 0x1.217a060000000p-3, 0x1.03075e0000000p-4, -0x1.49dca80000000p-3, -0x1.0652f80000000p-2, 0x1.2eb2380000000p-3, 0x1.1980ba0000000p-4, 0x1.f1ff360000000p-4, 0x1.f539340000000p-3, -0x1.21a3560000000p-6, 0x1.d4998a0000000p-6}
, {-0x1.6556440000000p-3, 0x1.f791120000000p-9, 0x1.07524a0000000p-4, 0x1.01262c0000000p-3, -0x1.9913700000000p-3, 0x1.cb36880000000p-4, 0x1.b534280000000p-6, 0x1.2e82980000000p-3, 0x1.dcf37a0000000p-3, 0x1.ea22780000000p-7, 0x1.5f3e120000000p-7, 0x1.1ea3220000000p-3, 0x1.d6e2c20000000p-5, 0x1.86f09c0000000p-4, 0x1.9ddc460000000p-5, 0x1.0c078c0000000p-5}
}
, {{-0x1.b3ec060000000p-4, -0x1.ba9b640000000p-3, -0x1.35441e0000000p-2, -0x1.46c91e0000000p-2, 0x1.5c9c800000000p-3, -0x1.14a4040000000p-3, -0x1.ecf7a20000000p-3, -0x1.f797d40000000p-3, -0x1.fe9b9a0000000p-3, -0x1.098c700000000p-8, -0x1.06cd620000000p-2, -0x1.de5a020000000p-5, -0x1.eff36e0000000p-3, -0x1.a003dc0000000p-3, -0x1.94f81c0000000p-2, -0x1.ae76120000000p-3}
, {0x1.b98fd60000000p-3, 0x1.3d3c020000000p-4, -0x1.5f82b40000000p-3, -0x1.5e04620000000p-3, 0x1.88f4c00000000p-5, -0x1.6014c00000000p-2, 0x1.2364ac0000000p-5, -0x1.f956fc0000000p-3, -0x1.84fff40000000p-2, -0x1.a4007e0000000p-3, 0x1.0eb87e0000000p-4, 0x1.342c560000000p-2, -0x1.4bd8660000000p-3, 0x1.0a42d80000000p-2, -0x1.fbb1f40000000p-4, -0x1.bdf3120000000p-3}
, {-0x1.5f0fe00000000p-4, 0x1.51b4100000000p-6, -0x1.9e17e20000000p-4, -0x1.610d4a0000000p-4, 0x1.b86ba00000000p-5, 0x1.feeae60000000p-6, -0x1.f93c4c0000000p-4, 0x1.3507160000000p-5, 0x1.3eb7340000000p-5, -0x1.9938ea0000000p-3, -0x1.db163a0000000p-9, 0x1.a8b3260000000p-3, 0x1.ee6be20000000p-10, 0x1.54b2540000000p-3, 0x1.183b960000000p-7, -0x1.2347d80000000p-6}
}
}
, {{{-0x1.2f76080000000p-6, 0x1.f665e00000000p-6, 0x1.4ac7560000000p-5, -0x1.5a5cea0000000p-4, -0x1.97cc1a0000000p-4, -0x1.01a5e20000000p-3, -0x1.20914e0000000p-5, 0x1.afc70c0000000p-5, -0x1.cf88660000000p-4, -0x1.ba5e3a0000000p-7, 0x1.3636f20000000p-5, -0x1.10112e0000000p-3, -0x1.8e32e80000000p-5, -0x1.63cdd20000000p-3, 0x1.057ffa0000000p-4, 0x1.6d74b80000000p-6}
, {-0x1.e5701e0000000p-3, -0x1.7dea4c0000000p-5, 0x1.50c54c0000000p-5, 0x1.bdb7560000000p-4, -0x1.5e16520000000p-3, 0x1.6ecc8a0000000p-5, 0x1.3d71f00000000p-3, 0x1.4ce9840000000p-4, 0x1.2772ca0000000p-7, 0x1.af3f1e0000000p-6, -0x1.1cb2bc0000000p-6, -0x1.ba4b7a0000000p-2, -0x1.f10a9a0000000p-7, -0x1.b313ca0000000p-3, 0x1.607c8e0000000p-7, 0x1.1768320000000p-4}
, {0x1.72eb320000000p-4, 0x1.f47cee0000000p-4, 0x1.94d7ea0000000p-6, 0x1.19a90e0000000p-7, -0x1.e9a7f80000000p-8, -0x1.7300a00000000p-4, -0x1.31b3380000000p-5, 0x1.784b360000000p-6, 0x1.0ec4b60000000p-3, 0x1.1de9120000000p-5, -0x1.59fc880000000p-6, 0x1.30d5cc0000000p-4, -0x1.a5ea440000000p-6, -0x1.80a62c0000000p-5, -0x1.00ce7e0000000p-4, -0x1.1f83e40000000p-7}
}
, {{-0x1.7f38fa0000000p-3, 0x1.5483900000000p-5, 0x1.1633ee0000000p-3, -0x1.4b94540000000p-9, -0x1.3286560000000p-2, 0x1.253f3e0000000p-5, 0x1.0dc9ae0000000p-5, -0x1.16b59a0000000p-5, -0x1.4bd0c60000000p-4, 0x1.c778d80000000p-3, 0x1.27556a0000000p-5, -0x1.9b7c880000000p-3, 0x1.607f580000000p-4, -0x1.5eef4c0000000p-8, -0x1.7529c40000000p-5, 0x1.012a0a0000000p-4}
, {-0x1.1769a40000000p-2, -0x1.64102a0000000p-10, 0x1.84c2fc0000000p-4, 0x1.46788e0000000p-5, -0x1.4b55080000000p-2, 0x1.25bbdc0000000p-3, 0x1.02a1900000000p-3, 0x1.6ff5980000000p-3, 0x1.5352aa0000000p-3, 0x1.174ad20000000p-3, 0x1.8c1d840000000p-9, -0x1.b7e1d80000000p-2, 0x1.b897ba0000000p-5, -0x1.6ca2d80000000p-8, 0x1.d9137c0000000p-4, 0x1.b590100000000p-4}
, {0x1.a84fdc0000000p-6, -0x1.9a26e20000000p-4, -0x1.5de8b60000000p-3, 0x1.962a700000000p-6, -0x1.5414aa0000000p-8, -0x1.1875840000000p-7, -0x1.5641160000000p-3, -0x1.93142c0000000p-3, 0x1.ee95360000000p-6, 0x1.1b14a60000000p-2, -0x1.4438240000000p-2, -0x1.b25e640000000p-6, -0x1.05e8800000000p-4, 0x1.4fce2c0000000p-6, -0x1.9e6afe0000000p-4, -0x1.1cc5d40000000p-2}
}
, {{-0x1.33083e0000000p-2, -0x1.9da5c40000000p-5, 0x1.2595400000000p-6, -0x1.eff4da0000000p-5, -0x1.9692b40000000p-3, -0x1.3ebeda0000000p-7, -0x1.5685b40000000p-8, 0x1.4d6bea0000000p-6, -0x1.0e94c40000000p-4, 0x1.92209c0000000p-2, 0x1.0776340000000p-5, -0x1.ac98ba0000000p-2, 0x1.7185940000000p-6, -0x1.27ff5c0000000p-5, -0x1.4aa3300000000p-6, -0x1.39270a0000000p-5}
, {-0x1.c073d20000000p-3, 0x1.07e9fe0000000p-6, 0x1.a9bebc0000000p-6, -0x1.0011c00000000p-9, -0x1.fef9960000000p-3, 0x1.8763780000000p-6, 0x1.efd2580000000p-4, 0x1.9e931e0000000p-4, -0x1.93a85a0000000p-9, 0x1.9b34bc0000000p-4, 0x1.c6d4fa0000000p-5, -0x1.868aba0000000p-4, 0x1.8021a40000000p-4, 0x1.b1d96e0000000p-3, 0x1.c096e00000000p-5, 0x1.ae577c0000000p-4}
, {-0x1.9794f00000000p-4, -0x1.a6b6980000000p-3, -0x1.3e07040000000p-5, -0x1.1195ea0000000p-9, 0x1.14d4920000000p-4, 0x1.b8af420000000p-5, -0x1.20fe8a0000000p-3, -0x1.586d880000000p-4, -0x1.a03d640000000p-5, 0x1.f248480000000p-4, -0x1.2436ce0000000p-3, -0x1.5e3fec0000000p-4, 0x1.7933d00000000p-7, -0x1.7928980000000p-4, -0x1.8513900000000p-6, -0x1.386b3e0000000p-5}
}
}
, {{{0x1.0a3f460000000p-3, 0x1.029f540000000p-6, 0x1.f849580000000p-9, -0x1.a14b440000000p-4, -0x1.49d3700000000p-8, -0x1.b426360000000p-3, 0x1.9edb1e0000000p-7, 0x1.af5c560000000p-7, -0x1.fccb680000000p-5, -0x1.3c26400000000p-6, 0x1.8828720000000p-4, 0x1.a800800000000p-4, -0x1.53bf2e0000000p-5, 0x1.533e000000000p-3, 0x1.1565060000000p-4, -0x1.69499e0000000p-4}
, {0x1.b367e80000000p-7, 0x1.6438ec0000000p-5, 0x1.91f9e60000000p-8, -0x1.60bf520000000p-4, -0x1.d62ffc0000000p-6, -0x1.9d0bca0000000p-4, 0x1.23c5e20000000p-3, -0x1.2e19980000000p-8, -0x1.002ad00000000p-6, 0x1.a30e740000000p-4, 0x1.3c0df60000000p-4, 0x1.f0616e0000000p-4, 0x1.afeb840000000p-5, 0x1.7658800000000p-3, 0x1.2c090e0000000p-5, 0x1.c182940000000p-4}
, {0x1.a76de00000000p-5, 0x1.b3bf240000000p-3, 0x1.a23f360000000p-4, 0x1.0edd480000000p-3, -0x1.ded7f40000000p-4, 0x1.8ffdd40000000p-4, 0x1.60c9da0000000p-3, 0x1.5572be0000000p-3, 0x1.0385d20000000p-5, -0x1.f9cc900000000p-3, 0x1.dbf57c0000000p-4, 0x1.07500c0000000p-3, 0x1.4bb3120000000p-6, 0x1.1b2c120000000p-3, 0x1.5b93fc0000000p-4, 0x1.435cc00000000p-3}
}
, {{-0x1.72e8fa0000000p-7, -0x1.43c1720000000p-2, -0x1.7b99360000000p-2, -0x1.84ff6e0000000p-3, 0x1.7f62dc0000000p-2, 0x1.0a8cb80000000p-11, -0x1.ea4cd80000000p-2, -0x1.1af7d00000000p-1, -0x1.546e780000000p-4, 0x1.2abbb20000000p-3, -0x1.a747080000000p-2, 0x1.6c75480000000p-4, -0x1.b8d1c20000000p-3, 0x1.628ad80000000p-4, -0x1.f0e9e80000000p-2, -0x1.a45e600000000p-2}
, {0x1.993ace0000000p-3, -0x1.46fe9e0000000p-4, -0x1.aa1a100000000p-3, -0x1.8fbcb80000000p-3, 0x1.2007380000000p-2, -0x1.fb72d60000000p-3, -0x1.ab3ec00000000p-3, -0x1.b9381e0000000p-2, -0x1.4dea740000000p-2, 0x1.e796c60000000p-7, -0x1.21e8d80000000p-3, 0x1.17707a0000000p-2, -0x1.a5ef6c0000000p-2, 0x1.42072e0000000p-3, -0x1.739c320000000p-2, -0x1.d25cbc0000000p-2}
, {0x1.5053ee0000000p-2, -0x1.fd7e540000000p-4, -0x1.e0f37a0000000p-3, -0x1.7856640000000p-4, 0x1.483da60000000p-3, -0x1.a1f6fc0000000p-2, -0x1.9368aa0000000p-3, -0x1.e3b1d20000000p-3, -0x1.a1c14c0000000p-2, -0x1.5ad32a0000000p-5, -0x1.af4b280000000p-4, 0x1.0b9ec80000000p-2, -0x1.70279c0000000p-2, -0x1.a7d0fa0000000p-7, -0x1.d304a00000000p-3, -0x1.384dbc0000000p-2}
}
, {{-0x1.490efc0000000p-2, -0x1.9c86bc0000000p-8, 0x1.38f17e0000000p-3, 0x1.5a882a0000000p-4, 0x1.bb692c0000000p-3, 0x1.848d020000000p-3, -0x1.43c6260000000p-6, 0x1.eb8c560000000p-5, 0x1.88a0b00000000p-4, 0x1.b30dfc0000000p-4, 0x1.b387600000000p-5, -0x1.9a4a6a0000000p-3, 0x1.3970cc0000000p-3, -0x1.044f500000000p-4, 0x1.72ffdc0000000p-6, 0x1.7f254c0000000p-3}
, {-0x1.f1804a0000000p-3, -0x1.9478680000000p-2, -0x1.a654e40000000p-4, 0x1.6893da0000000p-7, 0x1.0d74f60000000p-3, 0x1.c17ca80000000p-6, -0x1.f422b40000000p-6, 0x1.e9f4160000000p-5, 0x1.8ee4100000000p-6, 0x1.d2c7a60000000p-4, -0x1.03e7220000000p-7, -0x1.a77b380000000p-3, -0x1.64838e0000000p-6, -0x1.2081a80000000p-2, 0x1.592e0e0000000p-5, 0x1.cf59ba0000000p-5}
, {-0x1.2db5160000000p-2, -0x1.45afd20000000p-2, 0x1.ba343c0000000p-6, -0x1.f5ab7e0000000p-5, 0x1.6115480000000p-2, 0x1.0995380000000p-3, -0x1.3073500000000p-4, -0x1.0e37ec0000000p-5, -0x1.687d4c0000000p-5, 0x1.20db6a0000000p-2, -0x1.2038c60000000p-3, -0x1.75a2c80000000p-2, -0x1.b1c4900000000p-5, -0x1.3354400000000p-1, -0x1.4f3ea20000000p-4, 0x1.4146ea0000000p-4}
}
}
, {{{0x1.2f51e80000000p-3, 0x1.0881f80000000p-10, -0x1.15a5d80000000p-2, -0x1.4552700000000p-3, 0x1.4f8d940000000p-5, -0x1.58f14a0000000p-2, -0x1.074f1e0000000p-3, -0x1.17610c0000000p-2, -0x1.83eb200000000p-3, 0x1.58f0140000000p-5, -0x1.a57e300000000p-3, 0x1.d659760000000p-3, -0x1.071de40000000p-2, 0x1.30032a0000000p-2, -0x1.28ea5c0000000p-2, -0x1.5626600000000p-2}
, {0x1.a392420000000p-3, 0x1.fea4660000000p-4, -0x1.8f33820000000p-5, -0x1.fb6b2c0000000p-3, 0x1.dbb6320000000p-4, -0x1.12652c0000000p-1, -0x1.748b8e0000000p-6, -0x1.1396260000000p-3, -0x1.60bc5a0000000p-2, -0x1.c15a720000000p-4, -0x1.6329b00000000p-4, 0x1.1be3420000000p-2, -0x1.6db70c0000000p-2, 0x1.d7ad180000000p-3, -0x1.bd8a400000000p-4, -0x1.908fa00000000p-2}
, {0x1.7dabda0000000p-3, 0x1.af75a00000000p-4, -0x1.1e93140000000p-4, -0x1.9a7f5c0000000p-4, 0x1.349ea20000000p-5, -0x1.ac09d60000000p-2, 0x1.568d000000000p-5, -0x1.11eaae0000000p-4, -0x1.69e42c0000000p-3, -0x1.8ed85a0000000p-5, 0x1.66d3f00000000p-4, 0x1.0ff64c0000000p-2, -0x1.f9c8800000000p-3, 0x1.117cb20000000p-3, -0x1.ec20e40000000p-5, -0x1.2782ec0000000p-2}
}
, {{-0x1.edb72a0000000p-3, -0x1.70953e0000000p-2, -0x1.464b700000000p-4, 0x1.3819b20000000p-3, 0x1.5f32280000000p-4, 0x1.c41f2a0000000p-3, -0x1.0629d20000000p-4, 0x1.fad1140000000p-5, 0x1.907ad60000000p-4, -0x1.e727b40000000p-4, -0x1.5e1e6c0000000p-3, -0x1.2d29ca0000000p-4, 0x1.19c4040000000p-4, -0x1.17ad600000000p-2, 0x1.7d6d500000000p-4, 0x1.763d320000000p-3}
, {-0x1.4a8ea40000000p-3, -0x1.0222a00000000p-1, -0x1.09a1a60000000p-4, -0x1.4081fa0000000p-4, 0x1.bda94c0000000p-3, 0x1.7b43220000000p-4, -0x1.23c2740000000p-3, -0x1.1fe9400000000p-3, -0x1.3cea820000000p-5, -0x1.bf4e3c0000000p-6, -0x1.cc5e940000000p-3, -0x1.4f7d820000000p-4, 0x1.2d89280000000p-4, -0x1.36a1a40000000p-2, -0x1.30925c0000000p-3, 0x1.78d4ca0000000p-4}
, {-0x1.94c8920000000p-4, -0x1.981dda0000000p-2, -0x1.29a1980000000p-3, -0x1.8926980000000p-3, 0x1.37e6640000000p-4, 0x1.638d0c0000000p-4, -0x1.0922ec0000000p-4, -0x1.1b024a0000000p-4, -0x1.f4f8a60000000p-3, 0x1.4e1edc0000000p-3, -0x1.ac70c40000000p-4, -0x1.1a1d320000000p-2, -0x1.893b840000000p-5, -0x1.7d3d1a0000000p-2, -0x1.e3abd20000000p-4, -0x1.1ddfaa0000000p-7}
}
, {{0x1.af9e280000000p-4, 0x1.69bd6c0000000p-3, 0x1.a85be80000000p-4, 0x1.c90de40000000p-5, 0x1.59bb220000000p-6, -0x1.090aec0000000p-5, 0x1.90877e0000000p-4, 0x1.928e6c0000000p-6, 0x1.7200760000000p-6, -0x1.8635d20000000p-4, 0x1.1d5c060000000p-5, 0x1.18e4500000000p-3, 0x1.3ef1840000000p-11, 0x1.2181c20000000p-3, 0x1.f12c040000000p-4, -0x1.1efc2c0000000p-5}
, {-0x1.659fb80000000p-6, -0x1.19bec40000000p-6, 0x1.ad27320000000p-4, 0x1.f760820000000p-4, 0x1.04848c0000000p-6, 0x1.30c25e0000000p-3, 0x1.4e0ffe0000000p-4, 0x1.1a05cc0000000p-3, 0x1.c998a60000000p-5, -0x1.dfd4ba0000000p-4, 0x1.b393860000000p-4, 0x1.772b8a0000000p-3, 0x1.831c420000000p-8, 0x1.0411240000000p-4, 0x1.544a460000000p-4, 0x1.b9221e0000000p-4}
, {-0x1.306d9c0000000p-3, -0x1.0288400000000p-5, 0x1.48714c0000000p-4, 0x1.9e10560000000p-6, 0x1.df2eea0000000p-4, 0x1.e094a60000000p-4, 0x1.d77a220000000p-4, 0x1.a7d2ba0000000p-4, 0x1.267bb60000000p-6, -0x1.3f2e7a0000000p-3, 0x1.28f1d60000000p-3, -0x1.af9e960000000p-4, 0x1.0ba30e0000000p-3, -0x1.1f2c8a0000000p-4, 0x1.0d879a0000000p-4, 0x1.46cf020000000p-4}
}
}
, {{{0x1.36066c0000000p-2, -0x1.2c74040000000p-4, -0x1.2199b80000000p-2, -0x1.3de1860000000p-4, 0x1.5c43000000000p-4, -0x1.53f6420000000p-2, -0x1.e48dd60000000p-3, -0x1.1829060000000p-3, -0x1.d37abe0000000p-3, -0x1.7f0f840000000p-4, -0x1.921af00000000p-4, 0x1.bb56300000000p-3, -0x1.b174920000000p-3, -0x1.67dff40000000p-4, -0x1.5c67700000000p-4, -0x1.3c52c80000000p-2}
, {-0x1.148aae0000000p-3, -0x1.ad25c80000000p-3, -0x1.08ed000000000p-6, -0x1.7934b60000000p-3, -0x1.0c39ac0000000p-14, -0x1.eb97f20000000p-4, 0x1.3e9d920000000p-9, -0x1.7ce4760000000p-4, -0x1.6297660000000p-2, -0x1.f41ec40000000p-3, -0x1.9c96000000000p-4, -0x1.192bd60000000p-2, 0x1.6d1ebe0000000p-4, -0x1.a60ba20000000p-3, -0x1.4af2ba0000000p-4, -0x1.fae3400000000p-4}
, {-0x1.500cfc0000000p-3, 0x1.5c73fe0000000p-3, 0x1.f9e3dc0000000p-9, 0x1.9a3a100000000p-5, -0x1.a9638e0000000p-4, 0x1.2c776e0000000p-3, 0x1.a6ec640000000p-4, 0x1.468a960000000p-7, 0x1.a1a2360000000p-4, -0x1.cae3f20000000p-3, 0x1.864cd40000000p-9, -0x1.e709b00000000p-3, 0x1.0a606c0000000p-3, -0x1.ca90e80000000p-2, 0x1.8b0b1e0000000p-4, 0x1.5fc81e0000000p-3}
}
, {{0x1.6b58e80000000p-5, -0x1.34c1860000000p-3, -0x1.d001820000000p-4, -0x1.0747380000000p-2, -0x1.d7525a0000000p-5, -0x1.28c2960000000p-3, -0x1.540d820000000p-6, -0x1.6682740000000p-3, -0x1.ee5a0a0000000p-2, 0x1.1e7af20000000p-5, -0x1.5742760000000p-6, -0x1.7383c20000000p-4, -0x1.0a879e0000000p-8, -0x1.40fe7a0000000p-2, -0x1.9709f20000000p-3, -0x1.808db20000000p-4}
, {-0x1.d6aa440000000p-2, 0x1.a130fe0000000p-4, 0x1.1a63620000000p-6, 0x1.82923e0000000p-4, -0x1.964b840000000p-3, 0x1.20eacc0000000p-4, 0x1.31216e0000000p-3, 0x1.b0d9880000000p-6, 0x1.89ac300000000p-4, -0x1.024e4c0000000p-3, 0x1.4dced80000000p-4, -0x1.4de1660000000p-1, 0x1.2e892e0000000p-6, -0x1.84f9540000000p-2, 0x1.0f70980000000p-3, 0x1.86b33c0000000p-4}
, {0x1.1106dc0000000p-3, 0x1.0b89ea0000000p-2, 0x1.90fce40000000p-7, 0x1.349fa00000000p-4, -0x1.29fd700000000p-1, 0x1.a7a9c40000000p-4, 0x1.194caa0000000p-4, 0x1.6a8ada0000000p-5, 0x1.768ade0000000p-3, -0x1.d90ce80000000p-4, 0x1.14e58c0000000p-4, -0x1.4926320000000p-3, 0x1.c1ac3e0000000p-6, -0x1.1a11060000000p-2, 0x1.f3869a0000000p-4, 0x1.492d660000000p-5}
}
, {{-0x1.30825a0000000p-5, -0x1.1d120a0000000p-8, 0x1.84a4ee0000000p-4, -0x1.aa60620000000p-4, 0x1.617ed00000000p-3, 0x1.95a8660000000p-3, 0x1.eb41d40000000p-8, 0x1.ffb4f20000000p-6, -0x1.384de40000000p-3, -0x1.11fe680000000p-3, -0x1.c79f4a0000000p-6, -0x1.63a3e80000000p-3, 0x1.7c8fa60000000p-4, -0x1.4dbef20000000p-3, -0x1.216f8e0000000p-5, 0x1.f9f8060000000p-4}
, {-0x1.b660e60000000p-9, 0x1.d843080000000p-4, 0x1.09fd7e0000000p-3, 0x1.6223620000000p-5, -0x1.cdf1a80000000p-2, 0x1.f5f54a0000000p-7, 0x1.0904d20000000p-3, 0x1.2b788c0000000p-6, 0x1.4990b80000000p-3, 0x1.c952ee0000000p-3, -0x1.cada280000000p-10, -0x1.e1b7f60000000p-4, -0x1.209b920000000p-5, -0x1.4390740000000p-3, -0x1.096e580000000p-5, 0x1.049c040000000p-4}
, {0x1.23a5700000000p-5, -0x1.cff1680000000p-5, -0x1.e961d60000000p-8, -0x1.e245da0000000p-9, -0x1.26a6ba0000000p-2, 0x1.104bbe0000000p-8, 0x1.9ec8420000000p-5, 0x1.2a36ca0000000p-8, 0x1.ee3eba0000000p-4, 0x1.961f6a0000000p-8, -0x1.c174280000000p-5, -0x1.dab64a0000000p-6, 0x1.c21e520000000p-8, -0x1.ff107e0000000p-5, -0x1.4402e20000000p-5, 0x1.151b840000000p-10}
}
}
, {{{0x1.cca19c0000000p-5, -0x1.e041ce0000000p-3, -0x1.06191c0000000p-4, 0x1.09cf040000000p-10, 0x1.b51e0a0000000p-4, 0x1.8348980000000p-3, -0x1.e4c3200000000p-3, -0x1.508a720000000p-3, -0x1.01f6e00000000p-4, -0x1.37f5a80000000p-4, -0x1.a1ae560000000p-3, -0x1.73d9a20000000p-6, -0x1.8230fc0000000p-4, -0x1.27d7e60000000p-2, -0x1.f6d2bc0000000p-4, 0x1.a9b3ce0000000p-7}
, {-0x1.0045880000000p-2, -0x1.d8d8160000000p-3, -0x1.a2a4c80000000p-4, -0x1.ae7ba00000000p-6, 0x1.73652a0000000p-3, 0x1.03e0c60000000p-4, -0x1.5c66ea0000000p-5, -0x1.77d5aa0000000p-3, -0x1.88c6580000000p-4, -0x1.e777a80000000p-3, -0x1.700eb20000000p-3, -0x1.858b400000000p-3, 0x1.1ff62e0000000p-5, -0x1.596ad60000000p-2, -0x1.229b6c0000000p-2, -0x1.81ac000000000p-8}
, {-0x1.17bda20000000p-4, -0x1.f0bac00000000p-4, -0x1.26a55e0000000p-4, -0x1.c7e7420000000p-6, 0x1.d3e6220000000p-4, 0x1.9e5c5a0000000p-5, -0x1.d60ea20000000p-5, -0x1.f0985c0000000p-4, 0x1.ca9f260000000p-5, -0x1.3450e60000000p-3, -0x1.838e800000000p-6, 0x1.12eb940000000p-4, 0x1.9d8a6a0000000p-4, -0x1.067a880000000p-2, -0x1.e53c8a0000000p-4, 0x1.06c7e00000000p-4}
}
, {{0x1.ad9b560000000p-3, 0x1.a646840000000p-4, 0x1.aea0de0000000p-4, 0x1.1735080000000p-3, -0x1.0516fe0000000p-3, -0x1.f8d2200000000p-6, 0x1.c374300000000p-4, 0x1.a183640000000p-6, 0x1.0223540000000p-4, -0x1.7e72660000000p-3, 0x1.b6886e0000000p-4, 0x1.467fea0000000p-3, 0x1.5054fe0000000p-4, 0x1.997ae20000000p-5, 0x1.2c2cbe0000000p-4, 0x1.4118f00000000p-4}
, {0x1.181fd20000000p-2, 0x1.836e8a0000000p-3, 0x1.0668ce0000000p-3, 0x1.9e92580000000p-4, -0x1.62c7fe0000000p-2, 0x1.f03d160000000p-7, 0x1.1bb5e40000000p-3, 0x1.659c660000000p-3, 0x1.603d3e0000000p-3, -0x1.42dbbe0000000p-2, 0x1.68a5a60000000p-4, 0x1.1f09e60000000p-2, 0x1.dd3c460000000p-6, 0x1.613e020000000p-3, 0x1.93c4d60000000p-3, 0x1.4fa1be0000000p-3}
, {0x1.7331b80000000p-4, 0x1.c1e03c0000000p-4, 0x1.42e6440000000p-4, 0x1.10582e0000000p-3, 0x1.068e9e0000000p-3, -0x1.9608b40000000p-6, 0x1.44ce700000000p-5, 0x1.cf82d60000000p-4, -0x1.9df7ce0000000p-6, -0x1.bfbd460000000p-3, 0x1.26eed60000000p-3, 0x1.7bb2a60000000p-3, 0x1.dd75e60000000p-4, 0x1.f027120000000p-3, 0x1.3198760000000p-3, 0x1.8429ae0000000p-4}
}
, {{-0x1.7719e80000000p-4, -0x1.582a7c0000000p-5, -0x1.901e0c0000000p-3, -0x1.c4f0c60000000p-4, 0x1.868a380000000p-9, -0x1.3d3da80000000p-3, -0x1.9bd0960000000p-5, -0x1.3c55400000000p-6, 0x1.670e9e0000000p-9, -0x1.c039560000000p-6, 0x1.42bd140000000p-8, -0x1.2eb01e0000000p-3, -0x1.236eae0000000p-4, 0x1.32c0000000000p-3, 0x1.2595d00000000p-6, -0x1.85dd8a0000000p-3}
, {0x1.64a7140000000p-3, -0x1.7f48240000000p-4, -0x1.08aadc0000000p-4, -0x1.19c5880000000p-3, 0x1.45baf20000000p-4, -0x1.19e1ec0000000p-3, -0x1.ccd14c0000000p-4, -0x1.e683b40000000p-4, 0x1.e412c60000000p-7, -0x1.4f7b1c0000000p-3, -0x1.d532ec0000000p-4, 0x1.b463780000000p-4, -0x1.5dd54e0000000p-4, 0x1.604cb00000000p-4, -0x1.1297060000000p-4, -0x1.4daf780000000p-4}
, {0x1.df4ad00000000p-4, -0x1.4746280000000p-5, -0x1.3cc78e0000000p-8, -0x1.e78b3e0000000p-4, 0x1.1b9adc0000000p-3, -0x1.cf16480000000p-4, -0x1.4c2c5e0000000p-4, -0x1.e32d020000000p-5, -0x1.7e314a0000000p-3, -0x1.0f31d20000000p-3, -0x1.6f1c9a0000000p-4, 0x1.2284c80000000p-2, -0x1.21648a0000000p-4, 0x1.09325e0000000p-2, -0x1.41e21c0000000p-6, -0x1.0ec30e0000000p-5}
}
}
, {{{0x1.0afee60000000p-5, 0x1.07053e0000000p-3, 0x1.1fc5d40000000p-6, -0x1.d2da960000000p-5, -0x1.d981b40000000p-4, -0x1.68f76c0000000p-4, -0x1.5b01880000000p-7, 0x1.ab74b20000000p-4, -0x1.669d140000000p-4, -0x1.c00e0e0000000p-12, 0x1.0c58f20000000p-4, -0x1.5d36860000000p-4, -0x1.f81f6c0000000p-5, 0x1.5123940000000p-4, 0x1.225d4c0000000p-3, 0x1.0daefc0000000p-7}
, {-0x1.9492880000000p-5, 0x1.e42f860000000p-4, 0x1.8fbdfe0000000p-3, 0x1.4499520000000p-4, -0x1.ea37820000000p-4, -0x1.2246400000000p-5, 0x1.2e66ea0000000p-5, 0x1.13ab8c0000000p-3, 0x1.1fdba60000000p-5, -0x1.9b3ba60000000p-4, 0x1.5e012a0000000p-4, 0x1.ee823c0000000p-5, 0x1.57e1b60000000p-9, 0x1.7af8f00000000p-3, 0x1.088b640000000p-3, 0x1.add5d80000000p-5}
, {0x1.a55bfe0000000p-3, 0x1.b10b3c0000000p-3, 0x1.4b956c0000000p-4, 0x1.287d460000000p-3, -0x1.ea18560000000p-4, 0x1.3b46ea0000000p-7, 0x1.8ca2ee0000000p-5, 0x1.20129c0000000p-3, 0x1.1c370a0000000p-3, -0x1.77ab9e0000000p-3, 0x1.711b2a0000000p-3, 0x1.95f8640000000p-3, 0x1.1967fc0000000p-4, 0x1.1db6a20000000p-3, 0x1.3d54640000000p-3, 0x1.cbd73a0000000p-4}
}
, {{0x1.799f200000000p-5, -0x1.57feca0000000p-3, -0x1.ef83620000000p-3, -0x1.2244960000000p-10, 0x1.4d55220000000p-3, -0x1.0eb5940000000p-4, -0x1.9ca7ac0000000p-3, -0x1.0df47a0000000p-2, -0x1.7015d60000000p-6, 0x1.919f800000000p-4, -0x1.8672300000000p-3, 0x1.5801540000000p-6, -0x1.f76f1c0000000p-6, -0x1.318fcc0000000p-4, -0x1.ac2e0e0000000p-4, -0x1.e0a68c0000000p-5}
, {0x1.0356cc0000000p-2, -0x1.b85b8c0000000p-3, -0x1.55189e0000000p-2, -0x1.3357c80000000p-2, 0x1.3c6f700000000p-3, -0x1.0f05440000000p-3, -0x1.8fef060000000p-3, -0x1.53363c0000000p-2, -0x1.1ea14c0000000p-2, -0x1.b526780000000p-4, -0x1.f0e52a0000000p-3, 0x1.59b2940000000p-2, -0x1.7208c40000000p-2, 0x1.1da7fa0000000p-2, -0x1.4600b00000000p-2, -0x1.567c8a0000000p-2}
, {0x1.21e4f60000000p-2, 0x1.0e73b80000000p-5, -0x1.5c42cc0000000p-4, -0x1.2137ec0000000p-3, 0x1.56cf920000000p-2, -0x1.b28a780000000p-3, -0x1.93f75c0000000p-5, -0x1.0face80000000p-3, -0x1.3cd4200000000p-2, -0x1.2070a80000000p-3, -0x1.8dda640000000p-4, 0x1.b7416e0000000p-3, -0x1.8647240000000p-3, 0x1.e1e47c0000000p-4, -0x1.ef94160000000p-4, -0x1.ef348e0000000p-4}
}
, {{-0x1.c851660000000p-2, -0x1.7f99d00000000p-5, 0x1.a05b320000000p-6, 0x1.05af720000000p-3, -0x1.eac2ac0000000p-6, 0x1.b4c5f00000000p-4, 0x1.cb01740000000p-5, 0x1.24c09a0000000p-3, 0x1.435da00000000p-4, 0x1.649be00000000p-4, 0x1.7e91300000000p-4, -0x1.9219080000000p-2, 0x1.1cca4e0000000p-3, -0x1.bb4cc60000000p-5, 0x1.e985400000000p-4, 0x1.4ed8220000000p-4}
, {-0x1.1877300000000p-1, -0x1.97a6640000000p-3, 0x1.01e8920000000p-3, 0x1.13e9ca0000000p-6, 0x1.2341160000000p-7, 0x1.9308820000000p-3, 0x1.970c8c0000000p-5, 0x1.1262f20000000p-3, 0x1.b515760000000p-4, 0x1.6051be0000000p-5, -0x1.968f340000000p-5, -0x1.f7152e0000000p-2, 0x1.1286360000000p-3, -0x1.d7ec5a0000000p-2, 0x1.10239c0000000p-5, 0x1.8831be0000000p-3}
, {-0x1.8755560000000p-2, -0x1.84798e0000000p-4, -0x1.c6acf40000000p-6, -0x1.0ccf1c0000000p-6, 0x1.7529ae0000000p-4, 0x1.3fe9ee0000000p-3, 0x1.1c4a620000000p-7, 0x1.1d20ae0000000p-4, 0x1.bbdbde0000000p-4, -0x1.6503c80000000p-8, -0x1.ba4c580000000p-4, -0x1.2f86720000000p-1, 0x1.669d8c0000000p-4, -0x1.5489080000000p-1, 0x1.5fdb100000000p-7, 0x1.fac38a0000000p-4}
}
}
, {{{-0x1.49719c0000000p-6, 0x1.babfc80000000p-5, 0x1.eb05700000000p-5, 0x1.b852820000000p-4, 0x1.44e1c60000000p-3, 0x1.e8712c0000000p-5, -0x1.a4ab780000000p-4, 0x1.1640420000000p-4, 0x1.a570ae0000000p-4, 0x1.9ed71e0000000p-3, 0x1.836d260000000p-4, -0x1.0c8d840000000p-4, 0x1.a69b3a0000000p-4, 0x1.701e020000000p-5, 0x1.c323ea0000000p-4, 0x1.99de7e0000000p-7}
, {0x1.28be500000000p-4, -0x1.db408e0000000p-4, -0x1.dcbffa0000000p-3, -0x1.f59b620000000p-3, 0x1.515e980000000p-3, -0x1.5a13c60000000p-2, -0x1.5296f80000000p-3, -0x1.c175540000000p-3, -0x1.2312ec0000000p-5, 0x1.53b3140000000p-2, -0x1.6da78c0000000p-3, -0x1.5c58ac0000000p-3, -0x1.2ab7760000000p-2, -0x1.a5e5c00000000p-3, -0x1.846be60000000p-4, -0x1.aa99e40000000p-2}
, {-0x1.d999ac0000000p-4, -0x1.1602880000000p-5, 0x1.4f6e260000000p-5, -0x1.ef1e240000000p-8, -0x1.ae738a0000000p-6, 0x1.499a620000000p-4, -0x1.bca9480000000p-6, 0x1.aee36c0000000p-4, -0x1.15b93c0000000p-2, -0x1.a505320000000p-3, 0x1.1966b60000000p-7, -0x1.2ce45c0000000p-3, 0x1.8075ba0000000p-4, -0x1.7547980000000p-4, -0x1.dba5b20000000p-7, 0x1.ca0abc0000000p-5}
}
, {{0x1.72c91c0000000p-6, 0x1.7e9bda0000000p-5, -0x1.ec78fa0000000p-5, 0x1.8bb8c20000000p-3, 0x1.6f63ee0000000p-4, 0x1.2985180000000p-4, -0x1.3303f60000000p-3, -0x1.5c18960000000p-4, 0x1.f4ce440000000p-3, 0x1.c381e40000000p-4, -0x1.4e92220000000p-3, 0x1.ad33380000000p-6, -0x1.2834720000000p-4, -0x1.36a3960000000p-2, 0x1.9d93a00000000p-6, -0x1.f0834e0000000p-4}
, {-0x1.d1e57e0000000p-4, -0x1.739b620000000p-2, -0x1.1a6f780000000p-3, -0x1.8ca7d20000000p-2, -0x1.3d51da0000000p-7, -0x1.36f5ba0000000p-2, -0x1.26fc6e0000000p-4, -0x1.e83c4c0000000p-4, -0x1.ccd14a0000000p-2, 0x1.9294ea0000000p-3, -0x1.405aae0000000p-4, -0x1.c2bfde0000000p-3, -0x1.0b10e20000000p-3, -0x1.79951a0000000p-3, -0x1.0efc840000000p-2, -0x1.021e380000000p-3}
, {-0x1.3f3b9a0000000p-2, 0x1.412f940000000p-3, 0x1.ded2ce0000000p-4, 0x1.0c813e0000000p-4, -0x1.79d0c00000000p-4, 0x1.048fde0000000p-3, 0x1.f003a80000000p-3, 0x1.4bff020000000p-3, 0x1.bb6ca20000000p-5, -0x1.dfddea0000000p-5, 0x1.012ea80000000p-3, -0x1.984b840000000p-3, 0x1.0f56980000000p-3, 0x1.0c87f40000000p-3, 0x1.fd9cac0000000p-4, 0x1.42ceec0000000p-3}
}
, {{0x1.15e3380000000p-2, -0x1.f29c280000000p-3, -0x1.963d3a0000000p-2, -0x1.abf6c00000000p-4, -0x1.4cfd4a0000000p-5, -0x1.0b33060000000p-2, -0x1.68fbb40000000p-2, -0x1.3bda5c0000000p-2, -0x1.3d4e380000000p-3, -0x1.11277c0000000p-5, -0x1.bf141a0000000p-2, -0x1.9d56d80000000p-5, -0x1.be5f3a0000000p-3, -0x1.9d58080000000p-2, -0x1.06fa8a0000000p-3, -0x1.cbd0b80000000p-2}
, {-0x1.071e360000000p-4, -0x1.34152c0000000p-7, -0x1.86ff2a0000000p-5, -0x1.d06a9e0000000p-3, 0x1.9189600000000p-4, -0x1.211caa0000000p-3, 0x1.2f78260000000p-4, -0x1.8664d20000000p-7, -0x1.454fd40000000p-2, 0x1.207e8c0000000p-4, 0x1.906ca60000000p-4, -0x1.d2e7680000000p-3, 0x1.e212ba0000000p-5, 0x1.7805ce0000000p-5, -0x1.cb87400000000p-6, 0x1.8859ba0000000p-7}
, {-0x1.89c84c0000000p-4, 0x1.f28bfc0000000p-7, 0x1.f25d260000000p-5, 0x1.28b1620000000p-3, -0x1.b06f0c0000000p-3, 0x1.40bfd80000000p-5, 0x1.11fa740000000p-3, 0x1.8bd1ac0000000p-3, 0x1.bd88560000000p-3, 0x1.30b46e0000000p-2, 0x1.9a1fcc0000000p-3, -0x1.227c260000000p-3, 0x1.1c33e00000000p-3, 0x1.b68a480000000p-3, 0x1.42884a0000000p-6, 0x1.a226ee0000000p-6}
}
}
, {{{0x1.e3e8fe0000000p-6, 0x1.4d7cf60000000p-3, 0x1.1512600000000p-4, 0x1.e228940000000p-5, -0x1.aa86600000000p-4, 0x1.4dd1f40000000p-4, -0x1.27488e0000000p-5, 0x1.8e38980000000p-6, -0x1.249b360000000p-6, -0x1.36f7e40000000p-2, 0x1.98f18e0000000p-5, 0x1.256a760000000p-3, 0x1.ad94900000000p-4, -0x1.38886c0000000p-4, -0x1.6c1f3a0000000p-6, 0x1.d916340000000p-4}
, {-0x1.4a45260000000p-4, 0x1.6d513e0000000p-4, 0x1.3d1a880000000p-4, 0x1.f040040000000p-4, -0x1.f0fe920000000p-4, 0x1.e611420000000p-7, 0x1.1a1bc60000000p-3, 0x1.3c62ce0000000p-4, 0x1.de63aa0000000p-4, -0x1.13c31c0000000p-3, 0x1.1909620000000p-4, 0x1.dd54e60000000p-5, 0x1.c8067c0000000p-4, 0x1.04f0de0000000p-2, 0x1.88c8ec0000000p-4, 0x1.93967e0000000p-5}
, {-0x1.90edde0000000p-3, -0x1.fc1c360000000p-4, -0x1.506e980000000p-5, 0x1.7507ee0000000p-5, 0x1.c9059a0000000p-5, 0x1.50e1840000000p-5, -0x1.720b760000000p-5, 0x1.0650d40000000p-5, 0x1.3d318c0000000p-3, 0x1.4272e00000000p-3, 0x1.19dce80000000p-5, -0x1.a5cb180000000p-3, -0x1.37e0cc0000000p-5, -0x1.1ef82c0000000p-3, 0x1.1025880000000p-6, 0x1.1b9be60000000p-6}
}
, {{0x1.38889a0000000p-5, -0x1.6a45520000000p-8, -0x1.5506340000000p-3, -0x1.a436ae0000000p-4, -0x1.08bc0c0000000p-3, -0x1.a761420000000p-3, -0x1.13472e0000000p-5, -0x1.f685460000000p-3, -0x1.2a17320000000p-3, 0x1.0479580000000p-6, -0x1.5b54ea0000000p-6, -0x1.4282d60000000p-5, -0x1.9fcfb40000000p-4, -0x1.f223180000000p-5, -0x1.6241280000000p-5, -0x1.6a49820000000p-4}
, {-0x1.f55fba0000000p-3, 0x1.29466a0000000p-4, 0x1.73cad20000000p-4, 0x1.52ec040000000p-5, -0x1.5d8cb40000000p-2, -0x1.0091660000000p-5, 0x1.85937c0000000p-4, 0x1.d441c80000000p-12, -0x1.2189640000000p-3, 0x1.734f620000000p-6, 0x1.21f6e00000000p-4, -0x1.7d67ae0000000p-3, 0x1.544b120000000p-5, 0x1.0a466c0000000p-11, -0x1.34658a0000000p-6, -0x1.fe6b380000000p-6}
, {-0x1.dea5ae0000000p-2, -0x1.571b140000000p-6, 0x1.fafae80000000p-5, 0x1.9748d60000000p-4, -0x1.69db820000000p-2, 0x1.9651fe0000000p-3, 0x1.5e3dd40000000p-5, 0x1.441c6e0000000p-3, 0x1.05637e0000000p-5, 0x1.036f7e0000000p-3, 0x1.227e3c0000000p-4, -0x1.a997f60000000p-2, 0x1.d808400000000p-7, -0x1.aa421e0000000p-5, 0x1.6ea2400000000p-3, 0x1.d9b77e0000000p-3}
}
, {{-0x1.19fc080000000p-2, -0x1.7a554a0000000p-3, -0x1.46c6080000000p-5, -0x1.7fe2c20000000p-4, -0x1.0008520000000p-3, -0x1.39ae2a0000000p-5, -0x1.04040a0000000p-4, -0x1.7e71480000000p-5, -0x1.37b8c40000000p-2, -0x1.d6836e0000000p-3, -0x1.15ccb60000000p-8, -0x1.110fee0000000p-2, 0x1.c9e7400000000p-6, -0x1.010da20000000p-4, -0x1.26adb00000000p-4, -0x1.52983c0000000p-9}
, {-0x1.00cd480000000p-1, -0x1.7a65f40000000p-6, 0x1.061efa0000000p-4, 0x1.0f4cb20000000p-4, -0x1.2736e20000000p-1, 0x1.9d09000000000p-5, 0x1.08ca5e0000000p-3, -0x1.2454de0000000p-5, -0x1.ce95160000000p-8, 0x1.a42aa40000000p-6, 0x1.2852320000000p-4, -0x1.2e0da60000000p-2, 0x1.5be08c0000000p-4, -0x1.55a4380000000p-4, 0x1.5708700000000p-9, 0x1.f8a1c60000000p-5}
, {-0x1.3e9fba0000000p-5, 0x1.465b5c0000000p-4, 0x1.6840880000000p-5, 0x1.096c0e0000000p-3, -0x1.ff46000000000p-2, 0x1.b2e1f00000000p-7, 0x1.62b0cc0000000p-5, 0x1.3da4220000000p-6, 0x1.ea9d900000000p-4, 0x1.c4a21e0000000p-3, -0x1.4ecf6a0000000p-5, -0x1.60467a0000000p-3, -0x1.a57a620000000p-6, -0x1.1e53f60000000p-2, 0x1.42f7040000000p-5, 0x1.58600a0000000p-7}
}
}
, {{{-0x1.1f18220000000p-4, -0x1.0167dc0000000p-4, 0x1.a396be0000000p-5, 0x1.1539ca0000000p-5, -0x1.53bad40000000p-3, 0x1.56861c0000000p-4, -0x1.2261900000000p-5, -0x1.9277120000000p-5, 0x1.04bc5a0000000p-4, 0x1.bcf14e0000000p-4, -0x1.55fed40000000p-6, 0x1.eba41a0000000p-6, 0x1.4b041a0000000p-7, 0x1.2c55f40000000p-4, 0x1.6132f20000000p-5, 0x1.f77e080000000p-4}
, {0x1.43cdae0000000p-5, -0x1.c815940000000p-4, 0x1.5d05a80000000p-5, -0x1.35f03c0000000p-4, 0x1.afda280000000p-4, 0x1.08f21a0000000p-4, -0x1.3a6f660000000p-6, -0x1.56a6ae0000000p-5, 0x1.57e34a0000000p-6, 0x1.d1d1dc0000000p-4, -0x1.16fffa0000000p-3, -0x1.140b660000000p-4, 0x1.3860da0000000p-6, 0x1.20c5320000000p-5, -0x1.13b1ec0000000p-5, -0x1.dada620000000p-8}
, {-0x1.5bd14c0000000p-8, -0x1.8a127a0000000p-5, -0x1.1bca220000000p-4, -0x1.2084ae0000000p-3, 0x1.e043be0000000p-4, -0x1.03ccb40000000p-3, -0x1.286f100000000p-3, -0x1.aaa52e0000000p-4, -0x1.78c3280000000p-8, 0x1.7c6c820000000p-4, 0x1.1179cc0000000p-6, -0x1.36d4a20000000p-6, -0x1.fe970c0000000p-5, 0x1.647c060000000p-4, -0x1.2a60320000000p-4, -0x1.a79dee0000000p-9}
}
, {{-0x1.3475860000000p-3, -0x1.26d77a0000000p-5, -0x1.f828fc0000000p-7, 0x1.0735760000000p-5, -0x1.3bcd0e0000000p-6, -0x1.0b480a0000000p-7, -0x1.55f6b40000000p-5, -0x1.57f3d00000000p-4, -0x1.ac11460000000p-4, -0x1.151fe40000000p-3, 0x1.63d38e0000000p-9, 0x1.2ddb200000000p-7, -0x1.365ac60000000p-7, 0x1.7cd89c0000000p-5, 0x1.0e16ac0000000p-4, -0x1.4639e40000000p-5}
, {-0x1.10e3c60000000p-2, -0x1.22909c0000000p-3, -0x1.6f03a80000000p-4, -0x1.077f8c0000000p-7, -0x1.5d45040000000p-5, -0x1.b1b3b80000000p-9, 0x1.34e80a0000000p-5, -0x1.9703940000000p-5, 0x1.03170c0000000p-6, -0x1.0ba2540000000p-2, -0x1.ce46ee0000000p-5, 0x1.e80c500000000p-5, 0x1.3a32120000000p-3, -0x1.7292ee0000000p-9, 0x1.2547340000000p-5, 0x1.81746a0000000p-4}
, {-0x1.2aa1aa0000000p-3, -0x1.7ba63c0000000p-5, -0x1.d8a4140000000p-6, 0x1.0d7f100000000p-6, 0x1.9757b60000000p-4, 0x1.c025100000000p-5, -0x1.dd040e0000000p-7, -0x1.b0b3600000000p-5, -0x1.e08fe80000000p-5, -0x1.4b01460000000p-4, -0x1.4b709a0000000p-4, 0x1.0eb74e0000000p-7, 0x1.173e960000000p-3, -0x1.6dfa640000000p-5, 0x1.d510600000000p-5, 0x1.5e9f3e0000000p-3}
}
, {{0x1.9205fe0000000p-4, 0x1.f93bb80000000p-4, 0x1.6e91880000000p-3, 0x1.0a7f1e0000000p-6, -0x1.3490420000000p-7, 0x1.ffc36e0000000p-4, 0x1.9d87b00000000p-5, 0x1.e3ecf00000000p-5, -0x1.1a3d4a0000000p-4, -0x1.20e1d00000000p-2, 0x1.8033840000000p-5, 0x1.b956620000000p-3, 0x1.bd9f000000000p-6, 0x1.ad277e0000000p-6, 0x1.74ba3c0000000p-4, 0x1.64c2f40000000p-3}
, {0x1.e8da500000000p-3, 0x1.da50160000000p-4, 0x1.5244c60000000p-3, -0x1.6041300000000p-6, -0x1.ecd4b60000000p-3, 0x1.32c3b40000000p-4, 0x1.128e5c0000000p-3, 0x1.11b2900000000p-4, -0x1.4e48e00000000p-4, -0x1.20e9f20000000p-2, 0x1.30b1120000000p-3, 0x1.50ff9a0000000p-3, 0x1.4902300000000p-7, 0x1.5954e20000000p-6, 0x1.5227a80000000p-4, 0x1.01941c0000000p-3}
, {0x1.eecb520000000p-6, 0x1.bb77440000000p-4, 0x1.6f1eb00000000p-4, 0x1.7df3660000000p-4, -0x1.7f66a00000000p-3, 0x1.2780780000000p-4, 0x1.e5594c0000000p-5, 0x1.f405140000000p-5, -0x1.1378760000000p-5, -0x1.f4a22a0000000p-4, 0x1.e5f8d00000000p-4, 0x1.2f72900000000p-5, 0x1.87525a0000000p-4, 0x1.81e1060000000p-4, 0x1.23ef5e0000000p-4, 0x1.28956c0000000p-4}
}
}
, {{{0x1.85d19e0000000p-10, 0x1.b2142e0000000p-5, 0x1.5ae51e0000000p-5, 0x1.44f3be0000000p-5, -0x1.00faee0000000p-4, 0x1.ef8b8c0000000p-5, -0x1.04b06e0000000p-5, 0x1.c1e5b00000000p-7, 0x1.9547140000000p-5, 0x1.d19dc20000000p-5, -0x1.556a020000000p-7, 0x1.042dfe0000000p-3, -0x1.d213160000000p-5, 0x1.fcd5160000000p-4, -0x1.1880100000000p-6, -0x1.b8f6a80000000p-4}
, {-0x1.4be98c0000000p-4, -0x1.bd3a1a0000000p-4, -0x1.f699f20000000p-4, -0x1.34044a0000000p-4, 0x1.4920140000000p-3, 0x1.31acbe0000000p-5, -0x1.75d9540000000p-4, -0x1.c4be3e0000000p-4, -0x1.d7650e0000000p-6, -0x1.b61e6c0000000p-8, -0x1.7480e00000000p-4, -0x1.36f78a0000000p-3, -0x1.0f21e20000000p-4, 0x1.4e4b960000000p-5, -0x1.c0ebea0000000p-4, -0x1.ee065c0000000p-5}
, {-0x1.197f500000000p-5, -0x1.2532da0000000p-3, -0x1.2ef65e0000000p-3, -0x1.20d51e0000000p-4, 0x1.2250940000000p-2, -0x1.12d47e0000000p-3, -0x1.b2b6320000000p-3, -0x1.d1d8ec0000000p-3, -0x1.93458e0000000p-6, 0x1.66ef540000000p-3, -0x1.b9e6da0000000p-3, -0x1.a951540000000p-5, -0x1.8833540000000p-4, 0x1.e685ea0000000p-4, -0x1.8dc6f00000000p-3, -0x1.612eca0000000p-4}
}
, {{-0x1.b6b76c0000000p-4, -0x1.ee9e100000000p-5, 0x1.7cebdc0000000p-5, 0x1.05d61c0000000p-4, 0x1.26e5e40000000p-5, 0x1.e7a3760000000p-4, -0x1.6e3c760000000p-5, 0x1.13f9460000000p-3, -0x1.8405bc0000000p-4, -0x1.1a47420000000p-2, 0x1.3d0a480000000p-4, 0x1.2789ac0000000p-3, 0x1.9007740000000p-3, 0x1.df84960000000p-5, 0x1.4ac31c0000000p-4, 0x1.b8d2bc0000000p-5}
, {-0x1.60fb620000000p-4, 0x1.b376340000000p-5, 0x1.48e9f60000000p-4, 0x1.fa4d280000000p-6, -0x1.d925980000000p-6, 0x1.8d033e0000000p-4, 0x1.ffeb6a0000000p-5, 0x1.fc49d80000000p-4, 0x1.031e760000000p-8, -0x1.dc03000000000p-4, 0x1.1134940000000p-3, 0x1.172c4a0000000p-2, 0x1.830d380000000p-4, 0x1.7569d60000000p-3, 0x1.1366c20000000p-3, 0x1.4e96dc0000000p-10}
, {-0x1.48ba280000000p-2, -0x1.ded03e0000000p-5, 0x1.e031e20000000p-6, 0x1.baea8e0000000p-5, -0x1.027b9c0000000p-4, 0x1.b4e0e80000000p-3, 0x1.ec952c0000000p-5, 0x1.ce5c740000000p-4, -0x1.32e91a0000000p-4, -0x1.591f620000000p-3, 0x1.065f5a0000000p-6, 0x1.2a17f60000000p-6, 0x1.4e9aea0000000p-5, -0x1.a259980000000p-5, 0x1.157c1a0000000p-3, 0x1.4dafb00000000p-3}
}
, {{0x1.257b840000000p-4, 0x1.067dee0000000p-7, 0x1.d0808c0000000p-6, 0x1.35c8560000000p-5, 0x1.53f8580000000p-6, -0x1.0250ee0000000p-3, -0x1.257fbc0000000p-7, -0x1.14421a0000000p-7, -0x1.623dd80000000p-3, -0x1.8c4e5c0000000p-3, 0x1.51ffc00000000p-4, 0x1.e4ea4a0000000p-3, -0x1.2eb7da0000000p-4, 0x1.66c14a0000000p-8, 0x1.3859740000000p-4, -0x1.efd4f60000000p-6}
, {0x1.35e0080000000p-4, 0x1.96074a0000000p-4, 0x1.cd9b640000000p-4, 0x1.228d300000000p-5, -0x1.463a420000000p-3, 0x1.5481160000000p-9, -0x1.24e9720000000p-4, -0x1.56de580000000p-8, -0x1.b36c280000000p-4, -0x1.4cf2040000000p-3, -0x1.4118200000000p-6, 0x1.effbca0000000p-3, 0x1.3e16c40000000p-4, 0x1.bfb1a80000000p-4, 0x1.828f020000000p-4, -0x1.bea5660000000p-5}
, {0x1.42b1f60000000p-5, 0x1.15aeb40000000p-4, -0x1.e015ee0000000p-8, 0x1.bb9f0e0000000p-5, -0x1.7c08380000000p-5, -0x1.713f6e0000000p-5, 0x1.3104700000000p-4, 0x1.f757c00000000p-5, -0x1.96e6860000000p-5, -0x1.ca7a600000000p-3, 0x1.2ddf620000000p-4, 0x1.96480e0000000p-5, 0x1.a9f0ac0000000p-7, 0x1.e143e20000000p-7, 0x1.123f200000000p-4, 0x1.9387c00000000p-4}
}
}
, {{{0x1.c63c520000000p-5, 0x1.20120c0000000p-6, 0x1.3029b60000000p-4, 0x1.e5a2b20000000p-6, -0x1.a63f360000000p-5, -0x1.1862b20000000p-4, 0x1.861d400000000p-5, 0x1.8f90840000000p-4, 0x1.eb51260000000p-4, 0x1.a277d40000000p-4, 0x1.4203400000000p-6, 0x1.64d2660000000p-4, -0x1.d5431c0000000p-6, 0x1.346ec40000000p-3, 0x1.0ec7380000000p-4, 0x1.1285480000000p-5}
, {0x1.96b23e0000000p-3, 0x1.afc3da0000000p-3, 0x1.66487a0000000p-4, 0x1.f3840a0000000p-5, 0x1.a554660000000p-5, 0x1.8c41520000000p-5, 0x1.467cee0000000p-4, 0x1.2290720000000p-4, 0x1.68ba0c0000000p-3, 0x1.1baf920000000p-4, 0x1.84a0f80000000p-5, 0x1.41da400000000p-6, -0x1.ee4e7e0000000p-6, 0x1.b33ada0000000p-8, 0x1.13e9dc0000000p-3, -0x1.f557800000000p-7}
, {0x1.0169ba0000000p-2, 0x1.52a9a20000000p-4, 0x1.6838b40000000p-5, 0x1.57c87c0000000p-4, -0x1.14e1840000000p-4, -0x1.9db69a0000000p-3, 0x1.6d8f460000000p-6, -0x1.20d9f40000000p-3, 0x1.d73ab60000000p-3, 0x1.215bc00000000p-2, -0x1.ca58f40000000p-4, 0x1.9335e20000000p-6, -0x1.cf89020000000p-3, 0x1.212eac0000000p-4, -0x1.e2b9600000000p-5, -0x1.4381ea0000000p-3}
}
, {{0x1.8d85b00000000p-3, 0x1.47d5ee0000000p-5, -0x1.d550b00000000p-5, 0x1.ad56540000000p-8, 0x1.da6f5a0000000p-4, -0x1.3b17a20000000p-3, 0x1.2420940000000p-5, 0x1.03538c0000000p-4, -0x1.084bf80000000p-8, 0x1.1ad9e80000000p-4, 0x1.5e47c40000000p-3, 0x1.8f02cc0000000p-3, 0x1.28278a0000000p-6, -0x1.660a620000000p-5, -0x1.e38c840000000p-6, -0x1.e35c080000000p-4}
, {0x1.7977a20000000p-3, 0x1.3fc0880000000p-3, 0x1.b71cd00000000p-5, -0x1.0eeac00000000p-6, 0x1.97fe640000000p-6, -0x1.66958a0000000p-3, -0x1.6e75500000000p-5, -0x1.491cf00000000p-5, -0x1.a8e33c0000000p-5, 0x1.0f5fb60000000p-8, -0x1.c4e53c0000000p-4, 0x1.cc86d80000000p-4, -0x1.a98e440000000p-3, -0x1.6ae5e40000000p-4, -0x1.5e56460000000p-8, -0x1.0cc6760000000p-3}
, {0x1.f2e61a0000000p-5, -0x1.62fc760000000p-2, -0x1.6e9a9a0000000p-2, -0x1.a1a00c0000000p-4, 0x1.0d94dc0000000p-4, -0x1.7ce6280000000p-2, -0x1.c75dde0000000p-2, -0x1.74cbae0000000p-2, -0x1.d9bdbe0000000p-3, 0x1.6717780000000p-3, -0x1.8743200000000p-2, 0x1.060bfe0000000p-8, -0x1.232de60000000p-2, -0x1.7f639a0000000p-2, -0x1.cda38e0000000p-3, -0x1.bbacda0000000p-2}
}
, {{0x1.5426680000000p-2, -0x1.19d7ce0000000p-3, -0x1.b588960000000p-3, -0x1.f38ee80000000p-4, 0x1.ad1a180000000p-3, -0x1.a0f8f80000000p-3, -0x1.8b742a0000000p-3, -0x1.cb81240000000p-4, -0x1.d7f2f60000000p-4, 0x1.91f1f20000000p-11, -0x1.76b5600000000p-6, 0x1.1c88020000000p-2, -0x1.3cd55a0000000p-2, 0x1.5b697a0000000p-3, -0x1.1ad0580000000p-4, -0x1.4ec2800000000p-3}
, {0x1.5a44320000000p-3, -0x1.19edb40000000p-2, -0x1.52da160000000p-2, -0x1.2eb6be0000000p-2, 0x1.d9a3940000000p-3, -0x1.5d5fd40000000p-2, -0x1.21c8300000000p-2, -0x1.1327480000000p-2, -0x1.e4e3d80000000p-3, -0x1.c54d3e0000000p-4, -0x1.6528280000000p-2, 0x1.5395a40000000p-3, -0x1.5304380000000p-2, -0x1.c3e9040000000p-3, -0x1.20f9840000000p-3, -0x1.1dca220000000p-2}
, {-0x1.4ae3660000000p-6, -0x1.11d26e0000000p-3, 0x1.0ed3f60000000p-7, -0x1.a99a200000000p-2, 0x1.d01cba0000000p-4, -0x1.3687680000000p-2, 0x1.0b8fa80000000p-3, 0x1.e7954a0000000p-5, -0x1.3f8a940000000p-2, 0x1.3c93840000000p-3, 0x1.22e27a0000000p-5, 0x1.07a2c00000000p-3, -0x1.36383e0000000p-3, -0x1.927d9e0000000p-4, 0x1.23f71c0000000p-4, 0x1.1453cc0000000p-4}
}
}
, {{{-0x1.1249cc0000000p-6, -0x1.2544080000000p-4, -0x1.9d3ebc0000000p-5, -0x1.a5caa20000000p-4, -0x1.32bb3a0000000p-5, 0x1.e41aba0000000p-6, -0x1.e604a00000000p-9, 0x1.d114100000000p-7, -0x1.061cae0000000p-3, -0x1.a887280000000p-3, 0x1.21741a0000000p-5, 0x1.bc7c260000000p-11, -0x1.9cac200000000p-6, -0x1.9a6ccc0000000p-6, -0x1.5621540000000p-3, 0x1.d990340000000p-5}
, {-0x1.4d7b6c0000000p-3, 0x1.3bc63c0000000p-3, 0x1.7bfb460000000p-5, 0x1.d2dbc80000000p-4, -0x1.2a66ca0000000p-3, -0x1.ba548e0000000p-6, 0x1.3cb69a0000000p-3, 0x1.e189640000000p-4, -0x1.70975c0000000p-3, -0x1.04ea440000000p-2, 0x1.8980560000000p-4, -0x1.5bdb260000000p-7, -0x1.4467bc0000000p-6, 0x1.4c4dcc0000000p-3, 0x1.561af80000000p-3, 0x1.1b7d220000000p-3}
, {-0x1.06d08a0000000p-2, 0x1.4b03ae0000000p-5, 0x1.0705380000000p-3, 0x1.b4b78c0000000p-4, -0x1.079acc0000000p-5, 0x1.3984480000000p-4, 0x1.2c695c0000000p-6, 0x1.0108180000000p-4, 0x1.9832520000000p-4, 0x1.ffcd6c0000000p-7, 0x1.c2b3020000000p-4, -0x1.cc62b80000000p-3, 0x1.4adc220000000p-3, -0x1.76749c0000000p-4, 0x1.58da380000000p-4, 0x1.e822640000000p-5}
}
, {{-0x1.403f680000000p-7, 0x1.df2b0a0000000p-9, -0x1.2b43ce0000000p-4, -0x1.38d5a20000000p-5, 0x1.eb00f00000000p-4, -0x1.8e080a0000000p-4, -0x1.9ca3540000000p-4, -0x1.847ee20000000p-4, -0x1.c5e85a0000000p-4, -0x1.1e3bca0000000p-4, 0x1.be2cbe0000000p-6, 0x1.6187ac0000000p-5, 0x1.1286ba0000000p-5, -0x1.38317e0000000p-4, -0x1.87c6840000000p-5, -0x1.7659a20000000p-5}
, {-0x1.b70f660000000p-8, 0x1.e326220000000p-5, -0x1.25f0220000000p-4, -0x1.ed50960000000p-8, 0x1.2ee2fa0000000p-6, -0x1.5de5ae0000000p-3, 0x1.94abd40000000p-8, 0x1.94eac00000000p-4, -0x1.3d03360000000p-3, -0x1.835cb60000000p-4, 0x1.3ee5220000000p-4, -0x1.3480e00000000p-3, 0x1.12906e0000000p-9, 0x1.798de00000000p-4, 0x1.6a2c7e0000000p-4, 0x1.f1a8780000000p-7}
, {-0x1.121e780000000p-2, 0x1.183e540000000p-3, 0x1.784cbc0000000p-4, 0x1.fad51a0000000p-6, -0x1.4e01a20000000p-2, -0x1.19149a0000000p-7, 0x1.cb29e80000000p-4, 0x1.75647a0000000p-6, 0x1.458f1c0000000p-3, -0x1.dc9a240000000p-6, 0x1.62abae0000000p-3, -0x1.da12d80000000p-3, 0x1.023b420000000p-4, 0x1.5ad0620000000p-5, 0x1.57b46c0000000p-3, 0x1.6fcd580000000p-4}
}
, {{-0x1.1b56240000000p-6, -0x1.47f3420000000p-4, -0x1.3791820000000p-3, -0x1.e6bd180000000p-5, 0x1.380dd60000000p-4, -0x1.e6f9cc0000000p-4, -0x1.1359460000000p-4, 0x1.c9a7b20000000p-8, -0x1.a99ec20000000p-3, -0x1.c0fc5c0000000p-3, -0x1.77135a0000000p-4, -0x1.8b38060000000p-7, -0x1.4d24f40000000p-3, -0x1.6245640000000p-4, -0x1.b4a0360000000p-4, -0x1.4111ca0000000p-4}
, {-0x1.1b03940000000p-2, -0x1.65ec600000000p-5, -0x1.9f74d80000000p-4, -0x1.2234380000000p-3, 0x1.78c6a40000000p-5, -0x1.3ee2540000000p-3, 0x1.34af660000000p-4, 0x1.5c79fe0000000p-9, -0x1.07c0500000000p-2, -0x1.a407960000000p-4, -0x1.0636dc0000000p-4, -0x1.874d160000000p-3, -0x1.c414300000000p-4, 0x1.1432ba0000000p-4, -0x1.e34fd80000000p-5, -0x1.e3542a0000000p-11}
, {-0x1.8845a40000000p-3, 0x1.0dbf8e0000000p-3, 0x1.4623d80000000p-3, 0x1.4019ec0000000p-4, -0x1.2630040000000p-1, -0x1.f2075a0000000p-7, 0x1.22dec60000000p-3, 0x1.4ed8ba0000000p-5, 0x1.e4d3440000000p-5, 0x1.86626e0000000p-4, 0x1.91a1980000000p-6, -0x1.cdac3e0000000p-3, 0x1.7a8dc40000000p-4, 0x1.04d39c0000000p-4, -0x1.fa60e60000000p-7, 0x1.5a39460000000p-4}
}
}
, {{{0x1.6bbda40000000p-5, 0x1.2abdfa0000000p-7, -0x1.fb704a0000000p-6, -0x1.bbf7ac0000000p-7, -0x1.0b48ba0000000p-4, 0x1.00789c0000000p-7, 0x1.34a5020000000p-6, 0x1.b913e60000000p-5, -0x1.5cd2fe0000000p-4, -0x1.eb5ff80000000p-3, 0x1.8277440000000p-8, -0x1.06354c0000000p-3, -0x1.1e74ea0000000p-5, 0x1.0db69e0000000p-4, -0x1.d4b0100000000p-6, -0x1.99ce060000000p-5}
, {-0x1.45e20c0000000p-3, -0x1.4c11520000000p-5, 0x1.de62c80000000p-5, 0x1.94e2b80000000p-4, -0x1.dfbeec0000000p-5, -0x1.597ba00000000p-7, 0x1.eeed820000000p-6, 0x1.3978020000000p-4, 0x1.3c5cb60000000p-5, -0x1.ea7f0c0000000p-4, -0x1.844ca40000000p-5, -0x1.57a8a40000000p-3, 0x1.d52aba0000000p-4, -0x1.0340760000000p-9, 0x1.2aa7e80000000p-4, -0x1.d10b1c0000000p-8}
, {-0x1.7da6ce0000000p-3, -0x1.ba31fa0000000p-6, -0x1.35f4b20000000p-5, 0x1.64d6840000000p-4, 0x1.e893760000000p-8, 0x1.504e780000000p-5, 0x1.f339100000000p-5, -0x1.6465120000000p-9, 0x1.a9cb8a0000000p-4, -0x1.cd67ba0000000p-5, -0x1.4f9fe60000000p-6, -0x1.4ab2540000000p-3, -0x1.9122ea0000000p-11, -0x1.3cd3080000000p-3, -0x1.c44f180000000p-5, -0x1.df03560000000p-5}
}
, {{-0x1.1bc8180000000p-4, 0x1.dd40540000000p-5, 0x1.b71e6c0000000p-4, 0x1.4781860000000p-4, -0x1.d55f340000000p-5, 0x1.95118c0000000p-6, -0x1.5198d80000000p-5, 0x1.8e99c40000000p-5, 0x1.e1360a0000000p-4, -0x1.5ac82e0000000p-2, 0x1.836db80000000p-5, -0x1.b56ef60000000p-5, 0x1.fa8ddc0000000p-4, 0x1.b8ccf40000000p-7, 0x1.0e09ae0000000p-3, -0x1.bd30280000000p-6}
, {-0x1.1e127a0000000p-3, 0x1.13d6cc0000000p-3, 0x1.3fde820000000p-3, 0x1.70eb360000000p-3, -0x1.086f340000000p-5, 0x1.e0a9340000000p-4, 0x1.3df8940000000p-5, 0x1.2069aa0000000p-3, 0x1.1aaf3c0000000p-4, -0x1.4768cc0000000p-2, 0x1.7719480000000p-3, 0x1.83ba1e0000000p-4, 0x1.24541e0000000p-4, 0x1.3b09080000000p-3, 0x1.22d6360000000p-3, 0x1.2e9c300000000p-4}
, {-0x1.d132a20000000p-4, -0x1.65475e0000000p-6, 0x1.9f6aee0000000p-6, 0x1.5920d20000000p-4, 0x1.6d8ac60000000p-2, -0x1.8110080000000p-5, -0x1.0725c00000000p-6, 0x1.df8ad00000000p-5, -0x1.5eb96e0000000p-8, -0x1.36516a0000000p-3, -0x1.90fd8e0000000p-5, -0x1.1a6f560000000p-5, -0x1.d70a6c0000000p-6, -0x1.07b7d20000000p-7, 0x1.cdbdf20000000p-4, -0x1.d1c8900000000p-8}
}
, {{0x1.f4544e0000000p-4, -0x1.3605160000000p-4, -0x1.d1fda40000000p-4, -0x1.b922760000000p-4, -0x1.0e11440000000p-3, -0x1.47cd040000000p-2, -0x1.2202f20000000p-5, -0x1.4f50080000000p-4, -0x1.1a49b00000000p-3, -0x1.9f5dec0000000p-3, -0x1.7a92f60000000p-6, -0x1.dec1840000000p-8, -0x1.b0b2d20000000p-3, 0x1.0aff240000000p-5, -0x1.0596940000000p-3, -0x1.b9a7660000000p-3}
, {0x1.92e5d60000000p-6, 0x1.68bdac0000000p-4, -0x1.1c64fa0000000p-6, 0x1.19307e0000000p-11, 0x1.7f52320000000p-3, -0x1.3a34f00000000p-4, -0x1.e67a920000000p-6, 0x1.c215a80000000p-4, -0x1.2b9bb60000000p-3, -0x1.2dafe20000000p-2, 0x1.e24ab00000000p-4, 0x1.9debd80000000p-3, -0x1.afd2360000000p-4, 0x1.05622e0000000p-2, 0x1.114d040000000p-8, -0x1.5f2e560000000p-4}
, {-0x1.eb8d100000000p-4, -0x1.da126c0000000p-7, 0x1.69b1700000000p-5, -0x1.f409080000000p-8, -0x1.bee5ea0000000p-5, 0x1.daeac80000000p-8, 0x1.5a288e0000000p-4, 0x1.24bb6e0000000p-3, 0x1.bafbd40000000p-7, -0x1.63890a0000000p-2, 0x1.eb390a0000000p-6, 0x1.b39fce0000000p-5, 0x1.6c23880000000p-5, 0x1.e9a5e80000000p-3, 0x1.a33a0c0000000p-4, -0x1.4c5a4e0000000p-6}
}
}
, {{{-0x1.4e33600000000p-3, -0x1.4d89f60000000p-6, 0x1.45dfea0000000p-4, 0x1.912d400000000p-4, 0x1.6f72100000000p-5, 0x1.2481180000000p-4, 0x1.a742840000000p-4, 0x1.f736960000000p-6, 0x1.a4f0000000000p-4, 0x1.513b8e0000000p-4, 0x1.42da960000000p-5, -0x1.b48c480000000p-3, 0x1.685ef60000000p-5, -0x1.7b01880000000p-5, 0x1.8bfe480000000p-4, 0x1.d8054e0000000p-4}
, {-0x1.a53a9e0000000p-4, -0x1.5e1fbc0000000p-9, 0x1.5617700000000p-4, -0x1.59cbec0000000p-5, -0x1.54bf4e0000000p-4, 0x1.130e3c0000000p-4, 0x1.f820160000000p-4, 0x1.22ed560000000p-3, -0x1.fbd3880000000p-5, -0x1.8b86520000000p-3, 0x1.3cd4d00000000p-4, -0x1.61fe460000000p-6, 0x1.3b77c40000000p-4, 0x1.1ee9b80000000p-4, 0x1.e247f60000000p-5, 0x1.324bea0000000p-3}
, {-0x1.60ff3e0000000p-5, -0x1.622fc40000000p-7, 0x1.ddd9f40000000p-11, -0x1.fe14c40000000p-8, 0x1.7fc4980000000p-5, 0x1.04f3680000000p-3, 0x1.3d60300000000p-4, 0x1.dfc1500000000p-5, 0x1.d093500000000p-5, -0x1.f9ad1a0000000p-3, 0x1.338bca0000000p-7, 0x1.3f86680000000p-4, 0x1.62cb240000000p-4, -0x1.a57bd20000000p-6, 0x1.3f97380000000p-4, 0x1.6ec4320000000p-3}
}
, {{0x1.d45fdc0000000p-4, 0x1.39155a0000000p-3, -0x1.5909f80000000p-5, 0x1.d8cba40000000p-11, 0x1.0bbbbc0000000p-5, -0x1.6caeb80000000p-3, 0x1.8258c40000000p-5, 0x1.eb0dca0000000p-6, 0x1.a268d40000000p-8, -0x1.9a103e0000000p-6, 0x1.c9d6cc0000000p-5, 0x1.ab001a0000000p-4, -0x1.310d1a0000000p-6, 0x1.d85d440000000p-4, 0x1.33e0e00000000p-5, -0x1.a3a3360000000p-4}
, {0x1.2ce09e0000000p-4, 0x1.0eee060000000p-3, 0x1.5b89d80000000p-4, -0x1.f984e20000000p-4, 0x1.74c7840000000p-4, 0x1.4630940000000p-4, 0x1.2296b40000000p-6, 0x1.3e21640000000p-5, 0x1.57f2540000000p-5, -0x1.2cd08a0000000p-3, 0x1.2916800000000p-4, 0x1.6e95b80000000p-3, 0x1.3762980000000p-6, 0x1.6855200000000p-3, -0x1.a3e8380000000p-7, 0x1.1ca88c0000000p-6}
, {0x1.de6bf40000000p-3, 0x1.1f2abc0000000p-3, 0x1.5a722e0000000p-4, -0x1.48a7380000000p-4, -0x1.afa0b20000000p-3, -0x1.b246040000000p-3, 0x1.669ec40000000p-4, 0x1.769dd00000000p-6, -0x1.3eb6f60000000p-5, -0x1.97e55c0000000p-3, 0x1.21eb8a0000000p-3, 0x1.dc3c5e0000000p-3, -0x1.aab12a0000000p-10, 0x1.f0b4880000000p-3, 0x1.03cf460000000p-4, 0x1.ff92f60000000p-5}
}
, {{0x1.7991080000000p-3, -0x1.cc6f8c0000000p-4, -0x1.e39e860000000p-4, -0x1.e451a80000000p-4, 0x1.ee17de0000000p-3, 0x1.312bac0000000p-4, -0x1.97c7280000000p-3, -0x1.6b2b080000000p-3, -0x1.75273c0000000p-4, 0x1.36058c0000000p-6, -0x1.47cd6e0000000p-3, 0x1.6513300000000p-2, -0x1.b22a0e0000000p-4, 0x1.6331b20000000p-3, -0x1.57c54e0000000p-3, -0x1.5c1f8a0000000p-3}
, {0x1.a4c5960000000p-4, -0x1.1b22240000000p-2, -0x1.62fff80000000p-2, -0x1.0f6a040000000p-2, 0x1.38ed040000000p-2, -0x1.a506120000000p-13, -0x1.9190fc0000000p-2, -0x1.c95c060000000p-2, -0x1.439c800000000p-2, 0x1.16f8980000000p-6, -0x1.0991340000000p-2, 0x1.37b6b00000000p-6, -0x1.7e11780000000p-4, 0x1.28655c0000000p-5, -0x1.464a100000000p-2, -0x1.0fefe20000000p-2}
, {0x1.4fc0100000000p-3, -0x1.538e000000000p-3, -0x1.36ece60000000p-3, -0x1.dee9880000000p-3, 0x1.31e5340000000p-5, 0x1.c9d4160000000p-10, -0x1.4b68600000000p-3, -0x1.5d93560000000p-3, -0x1.2b241c0000000p-2, -0x1.42dbe60000000p-9, -0x1.0cce460000000p-2, 0x1.33e8120000000p-4, -0x1.3f27460000000p-4, -0x1.386f440000000p-3, -0x1.3649e00000000p-2, -0x1.341d560000000p-4}
}
}
, {{{0x1.39d9720000000p-4, -0x1.518e7c0000000p-4, -0x1.6b2dbc0000000p-6, -0x1.c283400000000p-4, 0x1.1437800000000p-4, -0x1.fa07720000000p-7, 0x1.02a58e0000000p-4, -0x1.1d3f440000000p-6, -0x1.b45da00000000p-3, -0x1.5f30740000000p-3, -0x1.a31b6c0000000p-5, 0x1.765c6a0000000p-4, 0x1.18d1f20000000p-5, -0x1.0785ec0000000p-3, -0x1.60d6860000000p-4, 0x1.4cbb780000000p-5}
, {0x1.068b9e0000000p-4, 0x1.8f7b9e0000000p-5, 0x1.df9dfe0000000p-5, -0x1.48cbe40000000p-6, -0x1.f101ac0000000p-10, 0x1.1f20ae0000000p-6, -0x1.2000420000000p-4, -0x1.249c0c0000000p-5, -0x1.58b8900000000p-3, -0x1.2683c60000000p-2, 0x1.cf62ce0000000p-6, 0x1.32d92e0000000p-5, 0x1.5c88600000000p-5, -0x1.cca5c20000000p-4, 0x1.77c37a0000000p-4, -0x1.a872cc0000000p-6}
, {0x1.a254ca0000000p-3, 0x1.472e6a0000000p-3, 0x1.4284040000000p-4, 0x1.75f0f00000000p-6, -0x1.ce9efe0000000p-4, -0x1.6bd2e40000000p-5, 0x1.7937f80000000p-3, 0x1.cadba60000000p-5, -0x1.0edb4a0000000p-5, -0x1.e0137a0000000p-2, 0x1.b4fb140000000p-3, 0x1.2e19aa0000000p-2, 0x1.0db7200000000p-4, 0x1.ed1ee80000000p-3, 0x1.8bbe460000000p-4, 0x1.d6ccc00000000p-4}
}
, {{0x1.70dce60000000p-4, 0x1.f6df7a0000000p-5, -0x1.ac325a0000000p-4, -0x1.61ec600000000p-4, -0x1.35d9340000000p-3, -0x1.4b45700000000p-3, -0x1.4ce5aa0000000p-4, 0x1.9155600000000p-9, -0x1.951c8c0000000p-3, -0x1.4c869c0000000p-5, 0x1.c9bc9c0000000p-5, -0x1.13fd900000000p-3, -0x1.086b800000000p-3, -0x1.66c73e0000000p-6, -0x1.f0ff2a0000000p-4, -0x1.66b9f80000000p-7}
, {-0x1.9b60e20000000p-4, -0x1.73b5240000000p-4, 0x1.c5ba460000000p-6, -0x1.0d8ad20000000p-6, -0x1.f291100000000p-3, -0x1.7987060000000p-5, -0x1.74efe40000000p-6, -0x1.4938f40000000p-5, 0x1.11c25a0000000p-8, 0x1.82679a0000000p-4, -0x1.418aaa0000000p-4, -0x1.934c920000000p-5, 0x1.2246c60000000p-6, -0x1.8ba81a0000000p-4, -0x1.a8c9bc0000000p-4, -0x1.fcaeee0000000p-11}
, {0x1.578e8a0000000p-8, 0x1.4f2d560000000p-5, 0x1.644af60000000p-4, 0x1.52d8fa0000000p-5, -0x1.a87f900000000p-2, 0x1.598b4a0000000p-5, 0x1.0f23980000000p-3, 0x1.2d848a0000000p-5, 0x1.8132c00000000p-6, -0x1.9b43c40000000p-3, 0x1.607e920000000p-4, 0x1.ea79920000000p-4, 0x1.21ab200000000p-5, 0x1.df4c4e0000000p-4, 0x1.1d49560000000p-4, 0x1.585f880000000p-3}
}
, {{-0x1.80aa760000000p-3, -0x1.0d842c0000000p-4, -0x1.2a11f40000000p-8, -0x1.7f04ea0000000p-4, -0x1.e54b900000000p-6, 0x1.34085a0000000p-6, 0x1.1cb5400000000p-3, -0x1.f1b8960000000p-7, -0x1.568f460000000p-4, -0x1.2c9cbe0000000p-6, -0x1.7d0e400000000p-4, -0x1.5ae6700000000p-6, 0x1.886b280000000p-6, 0x1.7145900000000p-5, -0x1.e5c82c0000000p-4, 0x1.71cf560000000p-6}
, {0x1.8db59c0000000p-6, 0x1.50ec0c0000000p-6, -0x1.4652ea0000000p-6, 0x1.8b47260000000p-4, -0x1.44608a0000000p-3, 0x1.fb00d60000000p-4, -0x1.c4ee7a0000000p-7, 0x1.c38a820000000p-5, 0x1.d844d80000000p-5, 0x1.d982200000000p-3, 0x1.b996620000000p-4, 0x1.d450840000000p-4, 0x1.e301360000000p-6, 0x1.608d240000000p-5, 0x1.665eba0000000p-4, 0x1.abd2a60000000p-5}
, {0x1.48f3680000000p-6, -0x1.dd97060000000p-6, -0x1.e8cf180000000p-5, -0x1.ba438c0000000p-6, -0x1.7b973c0000000p-4, 0x1.38375a0000000p-7, 0x1.6edf980000000p-5, -0x1.ac456a0000000p-6, -0x1.7ac24e0000000p-8, -0x1.2615300000000p-3, 0x1.8766b00000000p-4, 0x1.3a81f20000000p-2, 0x1.2e4e020000000p-5, 0x1.5eb8280000000p-3, 0x1.897f1c0000000p-4, -0x1.324b000000000p-6}
}
}
, {{{-0x1.d060060000000p-3, 0x1.2ef3ae0000000p-4, 0x1.15a07a0000000p-3, 0x1.fbc2c20000000p-6, -0x1.8c1ab00000000p-5, -0x1.4fbe400000000p-16, 0x1.92ae700000000p-7, 0x1.136d360000000p-3, 0x1.1555a20000000p-2, 0x1.9800040000000p-4, -0x1.44eff40000000p-5, -0x1.ff7b860000000p-3, 0x1.5243640000000p-4, -0x1.474d8e0000000p-4, 0x1.60d9ca0000000p-3, 0x1.fb3ef20000000p-6}
