#define SINGLE_FILE
/**
  ******************************************************************************
  * @file    defines.hh
  * @author  Pierre-Emmanuel Novac <penovac@unice.fr>, Université Côte d'Azur, LEAT, France
  * @version 2.1.0
  * @date    10 january 2024
  * @brief   Global C pre-processor definitions to use to build all source files (incl. CMSIS-NN)
  */

/* CMSIS-NN round mode definition */
#if defined(WITH_CMSIS_NN) || defined(WITH_NMSIS_NN)



#error "Unrecognized round mode, only floor and nearest are supported by CMSIS-NN"

#endif // defined(WITH_CMSIS_NN) || defined(WITH_NMSIS_NN)
/**
  ******************************************************************************
  * @file    number.hh
  * @author  Pierre-Emmanuel Novac <penovac@unice.fr>, LEAT, CNRS, Université Côte d'Azur, France
  * @version 1.0.0
  * @date    2 february 2021
  * @brief   Template generating plain C code for the implementation of Convolutional Neural Networks on MCU
  */

#ifdef __cplusplus
extern "C" {
#endif

#ifndef __NUMBER_H__
#define __NUMBER_H__

#include <stdint.h>
#include <stddef.h>
#include <math.h>

#ifdef TRAPV_SHIFT
#include <limits.h>
#include <stdio.h>
#include <assert.h>
#endif

#ifdef WITH_CMSIS_NN
#include "arm_nnfunctions.h"
#endif

#define _clamp_to(type, number) clamp_to_number_t_ ## type (number)
#define clamp_to(type, number) _clamp_to(type, number)
#define _scale(type, number, scale_factor, round_mode) scale_number_t_ ## type (number, scale_factor, round_mode)
#define scale(type, number, scale_factor, round_mode) _scale(type, number, scale_factor, round_mode)
#define _scale_and_clamp_to(type, number, scale_factor, round_mode) scale_and_clamp_to_number_t_ ## type (number, scale_factor, round_mode)
#define scale_and_clamp_to(type, number, scale_factor, round_mode) _scale_and_clamp_to(type, number, scale_factor, round_mode)

typedef enum {
  ROUND_MODE_NONE,
  ROUND_MODE_FLOOR,
  ROUND_MODE_NEAREST,
} round_mode_t;

// Idea 1: Write the smallest min max interval of the net, could be an issue for hybrid int type network
// Idea 2: listing any interval and add type in name in a switch case like <- better but painfull
// #define NUMBER_MIN		// Max value for this numeric type
// #define NUMBER_MAX		// Min value for this numeric type

// // Idea 1: List of all types and write any corresponding function 
// typedef  number_t;		// Standard size numeric type used for weights and activations
// typedef  long_number_t;	// Long numeric type used for intermediate results

#define NUMBER_MIN_FLOAT -2147483648
#define NUMBER_MAX_FLOAT 2147483647

static inline float min_float(
    float a,
    float b) {
	if (a <= b)
		return a;
	return b;
}

static inline float max_float(
    float a,
    float b) {
	if (a >= b)
		return a;
	return b;
}

static inline float scale_number_t_float(
  float number, int scale_factor, round_mode_t round_mode) {
	return number;
}
static inline float clamp_to_number_t_float(
  float number) {
	return (float) number;
}
static inline float scale_and_clamp_to_number_t_float(
  float number, int scale_factor, round_mode_t round_mode) {
	return (float) number;
}


#define NUMBER_MIN_INT32_T -2147483648
#define NUMBER_MAX_INT32_T 2147483647

static inline int64_t min_int32_t(
    int64_t a,
    int64_t b) {
	if (a <= b)
		return a;
	return b;
}

static inline int64_t max_int32_t(
    int64_t a,
    int64_t b) {
	if (a >= b)
		return a;
	return b;
}

static inline int64_t scale_number_t_int32_t(
  int64_t number, int scale_factor, round_mode_t round_mode) {


  if (scale_factor <= 0) {
#ifdef TRAPV_SHIFT
    // Check for possible overflow of left shift
    if (number > INT64_MAX >> -scale_factor) {
      fprintf(stderr,
              "Error: scale() overflow, number=%ld, scale_factor=%d, limit=%d\n",
              number,
              scale_factor,
              INT16_MAX >> -scale_factor);
      assert(number <= INT64_MAX >> -scale_factor);
    }
#endif
    // No rounding to apply when shifting left
    return number << - scale_factor;
  } else {
    if (round_mode == ROUND_MODE_NEAREST) {
      number += (1 << (scale_factor - 1)); // +0.5 in fixed-point
    }
    return number >> scale_factor;
  }
}
static inline int32_t clamp_to_number_t_int32_t(
  int64_t number) {
	return (int32_t) max_int32_t(
      NUMBER_MIN_INT32_T,
      min_int32_t(
        NUMBER_MAX_INT32_T, number));
}
static inline int32_t scale_and_clamp_to_number_t_int32_t(
  int64_t number, int scale_factor, round_mode_t round_mode) {
#ifdef WITH_CMSIS_NN
  // Not really CMSIS-NN but use SSAT anyway
  if (scale_factor <= 0) {
    // No rounding to apply when shifting left
    return __SSAT(number << - scale_factor, sizeof(int32_t) * 8);
  } else {
    if (round_mode == ROUND_MODE_NEAREST) {
      number += (1 << (scale_factor - 1)); // +0.5 in fixed-point
    }
    return __SSAT(number >> scale_factor, sizeof(int32_t) * 8);
  }
#else
  number = scale_number_t_int32_t(number, scale_factor, round_mode);
  return clamp_to_number_t_int32_t(number);
#endif
}




static inline void int64_t_to_float(int64_t * tabint, float * tabfloat, long tabdim, int scale_factor){
  for (int i=0; i<tabdim; i++){
    tabfloat[i] = (float)tabint[i] / (1<<scale_factor);
  }
}

static inline void int32_t_to_float(int32_t * tabint, float * tabfloat, long tabdim, int scale_factor){
  for (int i=0; i<tabdim; i++){
    tabfloat[i] = (float)tabint[i] / (1<<scale_factor);
  }
}

static inline void int16_t_to_float(int16_t * tabint, float * tabfloat, long tabdim, int scale_factor){
  for (int i=0; i<tabdim; i++){
    tabfloat[i] = ((float)tabint[i]) / (1<<scale_factor);
  }
}

static inline void int8_t_to_float(int8_t * tabint, float * tabfloat, long tabdim, int scale_factor){
  for (int i=0; i<tabdim; i++){
    tabfloat[i] = ((float)tabint[i]) / (1<<scale_factor);
  }
}
#endif //__NUMBER_H__

#ifdef __cplusplus
} // extern "C"
#endif
/**
  ******************************************************************************
  * @file    conv2d.hh
  * @author  Pierre-Emmanuel Novac <penovac@unice.fr>, LEAT, CNRS, Université Côte d'Azur, France
  * @version V2.0
  * @date    14 december 2022
  * @brief   Template generating plain C code for the implementation of Convolutional Neural Networks on MCU
  */

#ifndef _CONV2D_7_H_
#define _CONV2D_7_H_

#ifndef SINGLE_FILE
#include "number.h"
#endif

#define INPUT_CHANNELS      1
#define INPUT_HEIGHT        28
#define INPUT_WIDTH         28
#define CONV_FILTERS        32
#define CONV_KERNEL_SIZE_Y  3
#define CONV_KERNEL_SIZE_X  3
#define CONV_STRIDE_Y       2
#define CONV_STRIDE_X       2

#define ZEROPADDING_TOP    0
#define ZEROPADDING_BOTTOM 0
#define ZEROPADDING_LEFT   0
#define ZEROPADDING_RIGHT  0

#define CONV_OUTHEIGHT     ( ( (INPUT_HEIGHT - CONV_KERNEL_SIZE_Y + ZEROPADDING_TOP + ZEROPADDING_BOTTOM) / CONV_STRIDE_Y ) + 1 )
#define CONV_OUTWIDTH      ( ( (INPUT_WIDTH - CONV_KERNEL_SIZE_X + ZEROPADDING_LEFT + ZEROPADDING_RIGHT) / CONV_STRIDE_X ) + 1 )


typedef float conv2d_7_output_type[CONV_OUTHEIGHT][CONV_OUTWIDTH][CONV_FILTERS];

#if 0
void conv2d_7(
  const number_t input[INPUT_HEIGHT][INPUT_WIDTH][INPUT_CHANNELS],               // IN
  const number_t kernel[CONV_FILTERS][CONV_KERNEL_SIZE_X][CONV_KERNEL_SIZE_Y][INPUT_CHANNELS], // IN

  const number_t bias[CONV_FILTERS],						                // IN

  number_t output[CONV_OUTHEIGHT][CONV_OUTWIDTH][CONV_FILTERS]);               // OUT
#endif

#undef INPUT_CHANNELS
#undef INPUT_WIDTH
#undef INPUT_HEIGHT
#undef CONV_FILTERS
#undef CONV_KERNEL_SIZE_X
#undef CONV_KERNEL_SIZE_Y
#undef CONV_STRIDE_X
#undef CONV_STRIDE_Y
#undef ZEROPADDING_TOP
#undef ZEROPADDING_BOTTOM
#undef ZEROPADDING_LEFT
#undef ZEROPADDING_RIGHT
#undef CONV_OUTWIDTH
#undef CONV_OUTHEIGHT

#endif//_CONV2D_7_H_
/**
  ******************************************************************************
  * @file    conv2d.cc
  * @author  Pierre-Emmanuel Novac <penovac@unice.fr>, LEAT, CNRS, Université Côte d'Azur, France
  * @version V2.0
  * @date    24 november 2021
  * @brief   Template generating plain C code for the implementation of Convolutional Neural Networks on MCU
  */

#ifndef SINGLE_FILE
#include "conv2d_7.h"
#include "number.h"
#endif

#ifdef WITH_CMSIS_NN
#include "arm_nnfunctions.h"
#elif defined(WITH_NMSIS_NN)
#include "riscv_nnfunctions.h"
#endif

#define INPUT_CHANNELS      1
#define INPUT_HEIGHT        28
#define INPUT_WIDTH         28
#define CONV_FILTERS        32
#define CONV_KERNEL_SIZE_Y  3
#define CONV_KERNEL_SIZE_X  3
#define CONV_STRIDE_Y       2
#define CONV_STRIDE_X       2
#define CONV_GROUPS         1
#define CHANNELS_PER_GROUP  (INPUT_CHANNELS / CONV_GROUPS)
#define FILTERS_PER_GROUP   (CONV_FILTERS / CONV_GROUPS)

#define ZEROPADDING_TOP    0
#define ZEROPADDING_BOTTOM 0
#define ZEROPADDING_LEFT   0
#define ZEROPADDING_RIGHT  0

#define CONV_OUTHEIGHT     ( ( (INPUT_HEIGHT - CONV_KERNEL_SIZE_Y + ZEROPADDING_TOP + ZEROPADDING_BOTTOM) / CONV_STRIDE_Y ) + 1 )
#define CONV_OUTWIDTH      ( ( (INPUT_WIDTH - CONV_KERNEL_SIZE_X + ZEROPADDING_LEFT + ZEROPADDING_RIGHT) / CONV_STRIDE_X ) + 1 )

#define ACTIVATION_RELU

// For fixed point quantization
#define WEIGHTS_SCALE_FACTOR 0
#define BIASES_SCALE_FACTOR 0
#define TMP_SCALE_FACTOR 0
#define INPUT_SCALE_FACTOR 0
#define OUTPUT_SCALE_FACTOR 0
#define OUTPUT_ROUND_MODE ROUND_MODE_NONE
#define NUMBER_T float
#define LONG_NUMBER_T float


static inline void conv2d_7(
  const NUMBER_T input[INPUT_HEIGHT][INPUT_WIDTH][INPUT_CHANNELS],               // IN
  const NUMBER_T kernel[CONV_FILTERS][CONV_KERNEL_SIZE_X][CONV_KERNEL_SIZE_Y][INPUT_CHANNELS / CONV_GROUPS], // IN

  const NUMBER_T bias[CONV_FILTERS],						                // IN

  NUMBER_T output[CONV_OUTHEIGHT][CONV_OUTWIDTH][CONV_FILTERS]) {               // OUT

#if !defined(WITH_CMSIS_NN) && !defined(WITH_NMSIS_NN)
  unsigned short pos_x, pos_y, z, k; 	// loop indexes for output volume
  unsigned short x, y;
  int input_x, input_y;
  LONG_NUMBER_T	kernel_mac;
  LONG_NUMBER_T tmp;
  static LONG_NUMBER_T	output_acc[CONV_OUTHEIGHT][CONV_OUTWIDTH];

  for (k = 0; k < CONV_FILTERS; k++) { 
    for (pos_y = 0; pos_y < CONV_OUTHEIGHT; pos_y++) { 
      for (pos_x = 0; pos_x < CONV_OUTWIDTH; pos_x++) { 
        output_acc[pos_y][pos_x] = 0;

        for (z = 0; z < INPUT_CHANNELS / CONV_GROUPS; z++) {
          kernel_mac = 0; 
            
          for (y = 0; y < CONV_KERNEL_SIZE_Y; y++) {
            input_y = pos_y * CONV_STRIDE_Y - ZEROPADDING_TOP + y;

            for (x = 0; x < CONV_KERNEL_SIZE_X; x++) {
              input_x = pos_x * CONV_STRIDE_X - ZEROPADDING_LEFT + x;

              if (input_x < 0 || input_x >= INPUT_WIDTH || input_y < 0 || input_y >= INPUT_HEIGHT) // ZeroPadding2D
                tmp = 0;
              else
                tmp = (LONG_NUMBER_T)input[input_y][input_x][z + (k / FILTERS_PER_GROUP) * CHANNELS_PER_GROUP] * (LONG_NUMBER_T)kernel[k][y][x][z];
              kernel_mac = kernel_mac + tmp;
            }
          }

          output_acc[pos_y][pos_x] = output_acc[pos_y][pos_x] + kernel_mac;

        }
      }
    }

    for (pos_y = 0; pos_y < CONV_OUTHEIGHT; pos_y++) { 
      for (pos_x = 0; pos_x < CONV_OUTWIDTH; pos_x++) { 
        // Scale for possible additional precision of bias
        output_acc[pos_y][pos_x] = scale(NUMBER_T, output_acc[pos_y][pos_x],  WEIGHTS_SCALE_FACTOR - TMP_SCALE_FACTOR, OUTPUT_ROUND_MODE);

        // Scale bias to match accumulator
        output_acc[pos_y][pos_x] += scale(NUMBER_T, (LONG_NUMBER_T)bias[k], BIASES_SCALE_FACTOR - TMP_SCALE_FACTOR - INPUT_SCALE_FACTOR, OUTPUT_ROUND_MODE);


#ifdef ACTIVATION_LINEAR
        output[pos_y][pos_x][k] = scale_and_clamp_to(NUMBER_T, output_acc[pos_y][pos_x], INPUT_SCALE_FACTOR + TMP_SCALE_FACTOR - OUTPUT_SCALE_FACTOR, OUTPUT_ROUND_MODE);
#elif defined(ACTIVATION_RELU) || defined(ACTIVATION_RELU6)
        // Activation function: ReLU
        if (output_acc[pos_y][pos_x] < 0) {
          output[pos_y][pos_x][k] = 0;
        } else {
#if defined(ACTIVATION_RELU6)
        if (output_acc[pos_y][pos_x] > scale(NUMBER_T, 6, -(INPUT_SCALE_FACTOR + TMP_SCALE_FACTOR), OUTPUT_ROUND_MODE)) {
          output_acc[pos_y][pos_x] = scale(NUMBER_T, 6, -(INPUT_SCALE_FACTOR + TMP_SCALE_FACTOR), OUTPUT_ROUND_MODE);
        }
#endif
          output[pos_y][pos_x][k] = scale_and_clamp_to(NUMBER_T, output_acc[pos_y][pos_x], INPUT_SCALE_FACTOR + TMP_SCALE_FACTOR - OUTPUT_SCALE_FACTOR, OUTPUT_ROUND_MODE);
        }
#else
#error "Unsupported activation function"
#endif
      }
    }
  }
#else

#if BIASES_SCALE_FACTOR > WEIGHTS_SCALE_FACTOR
#error "CMSIS-NN does not support BIASES_SCALE_FACTOR larger than WEIGHTS_SCALE_FACTOR"
#endif

#error "Data type unsupported by CMSIS-NN"

#endif
}

#undef INPUT_CHANNELS
#undef INPUT_WIDTH
#undef INPUT_HEIGHT
#undef CONV_FILTERS
#undef CONV_KERNEL_SIZE_X
#undef CONV_KERNEL_SIZE_Y
#undef CONV_STRIDE_X
#undef CONV_STRIDE_Y
#undef CONV_GROUPS
#undef CHANNELS_PER_GROUP
#undef FILTERS_PER_GROUP
#undef ZEROPADDING_TOP
#undef ZEROPADDING_BOTTOM
#undef ZEROPADDING_LEFT
#undef ZEROPADDING_RIGHT
#undef CONV_OUTWIDTH
#undef CONV_OUTHEIGHT
#undef ACTIVATION_RELU
#undef WEIGHTS_SCALE_FACTOR
#undef BIASES_SCALE_FACTOR
#undef TMP_SCALE_FACTOR
#undef INPUT_SCALE_FACTOR
#undef OUTPUT_SCALE_FACTOR
#undef NUMBER_T
#undef LONG_NUMBER_T
/**
  ******************************************************************************
  * @file    weights/conv2d.cc
  * @author  Pierre-Emmanuel Novac <penovac@unice.fr>, LEAT, CNRS, Université Côte d'Azur, France
  * @version V2.0
  * @date    24 march 2020
  * @brief   Template generating plain C code for the implementation of Convolutional Neural Networks on MCU
  */

#include <stdint.h>

#define INPUT_CHANNELS     1
#define CONV_FILTERS       32
#define CONV_KERNEL_SIZE_Y 3
#define CONV_KERNEL_SIZE_X 3
#define CONV_GROUPS        1


const float conv2d_7_bias[CONV_FILTERS] = {0x1.fb1dc60000000p-6, -0x1.3719860000000p-6, 0x1.21968e0000000p-5, -0x1.b708aa0000000p-11, -0x1.34b3800000000p-4, -0x1.4c2dc00000000p-10, -0x1.949bcc0000000p-10, -0x1.90701c0000000p-4, 0x1.64a8480000000p-12, 0x1.10b08e0000000p-4, 0x1.f05e680000000p-7, -0x1.9503c20000000p-6, -0x1.661c6c0000000p-6, -0x1.01a84c0000000p-10, -0x1.0d72880000000p-3, 0x1.826e000000000p-17, 0x1.03a2020000000p-6, -0x1.18e1440000000p-6, -0x1.1d58c80000000p-10, -0x1.ac05020000000p-5, -0x1.8999800000000p-8, -0x1.3e2d720000000p-10, -0x1.bb9c460000000p-4, -0x1.4c24c60000000p-4, -0x1.9454880000000p-11, -0x1.6b87720000000p-4, -0x1.4bffa60000000p-4, -0x1.5e38ce0000000p-7, 0x1.f3d5d00000000p-7, -0x1.d6c5920000000p-6, -0x1.a2751a0000000p-6, 0x1.c2f3ba0000000p-4}
;


const float conv2d_7_kernel[CONV_FILTERS][CONV_KERNEL_SIZE_Y][CONV_KERNEL_SIZE_X][INPUT_CHANNELS / CONV_GROUPS] = {{{{0x1.6805920000000p-3}
, {0x1.c8668a0000000p-3}
, {0x1.df254e0000000p-3}
}
, {{0x1.774e520000000p-4}
, {-0x1.9c25b40000000p-12}
, {-0x1.8e13480000000p-4}
}
, {{-0x1.4a22ee0000000p-2}
, {-0x1.2c8d1a0000000p-2}
, {-0x1.f233200000000p-2}
}
}
, {{{0x1.3698c60000000p-6}
, {0x1.3043060000000p-3}
, {0x1.82913e0000000p-3}
}
, {{-0x1.cae1c60000000p-3}
, {-0x1.4011b40000000p-1}
, {-0x1.802aae0000000p-2}
}
, {{0x1.1af2600000000p-2}
, {0x1.0d5b420000000p-2}
, {0x1.0db9980000000p-3}
}
}
, {{{0x1.d89ee60000000p-4}
, {0x1.f4f9c40000000p-5}
, {0x1.ed33440000000p-3}
}
, {{-0x1.570a5e0000000p-3}
, {0x1.3946be0000000p-3}
, {0x1.a1e4c40000000p-4}
}
, {{-0x1.8ae39e0000000p-2}
, {-0x1.37fee00000000p-2}
, {-0x1.7e6c060000000p-2}
}
}
, {{{0x1.f5d5560000000p-3}
, {-0x1.702c1a0000000p-5}
, {-0x1.cc3e0a0000000p-3}
}
, {{0x1.19063e0000000p-2}
, {-0x1.53df040000000p-5}
, {-0x1.8907760000000p-2}
}
, {{0x1.0be4440000000p-3}
, {0x1.13e7e00000000p-3}
, {-0x1.b1428c0000000p-4}
}
}
, {{{-0x1.a8723a0000000p-7}
, {-0x1.23e5640000000p-4}
, {-0x1.bda0a80000000p-5}
}
, {{-0x1.3ef4620000000p-7}
, {0x1.20bb660000000p-2}
, {-0x1.29f42e0000000p-4}
}
, {{0x1.b0fc120000000p-5}
, {0x1.7845ca0000000p-5}
, {0x1.0b90f80000000p-4}
}
}
, {{{0x1.c705600000000p-6}
, {-0x1.98ab8c0000000p-3}
, {-0x1.2a5d3a0000000p-2}
}
, {{0x1.9b76680000000p-3}
, {0x1.4d0cf60000000p-2}
, {0x1.da56160000000p-8}
}
, {{-0x1.6b4d060000000p-5}
, {-0x1.bc869c0000000p-4}
, {0x1.7307b00000000p-4}
}
}
, {{{0x1.962b220000000p-4}
, {0x1.d2c3ea0000000p-5}
, {0x1.48d24a0000000p-4}
}
, {{0x1.9efdcc0000000p-4}
, {0x1.8124c40000000p-3}
, {0x1.1d4a4a0000000p-4}
}
, {{-0x1.0ff6ac0000000p-3}
, {-0x1.b653d20000000p-4}
, {-0x1.98dd220000000p-3}
}
}
, {{{0x1.35484e0000000p-5}
, {0x1.2f53b20000000p-3}
, {-0x1.0c17a80000000p-4}
}
, {{0x1.dd442c0000000p-4}
, {0x1.9694a80000000p-3}
, {-0x1.cfff940000000p-7}
}
, {{-0x1.b9f94a0000000p-5}
, {0x1.f163000000000p-7}
, {-0x1.c083c20000000p-8}
}
}
, {{{0x1.4df8c00000000p-5}
, {-0x1.7456fe0000000p-4}
, {-0x1.36890c0000000p-2}
}
, {{-0x1.2411360000000p-6}
, {0x1.0fe47e0000000p-4}
, {-0x1.159a460000000p-2}
}
, {{0x1.0ac32e0000000p-3}
, {0x1.0277460000000p-2}
, {0x1.314b2a0000000p-3}
}
}
, {{{0x1.b291840000000p-3}
, {-0x1.8267860000000p-4}
, {-0x1.ae25340000000p-2}
}
, {{0x1.d95ab80000000p-4}
, {0x1.da5fc40000000p-4}
, {-0x1.773e800000000p-2}
}
, {{0x1.ac66640000000p-3}
, {-0x1.0c15b40000000p-2}
, {-0x1.5f4f7a0000000p-1}
}
}
, {{{-0x1.37a37a0000000p-5}
, {-0x1.c607a60000000p-2}
, {-0x1.befca00000000p-4}
}
, {{0x1.45e0280000000p-5}
, {0x1.40c45e0000000p-3}
, {-0x1.bdeeb80000000p-5}
}
, {{0x1.1af3200000000p-4}
, {0x1.433dba0000000p-2}
, {0x1.2cd5500000000p-6}
}
}
, {{{-0x1.70c7de0000000p-5}
, {0x1.ebb8be0000000p-4}
, {-0x1.927b080000000p-3}
}
, {{-0x1.87ae600000000p-3}
, {0x1.82eab40000000p-3}
, {0x1.0734de0000000p-3}
}
, {{-0x1.0f609c0000000p-5}
, {0x1.c5ffc80000000p-4}
, {0x1.66ed840000000p-6}
}
}
, {{{-0x1.71e6d00000000p-2}
, {-0x1.5a81a40000000p-4}
, {-0x1.0150800000000p-6}
}
, {{-0x1.f4b5340000000p-4}
, {0x1.9f75520000000p-3}
, {0x1.70f91e0000000p-2}
}
, {{-0x1.846e8e0000000p-6}
, {0x1.a8c1ba0000000p-5}
, {-0x1.346f1e0000000p-3}
}
}
, {{{-0x1.10049a0000000p-3}
, {-0x1.ceff6e0000000p-3}
, {-0x1.64de7a0000000p-2}
}
, {{0x1.a9df1e0000000p-3}
, {0x1.a709500000000p-11}
, {0x1.c278880000000p-3}
}
, {{0x1.2fdfd00000000p-4}
, {0x1.2371ac0000000p-4}
, {0x1.09fe500000000p-3}
}
}
, {{{0x1.91411a0000000p-4}
, {0x1.3c177c0000000p-9}
, {-0x1.291b920000000p-4}
}
, {{-0x1.d265e60000000p-4}
, {0x1.d1941e0000000p-4}
, {0x1.85d7680000000p-4}
}
, {{0x1.e692da0000000p-7}
, {0x1.c6e2200000000p-3}
, {0x1.91bd420000000p-5}
}
}
, {{{0x1.5607540000000p-8}
, {0x1.4f98120000000p-3}
, {0x1.0c3fe20000000p-3}
}
, {{0x1.6b056c0000000p-4}
, {0x1.27247e0000000p-5}
, {0x1.7e2ca40000000p-5}
}
, {{-0x1.e698640000000p-3}
, {-0x1.25f7760000000p-5}
, {-0x1.f84ef40000000p-5}
}
}
, {{{0x1.8fcf920000000p-4}
, {-0x1.b3c7a40000000p-2}
, {-0x1.ddb3820000000p-3}
}
, {{-0x1.e46cb40000000p-2}
, {-0x1.ae63280000000p-4}
, {0x1.7aa73c0000000p-4}
}
, {{-0x1.5beaf20000000p-6}
, {0x1.a1bc920000000p-4}
, {0x1.75dc9e0000000p-2}
}
}
, {{{0x1.0baa140000000p-6}
, {-0x1.91cf9e0000000p-5}
, {-0x1.1208720000000p-3}
}
, {{-0x1.389ae80000000p-6}
, {0x1.30cac80000000p-3}
, {-0x1.5e2a6e0000000p-4}
}
, {{0x1.abc4d20000000p-4}
, {0x1.4a81d00000000p-3}
, {-0x1.b5b0fa0000000p-7}
}
}
, {{{-0x1.1622ea0000000p-4}
, {-0x1.969d300000000p-3}
, {-0x1.087fca0000000p-3}
}
, {{-0x1.dcdd800000000p-3}
, {-0x1.5207ca0000000p-3}
, {-0x1.3bbde20000000p-6}
}
, {{0x1.38391a0000000p-2}
, {0x1.2cb6c00000000p-2}
, {0x1.aaee000000000p-3}
}
}
, {{{-0x1.c315400000000p-4}
, {-0x1.387d4e0000000p-5}
, {-0x1.ca5b580000000p-5}
}
, {{0x1.9e192a0000000p-5}
, {0x1.7185980000000p-2}
, {0x1.f0d08a0000000p-4}
}
, {{-0x1.4b19120000000p-2}
, {0x1.906a440000000p-7}
, {0x1.b105940000000p-4}
}
}
, {{{-0x1.6298000000000p-6}
, {-0x1.2e73820000000p-2}
, {-0x1.31791e0000000p-2}
}
, {{0x1.67bad60000000p-4}
, {0x1.4acb0a0000000p-5}
, {-0x1.7ad02a0000000p-4}
}
, {{0x1.4a45d00000000p-3}
, {0x1.46e46e0000000p-3}
, {0x1.1771dc0000000p-5}
}
}
, {{{-0x1.6f26a80000000p-5}
, {0x1.24f8d40000000p-3}
, {-0x1.5a26400000000p-4}
}
, {{0x1.ecd1160000000p-4}
, {0x1.7a09d80000000p-5}
, {0x1.07117a0000000p-2}
}
, {{-0x1.7427ba0000000p-3}
, {0x1.810b900000000p-5}
, {-0x1.4731d20000000p-3}
}
}
, {{{-0x1.1c8eb20000000p-4}
, {0x1.7f7c980000000p-4}
, {-0x1.e3cf760000000p-6}
}
, {{0x1.7509860000000p-4}
, {0x1.36fb1c0000000p-3}
, {0x1.0e51520000000p-4}
}
, {{0x1.8179020000000p-5}
, {-0x1.228c460000000p-6}
, {-0x1.88f98a0000000p-6}
}
}
, {{{-0x1.063a6c0000000p-2}
, {0x1.25806c0000000p-4}
, {0x1.a1a7f20000000p-6}
}
, {{0x1.d5fca00000000p-9}
, {0x1.c856b60000000p-3}
, {-0x1.4cddfa0000000p-4}
}
, {{-0x1.9812ba0000000p-9}
, {0x1.ba54360000000p-3}
, {0x1.12510e0000000p-6}
}
}
, {{{-0x1.4df6ce0000000p-3}
, {-0x1.040b040000000p-2}
, {-0x1.9f1c880000000p-3}
}
, {{0x1.d318d80000000p-4}
, {0x1.63c54a0000000p-3}
, {0x1.01c5be0000000p-3}
}
, {{0x1.0b3ea80000000p-6}
, {0x1.c59de00000000p-5}
, {0x1.34f2ae0000000p-5}
}
}
, {{{-0x1.10858a0000000p-4}
, {0x1.cfc99c0000000p-8}
, {0x1.4599b40000000p-6}
}
, {{0x1.6b4ae60000000p-3}
, {0x1.9bb2120000000p-3}
, {0x1.4756820000000p-6}
}
, {{-0x1.1f2c100000000p-4}
, {0x1.596f420000000p-4}
, {-0x1.5f061a0000000p-3}
}
}
, {{{0x1.07568a0000000p-5}
, {-0x1.c31c720000000p-6}
, {0x1.a055720000000p-6}
}
, {{0x1.61b3d00000000p-3}
, {0x1.e324c80000000p-4}
, {0x1.3caa2e0000000p-5}
}
, {{0x1.cfb3fa0000000p-6}
, {-0x1.2d4f2e0000000p-3}
, {-0x1.ce5b620000000p-6}
}
}
, {{{-0x1.0a73520000000p-2}
, {-0x1.096a820000000p-2}
, {0x1.d2bea60000000p-8}
}
, {{-0x1.b5fdee0000000p-3}
, {-0x1.9c5fe00000000p-5}
, {0x1.dedbd80000000p-3}
}
, {{-0x1.601be20000000p-2}
, {-0x1.56b2740000000p-5}
, {0x1.44dee20000000p-2}
}
}
, {{{0x1.9077fe0000000p-6}
, {0x1.a2d90a0000000p-5}
, {0x1.4688160000000p-2}
}
, {{-0x1.eb07220000000p-4}
, {0x1.4ce3bc0000000p-3}
, {0x1.6b5d340000000p-3}
}
, {{-0x1.e02d880000000p-3}
, {-0x1.db65040000000p-2}
, {-0x1.2e5d600000000p-3}
}
}
, {{{-0x1.5b763a0000000p-4}
, {-0x1.f9d96a0000000p-6}
, {-0x1.70adca0000000p-4}
}
, {{0x1.1a41340000000p-3}
, {0x1.4568e80000000p-3}
, {0x1.323f700000000p-3}
}
, {{0x1.589fe60000000p-6}
, {0x1.30f7aa0000000p-3}
, {-0x1.dca3000000000p-3}
}
}
, {{{-0x1.30e5fe0000000p-2}
, {0x1.eeb5440000000p-6}
, {0x1.39e8b60000000p-5}
}
, {{0x1.5b24cc0000000p-5}
, {0x1.32960c0000000p-8}
, {0x1.aba9ca0000000p-3}
}
, {{-0x1.28706c0000000p-4}
, {-0x1.7d1a800000000p-3}
, {0x1.178c460000000p-3}
}
}
, {{{0x1.d0e38e0000000p-3}
, {0x1.0bfdf60000000p-2}
, {-0x1.7d9ef40000000p-5}
}
, {{0x1.00ee020000000p-5}
, {0x1.b9215a0000000p-4}
, {-0x1.40e74e0000000p-1}
}
, {{-0x1.21405c0000000p-1}
, {-0x1.04f8ec0000000p-1}
, {-0x1.3f89c40000000p-3}
}
}
}
;

#undef INPUT_CHANNELS
#undef CONV_FILTERS
#undef CONV_KERNEL_SIZE_X
#undef CONV_KERNEL_SIZE_Y
#undef CONV_GROUPS
/**
  ******************************************************************************
  * @file    conv2d.hh
  * @author  Pierre-Emmanuel Novac <penovac@unice.fr>, LEAT, CNRS, Université Côte d'Azur, France
  * @version V2.0
  * @date    14 december 2022
  * @brief   Template generating plain C code for the implementation of Convolutional Neural Networks on MCU
  */

#ifndef _CONV2D_8_H_
#define _CONV2D_8_H_

#ifndef SINGLE_FILE
#include "number.h"
#endif

#define INPUT_CHANNELS      32
#define INPUT_HEIGHT        13
#define INPUT_WIDTH         13
#define CONV_FILTERS        64
#define CONV_KERNEL_SIZE_Y  3
#define CONV_KERNEL_SIZE_X  3
#define CONV_STRIDE_Y       2
#define CONV_STRIDE_X       2

#define ZEROPADDING_TOP    0
#define ZEROPADDING_BOTTOM 0
#define ZEROPADDING_LEFT   0
#define ZEROPADDING_RIGHT  0

#define CONV_OUTHEIGHT     ( ( (INPUT_HEIGHT - CONV_KERNEL_SIZE_Y + ZEROPADDING_TOP + ZEROPADDING_BOTTOM) / CONV_STRIDE_Y ) + 1 )
#define CONV_OUTWIDTH      ( ( (INPUT_WIDTH - CONV_KERNEL_SIZE_X + ZEROPADDING_LEFT + ZEROPADDING_RIGHT) / CONV_STRIDE_X ) + 1 )


typedef float conv2d_8_output_type[CONV_OUTHEIGHT][CONV_OUTWIDTH][CONV_FILTERS];

#if 0
void conv2d_8(
  const number_t input[INPUT_HEIGHT][INPUT_WIDTH][INPUT_CHANNELS],               // IN
  const number_t kernel[CONV_FILTERS][CONV_KERNEL_SIZE_X][CONV_KERNEL_SIZE_Y][INPUT_CHANNELS], // IN

  const number_t bias[CONV_FILTERS],						                // IN

  number_t output[CONV_OUTHEIGHT][CONV_OUTWIDTH][CONV_FILTERS]);               // OUT
#endif

#undef INPUT_CHANNELS
#undef INPUT_WIDTH
#undef INPUT_HEIGHT
#undef CONV_FILTERS
#undef CONV_KERNEL_SIZE_X
#undef CONV_KERNEL_SIZE_Y
#undef CONV_STRIDE_X
#undef CONV_STRIDE_Y
#undef ZEROPADDING_TOP
#undef ZEROPADDING_BOTTOM
#undef ZEROPADDING_LEFT
#undef ZEROPADDING_RIGHT
#undef CONV_OUTWIDTH
#undef CONV_OUTHEIGHT

#endif//_CONV2D_8_H_
/**
  ******************************************************************************
  * @file    conv2d.cc
  * @author  Pierre-Emmanuel Novac <penovac@unice.fr>, LEAT, CNRS, Université Côte d'Azur, France
  * @version V2.0
  * @date    24 november 2021
  * @brief   Template generating plain C code for the implementation of Convolutional Neural Networks on MCU
  */

#ifndef SINGLE_FILE
#include "conv2d_8.h"
#include "number.h"
#endif

#ifdef WITH_CMSIS_NN
#include "arm_nnfunctions.h"
#elif defined(WITH_NMSIS_NN)
#include "riscv_nnfunctions.h"
#endif

#define INPUT_CHANNELS      32
#define INPUT_HEIGHT        13
#define INPUT_WIDTH         13
#define CONV_FILTERS        64
#define CONV_KERNEL_SIZE_Y  3
#define CONV_KERNEL_SIZE_X  3
#define CONV_STRIDE_Y       2
#define CONV_STRIDE_X       2
#define CONV_GROUPS         1
#define CHANNELS_PER_GROUP  (INPUT_CHANNELS / CONV_GROUPS)
#define FILTERS_PER_GROUP   (CONV_FILTERS / CONV_GROUPS)

#define ZEROPADDING_TOP    0
#define ZEROPADDING_BOTTOM 0
#define ZEROPADDING_LEFT   0
#define ZEROPADDING_RIGHT  0

#define CONV_OUTHEIGHT     ( ( (INPUT_HEIGHT - CONV_KERNEL_SIZE_Y + ZEROPADDING_TOP + ZEROPADDING_BOTTOM) / CONV_STRIDE_Y ) + 1 )
#define CONV_OUTWIDTH      ( ( (INPUT_WIDTH - CONV_KERNEL_SIZE_X + ZEROPADDING_LEFT + ZEROPADDING_RIGHT) / CONV_STRIDE_X ) + 1 )

#define ACTIVATION_RELU

// For fixed point quantization
#define WEIGHTS_SCALE_FACTOR 0
#define BIASES_SCALE_FACTOR 0
#define TMP_SCALE_FACTOR 0
#define INPUT_SCALE_FACTOR 0
#define OUTPUT_SCALE_FACTOR 0
#define OUTPUT_ROUND_MODE ROUND_MODE_NONE
#define NUMBER_T float
#define LONG_NUMBER_T float


static inline void conv2d_8(
  const NUMBER_T input[INPUT_HEIGHT][INPUT_WIDTH][INPUT_CHANNELS],               // IN
  const NUMBER_T kernel[CONV_FILTERS][CONV_KERNEL_SIZE_X][CONV_KERNEL_SIZE_Y][INPUT_CHANNELS / CONV_GROUPS], // IN

  const NUMBER_T bias[CONV_FILTERS],						                // IN

  NUMBER_T output[CONV_OUTHEIGHT][CONV_OUTWIDTH][CONV_FILTERS]) {               // OUT

#if !defined(WITH_CMSIS_NN) && !defined(WITH_NMSIS_NN)
  unsigned short pos_x, pos_y, z, k; 	// loop indexes for output volume
  unsigned short x, y;
  int input_x, input_y;
  LONG_NUMBER_T	kernel_mac;
  LONG_NUMBER_T tmp;
  static LONG_NUMBER_T	output_acc[CONV_OUTHEIGHT][CONV_OUTWIDTH];

  for (k = 0; k < CONV_FILTERS; k++) { 
    for (pos_y = 0; pos_y < CONV_OUTHEIGHT; pos_y++) { 
      for (pos_x = 0; pos_x < CONV_OUTWIDTH; pos_x++) { 
        output_acc[pos_y][pos_x] = 0;

        for (z = 0; z < INPUT_CHANNELS / CONV_GROUPS; z++) {
          kernel_mac = 0; 
            
          for (y = 0; y < CONV_KERNEL_SIZE_Y; y++) {
            input_y = pos_y * CONV_STRIDE_Y - ZEROPADDING_TOP + y;

            for (x = 0; x < CONV_KERNEL_SIZE_X; x++) {
              input_x = pos_x * CONV_STRIDE_X - ZEROPADDING_LEFT + x;

              if (input_x < 0 || input_x >= INPUT_WIDTH || input_y < 0 || input_y >= INPUT_HEIGHT) // ZeroPadding2D
                tmp = 0;
              else
                tmp = (LONG_NUMBER_T)input[input_y][input_x][z + (k / FILTERS_PER_GROUP) * CHANNELS_PER_GROUP] * (LONG_NUMBER_T)kernel[k][y][x][z];
              kernel_mac = kernel_mac + tmp;
            }
          }

          output_acc[pos_y][pos_x] = output_acc[pos_y][pos_x] + kernel_mac;

        }
      }
    }

    for (pos_y = 0; pos_y < CONV_OUTHEIGHT; pos_y++) { 
      for (pos_x = 0; pos_x < CONV_OUTWIDTH; pos_x++) { 
        // Scale for possible additional precision of bias
        output_acc[pos_y][pos_x] = scale(NUMBER_T, output_acc[pos_y][pos_x],  WEIGHTS_SCALE_FACTOR - TMP_SCALE_FACTOR, OUTPUT_ROUND_MODE);

        // Scale bias to match accumulator
        output_acc[pos_y][pos_x] += scale(NUMBER_T, (LONG_NUMBER_T)bias[k], BIASES_SCALE_FACTOR - TMP_SCALE_FACTOR - INPUT_SCALE_FACTOR, OUTPUT_ROUND_MODE);


#ifdef ACTIVATION_LINEAR
        output[pos_y][pos_x][k] = scale_and_clamp_to(NUMBER_T, output_acc[pos_y][pos_x], INPUT_SCALE_FACTOR + TMP_SCALE_FACTOR - OUTPUT_SCALE_FACTOR, OUTPUT_ROUND_MODE);
#elif defined(ACTIVATION_RELU) || defined(ACTIVATION_RELU6)
        // Activation function: ReLU
        if (output_acc[pos_y][pos_x] < 0) {
          output[pos_y][pos_x][k] = 0;
        } else {
#if defined(ACTIVATION_RELU6)
        if (output_acc[pos_y][pos_x] > scale(NUMBER_T, 6, -(INPUT_SCALE_FACTOR + TMP_SCALE_FACTOR), OUTPUT_ROUND_MODE)) {
          output_acc[pos_y][pos_x] = scale(NUMBER_T, 6, -(INPUT_SCALE_FACTOR + TMP_SCALE_FACTOR), OUTPUT_ROUND_MODE);
        }
#endif
          output[pos_y][pos_x][k] = scale_and_clamp_to(NUMBER_T, output_acc[pos_y][pos_x], INPUT_SCALE_FACTOR + TMP_SCALE_FACTOR - OUTPUT_SCALE_FACTOR, OUTPUT_ROUND_MODE);
        }
#else
#error "Unsupported activation function"
#endif
      }
    }
  }
#else

#if BIASES_SCALE_FACTOR > WEIGHTS_SCALE_FACTOR
#error "CMSIS-NN does not support BIASES_SCALE_FACTOR larger than WEIGHTS_SCALE_FACTOR"
#endif

#error "Data type unsupported by CMSIS-NN"

#endif
}

#undef INPUT_CHANNELS
#undef INPUT_WIDTH
#undef INPUT_HEIGHT
#undef CONV_FILTERS
#undef CONV_KERNEL_SIZE_X
#undef CONV_KERNEL_SIZE_Y
#undef CONV_STRIDE_X
#undef CONV_STRIDE_Y
#undef CONV_GROUPS
#undef CHANNELS_PER_GROUP
#undef FILTERS_PER_GROUP
#undef ZEROPADDING_TOP
#undef ZEROPADDING_BOTTOM
#undef ZEROPADDING_LEFT
#undef ZEROPADDING_RIGHT
#undef CONV_OUTWIDTH
#undef CONV_OUTHEIGHT
#undef ACTIVATION_RELU
#undef WEIGHTS_SCALE_FACTOR
#undef BIASES_SCALE_FACTOR
#undef TMP_SCALE_FACTOR
#undef INPUT_SCALE_FACTOR
#undef OUTPUT_SCALE_FACTOR
#undef NUMBER_T
#undef LONG_NUMBER_T
/**
  ******************************************************************************
  * @file    weights/conv2d.cc
  * @author  Pierre-Emmanuel Novac <penovac@unice.fr>, LEAT, CNRS, Université Côte d'Azur, France
  * @version V2.0
  * @date    24 march 2020
  * @brief   Template generating plain C code for the implementation of Convolutional Neural Networks on MCU
  */

#include <stdint.h>

#define INPUT_CHANNELS     32
#define CONV_FILTERS       64
#define CONV_KERNEL_SIZE_Y 3
#define CONV_KERNEL_SIZE_X 3
#define CONV_GROUPS        1


const float conv2d_8_bias[CONV_FILTERS] = {-0x1.6930d60000000p-5, -0x1.112bda0000000p-6, 0x1.212cda0000000p-3, -0x1.69e90e0000000p-9, 0x1.5448de0000000p-5, 0x1.259b240000000p-6, -0x1.5b76020000000p-5, -0x1.89f3be0000000p-4, 0x1.c44a600000000p-5, 0x1.21d0960000000p-5, -0x1.b915f80000000p-5, 0x1.6f64c60000000p-4, -0x1.fa41ce0000000p-5, 0x1.6e0fc80000000p-4, 0x1.313adc0000000p-4, -0x1.362e440000000p-6, 0x1.0ef6940000000p-4, -0x1.b02c720000000p-5, -0x1.141b900000000p-5, -0x1.6c19c60000000p-6, 0x1.4876b00000000p-5, -0x1.d5e0c20000000p-6, 0x1.2412980000000p-6, 0x1.37e1b20000000p-5, -0x1.a6690c0000000p-5, 0x1.158c900000000p-4, 0x1.193a220000000p-4, -0x1.e78ff40000000p-7, 0x1.9c17140000000p-5, -0x1.5b6cfc0000000p-5, 0x1.89663e0000000p-7, -0x1.32d1120000000p-4, 0x1.5704320000000p-4, 0x1.c55e220000000p-6, -0x1.03fba20000000p-7, 0x1.67a2020000000p-6, 0x1.42dd400000000p-10, 0x1.a71d080000000p-4, 0x1.27b8e80000000p-5, -0x1.2c60b80000000p-5, -0x1.08bc1e0000000p-5, 0x1.621fbe0000000p-8, -0x1.8132220000000p-5, -0x1.51d6200000000p-4, 0x1.15d3220000000p-6, -0x1.2224100000000p-6, 0x1.1a4c960000000p-8, -0x1.fd0c780000000p-4, -0x1.fff2360000000p-5, -0x1.19e4220000000p-6, 0x1.ec78540000000p-8, 0x1.17c5d20000000p-6, -0x1.524a6c0000000p-4, -0x1.918b9a0000000p-4, 0x1.0d5a600000000p-4, 0x1.3252440000000p-5, 0x1.ca65260000000p-5, 0x1.144a360000000p-4, -0x1.9419200000000p-11, -0x1.00a1040000000p-5, -0x1.81524e0000000p-8, -0x1.f811740000000p-4, -0x1.050e440000000p-4, -0x1.184a680000000p-7}
;


const float conv2d_8_kernel[CONV_FILTERS][CONV_KERNEL_SIZE_Y][CONV_KERNEL_SIZE_X][INPUT_CHANNELS / CONV_GROUPS] = {{{{0x1.54f1cc0000000p-4, 0x1.abfcb20000000p-4, -0x1.2b29120000000p-3, 0x1.b8d98a0000000p-4, -0x1.eb96920000000p-9, -0x1.6582a00000000p-5, -0x1.466cd40000000p-5, -0x1.4424840000000p-7, 0x1.4bf5360000000p-3, 0x1.0d482a0000000p-3, 0x1.e7764c0000000p-4, 0x1.b047460000000p-5, -0x1.08a6520000000p-4, 0x1.1f94c40000000p-3, -0x1.c1bd120000000p-5, -0x1.9dfd0e0000000p-5, 0x1.786fe40000000p-5, 0x1.81de940000000p-4, 0x1.58ffc20000000p-6, 0x1.146eb20000000p-3, -0x1.5527aa0000000p-7, -0x1.3052ae0000000p-5, 0x1.dd788c0000000p-5, 0x1.0ef0140000000p-4, 0x1.a8d6b60000000p-4, 0x1.57df8a0000000p-4, 0x1.9f27280000000p-5, 0x1.7c96a20000000p-3, 0x1.32d7660000000p-5, 0x1.01512a0000000p-7, 0x1.fd4ee40000000p-6, -0x1.1771fc0000000p-3}
, {-0x1.06deaa0000000p-4, 0x1.6d792a0000000p-3, -0x1.a61f380000000p-3, 0x1.6544540000000p-6, -0x1.926c020000000p-7, -0x1.e996ee0000000p-4, 0x1.53924e0000000p-7, -0x1.2426780000000p-3, 0x1.51fb3e0000000p-4, -0x1.818bfa0000000p-5, -0x1.b437120000000p-6, -0x1.3f32720000000p-10, 0x1.eaf0620000000p-5, -0x1.6a81320000000p-4, -0x1.6997e60000000p-3, -0x1.6d0f9c0000000p-4, 0x1.19cab40000000p-3, 0x1.761d360000000p-4, 0x1.005dcc0000000p-3, -0x1.572fa20000000p-3, -0x1.2faa9a0000000p-4, -0x1.185fbc0000000p-3, -0x1.2714400000000p-4, 0x1.f046c20000000p-6, -0x1.4dd3b60000000p-4, -0x1.40a3b40000000p-4, 0x1.9c71660000000p-5, 0x1.b226580000000p-3, -0x1.8468360000000p-2, -0x1.9a18380000000p-5, -0x1.6023800000000p-5, -0x1.170e040000000p-4}
, {-0x1.0c84440000000p-2, 0x1.b31c4e0000000p-4, -0x1.cef04a0000000p-3, 0x1.9344720000000p-5, -0x1.90a8820000000p-3, 0x1.bdc6a40000000p-5, -0x1.4dd6b00000000p-6, -0x1.0b594c0000000p-3, 0x1.9aa3a00000000p-5, 0x1.4899260000000p-5, 0x1.2ffda60000000p-4, -0x1.68f7700000000p-3, -0x1.a4b1aa0000000p-4, -0x1.c97c7c0000000p-4, -0x1.7ebfae0000000p-3, -0x1.77c94e0000000p-3, 0x1.5afca80000000p-4, 0x1.30e0320000000p-4, -0x1.28df900000000p-8, -0x1.3c365c0000000p-3, -0x1.0e8d460000000p-5, -0x1.cd1e7e0000000p-4, -0x1.72ff8e0000000p-3, -0x1.7bcaf60000000p-3, -0x1.17b3560000000p-3, -0x1.0df9d20000000p-4, -0x1.2d12380000000p-4, 0x1.c6997a0000000p-5, -0x1.0676ea0000000p-3, -0x1.6b859c0000000p-5, -0x1.769fba0000000p-3, 0x1.17c7f80000000p-5}
}
, {{0x1.7e1bc00000000p-5, -0x1.59c2a60000000p-5, -0x1.5303a80000000p-2, 0x1.4fdcee0000000p-3, -0x1.c971aa0000000p-5, -0x1.2132be0000000p-12, -0x1.30c85e0000000p-9, 0x1.6410d80000000p-4, -0x1.2116e40000000p-4, 0x1.34f7820000000p-3, 0x1.3882dc0000000p-5, -0x1.f0012a0000000p-5, 0x1.54f6fe0000000p-3, -0x1.aeabcc0000000p-4, 0x1.a76d440000000p-4, 0x1.1fcb9c0000000p-3, -0x1.03d5a00000000p-5, -0x1.41494a0000000p-7, 0x1.48837e0000000p-4, 0x1.0e786e0000000p-3, -0x1.ad5d740000000p-4, 0x1.4a28cc0000000p-4, -0x1.1888920000000p-5, 0x1.6c868a0000000p-4, 0x1.170d9e0000000p-5, 0x1.ed76f40000000p-5, -0x1.fa2b0e0000000p-4, 0x1.f741160000000p-4, -0x1.23dc020000000p-2, 0x1.0a22c00000000p-4, 0x1.edb9e20000000p-5, -0x1.0ef3980000000p-7}
, {-0x1.a7cbc60000000p-4, -0x1.194e180000000p-3, -0x1.66b9b00000000p-3, 0x1.1b1bf40000000p-4, -0x1.4025c00000000p-10, -0x1.2522c40000000p-7, -0x1.a789320000000p-3, -0x1.b2c1e20000000p-6, 0x1.05074e0000000p-5, -0x1.47ac960000000p-3, -0x1.0d25b40000000p-3, 0x1.1961800000000p-5, 0x1.3d9f920000000p-6, -0x1.fe70e40000000p-4, -0x1.3fbb780000000p-3, 0x1.5e50660000000p-5, 0x1.19060e0000000p-4, -0x1.9187c60000000p-5, -0x1.df335c0000000p-4, 0x1.51e12c0000000p-5, -0x1.304e760000000p-6, -0x1.2b6fbc0000000p-5, -0x1.8bc14e0000000p-5, 0x1.5b8d1c0000000p-4, -0x1.3d71ce0000000p-3, -0x1.fe06e00000000p-7, 0x1.74069c0000000p-5, 0x1.3ae38a0000000p-3, -0x1.4fffce0000000p-4, 0x1.31fcea0000000p-5, 0x1.2850b80000000p-4, 0x1.97c0e20000000p-6}
, {0x1.d09c560000000p-4, 0x1.4964540000000p-3, -0x1.3429280000000p-4, 0x1.04d6340000000p-2, 0x1.9699d40000000p-9, -0x1.c18eae0000000p-6, -0x1.2bd9aa0000000p-3, 0x1.421d120000000p-6, 0x1.606a300000000p-4, 0x1.01b3240000000p-4, 0x1.7d2c8c0000000p-4, 0x1.0f97ea0000000p-4, 0x1.055a480000000p-4, 0x1.2ffa640000000p-6, 0x1.28c4ae0000000p-7, -0x1.1fcab00000000p-3, 0x1.86c6460000000p-5, 0x1.8f7b660000000p-4, 0x1.3529b40000000p-3, 0x1.efbaa40000000p-5, 0x1.2c51ac0000000p-3, 0x1.1020060000000p-6, -0x1.4c3fd80000000p-3, -0x1.ebd83c0000000p-6, 0x1.7a00540000000p-5, -0x1.065bcc0000000p-4, -0x1.308fda0000000p-3, -0x1.ac9abc0000000p-5, -0x1.12bf840000000p-2, -0x1.c434b20000000p-6, -0x1.6842b20000000p-4, -0x1.d007580000000p-5}
}
, {{-0x1.600a060000000p-12, 0x1.a0dc380000000p-4, -0x1.04ba940000000p-5, 0x1.0fb1580000000p-6, 0x1.a9bb820000000p-5, -0x1.42cbae0000000p-6, -0x1.628df60000000p-4, 0x1.cdef140000000p-4, 0x1.11247c0000000p-5, -0x1.7848ec0000000p-5, 0x1.defd520000000p-5, 0x1.3489a00000000p-4, -0x1.53f8ec0000000p-3, -0x1.16b2760000000p-4, 0x1.4436680000000p-5, 0x1.66e5420000000p-5, -0x1.857d000000000p-6, 0x1.05b6540000000p-3, 0x1.40f3220000000p-4, -0x1.12ab7c0000000p-5, 0x1.6a56280000000p-7, -0x1.b0ce720000000p-6, 0x1.4db35c0000000p-9, 0x1.dc36520000000p-4, -0x1.af58480000000p-6, 0x1.99ee240000000p-4, -0x1.1219e40000000p-6, -0x1.ec7ea80000000p-4, -0x1.b00e000000000p-3, -0x1.05b9e40000000p-4, 0x1.1dea900000000p-9, -0x1.b189d20000000p-7}
, {-0x1.6cc32a0000000p-3, 0x1.11941e0000000p-2, -0x1.4438080000000p-3, -0x1.2f1f860000000p-5, 0x1.adf86c0000000p-4, -0x1.c8dc6a0000000p-6, -0x1.beec600000000p-4, -0x1.0504760000000p-4, 0x1.4a8a8c0000000p-5, -0x1.d421f00000000p-2, 0x1.3a6cb40000000p-4, 0x1.1eebee0000000p-3, 0x1.a61c4a0000000p-6, 0x1.0adfe60000000p-3, 0x1.5cc5e60000000p-3, 0x1.ba84c20000000p-5, 0x1.584b2e0000000p-3, 0x1.b05b1a0000000p-4, 0x1.a2f0780000000p-3, -0x1.04361c0000000p-4, 0x1.e2e3b80000000p-6, -0x1.9b80a60000000p-8, 0x1.b9dccc0000000p-5, -0x1.664b9c0000000p-5, 0x1.f2c2860000000p-5, -0x1.b135f20000000p-7, -0x1.d4b46e0000000p-5, 0x1.81bf3e0000000p-3, -0x1.b8fc480000000p-7, -0x1.ac97b40000000p-5, -0x1.494a620000000p-4, -0x1.5cad3e0000000p-2}
, {0x1.547f600000000p-3, 0x1.4105220000000p-2, 0x1.46e30e0000000p-3, -0x1.2565b00000000p-4, 0x1.0b561c0000000p-3, 0x1.3858360000000p-4, 0x1.46859e0000000p-4, 0x1.2b1a320000000p-3, 0x1.2b596c0000000p-3, -0x1.2452780000000p-2, 0x1.d9d58a0000000p-4, 0x1.3adc580000000p-5, 0x1.30e7b60000000p-4, 0x1.067a280000000p-5, 0x1.3f6dec0000000p-4, 0x1.9c2e900000000p-4, 0x1.18bf480000000p-3, 0x1.c7b3880000000p-5, 0x1.28ac5e0000000p-4, -0x1.cb98520000000p-5, 0x1.549f200000000p-3, 0x1.fcf45c0000000p-4, 0x1.3641a40000000p-4, 0x1.8575da0000000p-5, 0x1.f96fec0000000p-4, 0x1.162ed80000000p-4, 0x1.2164500000000p-4, -0x1.61ccbc0000000p-5, 0x1.313ed60000000p-3, 0x1.cea35c0000000p-5, 0x1.76cf400000000p-7, -0x1.c57ec60000000p-3}
}
}
, {{{0x1.657bf20000000p-5, 0x1.6c5e740000000p-4, -0x1.d4cb200000000p-6, 0x1.b6e8300000000p-4, 0x1.d8326a0000000p-4, 0x1.e1ae060000000p-3, 0x1.c039340000000p-8, 0x1.fb5e0e0000000p-6, 0x1.8b5d6a0000000p-4, -0x1.13af980000000p-2, 0x1.8312600000000p-3, 0x1.e6a5de0000000p-4, 0x1.46226e0000000p-4, 0x1.2f0f8c0000000p-3, 0x1.51e8440000000p-4, 0x1.d487520000000p-5, -0x1.c1df040000000p-4, 0x1.5d9e5c0000000p-4, 0x1.6c44180000000p-4, 0x1.e7ce900000000p-5, 0x1.cd6fe60000000p-6, 0x1.07bc6c0000000p-5, 0x1.d4ee640000000p-4, -0x1.825e1e0000000p-5, 0x1.00d9780000000p-3, 0x1.746b140000000p-7, -0x1.84676c0000000p-4, -0x1.7c60500000000p-3, 0x1.267a140000000p-9, 0x1.c409bc0000000p-5, 0x1.05fb400000000p-4, -0x1.11ffb00000000p-4}
, {-0x1.1c83260000000p-5, 0x1.72524a0000000p-4, 0x1.0a971e0000000p-3, 0x1.c4645c0000000p-5, 0x1.1736a00000000p-3, 0x1.cea7c80000000p-4, -0x1.d756740000000p-5, 0x1.db023a0000000p-7, 0x1.b67aee0000000p-3, -0x1.b7d11a0000000p-4, 0x1.a986960000000p-3, -0x1.e8413e0000000p-6, -0x1.cfd3000000000p-6, -0x1.d5faa00000000p-5, 0x1.42ac5e0000000p-6, -0x1.ad483c0000000p-4, -0x1.6770b80000000p-3, 0x1.22aed60000000p-5, 0x1.00af9c0000000p-5, 0x1.53bb4c0000000p-4, 0x1.87999c0000000p-4, -0x1.eb6d1c0000000p-5, 0x1.aa84500000000p-5, 0x1.b6d78c0000000p-4, 0x1.1eb6800000000p-3, 0x1.4b3ee80000000p-5, -0x1.2b1aae0000000p-4, -0x1.2f2aae0000000p-3, 0x1.955dc60000000p-3, -0x1.b7a2180000000p-5, 0x1.4f001e0000000p-4, -0x1.4d63640000000p-3}
, {-0x1.29be500000000p-3, 0x1.1bade00000000p-2, 0x1.49cff40000000p-4, 0x1.6398fc0000000p-3, 0x1.0a29940000000p-5, -0x1.3eade40000000p-6, -0x1.86301c0000000p-2, -0x1.ce91f80000000p-4, 0x1.c691020000000p-3, 0x1.4507920000000p-5, 0x1.2c55040000000p-3, -0x1.1450680000000p-4, -0x1.5185080000000p-3, 0x1.2e8aaa0000000p-3, 0x1.0ffa6a0000000p-4, -0x1.3260140000000p-2, -0x1.84d7640000000p-4, -0x1.20a29c0000000p-8, 0x1.4ef1e00000000p-3, -0x1.3a14c40000000p-3, 0x1.12f1540000000p-3, -0x1.70ae440000000p-3, -0x1.5a202c0000000p-3, -0x1.9704aa0000000p-4, 0x1.7879260000000p-8, -0x1.b6b1da0000000p-4, -0x1.27a25c0000000p-3, -0x1.4dcb920000000p-3, 0x1.51f0580000000p-3, -0x1.3d96e40000000p-4, -0x1.d0b10a0000000p-4, 0x1.0acf400000000p-5}
}
, {{-0x1.864f1a0000000p-6, 0x1.9cb17e0000000p-4, -0x1.13d9960000000p-4, -0x1.3a63480000000p-3, 0x1.8117ee0000000p-5, -0x1.e49a740000000p-3, -0x1.aa8e520000000p-3, -0x1.aa57120000000p-7, -0x1.2c966c0000000p-4, -0x1.2b09a60000000p-3, -0x1.a94bc00000000p-4, -0x1.bb96ba0000000p-4, -0x1.a17fb60000000p-5, -0x1.a723260000000p-5, -0x1.e37ece0000000p-7, 0x1.101fd20000000p-4, -0x1.e2dc1e0000000p-3, 0x1.538a8e0000000p-5, 0x1.0ccaac0000000p-3, -0x1.a12a560000000p-4, 0x1.2624ca0000000p-9, 0x1.4766800000000p-6, -0x1.b5c9bc0000000p-4, -0x1.2f8bbc0000000p-4, -0x1.bc05240000000p-5, -0x1.60e3e60000000p-3, -0x1.228bbc0000000p-3, -0x1.043d200000000p-3, 0x1.b2a2e40000000p-8, -0x1.5937860000000p-4, 0x1.8732460000000p-5, 0x1.0378fa0000000p-8}
, {-0x1.3bdbca0000000p-5, 0x1.45036a0000000p-4, 0x1.c09bea0000000p-6, 0x1.16bdec0000000p-5, -0x1.7a72040000000p-6, -0x1.bbf7300000000p-6, -0x1.5cdf140000000p-4, -0x1.d983c80000000p-7, 0x1.4c78040000000p-4, -0x1.8da04a0000000p-3, 0x1.46b99a0000000p-3, -0x1.c61e0a0000000p-6, -0x1.0b2d340000000p-8, 0x1.5b99800000000p-7, 0x1.dcb95c0000000p-5, -0x1.db3d060000000p-7, -0x1.efb91a0000000p-5, 0x1.9d3e840000000p-5, 0x1.1866f00000000p-4, -0x1.0e11900000000p-15, 0x1.5174e20000000p-3, -0x1.2c5b6c0000000p-6, -0x1.2c2a3c0000000p-13, -0x1.40015e0000000p-4, -0x1.ecc9960000000p-5, -0x1.2014820000000p-4, -0x1.1021de0000000p-6, -0x1.f5b1de0000000p-5, 0x1.4fbe8c0000000p-4, -0x1.3914460000000p-4, -0x1.12078e0000000p-4, -0x1.ba8b500000000p-2}
, {-0x1.6acb460000000p-2, 0x1.6a2d460000000p-3, -0x1.1ba0f00000000p-4, -0x1.550cae0000000p-4, 0x1.1bfee80000000p-5, 0x1.846c0e0000000p-4, -0x1.16e7300000000p-4, -0x1.284eb60000000p-5, 0x1.b919ce0000000p-5, -0x1.f761e00000000p-4, 0x1.02dee20000000p-5, 0x1.39491c0000000p-3, 0x1.0c85160000000p-4, 0x1.0f094c0000000p-4, 0x1.7285d00000000p-4, -0x1.b55eb20000000p-4, -0x1.5640980000000p-4, 0x1.b58b8e0000000p-5, 0x1.7670740000000p-3, 0x1.edac960000000p-4, 0x1.5294720000000p-3, -0x1.bba2600000000p-5, 0x1.c66c300000000p-5, -0x1.9a586c0000000p-5, 0x1.bd341e0000000p-4, -0x1.066cee0000000p-7, 0x1.df7c0a0000000p-4, -0x1.a3dfac0000000p-5, -0x1.7aa7780000000p-3, 0x1.7c8c6a0000000p-5, 0x1.63be940000000p-6, -0x1.d4a5700000000p-2}
}
, {{-0x1.2008320000000p-4, 0x1.4450320000000p-3, -0x1.47f4e60000000p-4, -0x1.6f2cc00000000p-3, 0x1.2932820000000p-5, 0x1.c107240000000p-6, 0x1.c0a1be0000000p-4, -0x1.9fdf3e0000000p-5, 0x1.9d33480000000p-6, -0x1.cad2940000000p-3, 0x1.a1a6360000000p-3, 0x1.a4e21a0000000p-4, 0x1.d77b4c0000000p-4, 0x1.4644fe0000000p-3, 0x1.49e9bc0000000p-3, -0x1.77fc160000000p-5, 0x1.8a0c420000000p-3, 0x1.6185400000000p-4, 0x1.718be60000000p-3, -0x1.7a49580000000p-6, 0x1.ab48840000000p-6, 0x1.bac7120000000p-4, 0x1.a160a80000000p-4, 0x1.2aff520000000p-5, 0x1.0ae9000000000p-4, 0x1.904c9e0000000p-4, -0x1.555b0a0000000p-5, -0x1.0ad5cc0000000p-5, -0x1.89f0460000000p-3, 0x1.1f9c080000000p-3, -0x1.2671500000000p-8, -0x1.c1f0cc0000000p-4}
, {-0x1.bd4cea0000000p-5, -0x1.3cc2aa0000000p-2, -0x1.f87c840000000p-6, 0x1.5ed8d40000000p-4, 0x1.62b4900000000p-5, -0x1.a5de3c0000000p-4, -0x1.f293800000000p-9, 0x1.298f580000000p-3, -0x1.0849ba0000000p-3, -0x1.6985a60000000p-5, -0x1.526fb40000000p-3, 0x1.17d1480000000p-4, 0x1.1ae7ce0000000p-3, -0x1.a0aeb40000000p-4, 0x1.2812c80000000p-4, 0x1.b2d7160000000p-4, -0x1.db18d20000000p-5, -0x1.4d48ac0000000p-4, -0x1.0f5c740000000p-3, 0x1.533dfc0000000p-4, -0x1.03a1440000000p-3, 0x1.2ca9860000000p-3, 0x1.1d436a0000000p-4, 0x1.4c66ec0000000p-4, 0x1.6c371e0000000p-3, 0x1.ebfd680000000p-5, 0x1.5fbcb00000000p-3, -0x1.0b846a0000000p-6, 0x1.3ab0380000000p-4, 0x1.0596740000000p-4, 0x1.c587260000000p-5, 0x1.1980000000000p-5}
, {0x1.53b2840000000p-3, 0x1.97d01a0000000p-5, 0x1.1335be0000000p-4, 0x1.2f413a0000000p-7, 0x1.80a0320000000p-4, -0x1.a11f140000000p-4, 0x1.24de740000000p-3, 0x1.867be20000000p-5, -0x1.cc2b480000000p-4, 0x1.37e34a0000000p-6, -0x1.4d9b040000000p-4, 0x1.410e640000000p-5, -0x1.c41f2e0000000p-3, -0x1.b4a22c0000000p-2, 0x1.b5502c0000000p-5, 0x1.dd5d800000000p-4, -0x1.6447ec0000000p-3, -0x1.39f8c40000000p-8, -0x1.b6ea940000000p-3, 0x1.30c7880000000p-3, -0x1.a0205c0000000p-4, -0x1.6d06460000000p-4, 0x1.e7ac2a0000000p-6, 0x1.9dee6e0000000p-7, -0x1.638d9c0000000p-3, 0x1.d357440000000p-5, 0x1.a137840000000p-4, -0x1.0afce80000000p-6, 0x1.582bae0000000p-4, 0x1.1b08020000000p-4, 0x1.048ae40000000p-3, -0x1.b9e1c80000000p-8}
}
}
, {{{-0x1.f651400000000p-9, -0x1.1752c40000000p-5, 0x1.f01c1c0000000p-5, -0x1.7f536e0000000p-3, -0x1.13fe300000000p-2, -0x1.9915040000000p-3, 0x1.468e060000000p-8, 0x1.47bc9a0000000p-6, -0x1.3c09780000000p-2, -0x1.1bd0980000000p-7, -0x1.2b607e0000000p-2, -0x1.077f400000000p-2, -0x1.991c000000000p-3, -0x1.5b1d920000000p-4, -0x1.bf56640000000p-2, 0x1.8f2ad00000000p-4, -0x1.4e43160000000p-9, -0x1.b19ff00000000p-3, -0x1.e759960000000p-4, 0x1.44c1720000000p-5, -0x1.4bf20e0000000p-2, 0x1.4330c60000000p-4, -0x1.43a19a0000000p-3, -0x1.8a27a20000000p-2, -0x1.2d01bc0000000p-2, -0x1.cc66860000000p-6, 0x1.aa61240000000p-6, -0x1.810f760000000p-4, 0x1.e2a73c0000000p-3, -0x1.4e1c9a0000000p-3, 0x1.ea28e60000000p-6, 0x1.f66bc00000000p-6}
, {0x1.2476300000000p-4, -0x1.a491ec0000000p-4, 0x1.033cfc0000000p-4, -0x1.5ae0840000000p-4, -0x1.5e426a0000000p-5, -0x1.04538c0000000p-4, -0x1.132d940000000p-3, 0x1.c305400000000p-5, -0x1.37b6120000000p-2, 0x1.6bb1880000000p-4, -0x1.37a9ac0000000p-2, -0x1.95b2120000000p-4, 0x1.d6d0320000000p-5, -0x1.6eb0520000000p-6, -0x1.7498040000000p-5, 0x1.f678fe0000000p-7, -0x1.ae454e0000000p-5, -0x1.db5e7e0000000p-3, -0x1.fe16040000000p-3, 0x1.6d569c0000000p-3, -0x1.4a432c0000000p-2, -0x1.13c12e0000000p-3, -0x1.648eba0000000p-4, 0x1.1f95900000000p-5, -0x1.a29b7a0000000p-3, -0x1.4ed48c0000000p-5, 0x1.2744100000000p-4, 0x1.82c1d40000000p-3, 0x1.995c860000000p-4, -0x1.67a2d00000000p-4, 0x1.2ce2ae0000000p-7, 0x1.da134e0000000p-4}
, {0x1.3677ba0000000p-3, 0x1.7eac720000000p-4, 0x1.2d26320000000p-4, 0x1.6381d60000000p-3, -0x1.0be5fe0000000p-5, 0x1.19be1c0000000p-4, 0x1.9c6da60000000p-4, -0x1.b452380000000p-7, 0x1.8c0ef00000000p-5, -0x1.cf74980000000p-4, -0x1.4eaa580000000p-3, 0x1.c290480000000p-6, 0x1.84e9c20000000p-3, 0x1.5056700000000p-3, 0x1.1b700e0000000p-4, 0x1.60b46a0000000p-3, 0x1.5c607c0000000p-2, -0x1.47cbe80000000p-6, 0x1.32bfc60000000p-5, 0x1.d595420000000p-6, 0x1.455a200000000p-5, 0x1.274d940000000p-3, 0x1.5956b40000000p-4, 0x1.6f79e80000000p-3, 0x1.4481740000000p-4, -0x1.497ef40000000p-5, 0x1.3d01ce0000000p-4, 0x1.85f6440000000p-2, 0x1.374e5a0000000p-5, 0x1.ab4dda0000000p-7, 0x1.a05f000000000p-3, 0x1.f2a7380000000p-4}
}
, {{-0x1.a3ff220000000p-2, 0x1.fc6a420000000p-3, -0x1.583be00000000p-4, -0x1.8c4a540000000p-4, 0x1.8b5c3c0000000p-4, 0x1.a4986a0000000p-3, -0x1.25ce0e0000000p-1, -0x1.67dcb20000000p-3, 0x1.9358100000000p-3, 0x1.c3f3aa0000000p-5, 0x1.1ae32a0000000p-2, -0x1.0b8ebc0000000p-3, -0x1.fa526e0000000p-2, 0x1.f3c71a0000000p-3, -0x1.2beaec0000000p-4, -0x1.5b1df80000000p-1, -0x1.646d040000000p-4, 0x1.f18b3a0000000p-4, 0x1.280e940000000p-3, -0x1.0c2a960000000p-3, 0x1.3f9b780000000p-2, -0x1.26cfa60000000p-1, -0x1.3320e00000000p-2, -0x1.0486200000000p-4, 0x1.cb50e40000000p-3, -0x1.31e1800000000p-3, -0x1.55d8ce0000000p-3, -0x1.c21e7c0000000p-2, -0x1.7273ba0000000p-5, -0x1.23cdd00000000p-5, -0x1.e079040000000p-2, 0x1.1b7e8e0000000p-6}
, {0x1.7d59280000000p-8, 0x1.7361b60000000p-3, 0x1.f408580000000p-3, -0x1.71f2a00000000p-2, -0x1.b52da60000000p-2, -0x1.9ac18a0000000p-2, -0x1.918b920000000p-2, -0x1.7133460000000p-1, -0x1.3f3af00000000p-4, 0x1.be72aa0000000p-4, 0x1.16877a0000000p-3, -0x1.2601fe0000000p-1, -0x1.2274cc0000000p-1, -0x1.301a960000000p-7, -0x1.9d83360000000p-2, -0x1.836ba20000000p-3, -0x1.1956a20000000p-2, -0x1.7846640000000p-3, 0x1.4bcde60000000p-3, -0x1.591cb20000000p-1, -0x1.3912640000000p-8, -0x1.a840c60000000p-2, -0x1.e7214c0000000p-2, -0x1.6aa9980000000p-2, -0x1.ba15d00000000p-3, -0x1.6e0ac00000000p-1, -0x1.40ad720000000p-1, -0x1.7b637a0000000p-2, 0x1.78a3440000000p-3, -0x1.58cd040000000p-2, -0x1.7fdaf60000000p-2, 0x1.5949be0000000p-4}
, {0x1.9cb8740000000p-3, -0x1.0830c20000000p-2, 0x1.53b6bc0000000p-2, -0x1.24a2c20000000p-1, -0x1.b4b08a0000000p-2, -0x1.4202ce0000000p-1, 0x1.47330e0000000p-4, -0x1.2c125c0000000p-3, -0x1.c948220000000p-2, -0x1.5bc5040000000p-6, -0x1.63d4060000000p-3, -0x1.1fa4c40000000p-3, 0x1.c0d0e40000000p-6, -0x1.cd95640000000p-3, -0x1.40b8320000000p-2, 0x1.1a89420000000p-3, -0x1.d9c30a0000000p-6, -0x1.0674f00000000p-1, -0x1.57f5cc0000000p-2, -0x1.d068f80000000p-5, -0x1.a251b60000000p-2, 0x1.0ffd620000000p-8, -0x1.6e3fd40000000p-3, -0x1.98f0300000000p-2, -0x1.d182ee0000000p-2, -0x1.32bf200000000p-3, -0x1.9b7afa0000000p-3, 0x1.7d18c00000000p-6, 0x1.01ac380000000p-2, -0x1.e134b80000000p-2, 0x1.7775ac0000000p-4, 0x1.d5c7480000000p-4}
}
, {{-0x1.92d2380000000p-5, -0x1.f8532a0000000p-7, 0x1.7a8bce0000000p-6, 0x1.4924c80000000p-3, 0x1.b851640000000p-9, 0x1.cbdb440000000p-7, 0x1.2d1c040000000p-4, 0x1.5ea69a0000000p-9, 0x1.c55a380000000p-8, 0x1.8dd4060000000p-3, 0x1.65620c0000000p-4, 0x1.f1d7360000000p-5, 0x1.e498580000000p-5, 0x1.8fa9840000000p-4, 0x1.78bdb40000000p-4, 0x1.ee315c0000000p-4, 0x1.a378280000000p-5, 0x1.2e830c0000000p-3, 0x1.20524c0000000p-3, 0x1.42335a0000000p-3, 0x1.a489c00000000p-11, 0x1.03a11c0000000p-2, 0x1.9220c20000000p-4, 0x1.f08e7e0000000p-4, 0x1.cb6bea0000000p-3, 0x1.bef1960000000p-4, 0x1.8b778a0000000p-4, 0x1.8460380000000p-3, 0x1.483e360000000p-3, 0x1.70a76c0000000p-3, 0x1.1853ec0000000p-3, -0x1.b065020000000p-4}
, {-0x1.fdad860000000p-2, -0x1.2e110a0000000p-3, -0x1.4e56280000000p-2, 0x1.190e1c0000000p-3, 0x1.1d051e0000000p-3, 0x1.1067060000000p-3, -0x1.f54da60000000p-4, 0x1.0408060000000p-3, 0x1.f385600000000p-5, 0x1.6c8c340000000p-3, 0x1.5653100000000p-3, 0x1.30492e0000000p-4, -0x1.9c06b60000000p-4, 0x1.aabc3a0000000p-4, -0x1.3f6fcc0000000p-6, -0x1.dc513c0000000p-2, -0x1.4350240000000p-4, 0x1.5ee5860000000p-4, -0x1.1fb5320000000p-4, 0x1.6c4ca20000000p-3, 0x1.e370d20000000p-4, 0x1.cf8e9a0000000p-7, 0x1.2635e80000000p-4, -0x1.aefdfe0000000p-4, 0x1.17a2640000000p-4, 0x1.5435fe0000000p-4, 0x1.7dad320000000p-3, 0x1.054ca20000000p-4, -0x1.5f7d360000000p-2, 0x1.4086520000000p-3, 0x1.50f6da0000000p-6, -0x1.35f5de0000000p-4}
, {-0x1.b7e3a40000000p-3, 0x1.869aca0000000p-4, -0x1.d8c24c0000000p-3, 0x1.1647280000000p-4, -0x1.3d70b60000000p-3, -0x1.0c2c560000000p-3, -0x1.17bafe0000000p-1, -0x1.e34cc40000000p-3, -0x1.204e800000000p-5, 0x1.ba29120000000p-3, 0x1.b277580000000p-6, -0x1.888c420000000p-3, -0x1.bfd0fc0000000p-2, -0x1.a8938c0000000p-4, -0x1.ed0c340000000p-3, -0x1.8b0cce0000000p-2, -0x1.7121b80000000p-3, -0x1.d116e20000000p-7, -0x1.c08ba40000000p-5, -0x1.c8c39c0000000p-3, -0x1.79a2420000000p-6, -0x1.698b5a0000000p-2, -0x1.d955d80000000p-3, -0x1.44f6b80000000p-3, -0x1.13cf1c0000000p-3, -0x1.15dfea0000000p-2, -0x1.2038dc0000000p-2, -0x1.9035be0000000p-3, -0x1.62a8d60000000p-2, -0x1.17ff940000000p-4, -0x1.44a0be0000000p-2, -0x1.2073de0000000p-4}
}
}
, {{{-0x1.d2882c0000000p-2, -0x1.0b4c040000000p-3, -0x1.a260120000000p-2, 0x1.c8aaf60000000p-3, -0x1.7b822c0000000p-3, 0x1.f1b44c0000000p-3, -0x1.7f8d480000000p-2, -0x1.19834e0000000p-2, 0x1.3d61740000000p-5, 0x1.87d67e0000000p-4, -0x1.3a8f7a0000000p-3, -0x1.de241a0000000p-4, -0x1.e2d1ce0000000p-3, 0x1.3865f80000000p-4, -0x1.41e3d60000000p-2, -0x1.17e5fc0000000p-1, 0x1.27de7c0000000p-3, -0x1.b669840000000p-3, -0x1.92d23a0000000p-4, 0x1.b971d00000000p-5, 0x1.29e5160000000p-3, -0x1.896c240000000p-2, -0x1.95c8900000000p-2, -0x1.5a82c20000000p-2, 0x1.2f1e660000000p-6, -0x1.0517260000000p-2, -0x1.c708700000000p-4, 0x1.aeee260000000p-5, -0x1.4d37840000000p-1, -0x1.e751420000000p-6, -0x1.27147c0000000p-3, 0x1.7ea0420000000p-7}
, {-0x1.ac49b40000000p-3, 0x1.c1cf960000000p-5, -0x1.3547520000000p-3, -0x1.ca6d0e0000000p-4, -0x1.8306740000000p-6, 0x1.c7d0540000000p-5, -0x1.755cb80000000p-2, -0x1.254d480000000p-2, 0x1.a41b6e0000000p-6, -0x1.bf999c0000000p-4, 0x1.54c2b80000000p-3, 0x1.c77d1e0000000p-4, 0x1.08147a0000000p-4, 0x1.2e05840000000p-3, -0x1.1491000000000p-4, -0x1.a96f120000000p-3, 0x1.431c500000000p-3, -0x1.2433800000000p-3, 0x1.be9dce0000000p-4, -0x1.6cb0cc0000000p-4, 0x1.9687fc0000000p-10, -0x1.a80d740000000p-3, 0x1.3d07840000000p-6, 0x1.5c5dd40000000p-3, 0x1.abbc240000000p-5, 0x1.ab05fe0000000p-9, -0x1.ebe2e40000000p-3, 0x1.35722c0000000p-5, -0x1.38190a0000000p-2, -0x1.071bc00000000p-3, 0x1.730dbe0000000p-5, -0x1.3a3cb20000000p-5}
, {0x1.5e8f880000000p-4, -0x1.d7dee40000000p-5, -0x1.e4d1540000000p-3, -0x1.cf5b400000000p-5, -0x1.2d35300000000p-4, -0x1.6c61660000000p-3, 0x1.43e2160000000p-6, -0x1.2bb0900000000p-3, -0x1.ffcd4c0000000p-4, -0x1.b0c8a00000000p-5, 0x1.f9bc5e0000000p-5, -0x1.4fabd40000000p-3, 0x1.31ba600000000p-4, -0x1.3c8df00000000p-3, -0x1.6fbbc40000000p-4, -0x1.9f30560000000p-7, -0x1.6846960000000p-3, -0x1.8861aa0000000p-6, -0x1.0ee6720000000p-3, 0x1.3251ca0000000p-8, -0x1.9581c00000000p-4, -0x1.7edc2a0000000p-5, 0x1.6e8d300000000p-5, -0x1.a0de7c0000000p-9, -0x1.23866e0000000p-3, 0x1.7d62b20000000p-5, 0x1.2640e00000000p-7, 0x1.a7e9a20000000p-4, -0x1.6d310a0000000p-4, 0x1.505f220000000p-6, 0x1.1c8a120000000p-6, -0x1.3aacac0000000p-4}
}
, {{-0x1.0c221e0000000p-2, -0x1.52495c0000000p-6, -0x1.b268880000000p-4, -0x1.b8ad760000000p-3, -0x1.42eb060000000p-5, 0x1.19f5aa0000000p-4, -0x1.016bb80000000p-1, -0x1.03c7260000000p-2, -0x1.224b860000000p-3, -0x1.edfcbe0000000p-4, -0x1.5287740000000p-7, -0x1.15c55c0000000p-4, 0x1.75d5da0000000p-3, 0x1.6fcdd40000000p-3, -0x1.b4f1020000000p-5, -0x1.f222860000000p-2, 0x1.4abaf20000000p-7, -0x1.9ef4140000000p-3, 0x1.e7f9620000000p-4, 0x1.6a42380000000p-5, -0x1.ef4ae60000000p-5, -0x1.687dd60000000p-2, -0x1.6380380000000p-4, 0x1.363d600000000p-8, 0x1.4db6fa0000000p-5, -0x1.1a90640000000p-3, -0x1.98f07e0000000p-3, 0x1.bc61620000000p-4, -0x1.e207120000000p-2, -0x1.9919140000000p-4, 0x1.4cf8620000000p-4, 0x1.8ce83e0000000p-3}
, {-0x1.30d8a60000000p-3, -0x1.d8762a0000000p-3, -0x1.7984220000000p-2, 0x1.d8c5ae0000000p-8, 0x1.947c760000000p-4, 0x1.a2c1680000000p-7, -0x1.82ce740000000p-4, -0x1.2849340000000p-4, -0x1.e0d2f20000000p-3, 0x1.2ef1e60000000p-4, 0x1.3d02380000000p-4, 0x1.60122a0000000p-5, 0x1.c1d2fc0000000p-4, 0x1.354f600000000p-3, 0x1.9c3c240000000p-4, -0x1.c8dbdc0000000p-7, -0x1.0ea0ae0000000p-6, -0x1.fb3f240000000p-9, 0x1.00864c0000000p-3, -0x1.bf3aa40000000p-5, 0x1.33566c0000000p-8, -0x1.aa9ff60000000p-4, -0x1.9ccb6c0000000p-6, 0x1.2637480000000p-5, 0x1.319b720000000p-4, 0x1.488d560000000p-5, -0x1.3d35000000000p-11, -0x1.30f4180000000p-5, -0x1.c762140000000p-2, 0x1.1f18600000000p-3, -0x1.c8e01e0000000p-5, 0x1.c163160000000p-5}
, {0x1.2166fc0000000p-4, -0x1.d69e6a0000000p-3, -0x1.ac346c0000000p-3, 0x1.7a75600000000p-3, -0x1.487bea0000000p-5, 0x1.dd34d00000000p-4, 0x1.7ef7060000000p-4, -0x1.c666c20000000p-5, -0x1.35e8ac0000000p-3, 0x1.0534540000000p-2, -0x1.f345e00000000p-4, -0x1.4a5c200000000p-3, -0x1.4ce45e0000000p-6, -0x1.27c0da0000000p-2, -0x1.5ac4d00000000p-3, -0x1.41ccb80000000p-6, -0x1.90b19a0000000p-3, 0x1.9e8f8e0000000p-4, -0x1.f00eb40000000p-3, -0x1.35ab360000000p-2, -0x1.9276420000000p-4, -0x1.60eafe0000000p-6, -0x1.cacb400000000p-5, 0x1.ec24700000000p-5, -0x1.406d980000000p-4, -0x1.af3cb80000000p-4, -0x1.2fade80000000p-10, -0x1.53c20a0000000p-3, -0x1.5f41560000000p-2, -0x1.1c9d1e0000000p-4, -0x1.87ebc80000000p-3, 0x1.ccbb380000000p-6}
}
, {{-0x1.482ffc0000000p-2, 0x1.407bda0000000p-2, -0x1.20df280000000p-1, -0x1.943a380000000p-2, 0x1.c8c0960000000p-5, 0x1.93476c0000000p-6, 0x1.80766c0000000p-4, 0x1.63ac800000000p-11, 0x1.09d9060000000p-3, -0x1.77935a0000000p-3, 0x1.e700da0000000p-4, 0x1.5646860000000p-5, 0x1.4b65aa0000000p-3, -0x1.9708700000000p-10, 0x1.df3d080000000p-6, -0x1.50178a0000000p-8, 0x1.9271f00000000p-2, 0x1.b16e0a0000000p-4, 0x1.9838900000000p-3, 0x1.a4652e0000000p-7, 0x1.d2bbaa0000000p-5, 0x1.6cee5a0000000p-4, 0x1.9d80ae0000000p-4, 0x1.9e987a0000000p-6, 0x1.4d04e80000000p-3, 0x1.688bcc0000000p-7, 0x1.8ee3b60000000p-5, 0x1.d0fb7a0000000p-4, -0x1.8054b00000000p-2, 0x1.6fb3120000000p-6, 0x1.2c6b440000000p-4, -0x1.a141f20000000p-2}
, {0x1.0b69560000000p-6, 0x1.e29ab00000000p-3, -0x1.da4b920000000p-3, 0x1.d3403a0000000p-5, 0x1.d1cf140000000p-6, 0x1.e444d20000000p-8, -0x1.b8bbdc0000000p-7, -0x1.c7a7520000000p-6, 0x1.72a53a0000000p-6, 0x1.9d8cd60000000p-4, 0x1.22c92c0000000p-7, -0x1.1f65ca0000000p-7, 0x1.33a07e0000000p-5, -0x1.6f1e100000000p-16, 0x1.41cafa0000000p-4, -0x1.39f9600000000p-5, 0x1.2cfb460000000p-7, 0x1.26eecc0000000p-4, 0x1.3af29a0000000p-3, -0x1.130aa60000000p-2, 0x1.a47f8c0000000p-9, -0x1.e1fc020000000p-7, -0x1.0898060000000p-7, -0x1.e51eb00000000p-4, 0x1.8852120000000p-5, -0x1.5cf2900000000p-6, 0x1.dc58c20000000p-4, -0x1.029ce40000000p-2, -0x1.a7305a0000000p-2, 0x1.6e2aec0000000p-5, -0x1.e432860000000p-5, 0x1.18050a0000000p-8}
, {0x1.ac0bfa0000000p-3, 0x1.0fffc80000000p-2, -0x1.25fea00000000p-3, 0x1.6651a20000000p-3, 0x1.6d71ac0000000p-6, 0x1.564ee20000000p-5, -0x1.aa26620000000p-5, -0x1.aa93260000000p-7, 0x1.38793e0000000p-3, 0x1.08d8b20000000p-3, 0x1.61c8ca0000000p-4, -0x1.cba7c20000000p-3, -0x1.86811a0000000p-2, 0x1.9385b40000000p-4, -0x1.83ca020000000p-4, -0x1.6d17540000000p-2, 0x1.e967220000000p-4, -0x1.7811ee0000000p-4, 0x1.9e64560000000p-4, -0x1.64edd20000000p-2, 0x1.7d73960000000p-7, -0x1.f6057c0000000p-3, -0x1.4ff40a0000000p-4, -0x1.2f69a00000000p-4, -0x1.9e63fc0000000p-5, -0x1.b113b40000000p-3, -0x1.100bf80000000p-6, -0x1.bca0360000000p-2, -0x1.6cda4a0000000p-4, -0x1.a18c180000000p-4, -0x1.9214f60000000p-2, 0x1.6956e20000000p-4}
}
}
, {{{-0x1.0e19900000000p-4, -0x1.1b64760000000p-4, -0x1.413e0a0000000p-4, 0x1.05f2a20000000p-3, -0x1.d0fd440000000p-4, -0x1.25a5c40000000p-3, -0x1.05fce20000000p-4, -0x1.2282b00000000p-6, 0x1.7befa80000000p-6, 0x1.aad4b20000000p-5, -0x1.b46ba80000000p-6, 0x1.2d243a0000000p-5, -0x1.471fcc0000000p-4, 0x1.0a02100000000p-4, 0x1.ac2eb80000000p-5, -0x1.311ae60000000p-5, 0x1.4be4c40000000p-4, -0x1.7ef22a0000000p-5, 0x1.a916b80000000p-9, 0x1.0cfb880000000p-4, -0x1.8e1f420000000p-4, -0x1.0a06de0000000p-4, 0x1.6726ce0000000p-6, 0x1.eb2d760000000p-6, -0x1.a94bd60000000p-4, -0x1.0a53660000000p-3, -0x1.40e9100000000p-3, 0x1.f9eece0000000p-4, -0x1.d91ed00000000p-5, -0x1.5b88b00000000p-5, 0x1.8c22400000000p-4, 0x1.900d980000000p-5}
, {-0x1.b500c60000000p-3, -0x1.33efba0000000p-5, -0x1.5f0a720000000p-4, 0x1.52f1600000000p-5, 0x1.6392680000000p-6, -0x1.b8d0dc0000000p-8, -0x1.698e440000000p-5, -0x1.1beb220000000p-10, 0x1.17911a0000000p-7, 0x1.2bcf740000000p-4, -0x1.9379f40000000p-4, 0x1.1ee8c60000000p-5, -0x1.a3e4000000000p-6, 0x1.44445e0000000p-7, -0x1.d1d5440000000p-5, -0x1.8f5a080000000p-4, -0x1.5ac3040000000p-5, 0x1.64ce260000000p-6, -0x1.11a3140000000p-3, 0x1.6de9980000000p-6, -0x1.26b1dc0000000p-9, -0x1.05f9900000000p-4, -0x1.76050e0000000p-8, 0x1.d0136e0000000p-4, 0x1.15ed5e0000000p-4, 0x1.1e7c600000000p-4, -0x1.78267c0000000p-5, 0x1.543a0c0000000p-3, 0x1.9667340000000p-5, 0x1.7600d60000000p-3, 0x1.012c260000000p-3, 0x1.d41b960000000p-7}
, {-0x1.b240e00000000p-2, 0x1.55a84c0000000p-8, -0x1.c82e720000000p-3, -0x1.68591c0000000p-3, 0x1.17495e0000000p-7, 0x1.cbd7b40000000p-4, -0x1.1cb4ec0000000p-3, 0x1.4a29d80000000p-6, -0x1.4ac4f40000000p-4, -0x1.038d020000000p-2, -0x1.cfce4e0000000p-4, 0x1.d4304e0000000p-7, 0x1.a6d37e0000000p-3, 0x1.3bf1d00000000p-5, -0x1.e8ba540000000p-9, -0x1.3dc0b60000000p-4, 0x1.9235680000000p-4, 0x1.4781080000000p-4, -0x1.4164520000000p-5, 0x1.df19ce0000000p-6, -0x1.394e8c0000000p-5, -0x1.2e216e0000000p-5, 0x1.ecd1f20000000p-6, -0x1.6676e80000000p-6, 0x1.96ead40000000p-5, 0x1.4f4b940000000p-5, -0x1.209bdc0000000p-3, 0x1.cbc5640000000p-5, -0x1.4796bc0000000p-3, 0x1.e2b08c0000000p-5, -0x1.01de620000000p-7, -0x1.03d7e80000000p-2}
}
, {{-0x1.a790200000000p-7, -0x1.8d797c0000000p-4, -0x1.50c2100000000p-4, 0x1.bec84e0000000p-4, -0x1.7fea480000000p-4, -0x1.4983560000000p-4, 0x1.59a1d80000000p-5, 0x1.226c980000000p-4, 0x1.9582ce0000000p-7, -0x1.941a380000000p-5, -0x1.7a42520000000p-6, -0x1.8913720000000p-9, -0x1.7d75a40000000p-3, -0x1.79a4a00000000p-4, -0x1.5e2f960000000p-4, -0x1.96302e0000000p-5, -0x1.591f560000000p-3, -0x1.2f91fc0000000p-5, -0x1.2f8d1e0000000p-3, 0x1.ad75520000000p-5, -0x1.b015f60000000p-5, 0x1.94fc900000000p-4, -0x1.d8048e0000000p-6, -0x1.c715e60000000p-4, -0x1.2a264a0000000p-3, 0x1.f019be0000000p-6, -0x1.388e880000000p-12, -0x1.0638660000000p-3, 0x1.729ffc0000000p-6, -0x1.2fde4a0000000p-5, 0x1.3151a20000000p-4, -0x1.8f740e0000000p-4}
, {-0x1.b414f20000000p-4, 0x1.e82b7e0000000p-3, 0x1.96682e0000000p-4, -0x1.2048b00000000p-5, 0x1.7441100000000p-4, 0x1.991b820000000p-3, 0x1.72be360000000p-5, 0x1.0e2e9e0000000p-3, 0x1.6d90300000000p-4, -0x1.3164620000000p-3, 0x1.572f400000000p-5, 0x1.57d4800000000p-5, 0x1.0f6ad40000000p-4, 0x1.daea380000000p-4, 0x1.ea56f60000000p-3, -0x1.c690e20000000p-8, 0x1.fbd0340000000p-4, 0x1.3cd9380000000p-3, -0x1.18bf2e0000000p-4, 0x1.a03e540000000p-4, 0x1.3378360000000p-4, 0x1.cfca700000000p-5, -0x1.e9bece0000000p-5, 0x1.1c67340000000p-4, 0x1.0168f00000000p-3, 0x1.d6f6b00000000p-5, -0x1.6ce3f00000000p-5, 0x1.04de8a0000000p-3, 0x1.3dc1740000000p-4, -0x1.11a1720000000p-8, 0x1.6080e20000000p-5, -0x1.b824320000000p-6}
, {0x1.7a72bc0000000p-3, 0x1.3369260000000p-2, 0x1.cb26f20000000p-5, -0x1.b8609a0000000p-4, 0x1.9611b00000000p-4, 0x1.76ea2c0000000p-4, 0x1.a102760000000p-3, 0x1.3281860000000p-3, 0x1.97774e0000000p-5, -0x1.64cf2c0000000p-2, 0x1.419fe80000000p-4, 0x1.3b44240000000p-3, 0x1.00eee20000000p-2, 0x1.e2a9760000000p-5, -0x1.ac8fd20000000p-8, 0x1.d1bc6e0000000p-4, 0x1.2943800000000p-3, 0x1.14310e0000000p-4, -0x1.2f21e20000000p-5, 0x1.8191000000000p-5, -0x1.f2ef040000000p-11, 0x1.eb4ba40000000p-4, 0x1.d9766e0000000p-5, 0x1.4380dc0000000p-4, 0x1.ee85780000000p-5, 0x1.e1c00a0000000p-4, 0x1.1f618e0000000p-4, 0x1.89bdb60000000p-5, 0x1.a4c0660000000p-4, 0x1.a977900000000p-5, 0x1.5ae24a0000000p-3, -0x1.77522a0000000p-5}
}
, {{0x1.e0418e0000000p-10, 0x1.c18f8e0000000p-2, 0x1.d00dbe0000000p-6, -0x1.13e1ba0000000p-5, -0x1.f7ab080000000p-2, -0x1.f3d6ce0000000p-2, -0x1.ad7c400000000p-4, -0x1.1835780000000p-2, -0x1.c1673e0000000p-4, 0x1.d264a40000000p-10, -0x1.5f58d60000000p-3, -0x1.64ace80000000p-2, -0x1.9725e80000000p-2, -0x1.e5b1320000000p-3, -0x1.d38f100000000p-3, -0x1.7106b20000000p-4, -0x1.258e5a0000000p-3, -0x1.e46daa0000000p-2, -0x1.5bd3c40000000p-3, -0x1.d6c4520000000p-3, -0x1.fc919e0000000p-3, -0x1.4d4e5e0000000p-3, -0x1.70fbf20000000p-2, -0x1.83b0960000000p-2, -0x1.902d380000000p-2, -0x1.f91df80000000p-3, -0x1.e58bcc0000000p-3, -0x1.3257380000000p-3, 0x1.6b0cf60000000p-3, -0x1.9226160000000p-2, -0x1.7837e60000000p-2, 0x1.9238260000000p-7}
, {0x1.d36dd20000000p-3, 0x1.9a97b00000000p-3, 0x1.9533400000000p-3, -0x1.9890240000000p-3, -0x1.d111f40000000p-2, -0x1.b1d2b80000000p-2, 0x1.a4834a0000000p-6, -0x1.0e7b1e0000000p-3, -0x1.96c3500000000p-4, -0x1.5e248e0000000p-4, -0x1.8775860000000p-4, -0x1.5f322e0000000p-2, -0x1.29b2080000000p-2, -0x1.b704740000000p-3, -0x1.6b46280000000p-2, 0x1.362a100000000p-5, -0x1.2654780000000p-3, -0x1.7f09640000000p-2, -0x1.e968640000000p-4, -0x1.ed20000000000p-3, -0x1.86fe160000000p-12, -0x1.0033e60000000p-3, -0x1.4b3a240000000p-2, -0x1.b43c040000000p-2, -0x1.0873160000000p-1, -0x1.837a500000000p-3, -0x1.36345c0000000p-4, -0x1.c6025a0000000p-3, 0x1.7629640000000p-3, -0x1.91f41a0000000p-2, -0x1.807cda0000000p-3, 0x1.26a5fe0000000p-5}
, {0x1.0164860000000p-3, 0x1.c0944e0000000p-2, 0x1.ce984a0000000p-3, -0x1.6b06580000000p-3, -0x1.df8ea40000000p-3, -0x1.7909c20000000p-3, 0x1.95d0ae0000000p-5, -0x1.b076a20000000p-3, -0x1.6a60100000000p-2, -0x1.5f66660000000p-4, -0x1.a384c60000000p-4, -0x1.92b9c40000000p-2, -0x1.1aa8e60000000p-3, -0x1.e55ea00000000p-3, -0x1.181a620000000p-2, -0x1.ac0b440000000p-7, -0x1.7ef9d00000000p-4, -0x1.53d1ec0000000p-2, -0x1.41f4020000000p-2, -0x1.53657e0000000p-3, -0x1.46b7880000000p-4, -0x1.1be8e40000000p-3, -0x1.447ffa0000000p-2, -0x1.5fd4f20000000p-2, -0x1.37dd380000000p-2, -0x1.e9622e0000000p-3, -0x1.93286c0000000p-3, -0x1.29ad560000000p-3, -0x1.6a7ec20000000p-5, -0x1.7834200000000p-2, -0x1.753ee00000000p-4, 0x1.431b1c0000000p-3}
}
}
, {{{0x1.66b9a00000000p-4, -0x1.ae48180000000p-3, 0x1.50094e0000000p-3, -0x1.2c71e60000000p-2, 0x1.3630e40000000p-6, 0x1.e11e520000000p-5, -0x1.2302b00000000p-4, -0x1.c21dba0000000p-4, -0x1.216af60000000p-4, 0x1.5c99d80000000p-8, -0x1.1ff0340000000p-6, -0x1.cee0140000000p-4, -0x1.81f8200000000p-4, -0x1.2e09e40000000p-5, 0x1.ca4e8c0000000p-9, 0x1.a049be0000000p-4, -0x1.0b0a220000000p-2, -0x1.07b36a0000000p-3, -0x1.03cafa0000000p-2, 0x1.d65b9e0000000p-7, 0x1.15124e0000000p-3, -0x1.0c2ef20000000p-4, -0x1.099a120000000p-5, -0x1.17252a0000000p-3, -0x1.1ef96c0000000p-3, -0x1.5f14860000000p-5, -0x1.b9b1780000000p-3, -0x1.6f93d00000000p-4, 0x1.44ddb00000000p-3, -0x1.f2d1ce0000000p-3, 0x1.4924fc0000000p-3, 0x1.5bf3620000000p-4}
, {0x1.0061780000000p-4, -0x1.1826640000000p-2, 0x1.28645c0000000p-3, -0x1.ec9d5a0000000p-2, 0x1.2f42040000000p-3, 0x1.cf017a0000000p-3, 0x1.08f3600000000p-4, 0x1.69865e0000000p-7, -0x1.07a6700000000p-6, -0x1.3f7cf00000000p-2, -0x1.4556760000000p-6, -0x1.03f6f40000000p-5, 0x1.c06efa0000000p-5, -0x1.abfc920000000p-6, 0x1.5a6ed60000000p-3, 0x1.ba930c0000000p-4, -0x1.6f08ba0000000p-3, 0x1.f991aa0000000p-4, -0x1.7be1d00000000p-3, 0x1.f19bb40000000p-6, 0x1.c07aee0000000p-4, 0x1.9cf9340000000p-5, 0x1.aba5960000000p-5, -0x1.adfc360000000p-6, 0x1.2a28b20000000p-4, -0x1.81932c0000000p-5, -0x1.27f2840000000p-3, -0x1.4630980000000p-6, 0x1.2943720000000p-3, 0x1.30afe40000000p-5, 0x1.0492640000000p-3, -0x1.23f0600000000p-5}
, {-0x1.3b1e140000000p-2, 0x1.a6e03e0000000p-5, -0x1.0600520000000p-3, -0x1.7b3fea0000000p-5, 0x1.0954c80000000p-3, 0x1.9329760000000p-3, -0x1.e2a1180000000p-4, 0x1.205c920000000p-4, 0x1.2e9e500000000p-2, -0x1.7a88e40000000p-2, 0x1.183cf80000000p-2, 0x1.80cda40000000p-3, 0x1.a6f90e0000000p-6, 0x1.5425580000000p-4, 0x1.7fe5260000000p-3, 0x1.f9f4820000000p-4, 0x1.0f0b9a0000000p-5, 0x1.188a660000000p-2, 0x1.d78c7a0000000p-4, 0x1.63e1cc0000000p-3, 0x1.edbd440000000p-3, 0x1.5da1100000000p-4, 0x1.c817f60000000p-5, 0x1.4766a60000000p-4, 0x1.b9cb700000000p-3, 0x1.67740e0000000p-4, 0x1.84ae620000000p-4, -0x1.136de00000000p-4, 0x1.c54ca00000000p-5, 0x1.2cba4a0000000p-3, 0x1.e4b9400000000p-4, -0x1.42a2460000000p-1}
}
, {{0x1.a61ab80000000p-5, 0x1.ae47d00000000p-3, -0x1.1e002e0000000p-4, -0x1.4245dc0000000p-2, -0x1.69800c0000000p-2, -0x1.a405be0000000p-3, -0x1.c9c0da0000000p-5, -0x1.7ecfa00000000p-2, -0x1.400d880000000p-4, -0x1.00d7c20000000p-2, 0x1.7a0b6c0000000p-4, -0x1.12819c0000000p-2, -0x1.9bdff80000000p-3, -0x1.03d6fc0000000p-4, -0x1.4474c40000000p-2, -0x1.fabaa40000000p-5, -0x1.1cf3240000000p-4, -0x1.5867980000000p-3, 0x1.a3bee20000000p-5, -0x1.c1d84e0000000p-3, -0x1.1948140000000p-3, -0x1.db9cc20000000p-3, -0x1.8203e80000000p-2, -0x1.3045040000000p-2, -0x1.aa45a80000000p-2, -0x1.e377dc0000000p-3, -0x1.34cf1e0000000p-2, -0x1.0383420000000p-2, 0x1.d5aa0a0000000p-4, -0x1.7bb4e20000000p-2, -0x1.b87c1c0000000p-3, -0x1.0911ee0000000p-5}
, {0x1.c817460000000p-6, 0x1.0173a80000000p-3, 0x1.9d502e0000000p-3, -0x1.1d65e80000000p-1, -0x1.5f0ad40000000p-2, -0x1.b49c1c0000000p-2, -0x1.6a95480000000p-3, -0x1.7af9980000000p-3, -0x1.4f53b20000000p-2, -0x1.0b75820000000p-3, -0x1.4e713c0000000p-1, -0x1.ee27ba0000000p-3, -0x1.1cc5e20000000p-2, -0x1.cd1df20000000p-3, -0x1.478abe0000000p-2, 0x1.7ac7a80000000p-4, -0x1.017e8e0000000p-3, -0x1.6c91c60000000p-2, -0x1.a4a7f60000000p-3, -0x1.4d80aa0000000p-4, -0x1.8852bc0000000p-3, -0x1.76f2c20000000p-5, -0x1.f0fd1e0000000p-4, -0x1.43296c0000000p-2, -0x1.f87b1c0000000p-2, -0x1.1063480000000p-2, -0x1.7ea93e0000000p-3, 0x1.14897a0000000p-4, 0x1.1762040000000p-3, -0x1.969b800000000p-2, -0x1.27a7840000000p-6, 0x1.e7b6680000000p-5}
, {-0x1.2485420000000p-4, -0x1.1d360a0000000p-3, 0x1.977fce0000000p-4, -0x1.cfab380000000p-4, 0x1.8221640000000p-5, 0x1.75733a0000000p-5, 0x1.265e340000000p-4, 0x1.21e7200000000p-3, -0x1.1132d00000000p-3, -0x1.05ca4e0000000p-1, -0x1.681e4a0000000p-2, 0x1.25a9da0000000p-3, 0x1.cf43980000000p-4, -0x1.af81060000000p-3, 0x1.bed8780000000p-4, 0x1.d0c84e0000000p-3, -0x1.1ec4ba0000000p-4, 0x1.1139aa0000000p-3, -0x1.95863e0000000p-3, 0x1.41e0040000000p-2, -0x1.459dd40000000p-3, 0x1.45717e0000000p-4, 0x1.f93e700000000p-5, 0x1.135af00000000p-3, 0x1.7e440c0000000p-6, 0x1.a51e580000000p-4, 0x1.1ecd160000000p-3, 0x1.c781c80000000p-3, 0x1.30a39e0000000p-2, 0x1.2cfaa20000000p-8, 0x1.5f9e8e0000000p-3, -0x1.e59c760000000p-2}
}
, {{-0x1.3dcb180000000p-3, 0x1.3ca4d40000000p-8, -0x1.0833000000000p-2, -0x1.f4e54e0000000p-3, -0x1.b292300000000p-6, 0x1.6948360000000p-4, -0x1.c3c6640000000p-2, -0x1.c9fdda0000000p-6, -0x1.52bd7a0000000p-4, -0x1.28047a0000000p-2, -0x1.d8a1820000000p-5, -0x1.88309a0000000p-4, 0x1.6792d20000000p-9, 0x1.5319100000000p-3, -0x1.00ef840000000p-3, -0x1.02d34c0000000p-1, 0x1.2dafde0000000p-3, -0x1.2586280000000p-5, 0x1.26eb740000000p-3, 0x1.3dbffc0000000p-4, 0x1.2b3a680000000p-3, -0x1.b82bba0000000p-4, 0x1.3aeb9a0000000p-4, 0x1.6c000e0000000p-5, 0x1.4039a60000000p-4, 0x1.d1c17e0000000p-6, -0x1.6194600000000p-4, 0x1.cf0f0c0000000p-4, -0x1.3ff61c0000000p-2, 0x1.1324240000000p-4, -0x1.16e69e0000000p-5, -0x1.64f94a0000000p-4}
, {-0x1.2c1e280000000p-3, 0x1.7470400000000p-4, -0x1.14e0480000000p-2, -0x1.05eec20000000p-2, -0x1.ead8100000000p-7, -0x1.ea6c1e0000000p-8, -0x1.c57f480000000p-2, -0x1.bf6d700000000p-3, -0x1.1830dc0000000p-4, -0x1.0170de0000000p-3, 0x1.95724a0000000p-3, -0x1.4bfed80000000p-4, -0x1.043f6e0000000p-4, 0x1.7d1dc20000000p-4, -0x1.3e23ea0000000p-4, -0x1.8889ec0000000p-3, 0x1.bf5bbc0000000p-4, 0x1.2a85b20000000p-6, 0x1.1c2d620000000p-3, -0x1.b71f960000000p-3, 0x1.9e6d540000000p-5, -0x1.15afc00000000p-2, -0x1.fad29c0000000p-7, 0x1.a56be20000000p-5, -0x1.df9a040000000p-4, -0x1.6db3280000000p-5, -0x1.9c684e0000000p-4, 0x1.0b7f000000000p-7, -0x1.4a53840000000p-2, -0x1.9315b40000000p-4, -0x1.025a180000000p-3, 0x1.e7beac0000000p-7}
, {-0x1.4026ac0000000p-4, 0x1.b3f4340000000p-4, -0x1.b9d4880000000p-4, 0x1.6ef4e00000000p-5, -0x1.5751420000000p-4, -0x1.ec63620000000p-3, 0x1.3c06580000000p-7, -0x1.e6278e0000000p-7, -0x1.6bb02c0000000p-3, -0x1.955ea40000000p-4, -0x1.cacc9a0000000p-3, -0x1.05c2f20000000p-5, 0x1.53aaf20000000p-4, -0x1.ce0dd20000000p-3, 0x1.fb68d60000000p-4, 0x1.da5b3e0000000p-4, 0x1.b7b0440000000p-4, 0x1.12a1f00000000p-8, 0x1.98bc600000000p-7, 0x1.d55b520000000p-5, -0x1.825f560000000p-3, -0x1.f6a4860000000p-6, -0x1.10054e0000000p-3, -0x1.7ac0340000000p-13, -0x1.0a30820000000p-4, 0x1.276a980000000p-4, 0x1.91a85a0000000p-6, 0x1.697af60000000p-2, -0x1.7b9d1e0000000p-5, 0x1.0db7640000000p-5, 0x1.37e34c0000000p-4, 0x1.a5710a0000000p-9}
}
}
, {{{-0x1.19ca3c0000000p-5, 0x1.2a50540000000p-4, -0x1.6255980000000p-3, 0x1.b7150a0000000p-4, 0x1.3723fc0000000p-3, 0x1.deb6760000000p-5, -0x1.0dbb400000000p-2, -0x1.32419a0000000p-6, 0x1.9e9f1a0000000p-4, 0x1.79b9e80000000p-5, 0x1.68e0dc0000000p-4, 0x1.03ac6a0000000p-7, -0x1.9fc1f80000000p-4, 0x1.77e2420000000p-7, -0x1.777bd60000000p-5, -0x1.4031960000000p-2, 0x1.5fad8c0000000p-4, 0x1.9f039e0000000p-4, 0x1.ced3800000000p-4, -0x1.de2ae80000000p-3, 0x1.ca82740000000p-5, -0x1.9ec8320000000p-3, -0x1.f86a440000000p-4, -0x1.5d81800000000p-4, 0x1.4511f80000000p-5, -0x1.efd7300000000p-3, -0x1.32b6ee0000000p-3, -0x1.834dd20000000p-7, -0x1.ea3dea0000000p-3, -0x1.15cf720000000p-4, -0x1.0e3ece0000000p-4, 0x1.0d5c1a0000000p-3}
, {-0x1.a5cf7e0000000p-3, -0x1.2a181e0000000p-10, -0x1.da459c0000000p-4, -0x1.fb46b00000000p-4, -0x1.4d259c0000000p-5, -0x1.c1b6120000000p-5, -0x1.0beeb20000000p-2, 0x1.6b07a20000000p-5, 0x1.4b96e60000000p-5, -0x1.d196680000000p-3, 0x1.b9a9700000000p-5, -0x1.8b0bc40000000p-9, -0x1.6ee4440000000p-4, 0x1.4f3aea0000000p-4, 0x1.4035740000000p-7, -0x1.d633cc0000000p-4, 0x1.a894520000000p-5, -0x1.d7b36c0000000p-6, 0x1.9468400000000p-10, -0x1.0a773e0000000p-3, 0x1.c081200000000p-6, -0x1.6f47380000000p-4, -0x1.9fd3d60000000p-4, 0x1.35d1180000000p-4, 0x1.d9e8ec0000000p-4, -0x1.74d37c0000000p-3, -0x1.151b740000000p-2, -0x1.344ff40000000p-4, -0x1.1b0adc0000000p-2, 0x1.26c1900000000p-5, -0x1.a2b3500000000p-6, -0x1.ee56f80000000p-6}
, {-0x1.43be800000000p-3, 0x1.3a86920000000p-4, -0x1.2f94580000000p-3, -0x1.44cef00000000p-6, 0x1.8c23b60000000p-4, -0x1.4c2d480000000p-6, -0x1.af669a0000000p-3, -0x1.3b00ac0000000p-3, 0x1.3af99a0000000p-3, -0x1.4de4c80000000p-7, 0x1.0919cc0000000p-3, -0x1.90425e0000000p-6, -0x1.9d35cc0000000p-4, 0x1.2384e80000000p-4, -0x1.84a2060000000p-4, -0x1.9f5f9e0000000p-2, 0x1.1e9c240000000p-3, 0x1.009ade0000000p-4, 0x1.85c3f80000000p-4, -0x1.d318360000000p-3, 0x1.3994a80000000p-3, -0x1.35ca2a0000000p-2, -0x1.2b9a9a0000000p-5, -0x1.a904160000000p-9, 0x1.c747ec0000000p-5, -0x1.417ee20000000p-2, -0x1.8750c40000000p-3, -0x1.38fd8c0000000p-4, -0x1.0f29480000000p-2, -0x1.35da0c0000000p-5, -0x1.8a62720000000p-2, -0x1.428e0c0000000p-6}
}
, {{0x1.53bd180000000p-3, 0x1.2937ae0000000p-3, 0x1.067c500000000p-6, -0x1.9d2ab00000000p-3, 0x1.3944400000000p-4, 0x1.c8f1de0000000p-5, -0x1.91b9d60000000p-8, 0x1.001a1e0000000p-6, -0x1.e393d80000000p-5, -0x1.d777b80000000p-2, -0x1.e632d00000000p-8, 0x1.883b6e0000000p-6, 0x1.27030c0000000p-4, 0x1.229c500000000p-5, 0x1.e4c0ae0000000p-5, 0x1.1941dc0000000p-3, 0x1.286c8c0000000p-7, -0x1.2f43840000000p-5, -0x1.deddec0000000p-14, 0x1.462d1e0000000p-5, 0x1.7466f60000000p-4, 0x1.ddfbb60000000p-4, 0x1.0de4e20000000p-6, -0x1.823ea60000000p-5, -0x1.399ec20000000p-5, 0x1.61720e0000000p-7, 0x1.4ae1f60000000p-4, -0x1.77a8760000000p-4, 0x1.1456a80000000p-7, 0x1.429a220000000p-3, -0x1.713f460000000p-5, -0x1.540ca60000000p-4}
, {0x1.1214280000000p-2, 0x1.0b4bdc0000000p-1, 0x1.1253500000000p-2, -0x1.4d17040000000p-4, 0x1.d3ea640000000p-4, 0x1.1452100000000p-4, 0x1.b528600000000p-4, 0x1.8a3cba0000000p-3, 0x1.31a3320000000p-3, -0x1.e063680000000p-2, 0x1.621a900000000p-3, -0x1.4b01820000000p-4, 0x1.25a7d80000000p-4, 0x1.0627520000000p-6, 0x1.fc34a40000000p-4, 0x1.2a55460000000p-3, 0x1.0b96f20000000p-4, 0x1.c033320000000p-4, 0x1.b85fe40000000p-4, 0x1.7902440000000p-6, 0x1.2f52700000000p-5, 0x1.0932b80000000p-4, 0x1.c67c060000000p-5, 0x1.5576260000000p-6, 0x1.5dcbec0000000p-3, 0x1.3564600000000p-4, -0x1.f1702e0000000p-10, 0x1.f3fc860000000p-4, 0x1.46143a0000000p-3, 0x1.5d380a0000000p-6, -0x1.6c95700000000p-8, -0x1.41e84e0000000p-6}
, {0x1.8403bc0000000p-4, 0x1.8b23f40000000p-3, 0x1.d5f8c20000000p-3, -0x1.eb7c200000000p-4, 0x1.2afdfa0000000p-3, 0x1.4027020000000p-6, 0x1.0a85160000000p-3, 0x1.2df5720000000p-3, 0x1.f1e7880000000p-5, -0x1.5fc3ce0000000p-3, 0x1.efbfaa0000000p-5, 0x1.120fd60000000p-3, 0x1.2522ae0000000p-3, 0x1.8ab1860000000p-3, 0x1.bcc9d00000000p-4, 0x1.76fdd00000000p-3, -0x1.86fe6e0000000p-10, -0x1.25f11e0000000p-4, 0x1.8d03280000000p-8, 0x1.8aed480000000p-3, 0x1.964ab20000000p-4, 0x1.3405900000000p-3, 0x1.a1d98a0000000p-4, 0x1.26e5840000000p-5, 0x1.2acc2c0000000p-3, 0x1.5a8ccc0000000p-4, -0x1.36b1ac0000000p-5, -0x1.5889180000000p-3, 0x1.178ba40000000p-3, 0x1.e0d3f40000000p-4, 0x1.744c440000000p-7, -0x1.3aaabc0000000p-3}
}
, {{0x1.c6b9080000000p-4, 0x1.a6d13c0000000p-4, -0x1.0cfde20000000p-4, 0x1.aa31ea0000000p-6, -0x1.13b3220000000p-4, -0x1.b9db880000000p-4, -0x1.5a1bd60000000p-6, 0x1.c23d760000000p-4, -0x1.4073020000000p-4, -0x1.2992ce0000000p-6, -0x1.a548740000000p-4, -0x1.2cbc420000000p-5, -0x1.3ecd500000000p-4, -0x1.166c4a0000000p-6, -0x1.8835f20000000p-6, -0x1.5ec3f60000000p-5, -0x1.927fa20000000p-11, -0x1.f0ca280000000p-5, -0x1.10c3640000000p-2, -0x1.da99280000000p-7, -0x1.605a8a0000000p-4, -0x1.513e100000000p-8, -0x1.632b8c0000000p-8, -0x1.1369740000000p-4, -0x1.72fb460000000p-6, 0x1.cefe840000000p-8, 0x1.8c01900000000p-5, 0x1.a658b60000000p-5, -0x1.1082620000000p-4, 0x1.8519d20000000p-5, -0x1.68d8040000000p-4, 0x1.5282840000000p-4}
, {0x1.c3cf360000000p-4, 0x1.8ffdb60000000p-3, 0x1.b73fe20000000p-3, -0x1.76841a0000000p-5, -0x1.c43b1e0000000p-3, -0x1.0ef05a0000000p-2, 0x1.0fe8c20000000p-5, 0x1.0443a80000000p-5, -0x1.1c5c280000000p-2, -0x1.0978920000000p-3, -0x1.1214820000000p-1, -0x1.8a9c1c0000000p-3, -0x1.601c5c0000000p-3, -0x1.d25fda0000000p-3, -0x1.34476e0000000p-2, 0x1.f296c60000000p-7, -0x1.d86f6c0000000p-3, -0x1.4686680000000p-2, -0x1.c295ce0000000p-2, -0x1.6eb5d80000000p-4, -0x1.2f202a0000000p-3, -0x1.29982c0000000p-4, -0x1.cba0ac0000000p-4, -0x1.eb9a760000000p-3, -0x1.1a660c0000000p-2, -0x1.38f06c0000000p-5, 0x1.4470980000000p-5, -0x1.4227760000000p-3, 0x1.f298e00000000p-3, -0x1.2158e00000000p-2, -0x1.8d3afa0000000p-5, 0x1.d00d1c0000000p-4}
, {-0x1.2b11e20000000p-5, 0x1.399b660000000p-2, 0x1.4f607e0000000p-3, -0x1.57da260000000p-8, -0x1.0ccf700000000p-4, -0x1.69a0560000000p-4, -0x1.f87b1e0000000p-7, -0x1.7c7fd80000000p-6, 0x1.9ea2d80000000p-4, -0x1.af66a00000000p-3, 0x1.75ece40000000p-3, -0x1.5e27f60000000p-4, -0x1.52ca680000000p-3, -0x1.5f31100000000p-4, -0x1.dca4360000000p-6, 0x1.03775c0000000p-4, -0x1.3d4ef20000000p-3, -0x1.29ae340000000p-3, -0x1.6abbc80000000p-5, -0x1.d402bc0000000p-5, 0x1.4a7b6e0000000p-4, -0x1.5c4a9a0000000p-3, -0x1.5f99600000000p-3, -0x1.d0a6840000000p-3, 0x1.682bac0000000p-4, -0x1.8d06260000000p-7, -0x1.1d34700000000p-3, 0x1.f1f1320000000p-6, 0x1.ab205e0000000p-3, -0x1.c061b60000000p-4, 0x1.c3a0a60000000p-7, 0x1.8045da0000000p-7}
}
}
, {{{0x1.8638d20000000p-3, -0x1.c598620000000p-8, -0x1.c3a3d80000000p-7, 0x1.2ec3060000000p-5, -0x1.4811ee0000000p-6, -0x1.2c8d8c0000000p-5, -0x1.4128220000000p-6, -0x1.1b54840000000p-3, 0x1.c352560000000p-4, -0x1.9674e80000000p-6, 0x1.b408ca0000000p-4, 0x1.f8e6a20000000p-4, 0x1.55817a0000000p-4, 0x1.e48dba0000000p-4, -0x1.1e46340000000p-5, 0x1.22fa060000000p-8, 0x1.fe15500000000p-3, -0x1.7bb8e20000000p-6, 0x1.fcb7180000000p-3, -0x1.4963bc0000000p-3, -0x1.2cdb6a0000000p-6, -0x1.7a9a140000000p-5, 0x1.55b4ca0000000p-8, 0x1.7800fe0000000p-5, -0x1.1cb8040000000p-5, -0x1.5777760000000p-4, 0x1.5e7a2c0000000p-5, 0x1.cf651e0000000p-3, 0x1.ca1b980000000p-4, 0x1.c3e3100000000p-6, 0x1.3f09ca0000000p-7, -0x1.5cc94a0000000p-3}
, {-0x1.d736e00000000p-6, -0x1.01ef300000000p-2, 0x1.217ea60000000p-5, 0x1.a7522e0000000p-6, 0x1.e5847c0000000p-4, 0x1.9428620000000p-3, 0x1.247a440000000p-3, 0x1.1cade20000000p-4, 0x1.457de40000000p-7, -0x1.a423f60000000p-3, -0x1.b340fe0000000p-7, 0x1.7daf580000000p-6, 0x1.68e7020000000p-6, 0x1.10d6c60000000p-5, 0x1.1e28780000000p-2, 0x1.2cf58e0000000p-3, -0x1.289f8c0000000p-2, 0x1.8a39960000000p-3, -0x1.aa4fdc0000000p-4, 0x1.4b6d020000000p-3, 0x1.5733a80000000p-4, 0x1.4565120000000p-3, 0x1.271dae0000000p-5, -0x1.3007520000000p-4, -0x1.0994d20000000p-7, 0x1.975dc80000000p-4, 0x1.9292000000000p-4, -0x1.4666ba0000000p-3, 0x1.f473e80000000p-4, 0x1.adcf680000000p-5, 0x1.4e54540000000p-4, -0x1.5e5dda0000000p-3}
, {-0x1.34bd120000000p-2, -0x1.c3ad7a0000000p-4, -0x1.6266b40000000p-3, 0x1.4edc420000000p-3, 0x1.f8aea20000000p-5, 0x1.ed56cc0000000p-3, -0x1.cb17020000000p-4, 0x1.acb8620000000p-6, 0x1.50b3a80000000p-3, 0x1.5a1c3e0000000p-5, 0x1.dd071a0000000p-4, 0x1.1782780000000p-8, -0x1.2f75dc0000000p-2, 0x1.5e3b2e0000000p-4, -0x1.2518500000000p-5, -0x1.0a85940000000p-5, -0x1.43bbae0000000p-2, 0x1.895c180000000p-3, -0x1.2f5c960000000p-3, 0x1.c5ef4a0000000p-5, 0x1.2134e40000000p-3, -0x1.cd74240000000p-5, 0x1.8b779e0000000p-8, 0x1.c0a29c0000000p-5, 0x1.7691ca0000000p-4, 0x1.418cc00000000p-4, 0x1.2190c60000000p-3, -0x1.1e09ce0000000p-3, -0x1.341e820000000p-3, 0x1.8b6e560000000p-4, -0x1.bffd7a0000000p-5, -0x1.162ae80000000p-1}
}
, {{0x1.786aa00000000p-4, -0x1.1f60ba0000000p-6, 0x1.646b920000000p-7, 0x1.0b6a9e0000000p-2, -0x1.4802cc0000000p-5, -0x1.bf5bf80000000p-3, 0x1.9c22a80000000p-4, -0x1.a3a3880000000p-7, -0x1.0d73600000000p-4, 0x1.4530840000000p-6, 0x1.1cb1440000000p-4, -0x1.6ec2220000000p-4, 0x1.08d90a0000000p-4, -0x1.04f96a0000000p-2, -0x1.c939460000000p-3, 0x1.04077e0000000p-3, -0x1.ef3a560000000p-3, -0x1.e8b3ac0000000p-6, -0x1.2393a20000000p-3, -0x1.01bf740000000p-3, -0x1.4cfb620000000p-4, -0x1.78d1980000000p-4, -0x1.21bba40000000p-4, 0x1.fe63580000000p-9, 0x1.9372240000000p-7, 0x1.90fa700000000p-5, -0x1.5b99880000000p-8, -0x1.cb5a640000000p-4, 0x1.99c0c20000000p-5, 0x1.0568da0000000p-3, -0x1.5afcc40000000p-5, 0x1.09d2920000000p-6}
, {-0x1.4b14c40000000p-4, -0x1.e56f500000000p-5, -0x1.0d179a0000000p-3, -0x1.cacaa80000000p-3, -0x1.79dcc00000000p-3, -0x1.dea5800000000p-3, -0x1.08cb040000000p-4, -0x1.4502a80000000p-4, -0x1.3d89360000000p-2, -0x1.364cd20000000p-3, -0x1.3eabe80000000p-1, -0x1.d8037c0000000p-7, -0x1.1db7bc0000000p-2, -0x1.21b4d00000000p-1, -0x1.2b5b840000000p-6, 0x1.ee3c160000000p-4, -0x1.4c836a0000000p-2, -0x1.bd20040000000p-4, -0x1.ef7af40000000p-2, 0x1.7cd4820000000p-5, -0x1.632da00000000p-2, -0x1.e68df80000000p-11, -0x1.0774e80000000p-3, -0x1.8ed48a0000000p-4, -0x1.762cac0000000p-2, -0x1.0fcb8e0000000p-2, -0x1.9b02360000000p-4, 0x1.54ae200000000p-5, -0x1.4811e00000000p-4, -0x1.b3efb20000000p-3, -0x1.40828c0000000p-5, -0x1.d4a0260000000p-4}
, {-0x1.4aa64e0000000p-1, -0x1.5c94a00000000p-2, -0x1.7d69120000000p-2, 0x1.1b5d8a0000000p-4, 0x1.25acf80000000p-3, 0x1.612a6e0000000p-3, -0x1.a3c3480000000p-4, 0x1.589dee0000000p-3, 0x1.f5ddc80000000p-4, 0x1.61035e0000000p-4, 0x1.b163f00000000p-4, 0x1.4267a60000000p-3, 0x1.da5f160000000p-6, -0x1.ac1f380000000p-4, 0x1.3d45be0000000p-3, -0x1.74e0980000000p-7, -0x1.563b240000000p-2, 0x1.df53120000000p-4, -0x1.20df300000000p-3, 0x1.4526400000000p-5, 0x1.0ae6b20000000p-3, -0x1.29e2680000000p-9, 0x1.b0f2800000000p-4, 0x1.ff331a0000000p-4, 0x1.eedd4e0000000p-5, 0x1.593db00000000p-3, 0x1.d9c52c0000000p-5, -0x1.c65fa60000000p-5, -0x1.9c673a0000000p-3, 0x1.90970e0000000p-4, -0x1.0591280000000p-5, -0x1.af91c80000000p-1}
}
, {{0x1.8aed600000000p-8, 0x1.62f9c20000000p-3, -0x1.27848a0000000p-3, 0x1.b3706c0000000p-3, 0x1.c6bb9c0000000p-8, 0x1.1364920000000p-3, -0x1.68791e0000000p-3, 0x1.7ea3080000000p-10, 0x1.e0dbae0000000p-3, 0x1.7670fe0000000p-5, 0x1.1e39980000000p-4, 0x1.1d5ede0000000p-6, -0x1.1776100000000p-8, -0x1.7a59f60000000p-6, 0x1.e31a660000000p-4, 0x1.25a46e0000000p-7, 0x1.25246c0000000p-4, 0x1.800f640000000p-3, 0x1.d4762e0000000p-4, -0x1.904dc80000000p-6, 0x1.609c9e0000000p-3, -0x1.a264380000000p-3, -0x1.5940c60000000p-3, -0x1.b845e80000000p-4, -0x1.ec5f4c0000000p-5, 0x1.8287d80000000p-7, -0x1.28cc8c0000000p-3, -0x1.7476d00000000p-4, -0x1.3034440000000p-4, -0x1.867e680000000p-4, -0x1.f3c1860000000p-4, -0x1.5304540000000p-10}
, {-0x1.92e15c0000000p-2, 0x1.d043de0000000p-4, 0x1.79fb440000000p-6, -0x1.f34d8c0000000p-2, -0x1.9460fc0000000p-8, -0x1.c6b9980000000p-4, -0x1.2e296c0000000p-2, -0x1.817e6c0000000p-4, -0x1.e434c60000000p-4, -0x1.2b5d420000000p-2, -0x1.edb6880000000p-6, -0x1.8e156e0000000p-6, 0x1.75d24a0000000p-3, -0x1.900d160000000p-4, -0x1.513e440000000p-4, -0x1.b267d20000000p-5, 0x1.7dcb3a0000000p-4, -0x1.29c1e40000000p-5, 0x1.8239740000000p-4, -0x1.22cb400000000p-3, -0x1.cd126a0000000p-4, -0x1.06501e0000000p-3, 0x1.10998e0000000p-5, -0x1.10f4ea0000000p-4, -0x1.42659a0000000p-6, -0x1.e89fde0000000p-4, -0x1.9c4adc0000000p-4, 0x1.9c3b1e0000000p-4, 0x1.796b200000000p-4, -0x1.208ea40000000p-4, -0x1.d60c740000000p-12, -0x1.ec34d40000000p-2}
, {-0x1.a3692c0000000p-4, -0x1.4fda9e0000000p-1, -0x1.ed00520000000p-4, 0x1.fc9d8c0000000p-10, 0x1.31aa440000000p-4, 0x1.d6672a0000000p-6, 0x1.3898a20000000p-3, 0x1.0117260000000p-3, -0x1.a5650e0000000p-6, -0x1.6dbe340000000p-5, -0x1.b6f8a60000000p-4, 0x1.a32f3e0000000p-3, 0x1.c4bf6e0000000p-4, -0x1.f042960000000p-3, 0x1.56dd460000000p-4, 0x1.c9f1200000000p-4, -0x1.93bbd00000000p-2, 0x1.29567a0000000p-3, -0x1.c392d60000000p-4, 0x1.53afa00000000p-3, -0x1.13a9740000000p-3, 0x1.351a160000000p-3, 0x1.25d9c80000000p-3, 0x1.8f1e360000000p-4, -0x1.1e665a0000000p-12, 0x1.9e19220000000p-5, 0x1.09e1200000000p-4, 0x1.b6fe460000000p-4, 0x1.7bbc220000000p-7, 0x1.bebe3a0000000p-9, 0x1.218fa00000000p-3, -0x1.30f1f80000000p-1}
}
}
, {{{-0x1.d5b5160000000p-6, 0x1.1e90f00000000p-3, -0x1.1bb2000000000p-2, 0x1.290be00000000p-2, 0x1.ce0e960000000p-4, 0x1.e6d1be0000000p-6, 0x1.93da920000000p-4, 0x1.a534bc0000000p-3, 0x1.308cc00000000p-4, 0x1.312ada0000000p-4, 0x1.ff76f20000000p-5, -0x1.37eaaa0000000p-5, -0x1.1712020000000p-5, 0x1.5c0bec0000000p-10, 0x1.9564dc0000000p-4, 0x1.d76af20000000p-3, 0x1.af44220000000p-4, 0x1.2431da0000000p-3, 0x1.5784ee0000000p-5, 0x1.8f49e60000000p-4, -0x1.793c2e0000000p-5, -0x1.8c13020000000p-6, 0x1.8d46660000000p-3, 0x1.0495fa0000000p-4, 0x1.1495240000000p-9, 0x1.0944e60000000p-6, 0x1.4a9d560000000p-3, 0x1.c8dd1c0000000p-3, 0x1.e2a8540000000p-6, 0x1.67db760000000p-4, -0x1.3b3cca0000000p-5, -0x1.47c9de0000000p-3}
, {-0x1.61a0b40000000p-4, -0x1.8cbd7c0000000p-9, -0x1.0dd5a40000000p-3, 0x1.524e280000000p-3, -0x1.ab44a40000000p-4, 0x1.1feee40000000p-4, -0x1.a2d1c40000000p-4, -0x1.5c7f880000000p-5, 0x1.6502700000000p-4, 0x1.6a17e80000000p-3, -0x1.bfa5c00000000p-6, -0x1.6db1580000000p-5, -0x1.3931440000000p-3, 0x1.68d9ec0000000p-4, 0x1.bfc2240000000p-4, -0x1.e99c300000000p-4, -0x1.9252f20000000p-3, 0x1.4c65ba0000000p-4, -0x1.d079480000000p-4, -0x1.61374e0000000p-3, 0x1.941cb60000000p-4, -0x1.61f46e0000000p-4, -0x1.7a7b7e0000000p-4, -0x1.8c557e0000000p-5, 0x1.9c74860000000p-6, -0x1.308d3c0000000p-4, -0x1.55f85a0000000p-6, -0x1.9f0a740000000p-2, -0x1.972d320000000p-4, -0x1.9411a80000000p-8, -0x1.4c1bb20000000p-2, -0x1.aec9b20000000p-3}
, {-0x1.06db600000000p-6, -0x1.7e1b4c0000000p-4, -0x1.966cfc0000000p-4, 0x1.ccc3880000000p-4, -0x1.fd4a440000000p-3, -0x1.badbbe0000000p-4, -0x1.23bb7a0000000p-3, -0x1.6ff5ae0000000p-3, -0x1.1a13720000000p-3, -0x1.fd2fdc0000000p-5, -0x1.198a140000000p-2, -0x1.8d7cc20000000p-3, -0x1.46f3000000000p-2, 0x1.be24b40000000p-4, -0x1.18f32c0000000p-2, -0x1.29461e0000000p-4, 0x1.025e2e0000000p-2, -0x1.5ad2620000000p-2, -0x1.f05ad40000000p-6, -0x1.1584060000000p-3, -0x1.5d33d20000000p-3, -0x1.09a9cc0000000p-2, -0x1.1ae16a0000000p-3, -0x1.2838be0000000p-3, -0x1.b522040000000p-3, -0x1.2c03f80000000p-2, -0x1.4fe1fa0000000p-4, 0x1.4afce60000000p-2, -0x1.acf7800000000p-3, -0x1.1745020000000p-2, -0x1.0152760000000p-2, 0x1.0702800000000p-8}
}
, {{0x1.4419b40000000p-5, -0x1.2b9e9a0000000p-2, -0x1.e1bdd00000000p-3, 0x1.087f1e0000000p-2, 0x1.dc637c0000000p-5, 0x1.a2c6380000000p-4, 0x1.0f76360000000p-3, 0x1.7a85620000000p-3, 0x1.60b3ea0000000p-6, 0x1.17a5600000000p-2, -0x1.e85de00000000p-6, 0x1.a59e860000000p-3, 0x1.0f0f140000000p-4, 0x1.6eb8580000000p-6, 0x1.ba42260000000p-3, -0x1.3870d60000000p-6, 0x1.6e8fd80000000p-3, 0x1.a203800000000p-3, 0x1.168dba0000000p-5, 0x1.ce8f160000000p-5, 0x1.125ade0000000p-3, 0x1.5aa7b00000000p-5, 0x1.e0cb220000000p-4, 0x1.e0d7d20000000p-3, 0x1.d59e100000000p-4, 0x1.5591500000000p-4, 0x1.651fe00000000p-3, 0x1.0c023c0000000p-1, -0x1.1f9eca0000000p-2, 0x1.10f4a60000000p-4, 0x1.979c680000000p-4, -0x1.f1d2180000000p-4}
, {-0x1.358ce00000000p-3, -0x1.a32aea0000000p-2, -0x1.25f9740000000p-3, 0x1.3fef9c0000000p-3, 0x1.3470ec0000000p-4, 0x1.8262880000000p-4, 0x1.99e92a0000000p-5, -0x1.1aa9c20000000p-4, -0x1.241c440000000p-5, 0x1.adf2a60000000p-4, -0x1.ad23100000000p-4, -0x1.bd7a9a0000000p-3, -0x1.c84bd40000000p-2, -0x1.ed911e0000000p-6, 0x1.1a8d740000000p-5, -0x1.f0a8960000000p-3, -0x1.2c1c9c0000000p-2, 0x1.263b600000000p-4, -0x1.6dc7680000000p-2, -0x1.f8c6720000000p-2, 0x1.65e0840000000p-5, -0x1.126d000000000p-3, 0x1.b884e80000000p-4, -0x1.20c5740000000p-5, -0x1.3c48680000000p-2, -0x1.0daf1c0000000p-5, -0x1.31452a0000000p-5, -0x1.3f8eaa0000000p-7, -0x1.787dc80000000p-2, 0x1.1b4caa0000000p-4, -0x1.b2c6d20000000p-2, 0x1.fceee00000000p-9}
, {0x1.be626c0000000p-5, -0x1.4298180000000p-3, 0x1.219ada0000000p-3, -0x1.61749c0000000p-3, -0x1.79c4c40000000p-5, -0x1.93d8260000000p-3, -0x1.1513d60000000p-2, -0x1.022f2c0000000p-2, -0x1.2859dc0000000p-2, -0x1.c917a00000000p-6, -0x1.8a03b60000000p-3, 0x1.0329ec0000000p-4, 0x1.0cf4cc0000000p-3, -0x1.f37e580000000p-5, 0x1.cf65c60000000p-6, -0x1.ee736e0000000p-3, 0x1.617ae00000000p-4, -0x1.19bfda0000000p-1, -0x1.f1d18e0000000p-8, 0x1.a8e7e20000000p-6, -0x1.7cab640000000p-3, -0x1.4b0e1e0000000p-4, -0x1.a22ba80000000p-4, 0x1.68e1320000000p-6, -0x1.3e16140000000p-4, -0x1.576dd20000000p-3, -0x1.cf77bc0000000p-3, 0x1.50216e0000000p-9, -0x1.1ab9420000000p-2, -0x1.1f46920000000p-2, -0x1.06c44e0000000p-5, 0x1.3085560000000p-3}
}
, {{0x1.3faff80000000p-4, -0x1.417b300000000p-1, -0x1.265b040000000p-2, 0x1.6122780000000p-5, 0x1.ddf7e00000000p-3, -0x1.59b33c0000000p-6, 0x1.40c1340000000p-3, 0x1.6ebedc0000000p-4, -0x1.55da080000000p-3, 0x1.978ba40000000p-3, -0x1.bfe4120000000p-2, 0x1.6401640000000p-5, 0x1.6a06a60000000p-3, -0x1.4a72f60000000p-1, 0x1.1c6b140000000p-3, 0x1.41af7a0000000p-4, -0x1.a8452e0000000p-2, 0x1.0be9620000000p-5, -0x1.e829f00000000p-2, 0x1.233c440000000p-8, -0x1.2f981c0000000p-2, 0x1.4f482a0000000p-3, 0x1.aa9fb20000000p-3, 0x1.57a0120000000p-3, -0x1.745d9c0000000p-4, 0x1.3361a40000000p-3, 0x1.e7b9a00000000p-5, -0x1.1388020000000p-3, -0x1.bec20e0000000p-2, 0x1.edfd6c0000000p-3, 0x1.a556e20000000p-14, 0x1.875d060000000p-4}
, {0x1.9c4f940000000p-4, -0x1.dbca680000000p-3, -0x1.b0fe960000000p-4, 0x1.9760260000000p-4, -0x1.6f8be60000000p-3, -0x1.be2f0e0000000p-5, 0x1.ec4f300000000p-5, -0x1.54e6680000000p-3, -0x1.62ee920000000p-4, 0x1.3bea740000000p-3, -0x1.353fac0000000p-2, -0x1.7de33a0000000p-2, -0x1.852e2c0000000p-2, -0x1.6f55d80000000p-4, -0x1.4aad9a0000000p-2, -0x1.d0f4220000000p-3, 0x1.fe9da20000000p-5, -0x1.fbce860000000p-4, -0x1.32e8f60000000p-3, -0x1.03126e0000000p-1, -0x1.7bad880000000p-3, -0x1.ac389e0000000p-2, -0x1.48db600000000p-2, -0x1.3d0fec0000000p-2, -0x1.17b0d00000000p-2, -0x1.92d4260000000p-3, -0x1.320b700000000p-4, 0x1.5287e40000000p-3, -0x1.08d6320000000p-1, -0x1.2e83ec0000000p-2, -0x1.1585a80000000p-3, 0x1.e761200000000p-4}
, {-0x1.28607c0000000p-4, 0x1.945e7c0000000p-3, -0x1.444e0e0000000p-3, -0x1.c91e880000000p-2, -0x1.7607440000000p-12, -0x1.085aa00000000p-5, -0x1.c92ee60000000p-5, -0x1.82026a0000000p-5, 0x1.b8ad760000000p-5, -0x1.a4ad620000000p-3, 0x1.1b96220000000p-3, 0x1.025dec0000000p-4, -0x1.d99e900000000p-8, 0x1.1137200000000p-4, 0x1.d98be40000000p-5, -0x1.4b39d80000000p-6, 0x1.1d5ba80000000p-3, -0x1.3373ca0000000p-5, 0x1.f81ee40000000p-6, 0x1.3d62540000000p-3, 0x1.b704240000000p-13, 0x1.5c62640000000p-6, -0x1.6314a00000000p-5, 0x1.4141240000000p-2, 0x1.2c200c0000000p-9, 0x1.b516180000000p-7, -0x1.595caa0000000p-4, -0x1.1bb2ce0000000p-8, -0x1.03e62a0000000p-2, -0x1.42e40c0000000p-3, -0x1.10c3600000000p-3, 0x1.84de2c0000000p-8}
}
}
, {{{0x1.11acb60000000p-5, -0x1.809b220000000p-3, 0x1.58e0e20000000p-5, 0x1.7c4f940000000p-4, 0x1.6444b60000000p-6, -0x1.e9964a0000000p-5, -0x1.ced2020000000p-4, -0x1.82237a0000000p-4, -0x1.0ed1a60000000p-5, 0x1.ed39140000000p-3, 0x1.25a5420000000p-6, -0x1.5b31b20000000p-5, -0x1.5e46000000000p-8, -0x1.27b2480000000p-4, -0x1.f371ec0000000p-5, -0x1.8454de0000000p-7, -0x1.d44d8a0000000p-4, 0x1.e1fbf80000000p-6, -0x1.7277140000000p-3, -0x1.1a216e0000000p-5, -0x1.3efe0a0000000p-4, -0x1.b445360000000p-4, 0x1.a17e420000000p-4, 0x1.20df760000000p-4, 0x1.ae98560000000p-6, -0x1.fb16580000000p-7, -0x1.c19fb80000000p-5, -0x1.f094fe0000000p-4, 0x1.185ef60000000p-10, -0x1.bd18620000000p-5, 0x1.554c180000000p-6, 0x1.a54b0e0000000p-3}
, {-0x1.4ec9960000000p-3, -0x1.cdd2500000000p-2, -0x1.0e1fc40000000p-4, 0x1.39f1d40000000p-4, -0x1.2f4d960000000p-4, -0x1.16624c0000000p-3, -0x1.5229500000000p-4, 0x1.731ab00000000p-5, -0x1.0ef0fa0000000p-2, 0x1.765bcc0000000p-3, -0x1.2ebd9c0000000p-2, -0x1.b4a3200000000p-7, 0x1.9b6c280000000p-5, -0x1.3220160000000p-3, 0x1.999d460000000p-5, 0x1.6d9cdc0000000p-5, 0x1.67542a0000000p-5, -0x1.ed92460000000p-7, -0x1.14d0520000000p-2, -0x1.445d640000000p-5, -0x1.4a2c9a0000000p-2, -0x1.5529ba0000000p-4, -0x1.a331fc0000000p-11, -0x1.4935da0000000p-4, 0x1.cce5880000000p-7, -0x1.09daca0000000p-3, 0x1.e3d8940000000p-6, 0x1.e116500000000p-4, -0x1.9970b80000000p-6, 0x1.9ccd840000000p-10, 0x1.62c85c0000000p-3, -0x1.a0df900000000p-4}
, {-0x1.308b940000000p-5, -0x1.7eb87e0000000p-5, -0x1.e68dd20000000p-5, 0x1.ce25960000000p-3, 0x1.e8cdea0000000p-4, 0x1.041b860000000p-3, -0x1.77c8180000000p-9, 0x1.fe669e0000000p-6, 0x1.6648400000000p-4, 0x1.fe35500000000p-7, -0x1.b8188a0000000p-4, 0x1.374aec0000000p-5, -0x1.5cdabc0000000p-5, -0x1.b984300000000p-6, 0x1.02282c0000000p-2, -0x1.3bb71c0000000p-5, -0x1.28a4a00000000p-3, 0x1.5cf90e0000000p-5, -0x1.26142e0000000p-4, -0x1.434e900000000p-6, 0x1.01c5420000000p-3, 0x1.599d000000000p-5, 0x1.a3befc0000000p-4, 0x1.bf05c00000000p-6, -0x1.e02b620000000p-5, 0x1.95e8f00000000p-6, -0x1.137f500000000p-3, -0x1.7fd6f60000000p-5, 0x1.ed4aee0000000p-5, 0x1.21c70e0000000p-4, 0x1.9d08960000000p-8, -0x1.a895f60000000p-7}
}
, {{0x1.41d03a0000000p-5, -0x1.758d8c0000000p-3, 0x1.4367820000000p-3, 0x1.8d77200000000p-4, -0x1.d30dd20000000p-4, -0x1.12724c0000000p-2, 0x1.5eb4e80000000p-3, -0x1.d80d920000000p-4, -0x1.5aefaa0000000p-4, 0x1.ecdcd80000000p-7, -0x1.6b49d60000000p-3, -0x1.28901a0000000p-4, -0x1.d506f80000000p-3, -0x1.eace220000000p-3, -0x1.8440e40000000p-3, 0x1.43408c0000000p-4, -0x1.da82c20000000p-4, -0x1.49ab500000000p-4, -0x1.5944de0000000p-3, -0x1.d6e3c20000000p-4, -0x1.e848100000000p-4, 0x1.38e1dc0000000p-3, 0x1.5b29240000000p-12, -0x1.a629bc0000000p-3, -0x1.651e120000000p-2, 0x1.02de380000000p-4, 0x1.35c0ea0000000p-3, -0x1.2230ee0000000p-3, 0x1.3555540000000p-4, -0x1.aef9920000000p-4, 0x1.e64a020000000p-6, -0x1.0f83b40000000p-6}
, {0x1.0eac6e0000000p-3, 0x1.930a5c0000000p-6, 0x1.db69d60000000p-4, 0x1.90ff480000000p-3, 0x1.3d951e0000000p-6, 0x1.d26b700000000p-6, 0x1.4762a20000000p-3, 0x1.39415e0000000p-5, 0x1.4aab1c0000000p-4, -0x1.83a7760000000p-2, 0x1.61812c0000000p-4, -0x1.5a9e540000000p-6, 0x1.6de5c40000000p-4, -0x1.d5cad80000000p-4, 0x1.7f99920000000p-4, 0x1.25c70c0000000p-3, 0x1.117ffc0000000p-4, -0x1.65f57a0000000p-4, -0x1.b5928a0000000p-6, 0x1.22ce4a0000000p-6, -0x1.6842600000000p-4, 0x1.a7be940000000p-4, 0x1.aa17480000000p-7, -0x1.087b9c0000000p-5, -0x1.570a1e0000000p-5, -0x1.5a1a1e0000000p-7, 0x1.a8228a0000000p-6, 0x1.e4534e0000000p-3, 0x1.2ada920000000p-3, -0x1.3c07960000000p-4, 0x1.f3cefe0000000p-5, -0x1.0a0a480000000p-2}
, {-0x1.ab17680000000p-5, 0x1.45a4000000000p-5, -0x1.940eaa0000000p-5, -0x1.025e920000000p-10, 0x1.6fe8ae0000000p-7, -0x1.8df5420000000p-5, 0x1.87c6f80000000p-5, 0x1.0337ec0000000p-3, 0x1.1347dc0000000p-9, -0x1.3cb6340000000p-4, 0x1.16a1c60000000p-5, 0x1.9388260000000p-4, -0x1.2f62d40000000p-4, -0x1.1755ca0000000p-5, 0x1.1308820000000p-7, 0x1.0d0eb60000000p-3, 0x1.8f19c60000000p-4, 0x1.4c01700000000p-4, -0x1.0747140000000p-4, 0x1.6fd3e60000000p-4, -0x1.7931480000000p-5, 0x1.73db1a0000000p-3, 0x1.9a6cf40000000p-5, 0x1.325bea0000000p-4, -0x1.deb0b80000000p-8, 0x1.4e12d60000000p-5, 0x1.8ba9fa0000000p-4, -0x1.11880c0000000p-6, 0x1.bb88440000000p-5, -0x1.56f5000000000p-5, 0x1.59f5cc0000000p-4, -0x1.11fd0c0000000p-1}
}
, {{0x1.09ab2c0000000p-5, 0x1.137c600000000p-4, -0x1.07db440000000p-5, 0x1.7f3b3e0000000p-3, -0x1.6bb0c20000000p-7, 0x1.1359740000000p-9, 0x1.18ffdc0000000p-7, -0x1.4e5a580000000p-3, -0x1.9a31ae0000000p-4, 0x1.fb26760000000p-3, 0x1.5e6b3a0000000p-3, -0x1.7a66a60000000p-3, -0x1.6d3df40000000p-3, -0x1.ca75900000000p-3, -0x1.60716c0000000p-4, -0x1.4b43040000000p-5, -0x1.637bee0000000p-3, 0x1.372ee40000000p-6, -0x1.263f720000000p-4, -0x1.f6e2160000000p-3, 0x1.e8b4360000000p-7, -0x1.0974d40000000p-5, -0x1.11669c0000000p-4, -0x1.076d480000000p-3, -0x1.fb05520000000p-6, -0x1.3fed880000000p-5, 0x1.222ce00000000p-4, -0x1.85deb40000000p-2, -0x1.82aa240000000p-4, -0x1.4b39640000000p-6, -0x1.0e99020000000p-2, -0x1.9ba5340000000p-4}
, {0x1.4515600000000p-3, -0x1.22c6c20000000p-4, 0x1.8503ee0000000p-2, -0x1.6f7ea00000000p-2, -0x1.4e14ae0000000p-2, -0x1.1bdaa20000000p-2, 0x1.ae54380000000p-5, -0x1.50a72c0000000p-4, -0x1.30bdf20000000p-3, -0x1.4b432a0000000p-3, -0x1.221c5e0000000p-1, -0x1.f75fc20000000p-4, 0x1.7bd6640000000p-4, -0x1.ff17aa0000000p-3, -0x1.6b0f7a0000000p-2, 0x1.7fa4ee0000000p-3, -0x1.42352e0000000p-3, -0x1.0a95440000000p-1, -0x1.032b060000000p-1, 0x1.62e9400000000p-4, -0x1.aefa700000000p-2, 0x1.4539900000000p-3, 0x1.43eea00000000p-6, -0x1.5543860000000p-2, -0x1.bfbeae0000000p-2, 0x1.c086580000000p-9, 0x1.9645b80000000p-9, -0x1.8cae840000000p-8, 0x1.a4bca00000000p-2, -0x1.c450a40000000p-3, 0x1.ae19120000000p-4, -0x1.6e04ec0000000p-4}
, {0x1.a794b40000000p-3, -0x1.3fa0fa0000000p-4, 0x1.b8b1a40000000p-3, -0x1.0928520000000p-3, 0x1.2ffd740000000p-4, 0x1.75795a0000000p-3, 0x1.496bca0000000p-2, 0x1.1dd0240000000p-3, 0x1.9ab0080000000p-5, -0x1.e396cc0000000p-2, 0x1.e7747c0000000p-3, 0x1.d267d00000000p-5, -0x1.7562a00000000p-5, 0x1.c9a6f40000000p-7, 0x1.0639560000000p-3, 0x1.6a846a0000000p-3, -0x1.115ff80000000p-1, -0x1.f6e4520000000p-6, -0x1.9da5a00000000p-2, 0x1.dca4be0000000p-4, 0x1.b2e4fe0000000p-5, 0x1.6e12ae0000000p-4, 0x1.0d2c1e0000000p-5, -0x1.1d44660000000p-4, 0x1.8930ba0000000p-3, 0x1.e8c90a0000000p-5, 0x1.707a640000000p-4, -0x1.7044ae0000000p-3, 0x1.369e360000000p-2, 0x1.6e8d520000000p-6, 0x1.65d9820000000p-4, -0x1.9e50e80000000p-5}
}
}
, {{{-0x1.0730d00000000p-2, -0x1.d831960000000p-4, -0x1.75287c0000000p-3, 0x1.e516b60000000p-5, 0x1.69e7a00000000p-4, 0x1.0456800000000p-4, 0x1.90eaa00000000p-9, 0x1.6fc9080000000p-5, 0x1.aba8f60000000p-4, -0x1.495f1a0000000p-5, 0x1.5d1dd60000000p-6, 0x1.0caf800000000p-3, 0x1.b77a220000000p-5, -0x1.c46ac20000000p-6, 0x1.28c3fe0000000p-3, 0x1.8b33720000000p-4, -0x1.c908580000000p-4, -0x1.64b78a0000000p-5, 0x1.c8d8e00000000p-6, 0x1.1544540000000p-4, 0x1.bd2e620000000p-4, 0x1.4ed0060000000p-4, -0x1.4d424c0000000p-6, 0x1.37a6d80000000p-3, 0x1.878a3c0000000p-5, 0x1.2f5f040000000p-5, 0x1.5ee8420000000p-7, -0x1.a4aa3a0000000p-5, -0x1.77722c0000000p-3, 0x1.1854ea0000000p-4, -0x1.3f00f80000000p-3, -0x1.3c0df40000000p-3}
, {-0x1.d68e360000000p-8, 0x1.947d320000000p-3, -0x1.10c2d00000000p-3, 0x1.a1db4e0000000p-5, -0x1.0edbc00000000p-2, -0x1.c01c360000000p-4, -0x1.3dc5040000000p-3, -0x1.b2830e0000000p-3, 0x1.31c5380000000p-5, 0x1.a7fa900000000p-4, 0x1.a2a9900000000p-4, -0x1.27f95c0000000p-2, -0x1.e8aaa20000000p-5, 0x1.61c7fa0000000p-7, -0x1.238bc20000000p-3, -0x1.b140e40000000p-3, 0x1.3e39f80000000p-2, -0x1.054b0e0000000p-3, 0x1.2ae7e80000000p-3, -0x1.8994860000000p-8, 0x1.fa11120000000p-5, -0x1.086a7c0000000p-2, -0x1.02102c0000000p-2, -0x1.60cb560000000p-3, -0x1.82f5400000000p-5, -0x1.16878e0000000p-2, -0x1.86b0160000000p-4, 0x1.52ba180000000p-4, -0x1.2d97f80000000p-2, -0x1.7998040000000p-3, -0x1.ef7ff20000000p-4, 0x1.b0397a0000000p-7}
, {-0x1.49288e0000000p-4, -0x1.cb8ea80000000p-4, -0x1.e8ce200000000p-5, -0x1.23f8b00000000p-5, -0x1.7812f40000000p-3, -0x1.5ce8ac0000000p-2, -0x1.e7b30a0000000p-3, -0x1.0e684e0000000p-3, -0x1.5f19c00000000p-3, -0x1.755f660000000p-3, -0x1.3b70000000000p-4, -0x1.b481280000000p-5, 0x1.c73d480000000p-6, -0x1.708b8e0000000p-3, -0x1.c6ebc80000000p-4, -0x1.0e863c0000000p-5, 0x1.4ab2320000000p-3, -0x1.137be80000000p-4, -0x1.840ef20000000p-5, -0x1.89e1960000000p-5, -0x1.251d840000000p-2, -0x1.f8453e0000000p-5, -0x1.f3845e0000000p-3, -0x1.7f07b20000000p-4, -0x1.6262c60000000p-4, -0x1.c94ec60000000p-4, -0x1.876f2a0000000p-5, 0x1.c3395a0000000p-5, -0x1.7c8f520000000p-3, -0x1.462a860000000p-4, 0x1.0906780000000p-4, -0x1.d71bbe0000000p-5}
}
